9607
f38f
429f
3588
30b9
3f22
7984
c9f5
3904
fa59
8507
9c30
ea92
faf5
6221
d446
a36e
2ec9
8414
254a
43df
0acc
e320
93ce
17e0
83b2
eefa
3df5
163c
1d12
3f9d
5746
f300
95eb
b64f
4796
5ba9
0517
413f
e883
6aa1
92c6
34ea
4e63
aeeb
80e2
c4ea
9f8c
3113
3e42
4042
64d1
1dda
2b69
4336
36ec
fcf4
7b4d
0b6e
1b9c
3145
a176
7dad
f50a
a824
0c04
bf6d
9303
01d0
b94d
d958
aec0
6555
8d1d
b1e9
fc7c
7b28
57fe
8076
dead
96d1
399f
8548
1b35
85ef
dbce
33b0
ab36
be8c
0f42
d1fb
2c2c
2096
17f4
5027
3efa
519b
66fb
97d5
4997
9d0a
9adc
caba
65f5
5697
9fb3
9c15
7cb6
f83e
452d
3dbd
c418
4a62
015e
2d0c
213b
d1d0
0168
6fcf
b5c0
1f82
95a3
9652
80a2
7594
718e
0b01
bd20
bdb8
c656
0430
20c7
c4e6
1f9d
0a09
b6bf
4111
67c2
e7c9
28c5
dda5
5812
e187
d2c1
feb6
3c22
2347
fc43
8880
4892
9430
fe8a
ed9d
3141
514f
cd7b
e2f0
1ec3
7dc1
d0ff
cbf4
8464
4079
68b7
db05
8892
287c
c39d
b5d8
1aac
7b3b
2699
2a7c
87c5
9ce6
689b
770e
4002
30fa
bca5
364b
08c6
0671
771f
6d80
c168
198b
2d61
6d7f
2ab4
13d2
9e8b
025c
680b
a867
64ff
604f
8f8f
a691
7c4d
aca9
088a
b354
619e
f7c0
ab21
b221
ace5
a7b6
c9dd
ca4a
2ede
c45e
57bd
098b
6a0b
0421
fa53
8b0d
9fbb
8aef
cd13
d44b
62cd
b8cc
c6d8
65d4
6a72
79c4
f578
53b0
bf0c
84cb
ea82
4eb5
5ffd
1dc9
7212
535a
dec2
5f22
223a
9011
f394
8091
c64a
c70f
a658
fb57
ae28
7d5a
61f0
2baa
fc01
2bf1
9800
5da3
2166
fd48
4391
dbae
804a
6284
967a
9a74
b0f0
bd50
61d7
5a2d
adf8
fcab
607b
a8b7
5fff
50d1
5584
c335
0a56
725b
e1f0
ae2d
d603
7b62
6be2
4cb5
8405
0d51
77be
f7b5
ade6
69c0
fa03
0659
0ec0
8b5f
0e22
1ee6
0fa9
39b5
8c97
01fa
6e0b
d3f6
11ea
6d6f
a28c
9ba3
e117
d73f
95e7
0e7e
a3de
d4c1
1e8d
f310
8684
c320
dd48
019f
01fa
75a4
ac31
ff9e
dbd2
12a2
4d1f
18bd
f6aa
e43a
3eef
3774
4611
8837
9331
7348
b46b
b842
36ce
096b
4f38
4645
0e2c
c888
19ce
bdb6
8880
d610
2c0e
ba7f
31a2
fcb6
0296
f6e1
7e80
e708
9a0c
4fc0
9ffe
1fa6
cbd7
2c84
d54c
0a16
4de0
b457
420b
759e
8c63
6080
dd06
1636
44b0
84d5
9f35
f00e
8108
eaad
1474
80f5
d793
4c28
8dbb
baad
77b0
ea90
8981
c819
35e3
99ac
8cd2
51e8
9ad7
2ff6
c581
77b0
1405
1397
3e1f
6c43
c288
7b17
bdfd
4f53
a9df
95c5
61e9
1b6e
f128
17c2
7642
2f57
91a0
77a6
80b5
328e
19b4
a60c
a293
c390
21a3
b243
a848
cb38
01f9
f0e2
c786
d8a4
8e7f
5e2d
9af2
362f
95da
f3f3
fd2d
a2c6
0c13
e658
cc36
953f
1323
0416
8921
ecd5
d3cb
4c32
61f3
53ff
ff29
9a92
5a0e
4faa
f137
6e6e
8f1c
f8d4
4cdd
3d4e
4e3f
bf0b
5587
2011
6032
1c4d
dde1
75a0
76df
c7ee
51d7
f6e3
83d7
840e
755e
cc31
c8be
a195
aef7
b81a
3548
e9eb
8767
8cc3
73d5
299d
e3f6
2860
31c2
617b
b654
ef3c
1503
0fbf
0262
b096
4b63
57e8
a78a
4ce8
edd3
74c6
f471
e96e
b01c
4146
5d3c
d392
23df
3bce
5c89
b58b
77d9
8b87
8728
6720
42ff
0150
18fd
7ba9
73b7
b6fa
cffa
1282
bda7
a2be
0309
f6db
6126
3eee
1e34
b8ee
4112
4ba8
9d03
87fa
5a3e
3e0f
52e3
1a7b
dc66
2bc1
c5c7
10cd
89ba
0e7a
550a
bf8a
89b6
a50b
27db
a5d9
caee
40be
c7f2
9cc5
68fa
38c4
bc51
6408
6bc4
a4f2
2f2e
d0d3
2f2f
b44b
476c
ecb9
fb43
03bd
fae5
fbee
88b5
0bbe
4e4d
5d2c
e403
c01a
8ea3
1564
ae7b
83d3
fed2
424e
23bb
8f38
6da2
a0a1
f4a1
664f
9557
9ba2
65af
8818
d154
2f8d
c0f8
f8b5
2f88
78b2
f4f4
0aae
da45
4fc7
d3ad
dccd
bb15
7a9a
cd69
e430
c307
f3cb
8cc2
ef20
7bf1
2bb4
9300
8411
0915
b167
fd64
b3b8
3fcd
0627
910b
cd74
e6ee
b8bb
95a8
b5ab
72c7
e225
684f
0ac8
85ff
a10e
3612
cd3a
977e
8a76
2924
3fc5
fc25
2327
4d1d
bcbb
363b
8aa9
3df7
aa91
9526
fade
a41f
a2a4
7fb0
2cb5
b029
a6ab
514d
1519
c3d9
a37a
3236
b35f
b829
7af8
62b5
7974
1f22
5e55
41e5
27fb
7484
6d9b
6c20
e1f4
cdb6
74e6
cc5a
dfba
4ad0
3e1a
1e55
c3f7
dbc2
2e82
a2ac
8f1e
e35c
9162
cdc3
1157
f153
6301
bbd8
2752
dc85
ada0
3d22
f4e6
bf27
9ca5
b59c
b3cc
b8bd
f92f
13f1
205f
b844
4403
f238
4411
d3c1
6a0b
a901
456b
d959
af03
7c20
f6fd
b167
6288
6a56
6ec8
3282
9877
fb96
80c0
417d
eafd
1a8a
878b
088c
b7fe
dec6
7ce4
39e1
e62a
34e3
0357
7890
5ec3
8c69
ab1e
2c87
e200
65f9
fc93
9a81
3809
be9e
6552
c6e5
1b2b
b8d5
e785
2512
dc5d
ec7f
6959
3633
b1ed
cb09
fd6c
d196
c18e
8919
456e
5fc3
2df9
ecd5
cca0
8f66
debb
a58e
1a54
ef69
0e91
3cba
3506
e2cb
15a6
3d7a
602a
f469
def9
30fc
fee4
03e3
825a
0361
dbf1
955b
2fb4
aa74
46c5
18e1
ad70
3dcb
ba4b
b5b3
9f7a
7231
a999
a9a0
343a
f7a1
aa9a
c717
7687
3696
7a8b
734d
2267
d23d
b243
f258
24b5
f309
95de
390a
3a2c
3e03
2d9f
5e8b
6cb2
6c2e
5a8a
01b7
e059
c65a
6eb0
95d8
0e6c
d995
85e7
266f
8166
e267
c0bb
e834
6e57
4a2c
e54f
3ce9
a494
955a
1f9b
eaab
ebb2
d395
31eb
8a72
7763
ae28
e187
f4a7
01ab
2cd9
df7e
844b
9c8d
9b75
d1da
2c8a
cb39
9462
c3f3
bec6
ecaa
0519
c09c
eaee
262c
70a7
8918
be73
f5c8
1278
da69
e2cc
880a
00fe
0f8c
900c
ad4b
e074
5144
b1ba
3065
aede
dd41
f8e5
c9bc
244d
01c8
d379
5d4d
c725
e2cc
4ba2
331d
79ee
c7f0
5242
798e
4945
b8d4
8ef1
e647
baaf
7b92
8df2
1dac
e3b7
e50d
f2ef
51e2
8b5d
b508
5ae7
92bb
950d
aaab
f7e9
6725
b0f1
8ea7
4052
bc35
f734
e66e
42ca
b974
8359
a2a2
24e1
8e97
621e
9781
902b
7803
45d2
0a6a
99c6
cd6e
febe
2c67
f5cd
582b
37f7
e351
ec3a
7435
7518
7489
2d33
714e
916b
2ba8
58a5
d9ad
b351
407d
941f
baad
a5be
5efc
c2c0
d526
9653
55d8
81b2
e8b5
b251
26d6
40e2
8745
45c7
af64
0513
5369
ae91
8bd6
210a
e5bf
4f7d
7b11
b68f
522a
33d7
8c96
ebc0
870d
63ac
ab8a
ff51
b2d2
c1dc
eb9e
0d93
22c7
087f
1eaf
9e60
9a01
e932
5d9b
25bb
df44
1d8b
d0cf
593d
c174
491e
b614
c538
2e9b
1b11
50a3
f7ad
98ff
1780
d0b0
5918
fda1
971c
ffc0
67b0
f34b
2a77
8d3f
496e
bf7e
1e69
57db
1980
bf0a
6daf
4e3f
7fb3
b6f5
bb8a
15f5
dee8
5b3e
0bf7
56cc
e10a
1891
40b8
319d
78e7
8484
9384
2657
4b8b
9340
6246
b98e
436a
fd9d
4cf0
314d
d4dc
c3ca
68d0
413f
8bd9
71e8
843c
007f
6e5b
83e4
e14b
fa2f
a85d
9ca5
feef
72c2
20fa
6201
a78b
58f4
408d
7397
976c
a0de
79cb
d5cf
7460
c611
1c9d
bd51
4815
e4b8
b4c8
9e76
19e2
dcf0
b076
e531
84d1
9268
2c39
6cf8
e8d5
55fe
66b4
a2f6
42ce
b50f
61ff
f221
f94c
7b3f
56ff
5772
4cab
01e2
97e6
606f
e70e
e322
a694
1543
decb
0487
659b
32a0
62c0
7317
0ad3
72fb
d6ba
df85
6783
ff44
8f32
ca44
dc46
fffb
f1f6
42c4
110b
881a
6c0f
b167
8be1
1f9c
b321
e274
f4c2
cee9
d939
97b5
1778
0040
6608
659b
678a
0c85
f0b0
ee96
c667
6270
8b66
d51f
7c6b
196a
446a
10d7
d315
cfa2
3ccf
921f
3caf
09a8
a1fa
8208
9dfe
8812
2c35
9bdc
49d6
8164
a166
b17e
5687
399e
d11d
3264
4482
0071
9c6e
3041
f4b9
4ae5
2113
f4a0
0d56
b8bf
99db
6982
e140
a22d
d725
7402
5f12
c808
4290
c4dd
a999
b1c6
3694
f1ed
8b7d
37eb
5eff
c693
9b6b
500f
105f
79ae
df62
bfae
5c5a
3041
9f33
1bec
e0b6
25ac
5a4e
8d5f
bed0
d371
053d
faba
a551
ef14
7d13
865c
b57f
45bd
4b78
93c6
30cf
58c9
f6cd
b68f
3316
39c2
e8a3
d3b8
61d5
9d1a
265e
42e8
b82d
f1d3
8fd4
dd02
0014
1315
2950
aac9
765b
f1ca
a839
37fb
0e07
3fc2
f632
3486
b646
276b
da7d
00ef
958a
8b88
15ed
1c96
59bc
f582
8601
9871
2532
5dfb
68ab
61ca
fa8d
bcff
0f2b
6dc5
91bc
bbdc
e4d4
beca
d14e
0cb4
b903
a2e6
f7dc
53a0
73df
4094
f4eb
4ff7
576e
da71
69ee
ffc8
143b
5f3b
43c3
ba87
e98b
9d09
cd26
614a
f9cd
407e
1721
e140
80dd
ddc8
f5d1
3859
f66f
7981
34fa
d27c
db0f
cae2
5d67
6d78
5347
ba03
fca2
e1f0
5f7d
f649
285a
b51c
7a40
f74d
59c7
5b51
22ad
fd5c
3511
121e
59b9
4491
7f36
d55d
a933
f990
3f4a
f7b5
e095
229f
7c86
e1b6
27fd
6527
5581
d6bd
52c6
43e6
f7c5
bee5
9a5d
2c5b
d039
c666
7afc
a767
4f62
50f9
3e85
c1ca
bc3c
5765
e687
58d2
b2b8
1b78
5892
5c70
e610
ec63
9f66
0520
fb43
5c92
b906
38c3
8888
6d5c
741d
5933
6bd1
77df
f0dc
7768
8467
c215
1bec
7f50
e6e5
adf7
fc25
1849
3715
d3e4
3caf
bb53
1c09
dd0c
b124
6302
a41f
6128
6d9a
4fed
523e
555e
e8c9
7541
a239
8607
954c
553c
70eb
a6bd
644a
f2b2
e4bf
0b58
02c3
c98d
c5f5
c141
a862
fc66
77ed
d67c
751e
79c0
8590
a1ee
d4dc
7d10
03e2
1b04
4b7f
071c
1605
bdc1
8e5a
eda1
b2fd
052f
ba0b
99e7
6100
150b
c810
454e
c30a
0df7
8ff8
284c
4a2f
eb20
5d9b
bfd1
33a7
6a2e
7f40
1a7a
1a6c
1dc8
a945
e3af
2da5
e0e1
34f9
e3cc
30d2
e640
56ab
8e56
39d4
f4c2
4269
cd79
ed59
d5ef
155a
50b4
53ba
57e3
05b7
710b
df89
48f2
4f0e
e877
3d9d
76a3
e490
b376
cf92
2490
b9b8
7051
f128
7abe
3d82
2cf3
96b7
df5e
8f60
0847
8c4a
2b5e
6755
c340
05a7
26ce
07c3
1449
5b0e
9fe4
8c2c
26fb
bc1b
3e5b
9cec
8393
7e9a
56c5
4967
0890
1488
952d
386a
a439
2c1f
d60c
4ecd
2372
337b
eadb
1e7e
91bc
3582
77fb
efaa
68de
6e39
028d
1acc
eb03
a25c
cfb2
7b3a
bc0b
0ea2
8821
6aa8
8579
ccdd
ab16
0e9d
9399
3bf8
c089
4dfc
8003
d162
71c7
4dfe
f6ea
92b1
48d9
ee85
0b66
b4b0
766a
da97
65ce
0bc5
02ca
61da
aada
0d3b
f7ca
3c24
82ea
3d63
0551
7e14
e7a9
af52
0e94
1d66
bd4c
994c
b2e8
872f
4971
69c5
c835
32fb
3da2
dcdd
4391
b3fe
8ba8
c6cb
2152
9fd4
a100
5e47
812c
a3bb
062a
04f0
e72b
7482
b9ca
5e8d
8eb0
07da
b94e
6891
dcee
2a75
70d8
19ca
f004
4f3a
20a9
1cae
e84d
df6a
3351
8ba3
12a3
f11c
3364
9c56
6345
9bff
7d2b
92c4
37c3
297b
7850
21cc
0afc
c395
f712
230e
1ff2
1f8d
b50f
e5c6
fc30
4655
146f
953e
526e
90b2
f71d
092b
26a4
e52b
a314
cb2c
1bbf
befd
6477
53f1
bb7a
6620
b350
7765
90d2
6e27
70df
ede0
26b5
68a3
6b7c
a072
5a43
915e
86f2
bedb
9ed1
4e19
4ff3
1f60
9667
aa9a
99ca
e141
b3ec
8207
708a
5b57
09ab
41b4
87dc
9377
c5fc
607d
bfb1
de88
7516
09d6
e480
43b2
9d32
c37e
3f1d
2810
5a87
40f2
422c
796e
0d75
e383
ca31
3877
d104
d953
3843
89c5
0cb3
769f
5f86
9be6
1057
719f
8c2c
8c15
b709
5d4b
2fe1
e354
9ac3
9474
b7c2
a6c4
ddf8
6023
a2d7
e257
7e9a
06fd
48d3
d9e8
1d07
fc2a
5d12
0c44
1121
3aba
e5d3
199c
5a1d
d3c5
292f
022a
58ac
749d
bf26
dc15
7b6a
4883
d202
80b7
1a87
c41e
26a6
5de4
2840
b67c
9427
c3f8
593d
2d41
f89e
5244
11b9
85dd
39d2
8663
0141
dec3
b7a7
bb93
6ae6
ba32
e8fe
d3d9
177d
bc95
08a5
41f9
cb25
6a2c
069d
9670
c023
2ee1
eae3
61f0
3344
0619
2498
0c9c
52f4
b8ce
2c61
4d9a
480f
03fc
eb1e
63ec
1784
727a
2fd8
c820
eaab
7c77
d294
fba6
49ad
70f0
a4c6
6fd4
4d45
c0f1
8095
22a1
d01d
c622
b890
f8d0
2d21
7fe8
06d6
c480
a102
add0
03b0
029d
346c
b8df
5e31
f216
539e
4681
6a9c
04ad
cc28
40c0
bc13
a1b5
894e
8dbc
c387
3640
fdf7
c453
0b2b
5b26
ff8a
715c
dc45
f2b6
0091
1a4a
2f7f
00be
07c6
2a02
3dfa
5e85
593a
e837
3ed0
3d5b
f741
1897
71d6
9597
3b4c
7980
8ce7
56d9
06bc
3a91
5e44
82d9
1fa3
b234
a741
22a5
646d
f460
b242
6455
e0b0
512f
0418
496e
62d8
9ce1
004a
7cb3
e9eb
015f
6230
a074
c385
fbcc
f3b9
e837
f782
dd2d
c921
4a41
9e97
3810
1d58
962b
3a93
00e4
a17e
96b7
217d
d221
0960
89e2
c45f
6abf
2209
6077
5ab8
dbea
a8ed
4ac1
e93d
531f
cacd
eb8a
51c0
4ba6
0c05
29db
3f1d
c131
6b91
297b
c864
962b
a58a
3cfa
b728
a8dd
69da
f19a
d004
197e
e242
d61a
3cb5
4eb2
bf5e
c0e9
3c8d
b5ec
808d
3861
ac8c
2656
6ba6
0dfb
4f4e
5304
cd12
eb58
664b
35e6
fa39
9192
01b5
2687
a596
1518
609d
779f
a0c8
d898
9b0a
09b5
e300
a33f
9932
ac1b
6382
3690
737c
65a0
aab6
6853
690e
6e17
7838
8116
fc8b
9a9d
415a
531f
5a15
be41
e1de
d7b8
737d
4e15
86bf
a99c
fbc5
f95a
8831
9c95
b1cc
fcf4
a070
43cc
8656
ff5e
c6bd
a82c
3e70
1a5d
127f
6d6c
9b92
838d
2ff3
b235
e20a
5ec8
dd8a
8105
039b
a241
fa81
eb59
8788
00b1
90c1
327e
6d87
5bc7
2c52
badd
c965
542e
5fc2
e038
3331
757e
0ac8
fdde
e2e0
3735
2ba2
1177
21e6
b8c4
5147
1dc8
d5bc
29c3
c401
47f1
52a8
1063
4e29
da9d
6f9f
0d10
e1a4
a291
792f
ed5b
b18b
d6b0
7703
01e2
b6c5
c7f0
f01e
d992
bea0
f464
e6a3
62b9
5d5b
f282
d53d
ed2a
4ff6
a320
86d8
d42c
7c06
85d1
78a3
af0a
812c
e67e
544e
86ce
2b35
526e
1c58
89f6
cf9a
0f9b
b4f0
d80f
1a20
99de
027e
00cb
d172
32f8
bed8
9bb2
928c
683b
756c
3233
d9a8
de0f
2efa
0f54
1583
956a
b4e8
9690
e819
3ca6
50f0
3cd6
5178
9a2b
ed2b
5de0
4437
a8f7
a3ed
62a6
807b
83d3
3f36
fb23
19c4
8e32
740f
6643
eb5c
b73e
e91d
5ee5
f0ca
4861
aec3
5abb
b3b5
f3dd
de17
ba6e
6be7
ed4b
35ee
28ec
f9a9
51ef
063d
4d48
7885
664f
9303
3054
f755
4ebb
b315
e6a5
5799
e56c
9266
6c81
af38
f563
2919
1627
af72
cdc0
c0e5
3e06
51d7
8542
33ad
0b33
0f31
951d
68aa
2f2c
e92c
4090
863b
fc1b
c4e2
fea0
b178
efb1
613b
2946
b52d
9f51
b96c
25ea
27a4
1d26
834b
9506
b3b3
ea7e
37b4
b057
ee67
71fd
7d27
8e3b
cdbe
eef6
78eb
a8a3
5f3c
cf05
6fed
56f3
228d
ac7a
4c68
5a01
8a5d
3396
28e8
60ac
b495
d43e
580f
6aca
9739
a631
d278
6a5f
89be
9cb1
e2cd
18a9
e319
2885
8830
f53d
37d6
db1b
1f24
7656
0fdd
4e21
d8de
ccef
bb70
b2f5
f90f
1026
a1e7
4a0c
bacb
5649
9aa0
b447
b91b
b41c
6556
24f5
5ffd
ad97
acc9
c2fb
1591
eab9
0dcf
f048
c210
f33c
7c0c
2214
776a
9b4d
0c97
86fc
f198
4813
dc33
e9b5
464c
e7d0
e77f
90fe
c1bd
35c4
fb79
7423
b60a
e4c8
d746
cac2
d5e1
d07c
cb7b
0d48
698d
9e70
a66e
0686
eda3
2a85
0614
c7ba
bf48
817c
e2f0
ea0b
263d
4df1
e239
0d51
f15e
c45f
a12a
1913
787f
762c
3ddf
f813
da52
0f65
fed8
34e8
3edf
544d
613b
bad8
177b
b837
0d63
7746
57e1
4ee1
4b6f
4354
db28
ab43
eda3
3333
1de5
197c
3acb
c764
8d9a
8405
0445
c770
8270
d4e5
cccb
94f4
a2d2
4379
42e5
23ce
60e5
cb7d
0ceb
f4ed
4bdd
29cf
8027
414a
b986
c85f
b6ca
9bb8
766c
5e0c
c59a
5602
09e2
a5bf
2276
fe15
998f
92bf
df31
e1fd
2b46
00a1
3161
44c3
2b28
cae9
6419
d526
94c6
75d5
86c5
c55e
3835
8392
7647
bbf4
52bb
cd5f
a0b7
1620
3bc8
57fe
d7c5
2074
f82c
3df9
2e3c
f430
18df
dd7f
2e60
3942
7aea
2611
1b6f
c2f3
3e91
adc1
bd6d
b20e
5d65
dde7
58b9
2e96
d267
08ef
4d8e
1685
bdf5
5231
1aa9
77bc
02a5
09cb
8404
acb3
8574
34a8
8b52
c78b
573d
198f
55fa
e81e
c934
06a6
6cd9
fb2b
1fe4
b4e3
0e6c
291b
cdb4
7a5d
5a2c
3051
8467
aaaa
c0a6
25d7
4c8f
d45c
dd03
4493
22a3
d930
2b2c
9c61
764d
bf40
8749
5d47
e65b
1e02
e99b
7aa6
4b74
8cf3
3daf
bd9f
e2ab
9602
7bc6
748b
6385
9cfa
e353
3b46
89a9
c3b2
6674
f064
8ac7
84bc
d7ac
0001
03e4
765a
b0c0
0ef2
f6a8
3b37
1348
ae77
2ac9
9347
ae2c
a84a
c112
cdbb
99e7
3dbc
aa16
5935
0865
b314
6fb0
960a
9c27
3e08
4c8f
2a82
1f28
5ccc
1245
10f3
c04c
42a8
55ef
1397
a786
64e7
8d4d
f370
3636
b380
44a6
bbfb
05b9
a32a
ddb8
da64
558e
762c
ef02
c232
b28d
252d
1423
3213
6a87
574e
342d
76ee
3066
5f58
f82d
4a70
1421
2c75
cfa3
8f16
fe0d
cefe
2c69
4c17
68a0
c7c8
2fb1
0a65
b7c1
6066
25d9
5ae2
8aa2
7d3b
1178
1f09
ebc4
52ce
9d50
9361
e830
9fa9
8d40
6236
1231
526c
2c52
3b5a
678c
6278
5f3c
391b
8d55
84ae
9b91
7e1c
87cb
bced
4f49
a8ec
7488
96e0
666d
fad3
3e8f
4599
aebf
2c32
03c8
f0cf
41e9
502e
8582
d3ce
466a
ed7a
3a69
c277
c5a9
dbfa
c3b7
8ce8
7d4e
3c87
b670
a882
e726
7ccc
bbc8
3a42
ad63
d9c1
e690
4a8e
0614
35e9
63a3
0700
8c83
beae
7fa3
cec9
09c7
a8b5
0862
dd32
13c7
df70
b849
d9a4
ad43
80d5
0bf6
7dec
059e
919a
d160
5045
8b7b
7a53
841f
f868
bbd5
af1a
1df0
4d4e
90cd
ee30
a1fc
79b8
1333
d5e6
9fca
3437
f3b4
f25e
165c
7b6d
ff87
1a2d
6885
911f
a280
8aa6
3bcc
f090
1024
5c87
3779
10b1
bce8
ddb5
1a83
5e19
3de3
33fa
b228
5b42
69df
be0d
835b
737c
0523
4daf
0d10
0509
bcc4
d9f5
5364
5fcf
02a1
c872
96fc
7985
d310
dfaf
59fc
98cf
03af
283f
e1c1
222b
0551
ccc9
2fa0
3e9d
f906
3db0
d3ae
bf38
6742
81c9
725e
3dd8
7611
cc20
962b
77cd
2cad
83ea
8e5c
4151
9305
cf8c
3c88
bde9
90d5
6fca
040c
3389
cd06
3407
0bf6
0245
8f67
a9d3
5776
a6b5
251f
5121
ed84
a696
fa77
7741
0fb4
530d
ea88
d6ea
ca52
8dac
31b3
3ef9
4700
24ff
d292
5299
3766
a4d7
d859
6ecf
e82d
7e1b
7f98
857e
da56
0b0a
1216
1876
9e98
4acf
4963
6298
c5f0
ce67
7ea0
2835
a5ab
842a
fdfc
ea86
6d15
d078
0be3
4908
e4b3
6aae
d8a3
a33c
000a
5c8e
0f99
cf60
93ab
0fbe
0177
dc79
90ba
a7c8
3495
a80b
8b65
87ab
5970
0322
1acc
a894
fa4d
27f7
8347
0456
ceef
cf79
d955
84df
7d3d
a896
78d7
3092
92f6
4b8f
9e83
8511
4cc6
b7ad
8b21
661c
b5c1
49b8
888c
beae
5534
36a6
aaa4
6d50
5ba6
e226
8c31
bbdf
59bc
1893
7a62
c4e5
4519
f0cd
4649
e37a
4bd1
835b
7ab3
c7d4
5d17
1375
8b32
7553
0899
e083
1ed5
b8a0
3d18
9876
4ba9
c360
b2b7
3f3c
013a
5f14
44d6
43a1
8e91
5d76
f32b
43c6
65d5
920a
ab00
11b6
910e
e5ac
7a1a
3a7e
3566
b58c
cfb5
5ad0
4181
7f3f
2ebd
8910
331b
250a
0498
04c5
615f
1837
ece8
9b3e
4bf6
c855
dc8a
1dc6
9da1
be7a
1237
c2ca
f110
fa2c
217c
1582
3dba
599d
8604
d5d5
9377
776c
29b2
2db5
0e42
46b3
86e7
69a3
e293
5dc8
f008
7e91
d1bf
d2fe
2bbf
b917
5dec
2ba2
2bb0
6a60
e817
c36f
8199
164c
57f9
3d50
0362
1a0e
b134
58cd
2c23
2aed
510e
a1d2
67f2
47aa
882d
056a
663c
a652
fd83
758d
4549
f584
6034
ca2b
5460
e1f9
3a93
2736
c9b4
81b4
4a38
4582
01a4
d50f
4a80
b74b
5632
341b
44dc
e563
80c4
46ac
9138
98b6
bc59
b0a8
91e1
f898
3e71
8c7d
a2cc
1589
2640
2c29
365d
fd4d
e5ef
3dd8
183f
c284
37e7
76d2
0798
080c
e5c0
bdac
cbba
08e6
2905
c626
6ed9
8a97
9f05
5118
6e01
8eab
ac2a
4fd6
0995
ff66
8f6a
20e1
5fdf
08f6
6e0d
4ca8
d36c
997a
4b38
3026
21f3
692b
c087
d9ee
1548
2da7
179c
9665
7fd2
a368
c953
5fdf
315b
c89e
aff5
64fc
f447
d6c4
f32a
7ad2
be83
7495
ac66
338e
a853
470c
87be
3ca6
cb76
a09d
4d34
fed6
996a
e561
563d
1ead
8731
3251
3f69
e158
d6e3
86f4
e7d2
b733
e426
814c
6a95
9374
2b61
e4ed
5407
1bec
fa51
2c8f
bed9
0824
27c3
e613
3e7c
2e0c
acfd
414e
fab2
b623
c7b0
3d02
3e74
a3a9
2d8d
4a68
40e5
afc4
ea4d
2ee6
977f
a6e7
9b40
220c
b932
e4e1
7c07
64b6
a87c
e645
f122
498f
cd9a
0669
31b5
6166
ea24
465e
7eb5
dd48
c917
ea6e
c4be
31ac
0fc9
5910
aa8b
a7e6
aca5
f140
d366
647c
d193
7a7c
face
6d1d
d5b1
c97a
beb1
7a4d
a655
69f5
c39c
001a
951f
b1d1
0b2e
502d
55ee
a427
3d45
9a59
98be
2254
e762
6e63
8102
89a9
9e8e
ae04
5be4
023a
d317
76f5
bebb
3fe2
9085
888e
3780
d12a
2bae
b48f
7081
0048
c999
178c
f860
dc82
b0b7
d694
51b9
e70e
6c14
71b6
e96c
cf1a
707e
1eb5
00ed
6afb
177e
2e0f
2dce
dfaa
33c3
fed6
f5ef
0df9
8197
4553
c309
ed97
ff37
82e9
f9e9
722c
e224
ffb3
ba3f
a183
09f5
7fa8
f4ca
9f3c
daac
66d0
5d7b
d6cf
a4d9
0c88
d21c
2e24
10d1
c7a9
2035
cda5
0374
03ae
e5e7
b2d3
0d27
4832
38d7
3ca1
fae7
79b8
5bb8
9a10
498b
e235
bd5b
acba
9ef3
2cd6
7428
fb30
9a69
efc1
403a
7ef1
2ce3
9b4a
2f42
b663
e1f1
d207
53fe
0547
d84c
03df
3694
0f9a
a263
0b9f
0481
129e
97ff
0f86
a94e
f051
b4e7
afe9
31d5
1b65
72b3
5618
04f2
4c8d
30e4
5903
cf04
ddf6
6d40
4394
24a7
fec7
4603
4d5a
610b
334b
a427
72fc
b45b
877e
49a9
4ed5
98f6
ccb0
ac97
9e92
a38a
652e
d616
90c4
59a3
91ee
a1bc
060c
f61b
7938
e71a
940b
f16e
80d5
58bc
2325
e03d
2e9f
a51e
7824
5483
04ba
1b4b
3282
f39f
f7c6
6c77
3393
e87f
f71b
4b45
3968
cda0
9d41
f612
6b0c
43ea
6ae3
9b92
2110
8647
cde5
c3be
f15e
348b
c7c1
ce86
6472
42c3
680c
5802
fe66
88b6
0364
3eca
fe7c
58bb
e1de
3b4b
dfe0
d965
f40e
9f98
a3cb
4f80
94e3
2800
2de7
bf13
496d
3790
7277
e2ba
809a
3f18
0af6
ed3d
f36a
ddfc
909f
295e
4481
30c3
5c88
413d
7642
d1cf
4b68
e229
94fc
913e
4ca2
4b2e
b3a4
ec40
0eaa
bbab
51f1
2b3d
8f2c
ac0f
d86e
9e6e
3f18
fe37
2302
8a19
7916
e6ed
bfcc
c571
3cca
5f6b
176d
7295
22bb
be00
e341
3685
fe9a
c9ac
0f58
0d16
9b8a
86e0
dca9
8db6
1cb0
8178
5ae5
beaf
1e59
c1d4
d079
c41d
797c
2761
e68b
44d3
1b03
92cd
355e
ac8b
994c
85ef
7a6b
21fa
c395
781d
067c
3d37
48ea
3ae9
32d2
173c
0afc
7003
42e4
62c9
564b
4bca
a007
ed7f
171d
d46c
3a94
1661
d34f
1a6f
3f60
3919
a4cf
42aa
3fc0
f4d7
867e
6284
8d5c
331e
e731
829b
8c83
0ad7
f700
035d
c51e
2b1a
5eb3
34b0
344c
69c3
b12e
852e
45a4
e797
6723
2f8c
0e3d
a17d
02d4
0627
ef60
1b59
0dc4
02a8
7bda
a9d0
dd56
4cfa
5659
c19c
b0aa
fd0c
14e1
c463
0747
5f83
8c0a
425a
cfac
0089
853c
df04
6001
fd34
0436
e095
83cb
f1de
6155
3237
9439
a18f
f422
bed9
dfa6
f311
21d1
987b
fb26
51a5
31f9
b2ce
4d55
a695
e8a7
6208
38d8
4d78
c94e
0724
614a
bd43
21bc
f189
0ef3
840a
c55a
72c7
c5ef
5412
7e0b
dbbe
0d74
69ee
9ae2
c9b5
5c03
fddb
ae11
803e
4ea5
41a1
c4ea
0d0e
940a
255a
5b93
de52
beb7
3f03
2326
8708
5fe2
9b00
f221
bed3
bf19
7a1e
fc54
8f21
42d1
b652
2085
79a3
9122
75e8
a0d2
5bfc
1c1b
13df
e94b
9d42
0976
1b75
e2da
ecd1
780b
1014
a24b
3b81
bc74
bf56
0bbe
03df
97e3
7b6f
1a8f
6cd1
4f8b
673a
18f0
415e
b836
df2e
8b99
da91
7120
42b5
3fac
b505
92e8
1f47
7334
34b5
47d1
19ea
81a2
f304
e4b7
ad69
a4eb
8f16
9277
cdf4
4599
db45
bd53
9a07
29c6
79df
3474
dd2a
173e
7ed6
365a
907c
4feb
c9d2
3eb9
cefe
5787
029d
b18a
23dc
2f79
c6b5
9994
8324
d563
5ca5
5129
704d
5289
33aa
f972
16db
6d98
c569
4c5b
6f88
7410
81f7
1d99
febb
9ef5
1f27
9fed
0f98
98e9
9261
465f
1b7a
18f7
3fbe
0074
56a8
dc43
9593
5c6b
263f
7a76
b00e
5850
4f32
be14
637b
6a89
cc75
dc71
a4a2
5443
3343
a025
5e69
234a
1353
75cb
8ccd
6f36
e420
c500
b309
0c58
95f6
d510
c2e1
3e48
30f5
c5e2
0f48
0515
2aa6
ed67
a35f
7a1f
7c7c
cdcd
b7ee
3bb0
d265
3500
b388
d1cf
4141
b084
9ee8
f7d2
6290
920b
90e6
e859
22a3
cb19
c8ac
d1f6
4fff
c16e
fdf5
8a83
0a4b
2d68
a2ba
f312
5566
4c33
9756
65da
7d8c
5531
6009
ab56
a81e
3ad0
84eb
c7d4
55c0
2738
572c
68e3
fef2
9305
0b66
8a84
fd6b
d7c1
4b43
e701
b4aa
2e69
5226
f76c
e3e5
775e
7415
ef56
6a75
7a22
b04a
cd31
9d74
7a92
f177
0e26
d3d3
5bc7
cd28
599a
1412
70e6
1389
0974
683e
9afa
dd02
bf9c
9556
bc1f
b3d5
cb11
a4a5
a29b
a19a
b4d1
9dd6
3cc7
7cb3
7a59
2037
22e6
301e
a725
8a4f
1271
fe97
f1bd
ca8d
e2d7
f80f
d53c
3a03
dbeb
acbd
435e
b113
3fef
c7ae
eb83
c78e
b725
5b75
7fda
fdf2
b50e
5df7
3a7e
5c5c
7bed
fcbe
6570
2a68
d448
fb25
37cd
9c19
c40a
9615
9753
c79a
e7fe
7777
1207
511d
d883
6b88
180a
24d3
d7e7
0a36
5802
a9b2
11f4
beb4
b8e2
a97b
fc44
2c59
9174
5d0f
cf17
738f
d1aa
198e
7122
e061
a72d
8eac
2839
c9ce
81ee
571b
fd2a
1c46
f849
628b
c91c
13bf
4e16
07a8
aa44
3543
d195
ee56
b773
1e7a
dc83
0788
1ca9
d235
bd06
df1f
6c9d
5f11
d761
4983
30da
d539
168f
a6a0
6c5a
91d2
e4e8
cb70
eb3a
1206
0261
8568
4b26
7a6f
6b24
a47c
5d50
a6b4
f873
f96d
1dd3
9117
2050
b7f7
4807
5c0b
814d
cef5
751e
a3b1
bb47
6986
462d
4516
2399
03d7
44a9
3e2d
fcb8
c4dd
433e
8dd9
0890
3c1c
f4d9
dd6d
c753
352a
2f68
17d4
a775
25a9
7b1e
33bd
0648
f70c
cbc1
9a86
aa65
4b56
11e2
73e8
6d79
6bd5
1193
9842
f315
b6a9
6ca1
d832
d6fe
de4b
0f77
14d9
3aa6
e9ce
83d6
fc40
8f32
a33f
3a44
ebab
45eb
2761
0aa6
f9be
937c
18a6
9978
baf7
e4c2
4799
c7bd
de6d
23c9
d200
ab6b
4dfd
b40a
f4f7
2667
6603
cd16
866f
f00b
357d
b207
b01d
c7b9
9e8e
24da
31bf
66a4
467e
7e0d
d99c
8c92
be4c
8f44
cf70
0aa2
c66a
1ff6
bdce
71fa
949c
42fc
a251
a855
7c45
ab0c
338e
a01d
a703
634d
39b7
6b15
4b1c
2df8
f3cc
65cd
eee7
ab22
149d
868b
7d74
a5b9
5455
ebbb
cee0
9ea8
9767
9422
d1f3
b554
93ae
7045
2935
bc12
18c3
79a0
c1a5
9a38
34d1
49b4
7705
194b
be0e
ae40
45ce
bc03
6104
cb0d
30eb
a960
9f20
5f56
5125
3dd6
c5d0
088b
ebcb
cc26
284f
6197
0a32
3581
96ce
2aa6
9b6e
e8f2
3a5b
68c6
dff5
34fe
28a0
3330
b752
b9b9
ce0a
b245
a43b
3b1d
4611
721d
0192
21f4
2b25
fec3
cf2f
ffd9
4ac9
6459
fc4d
a832
dae7
361a
14cb
a577
6478
475b
5fa4
9707
4196
b988
1b58
d59b
d7e7
43a9
9c29
c180
8a26
d793
c7b1
693a
dd16
8a9a
4c33
cd17
8db7
2b9f
83f8
66bc
de21
a2ff
f279
00c4
b58d
d2de
ad4f
06d1
5028
712f
17a4
a298
6c83
bd8f
93cb
f9cb
3ff9
3162
484a
ddbb
34d8
4d35
8bd7
63c7
c4d3
b145
5899
b315
2149
afa8
5103
6a99
cef7
bae0
33fb
9e08
edc6
b33b
f89f
b0ee
c511
4721
d328
fc07
1db1
59e6
b47f
61a3
0e4c
156e
5c95
ceae
1704
9e94
dc44
f5b0
9246
5ed9
378d
bed8
c138
82d8
9f71
5b17
f0aa
b0da
887d
8600
b67c
e41c
5c39
c088
2c32
b914
366c
096d
dea4
c3c3
78e3
88bd
5b35
6722
3301
4926
b1d4
8242
473c
5e6b
db3c
eee9
8469
7caf
ee79
a0b4
e4b5
4bd2
9189
4492
6a8d
76ac
f188
ceea
918b
488c
03ae
364f
a3bb
1453
8149
eea0
9231
db02
cfc8
cea9
2f3f
2944
ac1d
53e3
2362
e640
e215
353d
73af
6242
6eac
2ab9
96b7
8dcd
f973
cbcf
c102
cc24
c772
eae3
440d
b8a5
aef3
1612
e0d9
ba64
24c7
eb7e
b0d2
d949
e291
a188
6f19
0e7e
3923
ff67
e42e
c90b
c546
9211
dbe3
6faa
aee9
53e2
69d9
8c74
344f
7511
0b1a
2af0
76f0
ff05
9577
d4b4
adb0
21af
11a4
8997
d623
bfff
fe7a
6289
dbb2
bbdb
1535
d7ae
55e7
2fa5
b663
50e1
77df
bda5
1f6f
c469
7bfb
f702
14c3
f03c
cfd4
698b
2207
c832
eac1
20b9
fadb
efec
6994
d998
63cd
8658
806c
bb00
566b
c6c2
2c8d
c09f
c3b6
3260
3095
4632
3f00
0778
b047
6b60
704f
6a17
15e9
5984
a70e
c227
d81e
6cdb
1612
a76f
30de
1e3a
8b57
5396
f609
8814
4812
cf2e
0447
21c1
96f1
5792
732b
fd02
538c
9837
0323
ecc0
b1a3
ebaf
20c4
8307
1dad
7d22
5da7
9d21
a0ca
66d3
6967
3087
c7af
f525
d0ff
5b85
48bc
26e8
3a6d
aa4d
108b
4f14
ae7c
9390
789f
99ae
0d0d
9d65
eb17
6c64
0a5c
aba6
a6f0
a564
4d65
a4c1
dcbb
dfed
c5ca
ee92
e0d2
f5c2
1dad
33be
43e7
17f2
626f
113a
bbb6
50b1
d58c
9e83
cb02
634a
86c5
a969
8c97
b5ae
c3d4
aec8
aa1a
6944
a0f9
589f
48a2
6db4
0d22
41c9
7758
def8
4ab7
d0fa
be6e
1053
ff58
9be1
7095
28a6
c525
a044
215c
8d84
7474
b3bb
b7f7
ecdc
0005
3395
7c64
0442
0440
00b1
c259
40e3
ff5a
f681
acea
8b08
1c2d
9fb1
a561
9bf7
60f8
6ae0
0aee
66de
2dc0
41d4
197c
5b97
f8ac
e368
9450
04d8
374e
6855
c7a5
2066
f3fc
165f
8325
3947
51d6
c7cd
66fc
a4e9
43d5
fbfe
bf62
3f47
b815
cd8c
a868
c339
b185
23d4
efe4
c6bd
5cab
6408
98ed
4f99
7966
2c0e
3c79
8bcf
2583
1e82
2ffa
ce0e
cc6c
6a02
6db0
b5f9
e8d5
3830
8815
4517
3b4b
e45e
87d1
eb4a
6724
7e30
9dca
af61
752a
10cc
d584
d506
bb03
9f81
50a1
6656
e958
b0ae
05cd
7172
5120
a8b1
e039
0cb2
7659
99f0
d3c1
b5b7
1aaa
e742
4ebd
bcd9
f9ba
ff68
a3ba
b70b
1167
d3df
5fd1
4817
94f8
97c9
06ce
4478
20ca
9a10
2bb1
53a7
f999
e2c9
9ecf
470e
a6e6
2406
dc33
0882
2a79
3a8d
2376
2371
b2ad
59d1
6e3c
a9fd
72e2
7ec9
370f
03ff
da7b
f01d
71f6
fe00
6ef9
753c
4ccc
7e4d
2b78
3be1
b544
22f9
535b
420d
6520
9c48
ce5a
3491
bd8a
b380
a55e
511c
c50f
0a51
b087
152a
cd97
a931
14a8
a8dc
2d62
20d0
1e36
02a8
fde9
3298
223f
d28a
754a
8b0a
e37e
4869
082a
507c
34bf
a0bc
e470
5513
3687
1aa7
ba8e
aab7
9616
710a
fd5f
4ee0
0701
7205
42ab
6886
34ba
1757
cb3c
f02f
f5a4
43eb
3521
3f6a
6309
b381
194b
df56
6153
4c4f
c972
7726
6756
346d
4b44
8bf1
b968
ade8
757b
ae2e
db54
10d7
f69d
523a
11b8
ef6c
f4e3
732a
5f67
8764
ddb6
3c54
5eb3
ad8d
d259
397f
bfeb
d381
bf73
2931
45e8
4f1a
9439
9839
980e
0eb6
dda3
a261
cb6b
5736
e54b
eb90
7fe1
6238
b28e
b52f
1cc1
2d98
29c0
6ef8
9150
ced3
149d
fa76
ee45
d21f
0612
74a0
9361
96df
d48c
7c67
ebf3
1575
22da
8348
13a1
d6ed
3ea1
9450
5aee
5f24
96e3
d6cc
c751
567d
96cd
76af
5f12
1449
b012
06f9
dc0c
525a
2fee
4416
ca3b
4da7
7269
2a2e
d447
a832
6c2b
bbb5
f4d7
7abb
0bbc
9418
56d0
906a
9414
6e13
d326
c006
1d25
8dd2
8c61
59e3
d80c
2c9c
980d
f5ea
aa57
3e31
b732
2b07
3c98
0187
a406
56ef
a77f
a727
26ce
d788
c6ea
dccd
6a6c
55e1
8be4
9f70
ed0c
a639
c946
ace4
3c01
a3c0
b53a
d72a
ccb7
606d
1793
a917
4b68
5ca6
eb06
56c8
5722
301f
0f46
108d
b894
ff3e
a248
fde7
32f6
c2eb
a767
6a73
75c0
2f75
b5af
2194
a5c0
ea22
9335
357f
376f
1a13
18d0
a162
e01d
73ba
4107
47be
a1bf
6419
4097
c88c
199a
e1f3
086a
191b
9b62
fd07
f57c
547a
b6fe
ba23
4c37
20ff
bb51
43b8
c2e2
2185
7d92
8385
ad7d
76e0
a3b7
2206
b24e
3fb4
6670
3040
cdc5
ee81
0671
7441
3336
3c25
e80e
4089
b965
1e49
9a6b
c6d5
150e
d6bc
364a
affc
4c3d
84dd
bfea
5ddc
995f
5074
88bc
8636
1bd3
24ab
018c
50f9
36a2
c83b
0c26
336f
9295
5664
7204
076d
8f87
52c3
b8e5
5ef6
bbdd
e6be
0fe4
661c
7a3b
3865
e5c6
befd
28a6
211f
6fbc
2b69
089a
9905
8c5a
c476
967c
8a72
fc61
fd69
e6cd
223e
70fb
ebb9
413c
083a
67ae
9c69
1438
43b6
3b7c
c32b
4c4e
2b8d
d536
6838
2dfb
af75
5ddc
78a6
f0a6
f9d2
284d
71fc
a32c
3c43
5be0
68ef
57d8
e0ee
5608
5653
6eb0
834d
b011
145a
3f1b
0da7
ca50
be10
9bff
26d6
9b6f
cceb
846f
5396
b116
23d7
de7e
97b0
8850
c704
8630
43c1
c14f
9663
434e
43e7
157d
e825
9238
5a93
8b9e
526b
f3d0
3725
3de7
bb3b
9313
bab3
9883
5fa9
6ec2
58ef
263e
d03a
3b43
73d2
2f8f
cd66
c2c0
af75
4472
5822
4b19
17c8
46d2
dfec
6db9
e45d
ba36
f6fe
1485
86af
e8f9
fa13
8119
e8de
8746
fddb
c965
33d9
881e
2d60
e0b0
e684
3783
f8d6
ae58
0eca
2b32
1c7e
fdfd
5cea
95a2
d01e
3ce4
b415
efde
64b9
b812
f517
9139
5e9b
8276
15e2
adbb
45ee
07e4
0745
e61b
1c91
bc0a
cc39
4db9
5e43
c14c
2b9b
0ce5
0eea
2289
f603
862e
d398
7ff4
4804
305c
f633
9c15
ea3a
ac3e
d397
7fc1
68c8
4ad8
8f80
6f20
b788
5598
2914
0d9a
6cb5
573e
4b7d
02fb
b0d6
eea8
d8b3
53fe
850c
5ebe
8315
fe72
1701
695c
5abd
2948
0beb
86fe
1bcb
2c13
c619
7445
5d6a
18bd
9d48
df45
aca7
7524
5316
677a
073d
1534
7f19
eef4
7c7c
98c8
2116
96cd
05ca
29b7
9cf9
3143
ac2f
db35
3e50
cd76
5448
8e95
fda7
0da7
9429
ec82
6b0f
b8dc
f30a
cb33
d9b2
606b
7e07
3fe3
de10
2400
6b29
9b24
6f5c
b118
ed34
9f93
3f8f
9967
b903
849d
d0e4
e1cc
d6e7
46fb
cff6
12e3
70d7
224e
74a9
1fdb
d5c3
e1b3
1e52
74e4
d79f
d6a2
c230
06ad
9140
a8eb
0eaa
e659
6dc3
3ff4
934f
6c52
1519
6e2e
7b50
4442
89e2
f765
734b
5471
1114
e831
9db2
488c
1cba
de43
53de
d56e
c24b
a1ef
00ba
4de8
e717
3830
1bd0
a55f
3aac
e4b6
a352
7201
e428
819d
2fb1
5d11
7a23
f5f8
c74b
73d2
ae10
f33e
9143
c8af
6db5
717f
d4bb
1bc2
58ec
4097
b97a
6c59
3ac5
8e75
ebaa
3aea
9392
4238
5c18
396e
04c1
9eea
d93b
9969
9e23
93d2
19c0
5129
750a
0725
1d77
5f4e
850f
1f1f
4d42
8274
c8e0
9407
713f
4426
c735
8825
dd2e
93f3
1e5a
5886
36a9
85f9
1a9f
1347
d856
9347
9c94
b151
5ea5
a6a7
9aa7
a692
97cc
4afe
6b16
92d7
1346
7d01
79ac
b68e
c5db
07e9
4a83
adac
b798
77ea
2a5d
e1c6
396e
35f2
2944
f202
8604
3878
ebe1
689d
5ee3
763d
8816
55be
c7e7
d130
314b
7e19
d7a3
1715
6db4
00c6
dbfd
5d90
6fc9
8c90
7820
7064
677f
aaaa
f4c1
f1a3
00e6
47dc
6ef0
fc21
c38e
a542
cbc6
931e
f761
c7a5
a5ab
dee1
a16d
2259
0026
ba7f
3f4a
77e9
e733
059b
a7a6
70b4
ec33
6841
e9b9
35f3
9e67
f377
f55e
02f0
6f58
0d1f
ff76
9c09
bc74
b2ee
1b3c
7405
cffe
9202
7369
706f
1bef
2eaf
49ee
73f6
ea4a
3189
74fd
cbb2
3e07
ede9
b531
cb70
fa6d
40e4
897e
57d5
a9ea
4ab6
b54b
01bb
fa9f
9768
2234
4100
0e2d
68c6
0370
85d8
2dc5
a130
cb29
9c39
06f8
fbb5
dde1
ce79
6360
a7a4
6f22
adc8
d008
3a3a
27c8
d5b3
62d9
e160
e17f
35e9
6aa0
91c9
418f
e332
b0a2
cd23
a202
fd2a
5089
a2ce
68a5
4d1c
c901
5780
501d
8ade
33d4
1833
d536
76dc
7981
a25e
8bcb
522c
e8ad
0a6c
7724
d555
d750
f5af
5ea9
dc75
19e4
6b9b
005b
e195
af7d
023b
4f8f
26aa
1d7b
f3fb
aa97
95a3
025b
a36e
4b94
e3ec
c7e1
4a11
a098
83d9
a1cb
28f2
5640
e21e
3465
f2b2
c1bf
0a1b
3d90
ac35
1f15
1cee
f776
5c2c
d639
0bc2
3e9f
360e
83be
a77c
3a5e
80b7
8582
e952
86ec
988d
7ae3
dacd
0f4c
53e8
8fd4
2300
4872
727f
7bfd
7f8c
adf0
a940
775b
0daa
5134
1a43
36a3
94a2
eff0
a6b6
1ecb
fef6
9a1a
c646
97c6
0543
cac9
265d
900b
3e37
dee0
69a6
fe65
552c
d61d
7e89
374a
16f5
c991
9b1b
0f70
cdd7
7fe6
487b
3759
faa2
4160
08d9
2b59
c002
5165
2b1a
a2a9
df38
4b20
74e7
4e21
0e62
8f06
1dbc
cfcb
e870
34ef
e809
14ea
ccaf
8a82
aee1
6bac
14b9
5194
655e
af1d
513a
9852
fd9e
326d
978c
418b
9124
9f70
7217
bd95
93b2
e08c
02bc
884d
daf2
ebe0
12de
9f5d
479f
798f
1ba6
983e
8c42
a9b5
227b
7621
8554
6408
a987
828d
3c83
dfc3
65f1
b188
3936
5e20
4307
ebde
e7e4
0c0e
02a5
4cc9
d475
f43f
7388
4532
afbf
b7d4
12e4
3fa2
c6c8
19f2
0889
b2a2
ad42
3030
d564
66e8
3f6a
47b8
3a07
9aa3
09a6
90c9
b9cd
06ff
84b7
1172
a0e9
1acb
b064
4eea
f83e
ed9e
051b
09bd
efba
623c
5a80
2a55
b0e3
075f
2133
0c21
2cb1
9645
72d8
218b
b916
8371
f830
07bc
32a7
40ff
9e70
04c5
ac15
cbea
fbf6
ede7
e8f4
4037
e87b
ec49
129c
df84
667b
c0d1
c1b0
6212
0dc8
8bc9
836d
58be
be56
0b86
49ba
0bf7
8c7e
c7c0
6aee
c863
d830
a8a0
d474
ce08
387c
2de6
a907
d0d2
d4b9
4193
d2fc
4126
b76b
0598
55f7
1edc
6e08
5a5d
f4d5
d775
6009
dcc6
c16a
4742
934f
f014
6e8f
f5b2
dc5a
ab44
ab3e
d70a
806e
ee12
9af4
7c15
d7c4
a91f
2aac
e9a4
673c
8966
81f9
077d
45f4
33e7
fc30
dbd9
582c
e2e0
ebeb
e453
8846
5ae6
bc24
fe09
323f
eed0
99e3
2053
51aa
da06
65d6
afbc
4674
fee8
be2f
1fb5
7842
3c9a
6b19
ba16
1aa6
c408
e613
5e5b
031f
11ee
9894
dcf7
32f9
3f22
2953
b88b
398d
30ad
86e8
158b
0d1e
b705
ce88
090b
74c9
796f
5e10
ec59
907b
79da
d122
8030
bb1e
3a40
a566
0fee
7d8c
dfc2
cf43
1258
f26e
aa5f
916c
1ff2
e3a0
8d62
bf3d
664c
1497
a27b
807a
814e
890f
876a
a9c6
1f48
27b0
e271
4af9
c088
f8a8
6274
2e70
0711
8083
ccaf
f187
cfb7
5d82
9ed2
8e14
16ae
afd5
301f
9d52
2319
e723
b2ec
1c72
2b10
6062
8b98
15c6
01bb
8708
6df6
a513
092e
a377
b998
8b49
8b32
2592
0583
e221
7b31
95d6
7c05
f59b
0684
27a1
567f
18f8
c4c5
4749
dcb7
dcf4
3fa6
1692
775b
4c2f
6723
4e9a
5242
38f9
d52c
bb18
d04f
eaa6
f757
600e
5a37
6d6b
76f0
dbe3
e647
d679
6306
7cbf
a935
b2e5
df09
b4bf
fd74
6f4c
c1a7
5a2c
c735
954a
4dca
b5c8
81cd
2a7a
0e90
8ca6
e2b4
c904
626f
5db8
8213
559d
acbd
f7d4
aa04
385e
bd50
5fa2
8726
00b4
4e92
6e95
e0cb
2041
c8ca
219d
b705
3d30
b411
1c82
460a
b21f
e6ca
91ca
59a6
a4cb
007d
ef08
c222
c06a
ebb9
6e77
e457
e6f7
01ef
52e4
6157
373c
491d
217f
2012
b7ad
116d
e75f
3135
6cb2
ae5d
1d3e
5848
baa3
61a7
b43c
f663
b7bd
7990
c84b
ade2
eb74
694e
6e0c
4ea1
9d0b
469b
4344
b27d
b361
b982
8593
8ff1
c2af
7031
d1c5
8340
c179
8a23
06e2
370c
c3c9
cb1a
c664
ac03
3c62
6cff
fb58
6cf8
c8ff
6b33
ae8f
30fa
aa6a
f1e9
2103
3d09
3281
7e07
9942
90a1
5fa8
03ec
ae0d
d4a0
9cfe
dbd3
bbac
9af6
8dc8
e6d4
5797
cc9a
c989
e343
ead9
b468
bc48
c012
4eb2
257f
beb0
21e6
1c0e
857b
caab
cbf2
af06
8348
04bd
a60a
0161
e38f
90a9
cbd3
504f
018c
5d57
9ca7
7b19
6c5a
c6da
f3d2
20c7
09a7
97fd
5462
146c
2fc1
a728
88c0
5c0f
8b1f
051e
8dde
fddf
94aa
0c26
ed63
e6b7
dc6c
db72
47a9
8d45
8ea3
8508
ca50
b9ca
9c07
d1ed
9dce
cfcd
46f8
264e
088d
423d
f9df
51a4
3228
29aa
d5bd
9f61
ada0
b837
7a23
1e6c
b7cf
8ac1
4e0d
b61e
3c21
f2c2
c9d5
be5d
7960
775e
3952
a879
48a1
becc
72d4
7a92
3bdc
009e
9bae
003e
be07
5ab3
266d
bd8b
f898
42e3
e335
f8f4
65c6
53eb
f818
bcff
e55d
1275
e3e4
ec14
4f26
9224
71db
23b1
8b60
8350
8464
6cf7
48ba
3a38
f566
9dbe
c859
b85f
9fc5
dd25
465b
863c
e1ec
aacb
54f9
7300
9ca6
302d
284d
85b9
d8a3
2cae
f6f3
35d4
a601
fb4d
4c5b
f1f2
4035
a380
9556
6bd6
1e57
02db
2eec
5425
83d5
64ec
f758
9d41
c54e
d6c0
01df
1e8e
9406
c9a6
b482
3ceb
9862
ee6c
9412
7a24
9045
5c47
24de
a53d
3a39
9f78
2b20
0fea
c70e
c47a
573d
ee09
5116
716a
d4ab
b8e4
a8aa
1368
097a
8579
5c91
0c03
c9a1
e737
767d
4502
ffdb
cf29
5293
fd9d
e2d2
627c
8ad7
bf31
2887
2fb0
e49d
db0c
4a68
25c0
7e60
fd39
c749
ea94
2d98
b290
852d
b3f3
7592
165b
dee2
e65a
b600
c804
9e28
a194
5b16
b197
db92
bf74
3fe9
2bbb
af9c
c61f
4dae
6a18
227b
d463
4aa0
b649
b2f3
ee8a
875e
f5cc
6d7c
0a18
762d
4974
8c70
4ec0
188c
4fa4
b94e
9117
6b53
02b7
13cc
6524
3956
72a4
f09d
ad08
1135
2662
9d69
90e4
d80b
3891
0f56
5340
cba0
6d64
f4f2
ceb0
50b0
fdfe
2a2e
132a
1d7d
fafb
651d
b36e
4797
6be1
2bee
432c
704c
f33a
4bd7
1c5e
6202
b400
cdac
f931
8314
fab7
afa5
93d7
4cbd
6e2c
a54e
0307
6a20
a1fd
8609
77f6
340c
3bf8
81ec
3fbe
b860
4fac
a3f8
a229
7a1e
0d59
e2be
d2ab
2fe5
0ca5
6984
d55f
ca27
1dac
e086
e155
e478
07f6
3f36
e305
d43f
4002
6c14
0352
e213
f58c
f691
18bf
93cb
8188
8c18
be7d
c733
75e5
2077
d59b
c759
63b9
37ac
e917
1966
bf76
bea7
a05c
9f93
3888
a22a
da7c
d95d
177f
bb1d
05af
37c3
f13f
b00c
8fe2
efd8
66c3
669a
9edb
7f57
a5fd
c096
ef19
84a1
3775
2330
6fa2
da4e
7624
a812
eee9
7599
f099
da5f
f587
6e4e
e5f7
78bc
8e32
eb55
a2d9
f304
318b
6747
fcdc
4cf9
afc8
8879
10e5
6a73
f153
970c
cb83
302a
8627
01d1
ac23
8af8
174c
a497
6e15
ea2c
2295
8f49
c1f3
bda2
f310
b6ae
99c8
3672
0026
89b2
6474
38ad
5537
14f6
a881
3132
c53e
9aa4
1285
9514
a37f
c1c5
460f
95da
397f
31b3
0007
1b1e
f7ce
7a28
6a25
abeb
fac2
be54
097b
b510
4af2
88c3
b095
fb6a
dc1a
a787
c26c
aed9
3a8c
580c
f819
6cbe
1e2e
320d
11c0
0cb1
7611
1f27
9eff
6987
faee
cd90
b7fa
59b5
5817
7dd8
7289
b39c
51f7
8f4c
2f65
d73d
d907
8e6f
2ef2
9400
6ea0
4c92
8468
3594
3fe3
3658
1350
4375
2de7
58d9
f3d2
c7b6
f384
95fb
84fd
acaf
bf65
6ffe
a70c
1983
c3f3
bdd1
d194
de9c
4423
8578
6e55
7715
699d
4985
c08f
6948
0bce
32f3
5d94
7488
bf5b
b290
5b24
b850
0a95
9020
2f90
b91b
7a4f
c8bf
3e91
5d96
3b6f
7f54
779f
7483
9a79
59ad
ce5d
01e7
c316
de17
c533
cdb2
27dd
02c4
ff61
45e5
7271
12fa
7aff
8fa0
9524
420a
1e4a
1108
bacd
98a7
0b21
14ba
a749
43cd
2eba
53bc
cd0d
c56e
833e
dce2
e9cf
0fd0
078c
1a80
3d16
59b9
21ea
aff7
3475
c1a1
85bc
dc13
1174
65e3
9d6c
c1b3
d202
fb49
c630
dc7d
631a
e1ea
7b13
e595
fe5f
4b54
bc65
cc48
f7e7
ed0d
d100
a106
785c
4152
d027
28f7
bafb
54ad
9f52
6118
99d3
dacc
6805
9b63
6a6e
f161
54b3
5d8b
35e7
1362
6456
3823
adeb
17a8
ed23
bad1
548d
9c51
9c72
3a09
c027
1ef6
4c8e
f84c
f689
e4c3
4e7f
a1e1
c177
3755
c2f0
14b7
2d79
3e64
9025
9851
9dfb
17ed
5a0e
b316
52a4
34a2
f0ce
2565
133a
18de
7f5a
1131
f4f3
22d3
c1c5
2563
6a50
9b7d
954a
5c5d
60b4
b7e3
fe63
bd83
c47f
0b9f
b55e
91d4
508f
097a
1c18
9c7c
db68
adee
0c57
ae73
1841
a4db
d9b6
205d
4cc7
63d3
c716
5f87
bdb5
27ac
35b1
ec6a
3a53
c4ed
ad27
d2e3
d278
8650
baad
ebbd
5d3c
2c09
ab67
04fc
7b9f
0f31
dad3
032b
82db
afd2
2337
45db
adb4
6381
9e53
8ac0
1696
8209
4793
0fcc
d4d8
45cc
d259
2633
dc11
5960
441a
1320
f9b3
62a3
e9ad
14f2
986e
be57
f2b5
d537
be5f
da39
08dd
14a7
f141
1568
fc1b
dcc4
4dc0
8397
8060
f0a7
0691
d827
ddc0
ab11
c206
4589
1061
55a6
da87
3d43
9416
b42b
9c44
0ded
b9b4
7ce0
00c9
cb2e
0458
dcae
b621
a3ba
8451
39ba
b41a
af40
56b4
f6d3
fcd4
8f12
8d08
c207
7be3
3c16
e0f3
fe37
a5d4
e1c3
5471
1797
ace1
4934
219a
0077
0a72
a359
e544
e55a
d106
0662
e7b4
5cf9
c6ab
b338
8429
115c
139d
3f0c
b77a
9e8f
9ec4
66d5
1bd4
376a
84b0
a4a4
7e77
c56b
9c97
068f
d0dd
a140
6960
93fe
053a
811e
851c
f7c2
bafb
ae55
2057
bf9b
07a4
5814
a539
f8d8
4cfb
00ac
4163
09b4
a311
60de
50c6
8e2e
829b
76f7
3f8b
9842
5f81
c9da
7854
219f
5221
6e59
229d
7fc8
e2a8
38d8
0340
299b
3ab3
3fc7
fe98
1bc6
83ca
fa90
903e
a0ab
2073
6fb2
f542
8d25
d5b4
66d3
5824
c021
46c3
2d7e
e7e4
e1c5
d8e9
2139
7092
71f0
951d
40fc
63f0
1640
53c4
f07f
b9d7
5b06
51b3
dc23
4a12
c58b
4cfc
ca88
77f0
28d1
6bad
83b9
e7c9
1499
d56a
d66a
fdff
2a2f
1e75
be26
f266
d816
6d5c
facf
9c90
e471
a358
eac1
dc7c
f67b
7f8c
91c1
952f
69d2
f300
6328
ac44
b68c
c5ca
9f11
67d6
ffdf
bc9e
6315
bc02
f6be
a134
feee
feea
51df
7ea6
f80d
777d
94cd
8987
dddb
19ac
fb9d
fb73
dcb9
4d32
6120
3105
c87d
fa65
0ec2
9cfb
06b3
a2b3
e209
616d
b836
464e
0c1d
239d
0c2d
057b
28a0
5301
73a1
a482
0e59
c6f9
88c6
ab6e
333c
c179
e9ab
108f
7280
31f0
954d
6ed5
da44
f337
f839
cb9b
2ad5
6c90
17d0
47a2
1731
ffd5
e4a3
1ff9
4aad
a98c
bc10
6ffd
4f61
20f1
fc21
6cba
191a
0d84
ad42
f46e
074f
192a
a804
ab38
f2c5
718c
34d5
b28e
f91c
6ea2
076a
0ea6
b947
b3b0
5b8d
9819
ab2d
41d1
7abf
9cfb
901b
2dd9
e47d
a3d0
0400
4947
dcd7
a97c
8703
c623
d407
6e7e
5570
f0f4
3642
393d
58e4
5f0f
e4c2
e533
0b1f
5429
bd00
3a07
143b
864a
932a
8cfd
bd1d
fc07
b308
e5bd
d607
87a4
d0a8
5431
bd60
c805
543b
066e
dd5c
a32d
74eb
ef11
fbb1
fa7a
b493
bd46
e1fb
6ce2
98ab
2365
5294
e7eb
f5ac
d03c
ee26
c417
2e04
39e4
31a3
e0e5
7f42
038c
0cd1
6fb8
3ffd
5879
86c0
ecd1
0d77
1c08
4721
889b
fb04
2a12
1bee
2313
1bd4
0ec5
e04e
46ae
635b
6266
2b17
6929
de05
d2d7
509a
2f54
0510
a102
e268
1285
fb5e
28a5
7016
77c2
9fc0
8c03
0846
4f6c
970f
0e05
9f07
f2b8
7ef2
4b44
4afe
a329
e244
7180
6a71
c647
42cb
652b
e16f
cd7d
1d1e
1e78
eeda
aa8f
1986
049e
32cc
c058
c61b
5421
2258
d814
afee
aad0
a125
f659
dcfc
e526
14cf
4d5d
4a95
d7a5
335e
e131
58cc
5ff8
894a
3ccc
f1a5
dff9
4216
279c
96ba
c564
217a
05f3
9168
3fed
589f
a571
27c1
0a4e
5885
2d11
95bc
0d44
ccc6
37de
4fa3
2b20
ce16
7e38
0ec9
5752
2316
6b3a
7d9e
5eba
b4a4
ecef
0610
c756
0ffc
abb6
ad07
08aa
3b12
b27f
deec
77e8
0e48
c670
eda4
aed8
1d0f
1893
59dd
c9b6
5a9c
a141
0bad
ff49
bd45
7683
1b3b
f318
5398
5cdc
bf25
e811
cd64
5dfa
6d17
1186
e72c
57dd
40db
30c7
e897
249d
5b15
7240
b278
8f8a
58a3
3ce9
c529
5a75
e9a7
b69a
d081
66c7
c5dc
3232
81c7
de73
8c7b
cfe6
38f6
f61b
d79f
cda2
d6d0
1717
7ea1
e38f
0219
53f1
c159
4b8f
7e72
a0bc
818f
0627
529b
858f
5c68
9c5f
d31c
1e9b
ddd1
5b67
dcc2
9b21
2cf6
aa4e
34d3
f25a
3641
073e
5f0d
3e51
f52e
cebe
dc59
2909
7cd4
3127
f80f
dbe6
8d9a
cc5e
eabe
c6c0
bf0a
3aeb
c5be
055c
175b
42d3
57b4
8ea5
2df3
5efe
a55b
3a5e
c362
15b6
f13e
6731
7db2
0de5
fc09
cc5f
c5c7
aa16
f548
42e4
8d72
c90d
29d7
a475
ac20
d69c
bba4
56aa
d982
aaff
6b0f
3366
54f8
6c35
3e2b
042f
9c10
66dd
1299
465b
28bc
5b9a
f211
14ac
d5c0
e709
7490
706c
7971
b204
9ad8
2f75
f827
35e9
1351
ad6e
afdd
1102
181a
0ee7
be9c
e3e0
39f3
2bc3
49a8
9c60
b30a
4ea3
b2c1
2b55
3f9c
2041
f195
2860
73ad
7503
d1c8
0442
7cee
18cc
cf41
d6c7
a689
745c
8940
2a29
3dbe
4d75
8dca
8aa1
f532
c4c7
5ef7
b280
e4a6
364b
fda7
141c
7116
85e2
2412
17a5
e3a3
4c47
d1e6
50f4
c1b4
f0ca
12d1
a531
bafc
1343
510d
bcfe
d02e
f976
73bd
6488
e970
05d2
b64d
6440
73f7
52d6
2d9c
e651
4044
9d25
7faf
14b1
f657
1e05
b0cd
e372
9ea6
04dd
79bd
35aa
085c
555f
0b02
87f0
932a
ca4f
a417
e32d
b1f0
fd2a
eaaa
99d0
b332
084c
8420
ba5a
3b04
36cf
16ea
8666
e1fb
eab7
7ffd
267b
1ef0
57d9
64e4
7f7a
ba5b
2bce
a41c
501f
fe92
609c
29bd
d229
0d0f
2db0
5ccc
2c8c
1cc0
2e69
a365
ad80
defe
c948
1a26
ea4a
4c5c
b0c3
fb3a
afe7
239e
7181
0b83
d1b4
d58d
d224
4a0b
e631
951b
9bc0
b837
643e
a8cd
09f1
aac2
dd8b
e8ca
c262
a3eb
19b6
fe70
a9bd
e1d0
41d2
fd29
58c5
0d51
50e7
9b4b
771f
a6f5
ee68
3797
74a2
23ee
bdd5
2cd7
aa1c
f451
03ec
0e55
046b
d846
1420
9de2
c038
5522
7870
05bf
b963
b40c
3ad0
0266
2be4
1134
80ab
c8f9
622d
aeaf
4f28
3aaa
ca24
b2a8
a3b0
4def
2d32
e0d7
8a72
2b9c
d019
6b98
f810
16e3
7feb
ebf3
f2b9
d2d7
971c
dcbf
b568
4ba4
e3a1
d5fa
0eb0
03fc
8a10
b3c5
44dd
83c7
5483
008c
c7dc
5414
9293
d148
7226
632e
e05f
7b6f
ad5c
8b4b
1869
f0fe
4148
36fe
f6cf
f925
83a9
6590
df37
2920
c1e7
6a49
b159
dadd
88d7
02ff
7136
54e3
4923
a7a3
08b0
a495
b3ab
c32c
2059
3400
e7cd
8707
3363
914e
47bc
83a8
cc57
56d4
433c
b750
f9c2
5a98
1dc5
dbb4
cd68
daf5
768c
fadd
d5ee
87cc
4d0a
30ae
0239
4e4f
8c52
fe25
43e9
01f6
eb04
a9f2
a8b8
5348
114a
cfde
4e14
aada
abb1
dfc5
55cf
61bb
28f4
a6c7
d309
1ac8
beeb
7087
949d
aac8
777c
80a8
e416
9e6a
500e
9a30
4f7d
ca6b
c39b
70d7
2e9c
3480
85d5
5c1b
c0a1
259d
7613
bd39
de2f
1bd7
50cc
856e
2c13
9d57
66ca
73b3
e51c
5dbc
350e
133d
e42b
6e84
fb7e
1c62
0219
12dd
38a2
2f40
7a13
1f95
77f1
cb38
1be8
829c
00f1
9b0a
9833
bb6e
7f96
4593
2a58
8f46
9f75
1fa2
9c74
2903
a447
c081
36e4
8d40
609e
f3bd
59ce
928a
1b93
0f23
4993
d401
91e4
babf
8201
25cd
f0c7
5304
c458
baf3
7624
7b5e
4da4
81ef
2a71
cd90
84b8
ccad
906c
19ea
b083
84c7
ae1c
d93f
27b4
792a
8240
e1f4
6642
a75e
caf2
c563
a6b7
eae5
0f17
6b29
d5b3
c713
7427
3b4b
94dd
e7aa
f957
c97a
6efa
9089
d025
2097
264c
ed51
a5f1
89c9
7a97
4a87
a261
a2ea
510e
5e1a
463e
a38d
f1cc
af05
5297
e495
2d97
1b61
3d3a
3375
06a5
58b2
cab3
3034
595e
7f37
d5e2
7122
79dd
edc8
4925
792e
60cb
7b07
b9d0
49c5
c77b
ff55
2e17
5fee
119b
ee57
b98d
4141
48b3
3b3c
66e2
a620
f729
f12d
0242
a00e
6950
e879
9db6
fc76
92d2
7680
141e
c5bd
87f7
6a39
9f2c
b52b
df5f
6248
6d0a
fd2c
75a9
d5b5
1a71
faa6
70bd
9cf5
bd83
c425
a147
5a60
be0d
82b5
5876
43bf
5987
f31c
06ce
6f72
375e
b589
8bda
a201
1ac5
9e57
8161
675c
dd18
4e1d
f8ce
87fb
f3c7
b257
05a1
7c7c
078e
70b3
476e
3822
1810
6279
bedb
6e98
cb6c
1a19
f756
59d6
cc2d
2ea1
8f34
7a94
f529
6ed5
87bd
4fdc
e186
821d
b433
632c
a0c7
af76
9ca6
01d4
e544
f99b
58af
6628
e526
d824
7777
582e
c009
117d
278e
dd7f
dac6
0fa5
c676
121a
5a92
3f87
d1b1
6885
d8bd
929a
5edb
6605
2972
71b4
beca
d6d9
bda4
ec30
32b6
13bd
7b18
382d
ad22
7146
930e
75e6
0bcd
3495
c94c
55ab
5a78
c17b
f47d
422d
a313
80dd
d25e
a699
a996
3d1d
a643
7eda
5e0e
19dc
c1b8
6ed5
e4af
7947
a278
c2c6
e7ee
6c23
06c3
5961
1e49
7fe7
5837
f359
0acf
18e4
c2ee
22ee
88f1
8cd6
409e
8d30
19cb
2eec
c450
44a1
5546
3090
5235
df8b
2921
6c06
0585
5d10
2989
f93d
9049
2f13
0d5e
7445
8139
5397
1b98
d032
df25
b5af
c2f7
1875
a1fd
3135
a298
ed98
35a4
7b15
25d7
f62c
aa9c
0f40
eb03
66cb
802f
b86a
bc20
23ac
25fe
79a0
466b
92ad
78e8
fa06
5e35
0f50
4320
1982
200a
2231
855f
3ed9
8fff
1f42
00d7
fea8
3169
d171
3f11
653e
9080
7418
8131
0a6f
b573
cafa
715a
d1a3
958e
6e45
e8b0
b916
5892
f617
9c2a
56de
541f
61c7
da32
e705
f969
cac1
5ff9
cc7d
5ebd
01f9
8af9
d26d
4e28
5b85
e4ae
9833
1b94
14e0
dab5
f6b8
b75d
f743
dac2
8f43
ac30
5a06
7e96
d49f
8f43
b59f
5688
8d20
3078
7dd3
55b8
41b8
4ecc
d9b6
3e47
0edb
0d41
9b04
6609
afb8
9b82
8000
37d5
b147
001e
bc84
ed74
741e
02fc
6316
5771
48b4
4796
82cf
92e5
ca95
0e9c
a43d
0e02
fbd8
4bd3
a0a4
6f43
00b4
efa3
5a3d
9b17
ad20
2da3
0cc2
9b70
c988
bd6c
1cdb
6d19
95f1
c654
516a
5579
dfba
0b2a
cd72
9099
c933
ff17
fadc
26aa
11a1
2b3e
0a71
1174
62d0
c7c5
7012
f3c0
7df8
9639
524e
b699
574a
a752
d09e
2f64
5e03
6a22
efcd
bd1d
3814
93ee
fced
6cf9
88c3
dd68
15fc
afb7
0ce7
0063
de63
a922
eb33
e04f
7f9d
59b1
2c4a
82d6
4125
7f4a
ebd7
acbe
fe03
2bc6
3da6
05f6
06b2
ea3c
6d8b
c8dc
2c65
e266
a52f
0370
c7e9
e576
16f4
157a
243c
afae
a59e
1d34
1ff5
3b39
747f
c46e
7382
d254
cf23
c646
6cfc
c79e
ce42
b5d2
8a5d
9dd3
183c
aeb3
8d04
d185
3e23
6b63
8fb0
435d
937e
da61
9011
11af
8413
9ebf
aa25
2205
0454
995f
47b9
3e0d
3c0e
59c3
6324
3ae1
383d
c8df
f4f9
82dc
9cd1
8006
7e5b
e759
0876
6a42
11e7
5cd6
b129
3a30
9aed
85e9
b324
3dea
f08d
810e
b257
85fc
b138
5be9
177d
87cd
689e
81c2
2c6a
dd5a
e961
af07
0495
e642
a9d5
1c69
01b5
a808
13f2
8a12
8fea
7af6
816a
7421
7b10
3a0f
351c
326c
d9f4
fa5b
746e
8928
9735
9b75
a69c
0343
45fa
03f9
8d97
0418
8225
316e
7811
2555
15da
c031
890c
1c1e
f601
6c26
c909
5d7b
27c5
2b22
443b
011f
86c7
03ca
b718
18e0
347e
a4fd
d8df
4733
de28
3dca
12ec
825b
1d18
2670
e4b4
9af3
be8e
c020
5abc
037c
e4be
3963
c5aa
b295
9116
405b
f91d
e1eb
a91f
7439
95d7
b6f1
7861
b080
08b2
eb95
f834
46b5
1f2d
8d68
c446
8f9f
b23e
0974
1755
0df1
7534
658d
25aa
de81
9d2d
9368
ca9c
fa8c
c9be
9ae7
8aad
8089
a745
9bae
c5a6
2ed9
7df6
2a71
aa4c
3869
9ed1
d77c
7101
3f1e
92d0
c43b
7483
5929
1459
03f2
48a4
0913
0ff1
8682
0aaa
ea47
1fb4
cc81
3e5a
832a
6cdd
abbd
c8ac
aaa7
7995
31c3
39bd
3c0a
f6d2
9de1
fd5c
0a2a
f8b5
6ff0
0ad7
6af3
e6a4
f52d
06e0
5b63
1f5b
f567
0a79
c925
e9dd
23b2
c5ee
652a
c169
d468
c664
36ee
81b7
0eda
3ebf
cb99
a06a
86c1
80d9
2290
81c4
314c
f935
f74f
5b73
17f2
4b05
fd61
d413
5b2d
0b1b
fb88
7b4e
9ff1
c949
15c0
08c2
9a30
7ce2
e352
8ebe
a446
7f0b
2823
a655
4c22
27c0
cccb
1069
2794
0f61
0ca4
7fe7
09f4
c9ba
4f04
cc91
3531
6d9d
29c1
b62a
9a96
795d
09dc
7cd6
f32c
dd3a
3807
150d
832d
96b9
f4b9
4ee7
95af
df98
a9ed
8f43
42e1
fa4b
1954
d3f3
022e
8883
741a
bd19
04e1
1a70
985d
929d
7242
c170
4b9f
6174
2e4d
5436
ddd6
f555
e38b
6d94
bab0
bda9
3d62
debd
ce76
8670
4786
9da8
dfa5
c186
aae5
bb05
a0f0
6fc5
1536
9909
a9d8
4715
0fad
6400
b65b
165d
6bd3
6d8b
4570
f585
b0f5
d2b0
8690
d1a9
ebcb
c3f5
3966
eedc
ad12
c97c
ef27
64b9
85fa
3c7b
7682
5507
8666
38bb
1e70
9407
0acb
9e36
fe64
40c5
13d8
0b34
8c4b
4e1d
74e9
8791
4c1d
b80c
2833
9a23
a5b2
6b2e
218e
3261
96bf
bccb
ea36
8d15
5851
154e
2465
fcae
04c3
f971
dfe3
397e
671f
cfdd
2e6f
dde2
6704
69ba
2a49
1f7e
9bc1
4c21
3dbb
3a9c
cdf3
b134
2e72
fad0
7a94
a9f1
6827
965c
708e
ea5d
0e66
1275
90c2
6e6b
430e
dfbe
1b05
5261
8cb6
3fa4
09eb
925d
cd6f
b58e
dd7f
3a5c
2d26
a466
6cc2
2f45
cb4b
b7a8
3e60
e6d4
6ecd
f629
dafe
0442
8454
da20
5319
a960
f103
bd98
3afe
d05f
a0a2
ba90
b054
3eb2
ca97
48bf
3158
1e2f
43d7
d861
b0f0
7766
decf
07e8
ad18
01fc
a20c
c4ee
0c4c
e758
5598
5421
6535
6d71
e90b
1f0c
ae17
5c57
6453
fb14
d1b9
e865
c3b6
1112
e079
a0a2
b001
6419
77dc
3c6a
add9
3cc9
10d2
3e31
7ca7
456a
b854
0e16
23cc
0f2e
cd50
8876
3e8f
2a64
542c
1dec
4d16
0f3e
8552
cb19
619e
d467
bd40
0d09
0c4a
a502
922c
73c6
c121
e95f
195b
b350
26fe
128c
a33e
3e05
c771
5e7f
0933
50b8
cd5b
873e
561a
7e94
2a91
b19d
031c
991a
5139
d8b8
f582
e0a7
2b25
85d0
a542
fc90
9668
ebba
f854
bdfc
446b
5889
ce98
366b
1182
dede
d0bc
fa4e
e0e5
4f2e
f2ea
129d
8cd8
794a
5e74
83cd
4432
7718
118a
7ae5
dcd4
647a
6b75
4809
e322
2f26
aa59
7e78
99c2
f027
f520
a016
8bf4
00c5
7629
f86c
900d
c74a
a462
c6e8
1bd6
f8cb
369d
9aa4
22c5
034a
e3e7
c981
b16f
27ac
1938
33a0
2e94
1040
3140
74c7
6b4f
33a6
7d75
9133
ce9d
5808
8cfa
0d45
5141
ab82
83b8
8c71
9b26
2492
b68f
617a
a98f
56e9
f6dc
aeec
a662
68a1
bc51
4d13
1c60
9c47
55bc
0f7f
15c5
7a20
52b7
875d
18e8
15a9
39cf
f713
9fbc
ffc8
9ad9
761b
9241
1f1d
0b66
fc0c
d170
4471
79a5
6216
bb7a
446b
669f
d3d7
4d18
5145
1517
2007
e534
d960
5e4c
a875
bb19
dfae
e7bf
9b84
0b35
a5bc
1dc7
0fff
5c88
eb3e
c538
62a4
392b
027f
1a21
1c52
4520
3724
400a
7098
4d7f
59a5
569b
1af7
071b
b357
1c65
effd
f3e2
bf76
9f6a
27c6
86f0
be7c
1396
ab96
82b0
2ff7
4b92
c2e9
9369
f837
04b4
0f35
e77c
0154
fcd5
8da7
f439
3351
8b77
3096
ef9c
10b4
169a
7b67
85f4
3501
f08a
492c
ad37
5af3
fcc8
20c1
a9bd
77bb
fe8f
a64f
c7a5
f4f3
1805
f919
69c9
3a8d
3fcb
43a6
25cf
a5ff
f9a5
9d85
bc84
2fd7
1d66
f2c8
e2fc
a554
0d4c
6984
7b60
c69e
c85a
c1b9
1f51
2eb6
d75a
123e
b7e6
e2be
65e0
abaf
0489
f2b3
81c9
91a8
4e59
d826
d062
6f2a
d634
c434
26ba
9b5b
b5f0
a636
01a2
7fb5
a6bf
fefd
ccca
6411
0efc
b670
f9bf
df60
59e4
c50b
fd66
2c3f
11d9
a638
ebd5
4355
9f37
de35
28ce
591a
ad7d
75fe
561f
b0e3
af78
5282
a54a
2e94
107c
29f9
ec0a
d6fc
ebaa
ed9b
4806
be15
d97d
52a6
4858
8ac5
7053
67f0
0a3a
040d
5314
4181
a11a
9312
47d9
ee49
d8e3
4802
d7ac
287d
b3ba
7578
0f35
9003
b988
7162
568f
6f09
95c8
5673
0203
8f02
f088
4193
30ca
8098
130a
39d3
e2a6
9e6b
ba29
498c
5757
76b1
34de
2fa3
09d2
5689
7f6c
5784
d32c
36c7
64cc
bb11
fda8
b55c
66d2
ff0b
ed13
9103
f75f
45db
423e
2dbc
60e3
6391
98f9
9efc
467f
f8bd
d162
c6ea
7807
7b10
4ae6
08a0
322b
eb2f
b120
b032
0cb0
b1ab
69d9
db7e
2795
785b
e0c3
5a6d
27ef
1e22
7404
17ee
c6b9
8fba
fced
cefa
4545
7934
6458
6329
18d5
1b6c
e1bf
3912
4c78
9048
5ecb
566c
31ab
9d09
1876
5af6
cbfe
b1ac
6789
c6d3
c7be
f9ae
f31a
0955
17b4
97d9
fcd8
7187
29e9
431d
7df3
fb28
890c
8056
e990
b39b
f0bb
ad66
ce61
eff0
39df
9cc3
f43e
4cdc
8eda
1baf
da44
38d6
a26c
8b72
8020
134a
8120
3540
0641
4c7a
f7d4
6993
31a4
d182
615e
cf82
e00f
cf00
9a86
8db8
754b
c103
5856
f296
03e9
964b
6b4c
27e3
c888
919c
270a
2570
664c
30ed
1473
412b
ab26
b4da
d4fb
705c
938b
22fa
6540
ac64
49c9
3990
36f6
2f9d
dc20
69d8
6605
a08f
a26f
c2a3
bd47
16ce
1dc6
a8c8
64e0
c7d8
8a32
a2e9
7c28
483b
c7ca
b2aa
5208
8e58
7fa8
f571
46a9
406b
8fcd
68e5
f1a4
f6f9
37d6
879e
9f9d
d9c7
d8e7
8012
9e73
995a
d76d
7291
7d7d
407e
494f
91fb
53ac
cf1c
be83
2f2d
d642
2825
d0f8
78fc
107e
ff7a
6632
e6bf
2521
66fa
d10e
c364
4a2d
a670
546d
21da
f3c7
7fb4
5f99
9cc2
8ad9
3766
992b
b0a1
0da4
9c98
2337
7c3d
0ad2
de1c
3930
db39
9218
0b7f
0ca0
f67d
ef14
ac74
6ec7
81d0
6a71
2f26
0963
553a
d046
ab8d
eade
4b01
d151
f0b0
749f
0c49
8307
046f
ac78
fc7b
5ab7
2013
59c3
3013
00cc
948a
ec5b
6e8c
b34d
fe5d
312f
252e
4a50
90ed
544b
383c
2bcd
5741
0f4c
b0c4
cb69
d658
c690
1a33
493b
5340
4f5c
3ceb
f49b
1bfd
86e5
73a8
9050
3bd2
abe0
77d4
df42
e712
23b9
f394
b3e1
9457
3f16
68c1
a950
b597
1017
c1aa
1b3f
adaa
6919
c21e
09b1
d3ee
4c6a
c045
3311
a4bb
0cc1
c169
5cec
2be2
e54b
0a22
8d19
99b0
df5d
3987
4117
2761
de5a
5c52
3f30
b6a9
a8c7
d8d7
8f48
c2ba
d21d
ca67
5043
eac0
ba12
0d11
7f16
ac0a
9239
644a
2d13
0716
08d2
bbb6
5d71
85ef
1076
f969
f445
638f
3f75
7055
c401
188d
ad0a
07b0
2ee4
3e42
2b8b
08d7
28bd
aaa0
26ad
a7e4
63b2
e0d8
5d8f
fbe3
e448
7c73
6830
101e
69bf
d7b6
8f74
b73e
dab6
07d7
9a5d
4892
a0d0
5de3
2b87
1aa6
ade6
8208
3450
c29f
d072
3402
a2f8
03b3
db4e
c335
1dc2
8ff9
052a
1751
20f6
bcb5
1e46
867c
6f81
c1d4
3e5a
b1a9
8c95
8d64
1261
1953
0c8e
ebf5
21fe
8336
ba2d
5312
adde
02c7
10ce
71c0
fa22
98db
9cc9
dd67
e3fa
0a28
6b12
ce23
4ce5
353b
9ed6
9bc3
4843
8be6
3529
47d5
3748
bd09
ec65
e5de
ed61
a0ad
ae03
4611
11dd
82ca
7959
6813
a84f
8ade
d1ee
49f4
a6a7
6f7f
bea6
1b44
90b4
1c57
551c
b6ac
0126
ca52
842d
c75d
692e
86f8
8192
4426
d237
7b27
8a86
99a5
0930
5c8c
3e12
1767
e987
b3c1
7ea3
e262
61aa
470f
5bcd
9ddb
86f7
9381
adf4
51da
bd0b
9c8a
a8a6
c81d
4ba8
91a3
7d9c
4a89
2bc3
cecd
ffe1
5080
8108
132c
f423
786e
b84a
07bc
217d
f4c8
4b28
5e25
bda0
a270
cec4
0f55
9cfc
aafe
e666
cc94
94b3
f208
db19
b687
e535
08b3
305d
b2fd
a57b
fb95
bc45
b21c
c53a
14d6
03b2
cdb1
43fd
e2c6
b623
8f0c
ca7e
bbc1
68de
d3aa
d7ad
c115
695d
4699
22f9
cde4
2a03
8d95
6295
b856
df19
fe64
8d89
2884
3cdc
4f25
609a
bc4d
8847
54d7
3bf2
b9e6
ff07
718e
5252
b6d0
c340
3be7
dd8b
31bd
f670
8e03
9935
7666
1488
e81e
c717
f7c8
f6fa
1c6b
60a6
7809
0da5
9f3d
1b10
cb7a
43fb
72fc
6b50
645f
c533
0e21
3341
40fe
b07a
d808
fa53
4000
f24a
7f49
bbea
f943
283a
8766
9f92
bfdf
c33f
0562
2277
47d3
4301
2502
1776
0eb1
2b63
c4e5
f43b
8d23
b8aa
654a
dd0b
a378
2669
4853
89ac
4dda
492b
d636
27aa
3717
77e4
99cc
2cad
c2eb
acb1
ae63
d479
9ea2
eab1
be7d
b10e
6b9d
a133
440c
247b
758c
bcbc
cd6c
0a76
c0d5
e055
c82c
9473
3ea2
7cd4
1f73
ade5
7842
f8f3
188f
d935
f072
5a7b
9b39
6d4f
7a0f
9c2b
ae79
7cab
3680
5b1e
d464
462c
8fcf
ff3c
4924
2b52
b025
1da0
ae1f
7e0f
1546
76df
d975
f57f
e6d3
6552
03b9
303e
7309
7411
ddcf
6099
e589
a970
122a
934b
26bc
5737
25e0
b05d
75d5
4129
8a18
7268
4aa1
2e09
f68b
da1e
4a84
47b5
50ef
7976
99f2
273f
ffd5
394e
ab2c
9829
5998
c651
7642
0f02
1195
2ab3
f027
ed98
0754
4902
2f13
6c29
c25f
d68c
a5d3
1117
5895
c5a6
6e25
44f0
3788
4206
e6b0
15fd
441c
e036
5b4a
94aa
ac5f
0a4a
fbe1
6b94
ebb3
7258
969d
8828
a778
dd14
34d6
49a2
7723
6fff
b50c
2f11
41fe
4e49
f5f3
9244
d2e1
f7f4
42ea
980e
a254
c9e8
1056
9eb1
0864
916e
65e3
02ce
7ea5
aad3
37ad
4cd7
886e
d8f3
c707
7336
dcbf
f066
d66b
3cc2
a46e
cea0
987b
3250
4cd4
600d
6519
0951
af05
a1d5
9e49
4eb3
40e7
f9a0
cd5b
a9d0
0647
47c8
537b
c64d
9a6c
5de9
41cf
ac35
d1fa
1a1c
d1d4
9070
9ba3
3372
5e88
0fc8
be01
2df0
cacf
c76a
4012
a3eb
4e35
bf04
67e3
9a36
0e7b
cfac
5f31
0552
b054
8cc2
fd0c
ec78
f769
e346
619b
8225
8b33
65db
a051
49ba
1ab9
cc19
bd7e
594e
6bad
42a0
6144
26bd
67d6
7632
ef49
037b
0a1b
41b3
6dd4
17fc
8ce6
a49a
5274
9a60
df68
cf43
4b4c
7d8f
6add
efcc
90ae
9f89
273e
65b9
a422
8444
949d
23b9
2856
c3a0
7a02
aa5c
a7db
2ebc
72e1
0ebc
68d3
6bb5
53bc
9e1f
2285
cef8
5089
cbce
0e15
f869
e907
a998
114f
13a6
0e3f
b14b
79e4
7f24
07a0
8a4b
e744
38fd
b832
e673
7aca
2952
fcc4
608d
14c6
daa4
ae5b
6a78
0eda
4edf
74eb
d464
884c
e21b
98ad
81c1
71df
dff4
0c67
e385
738b
2271
e568
8f88
8211
cef9
a23e
9602
8e9d
e854
ba9b
c4f4
adf0
dbb3
7ae4
a88b
c197
751d
afae
8bce
dfc9
6943
4fa9
18aa
9588
13ae
81cf
f3f5
b429
8372
517e
6d0a
187a
0953
844c
13d9
0024
be83
77b9
08a5
6168
c1c7
54c3
c09d
e42e
7016
aca6
bbf5
e107
3097
33d3
9551
4aa7
78f2
6e0c
4b3b
e10c
1186
b6b0
ab2a
c8c7
b9e9
cbb8
1c1a
3d93
e00b
9f05
6a6f
4932
4621
9d0f
73e8
444e
c49c
cf87
8d7d
4cd7
7aa1
6c53
a781
0b56
0b98
5da3
39a0
979f
f856
c672
6172
63c7
1424
1b80
7982
7a64
9f6a
82c8
9f0b
c8c8
0c51
7d70
1187
9edb
f13a
9596
51e7
2897
e12b
ecf8
73c7
c4ee
4f2d
50d5
65da
c81d
4588
6746
cdd6
ef71
a022
c9f0
7617
6fe1
1d61
cdf5
4be7
ceac
cc47
9d0d
9135
02c5
f477
860c
f17d
812e
bc4b
f7ae
26f5
fa0d
e76d
b091
0916
9c5a
1220
711d
f014
46fd
2147
18de
5185
4ee2
7bd8
0046
56fb
7091
0b87
8aee
1725
d409
d540
d891
42fb
2399
2aac
70b1
22cc
3a83
99b8
11b9
0cf0
336a
e3a5
06e8
59ac
5783
e53e
b3d5
6312
be65
9bfe
c010
cbee
d98d
c22d
98ad
a7fc
1b97
26c3
8228
2ecc
d5b7
9d3e
d48a
3af1
f117
a241
a2f8
5de5
e319
9a59
2f12
ccf6
e91b
6d64
8f12
4067
f1bd
96fa
971f
1bf5
44bc
f7ba
c57c
fb72
c12f
2909
9165
2202
7256
8d3a
71ed
1fd3
e05c
f80b
5233
3519
1128
7fe1
95a3
94ab
dc71
fe64
491b
3886
2d5a
4b8c
09dd
51bc
5691
fca4
2863
594a
d8c5
d869
7fc5
6abc
c4b6
3768
4edb
8970
658c
12d2
1189
445f
c9dc
baec
7fc7
d694
27fc
de7e
ce59
7197
d5a5
4da4
74f1
66a2
8f8e
da7a
5497
acb8
7faf
f2f2
7469
7b7c
1776
fb03
a8d3
0f99
5cf5
3a83
840d
a705
5c2e
eb82
1719
edfe
ff73
7f63
0b6e
48e8
7a74
9f1b
7dab
8e69
64be
34f0
7683
a415
38c7
9513
0040
5825
7b42
4097
77ba
b1ca
e65e
fb6d
e098
43b0
ac30
d2d2
22b5
1f18
93c7
4d5f
fe74
9a96
e183
56c2
38e0
48be
0937
6600
60d1
7b43
0abf
9180
22d1
333c
e565
2570
4f97
722e
3be6
48fc
59b2
59e4
b450
657a
2caa
2718
080e
4dba
3eee
8b89
d4bd
6aaa
140f
8df6
fbcf
97fb
1ee0
ba32
b43b
0754
64b1
f5eb
8766
0129
317a
0d89
8693
2c02
9f09
aeba
f7bf
1453
f8a7
99f9
aa80
6d94
7de2
0e83
fd07
f03a
0a0a
c925
5b74
f7b2
f6cd
0c43
37de
5fd2
085f
c3a6
ca30
e23d
5ccd
7259
390a
309f
7d12
8c4a
3088
7d65
027a
29f9
87f8
1ab8
69eb
50d3
45ff
d350
debd
a386
fef4
458f
68c2
f8bb
aceb
da48
bdd5
592e
db9b
7471
e0af
12a0
7c13
6e06
6355
c822
ef26
19ea
6a95
e933
aea6
6570
973c
4d9b
d4a2
5531
7c04
9ac3
f395
1e5e
396d
fc18
4137
42d4
626b
e6aa
bd5d
52f0
a596
f0da
6774
954e
7f3a
829c
7701
264f
1905
827c
18bd
90cb
6563
b992
df12
3586
e795
f696
00df
1fa0
3f4f
8946
e0f6
fb15
9123
7a4c
26e9
f481
5c5c
826f
b13a
96c0
1efe
1dc0
6d34
4655
f53c
9cd7
7fd8
3b85
b33c
f091
6e36
1151
0c68
cda3
ea5a
3059
b86b
4c4a
cbb2
25c9
0cbc
1567
f04a
63fc
c3d3
67a5
b4fc
ca6d
6cb1
2686
f2e5
a69f
1bc3
b5fb
f585
4dcc
e3be
f751
1dbc
abda
7fea
6d22
7a20
5bf9
5755
4e4d
7746
a430
3653
fd2a
e33f
4f4d
acb5
fc10
05f3
f3bf
7449
500c
30d5
05a0
0837
4df1
def9
3bd6
6ecb
df86
90b7
5a33
45d6
5ffd
4e23
0dbc
dc76
2fee
f9cf
ea03
f688
6cc6
dd5f
613e
7956
d386
9e46
4f88
bc1c
60b4
ec3f
9bf2
d6ab
7ee2
fc8d
dd3b
382d
d688
5115
4d07
f1b8
d911
d277
bfd8
5391
c7fe
b02a
06c8
a74e
3172
1281
5f14
e64d
1f60
1556
a890
e9f4
e678
6994
51d9
3e38
e03a
ba1c
0c16
aab1
eba7
0936
cf1d
fc63
eaa9
7a92
cc66
14b5
b990
21ca
65ca
a802
22ad
f5ab
ce28
e3a2
c718
a2ee
b480
a319
1ab0
97b6
af46
96ea
262a
cfe7
4d3f
0a26
7b66
1ae7
18a2
5c0b
2b9c
8e49
ea93
2d43
4782
ae43
131b
433b
68ad
c39f
0d94
90c1
3cb4
44b3
c128
baf7
388a
36a8
6357
50f3
849d
f6cb
b7fc
966b
128e
bf94
523f
12e6
8a50
1110
6668
c271
2dc0
d91a
b5f1
f051
ffc5
045f
9b2d
6c91
8b49
7fce
e24c
b7a3
30b3
3aa1
c00c
ecc6
529b
40d1
07c6
bad9
1a8f
a9d0
6740
2cd9
b45c
90c1
751b
dbaf
9ee1
0ff7
e03c
8785
72b5
c194
8bab
9f22
7da9
30b0
b12b
3075
542e
6388
4146
1c37
1ace
b1de
f0d5
2fca
049a
ea33
8f60
c0a0
f8b4
3628
7d89
bf7a
3c32
649e
1485
bcb4
6275
9571
962c
ece3
ef6e
9143
3322
44b2
0195
d4f9
ff25
1694
cc01
2469
ef76
7013
1206
1fac
f2c6
e1b5
1959
947d
0699
2cae
5f40
82cd
f576
08a2
d074
bc84
79e8
0cc5
fdcc
438d
b0ed
0b59
d1f2
eb66
d4b6
d0f6
5214
1bd8
74fe
c567
a518
4fd8
b0de
51a4
c015
60c8
b5e0
b2b3
b03d
30e0
6892
eb49
fbe8
66e6
88fc
a917
661b
5f67
c6fa
80f2
13f9
96ec
db42
469d
6e9d
f831
a065
c60d
4610
c145
1a8b
965a
7f0a
389a
5296
d422
2374
42fc
528f
af86
0b66
131f
535f
49de
31a5
0a0d
f79d
bcb3
587a
ef21
2b5b
3dc4
73ad
5cf7
ad2a
8cbc
ab30
93c2
3fea
8180
6ce8
f076
26c9
1b54
78c1
f0b4
879d
cdc3
c17d
5f6a
1297
e1a1
db4a
a72d
2741
1ca6
2e16
537b
5f3a
552d
6b09
50c2
1bcd
cb72
c677
a53b
442c
2342
c83f
1e2e
d57c
ce88
46e3
bd66
1897
8388
92f3
9d45
b9ef
2a38
4ecf
c5e2
8dfa
4efe
dfb7
3b8e
d803
29a2
829a
3e29
87c1
8b94
386b
ed88
3707
40e7
7e20
838f
6463
2a60
d595
34fc
9aea
edd5
7d18
7e0a
4706
2a35
cd72
9561
62ff
5e8c
1061
0f7f
a112
52e7
7c0a
d4f4
4d00
8d41
7cc1
0201
7c4a
18c8
1260
0e0d
dc61
e3ff
9b14
9a38
2dd6
7242
8707
8651
d663
346c
45d9
4403
18fa
db3a
2c23
fe96
6f89
9fee
e9cd
4c8d
e5dc
157c
f416
2beb
2f9b
ba77
851d
e210
742e
18cb
5948
8581
b6ff
830c
33b2
b29c
b05d
2f35
1423
8f67
e002
4aa9
093a
b1e1
d236
b249
7d10
8513
8b8a
6a01
6596
8670
feb5
0129
20b6
b229
085a
af95
59aa
a1a9
ae92
5dd0
35c8
bd11
3653
acc5
6c6d
6d50
9360
79e5
7ae8
6b63
6446
d590
f235
1b01
ecf2
884a
7be0
4363
670a
64ca
7799
0238
d206
4e05
0876
af62
e96b
47d3
45de
c5cd
f8f9
4acd
2887
5a0b
2130
4866
525a
04d6
5b66
7bdc
e7a8
16a8
d46c
a305
57a3
dc8a
4c4b
9486
7fdb
2121
5d1c
9507
fa1d
512e
73bc
a1ec
81e8
7842
a907
d96d
2ad3
8aa7
2792
75fe
71f5
8549
fdd9
18b5
47c8
0f4c
1cb1
c19d
0e6d
00dc
f44a
19a4
7c8f
f3b7
3059
45ae
fd78
334e
6cad
6564
97c8
7234
d275
70c7
1bdb
8fab
a01d
4e7b
86e8
6b72
e81a
7bdc
8cee
87db
1b24
d747
0699
6f4a
3ebe
bcd8
2785
22ed
0724
4468
89e2
a982
241e
a709
1892
3c53
be0c
c4e3
d546
092c
4896
8bab
6bc4
1a96
4317
8d9c
a10e
0420
53df
21bb
11f9
8a9d
f08a
aa81
bc5d
d3e6
70cb
5576
516a
ab1f
b31c
e134
b77b
15ab
17eb
a030
4484
0689
99b7
ac3c
fa5e
7a6d
26d9
3ec9
1231
3e0a
9d24
5e7b
f981
f342
3780
a55e
58b0
b797
0d07
9927
839f
9e11
628b
2a95
a12b
f1f7
6a94
baee
fb75
8d6c
3eaa
f461
ab31
ba01
7658
37f2
b8ce
be88
a712
8bca
2660
26cc
181a
d82f
fbbe
00f2
6d8c
50d0
4abe
c8ac
4a09
05a7
06e7
4371
0cfa
ed18
869a
469d
7f3c
46d9
ac61
b175
6db9
ce9c
7519
067a
5bae
8185
fac0
2dfe
dbc1
d493
c689
fc33
7376
9983
4ffc
0fc3
00a0
3f17
ffd0
6882
0011
387a
f9bb
6ac5
8fd4
2e2d
39ef
283e
f1da
94b2
0c80
2773
1a4b
aa53
8faf
2910
f619
4c84
3f42
71db
d159
827e
12dc
70ac
bf4e
046b
4e61
b3f5
5b8b
6acb
8718
d131
9087
0a05
97cc
0217
8868
c773
1775
d8ca
2b6b
a759
fde4
57c1
0192
9b26
fdcb
7d74
f487
eab2
ea6b
c0ed
a489
4225
910e
92ed
0108
12a0
a9dd
c157
55a3
3799
f906
3ef6
777c
5e9d
eb0c
c750
4856
2cf1
0a37
c13a
1ddc
5cad
235e
b136
9711
19d6
050e
7fce
b84d
1b4f
5d4b
80f9
c72c
bd2f
9601
32c4
3f0d
9e71
0561
33ee
d658
88bb
6d55
5696
1dd4
985d
807e
279b
64f5
f4c6
6d9f
9963
0c75
ebae
2f9a
beba
8b2c
0ed9
99b0
bdbb
756a
6776
2e40
c756
2ca8
cadd
a475
679e
86ad
1479
b499
3feb
7a72
851e
de2a
5659
d3b9
0244
4a86
2f10
2d95
324c
7f8a
acde
672b
437f
d919
c7d7
4918
cbf5
1d0b
ea4b
141f
7bac
b673
7b62
6198
abb1
2f6c
4d90
dba4
7a02
0089
dde5
a85b
54bf
2946
8c6a
a049
7f17
d962
fb95
c6b6
7c1f
d143
507c
a181
e8b3
f812
6cd3
7966
f578
a3cc
1f96
cc92
365c
ca6e
6cad
bf05
848b
0041
bb54
5145
4c9b
a20b
bba3
9593
f294
6bb9
1ce3
5886
aa73
f61b
1415
836d
2db5
bb52
8e87
c51c
24e3
976d
84f5
2d5a
0d29
0a8c
155b
2098
844a
d5cf
cb41
9553
21e4
1bcd
46e1
2665
63b9
d1f1
4e35
66ae
512f
c1f9
931f
e581
4136
a7d7
3d89
3956
14c5
4846
49e3
52b3
71fe
0014
2c4d
bdf2
6dee
087a
bd4b
fa51
263b
688a
9e25
d62d
4a59
d880
81c6
0c08
494a
d83f
d1ee
254e
5d8e
6e76
12aa
a304
6c64
ae07
7f54
bbdd
e3d2
526b
b29b
88dc
7d87
e8ec
8a2d
654a
27ab
8f85
6933
003f
d747
55b5
f4dc
5f18
b9a5
79a3
53a4
c906
8e2e
3e18
41ab
a128
dd0b
6b6c
7754
2a8c
f915
8f66
a3de
e34c
8100
85f8
e225
21ca
c66e
10ca
35bd
1657
22a6
9bd3
8f06
bef3
7df9
95cd
7121
39b2
b756
f979
c487
24fe
6263
46d3
2ac8
4472
b949
d4b5
d2fb
f75f
ca13
6a40
eb02
3998
81ab
7732
e4b0
69fc
60f1
8167
d808
c86e
2a01
317c
8a62
e0bf
c8df
c3ee
628e
5837
1041
d981
a3a5
1c67
9eac
2733
81ce
f2bb
ba7a
8ba6
727a
e49d
87df
613e
2520
0848
e332
14b0
3f80
4cb0
cfa6
c2b0
b152
9303
96b7
8db0
fce3
e7c4
34dd
fb9a
7aa4
977c
1cbb
41d6
150e
f171
f868
e95d
c27e
57d3
3cd9
de4c
8615
d8ff
b6eb
c98c
8e45
d408
9c7c
dc00
d0c0
2d37
3c15
01b8
4fd7
f2bb
87a6
3344
abb3
d30a
fe6a
3f59
ef27
485c
0896
b8d6
4681
091a
60e6
58fa
ae56
278f
fa86
7a76
bbdc
5323
38e5
4e1e
95f7
5c8c
08ba
5fc8
03ce
f319
2481
ea05
0911
c9f1
dc5b
e6d8
7f4c
61e8
32d6
8ba6
00c6
dd01
2a5d
d7fd
097b
bbbc
37da
98d0
6fd6
34b0
46d5
40dc
d3c3
5bee
17ea
e2c5
e1fd
a874
2e18
1e0f
5dc5
8360
ca88
9597
67fa
5cd3
e00b
c119
3264
cfa4
ad62
9ef7
3ea2
a333
09bc
fe8d
801a
b3ac
7603
055a
2961
5405
e5a7
6b2d
2dfc
50d3
0d21
af7e
eb25
fb1c
d5ab
d095
3d0b
2a5c
fe60
58f3
1e98
025e
7365
fd76
9e47
f094
b2f1
2705
5f03
72a4
33f5
6027
459c
e77c
8a3c
9120
f902
bbe9
b43a
7564
fc59
fae6
df92
ce19
f404
ef67
fb85
1979
3290
1020
9770
190e
7d1d
bdcd
f5fe
9cd4
96db
fb12
6939
8c4a
21ef
35a5
a10c
3f53
da33
f799
3a70
6f17
c62d
2842
bf72
78e0
a5a3
bcc9
f294
f9ad
fa37
ab5b
8519
2d43
b765
e927
2fe1
e5a7
96cd
4195
232c
1d10
c849
bce5
0f6e
b761
aa5d
34e7
f6a9
a84e
47f6
2892
4978
a8ab
e42b
1fb4
a4fb
690f
d495
2035
7887
02b2
5a43
417e
57a9
0799
b23b
dad0
eb84
6eec
c1ef
5ecc
fb13
70b9
744a
b28a
10dd
c349
6760
3147
271d
bbc4
1860
1032
2970
f83b
ccd1
65b1
394c
a8e4
6296
f10a
4020
85b4
2e88
2fac
3b62
d53d
2055
2a4e
b6cf
3e19
2ec3
2b03
4d9d
703d
879f
f82a
f384
602c
3f46
1735
bd90
5e60
535e
548f
f2e9
23a8
4e58
fcca
9ac2
6a91
cf32
3e53
af34
85b6
4ebb
9049
0cc4
b60d
c018
848a
476d
be92
249e
960c
af85
b92c
b268
1853
4751
f0dd
f049
cfc6
b9d2
24e1
bc42
fca2
2d54
27c1
2df6
2716
3139
4e7b
30e9
d721
7612
b619
a7f6
d693
877a
ae02
bcb3
eefe
5fe3
8c94
0310
2b6d
7da2
ba6d
a1de
bfa5
7cb4
96ff
86c7
c4be
f0a2
b2ab
4d27
9bef
e9a3
2a95
3e43
4899
7578
ee3d
165d
035f
0b7a
758d
32b8
b7db
be2c
e462
6f70
6cb5
afb7
e0d7
84e1
055b
0c08
6027
6321
12f9
0f71
6cda
4550
86a7
ad00
6b1a
ddc6
6562
0b5c
609d
2c20
c093
c204
a9bd
3309
6ff5
7b03
daaf
1f36
c4c2
debd
74f5
2052
de38
e31c
5b25
7ed4
5078
8d39
4000
8df4
1804
481c
1695
e9f7
021b
853f
445b
0295
00c8
9fb7
5146
95be
ed6c
6759
841e
69f3
189d
2268
783a
84c5
e449
bfa9
5225
305f
06b0
124b
26b8
9d7a
fa2e
978f
e4f2
7a56
7c24
9b72
b3e1
b96d
3e76
c6da
5bcb
4d83
5252
7d81
efa3
0689
8777
c7db
5449
6ee1
831d
9ab9
b93f
c191
6ace
6aaf
4cc4
bde3
2c57
8e51
2604
ef50
9510
2fec
b96b
a960
d875
c5d9
7864
69e3
46d7
ee1e
8967
fa3e
a0f9
59d2
7dee
ec16
02e3
c3c5
ae76
0caa
040d
b706
d04b
a4b1
ea69
dd77
fce4
98bf
d203
21fb
e10e
6825
1c5e
18c7
eff2
823b
b40b
d518
0b62
fc5e
4628
12b8
d382
9b8e
555f
78b6
9dcc
dcba
3062
6450
3085
8400
14c9
ee72
84e5
81bd
f2ca
b92b
e443
c937
c69a
e04c
4f19
864a
52cd
8ab6
157f
a630
6b15
cc1e
6930
29d3
a4bb
afef
67df
6cdd
00ae
5271
8b7a
f869
b72b
8a17
5166
297b
f32f
9e0d
bb36
1cb3
e020
7bcf
61da
3082
1109
b20f
de0c
f3b2
5fd4
ab96
2182
eae4
dedf
77e0
937b
b495
1504
596d
50bf
5233
820d
dc69
0c6e
9de1
71c7
a69b
ad48
4134
5d9d
0f7c
e44c
e2dc
8f66
cefa
7613
2964
4a20
3c6f
d0f9
a1cd
1010
8306
1f9e
7508
d0a2
55db
d764
62a7
1e3c
5b7d
1bf5
f307
d25b
a1b5
d1a5
fef9
fe12
c2fd
9e6a
8205
1261
6351
d080
7b1d
34af
e7ff
e558
92aa
0299
d672
0136
3134
5876
5a9f
f35a
ff77
0cca
eabf
399e
2343
3ff8
f013
eca1
0fb8
7a3e
cbd8
d768
5933
c246
0574
b8af
3807
6419
47fc
8d50
94c3
77f7
71fe
dca3
89ef
4d91
c4a0
08a6
6453
9c9c
3099
2bc7
8cab
2c77
87d5
b10b
f6b7
0951
0bc4
0ca1
44dd
7ad6
871e
a3b6
6e9c
b044
b06e
207b
9007
24a5
515f
d0e1
c2db
d950
92ec
0b6a
953f
2adb
5981
cfdd
be15
e24f
a14f
d047
86ce
2e87
cadb
bafd
69c2
71a6
87f0
d785
83a8
3d26
4f18
c254
7783
2330
2f43
ec1b
3e13
fcc9
6a27
7d5e
42df
d92f
d0d1
4dfa
23e7
4e4a
67dd
90fc
00cc
101b
6a21
8976
9071
e062
699f
189f
44e6
7d5f
ec94
c3c0
8bc3
d366
4cac
a598
b941
60a4
e3b6
bf4e
94ca
6ef9
853b
e2d8
5c36
00f0
90dc
5c34
1b80
2ca0
5f4a
c3e5
1b59
9d8f
2ff6
25b7
fbef
2719
3447
1a67
cb77
bd6a
a1a9
ce9c
2001
031b
5f48
9b58
f496
9638
3dd0
dd56
b147
a57d
2e1c
c310
b88f
7363
ddab
247f
12cb
f2e5
e303
8e8a
8273
b7c4
c856
8935
979b
786e
4130
bfc2
b31b
b424
817a
6eb5
cac4
7b3f
9325
b19d
302a
6212
68e8
e1a0
63bb
ebb0
28fe
6236
07b4
cb3d
1388
0b7d
df32
d6eb
593d
4197
375e
c553
6352
ae45
8a43
0580
ddfd
016b
b621
1b11
a8e8
450b
cbc5
1bf2
c344
3f45
277e
1953
ec9e
002e
5f01
3037
419f
b2d5
a9ad
1ab2
ec76
5de7
9c80
ea10
4e4a
3444
68ba
a081
2967
a9dd
c664
eef3
dfc8
16d4
9496
e9b8
9bf3
7082
999b
f27a
b0ad
564c
9da4
c4c6
b8bd
8218
fa7c
0a88
72a1
46df
6442
fc35
275f
6902
c0dc
ad4f
3066
92f1
1b56
650a
96c9
b41a
fbd2
4a26
aff1
c64b
ce2c
2c3a
563b
7dd7
ea86
c47b
a148
1a27
c75d
72a4
099c
9d44
6007
ebf5
1551
34e7
5d83
29c5
fd81
a206
700e
16e7
2e2f
92a2
9368
e9f9
74f6
184e
e0c1
6cec
0584
fe6e
eafd
fea7
8ceb
bdb1
e3a7
c0a8
5b15
c289
29bd
36e8
9499
0b4c
67f8
e935
9e10
fad5
91a3
f0aa
096e
c5e0
9d90
64ee
ff37
6251
bb24
fc32
0b9d
d40e
9629
16bd
e957
4b5a
bf63
8fe3
9a11
a159
6158
339f
4837
1fda
5a63
772d
5203
897f
1fbd
9141
58e3
7e20
bef3
1902
4b5d
fbf1
d317
54e5
aff2
b6b9
38ff
bfec
d306
dea6
3ee7
adab
8446
9dfb
d1cd
14ff
2e20
4dd7
9777
9ffc
31e9
065f
ec1e
1fba
8eb2
60ea
7111
bd1c
f583
91be
7ad5
5c08
aae0
9238
4e09
8682
0a3a
6a82
04b5
a05c
1e3b
dea6
18bb
a127
e0dd
1806
cd07
8ed6
dc23
522d
b0f4
9de6
b94b
9868
f806
5315
ebfa
0cb2
89f9
8f1c
6f3b
c624
5ae8
b9ad
53cd
d9fe
44e1
146b
b151
a537
eb25
d801
2adc
b363
c1a2
9726
59db
1e8c
f15c
73ca
d957
e89c
50a7
e2e6
ea88
f1c5
4981
b17d
a733
7445
5f8d
b963
9ce2
3564
ad35
26db
1bdf
76a9
9418
fbf9
3601
6f55
3227
ed88
379d
58b0
20fd
c7dc
985a
573c
e483
0965
4c57
74d2
a221
a115
59d1
7a53
fc18
a8c7
d8aa
6283
2b67
15ed
ee5f
85f2
05e3
5532
eeb6
733f
cf4d
0347
c1ab
c8ac
17a7
5330
996f
d71d
1f57
b487
5b9b
fdbf
b76d
712c
b3ef
8719
cbae
f6ae
acd6
0552
0d09
9766
143d
7e67
b19a
348a
343d
51c0
5a98
d369
3f7c
4bf1
e014
5eff
07fd
6e3a
e3c1
f9a0
4f84
a3dd
0afc
52c9
104d
f542
2ee7
ae7d
cfa7
73f3
43af
3b3b
2892
e1dd
4010
5640
2596
4014
f7be
6370
457b
ecfb
dc65
3fdc
1a73
5404
1906
b409
22fb
aeab
dd9a
43b2
8f5a
659c
3ae6
3876
d45f
545c
bfaf
179f
3820
3f9b
173e
2008
5bd9
4712
9676
a84a
25ae
d3d8
4b77
92b2
42fd
095f
4fec
21d1
3e5d
2780
8a0f
bb53
2fe1
1881
420a
cd33
fa7f
253c
3ef5
88a9
d8ec
6d7b
8f87
6df8
8f37
c4c4
ac85
658a
32eb
79ab
2d5e
6438
9a24
c484
eabf
5aa5
2838
0c60
0c68
d0e5
8ad9
9d83
6998
3689
82e6
cc13
8a20
6075
26bc
3163
faee
efc8
98ad
f372
145c
89a3
5b30
30e9
ba2b
5036
98f7
118f
601f
a9d4
3452
4305
827c
917e
ecf8
32ef
e479
1a14
33de
9d0b
0f1e
78a8
8f0c
ca85
17a3
c52f
5ace
6a99
32a9
a87a
ed76
8e84
0078
5f95
245c
fc62
3687
e64b
45ac
bd75
9496
61ae
52c7
c1f8
f644
edfd
11d6
8800
252a
ec28
fbd8
b119
5a3c
3f1e
b8f0
75d5
6b58
38dd
90d7
c16f
c4f1
35b1
fdfd
68ac
8101
e246
81da
c296
ef4a
4642
cfb6
9a16
3c51
04ef
f556
559f
351a
345c
6fc3
a757
eb15
188a
09db
e6cb
ace7
5e1b
215f
b14b
6b59
3add
748a
ddcd
2e49
0676
aae6
4995
a498
1a54
1938
324a
7bb3
3387
73c9
2604
337a
fb60
c501
3c67
8a14
24d1
bb04
decb
417b
ac22
8f45
d94a
fb93
50b4
87ac
16b6
6f85
f143
3eb9
1b01
4e52
aa7e
224f
ff34
852a
02d7
6d0b
ca9a
535b
c4c0
1798
532e
3cb8
9466
7e78
124e
850c
3607
7449
1400
6c03
1ed7
8b5e
7eb7
72e4
5b7b
0956
f97a
8231
5a98
51bc
5a41
ed88
1e39
b96f
b1e2
5364
a6d8
fb6b
0afd
da8d
79d7
3081
d069
3ff3
e254
7782
57ab
b755
35f2
1816
7035
b3ad
6a25
c2d5
04ab
0ee7
365e
5277
b6a0
a4b0
81ea
3234
b1fa
2d42
edc0
d7f1
5376
65c1
4f81
c55c
e1c9
f811
3936
4768
6fad
b62d
d442
37b6
9fd3
30e3
f398
6ddb
ef2e
bba1
c197
2530
e071
a232
ed7c
6191
cd62
a185
027e
efbe
3ce8
eeef
ec7d
10f1
8e5b
488d
029a
5bd7
7de2
e118
0492
de6a
02c9
cd99
1415
6f2a
2afb
2b13
0c43
ef4f
f235
fb23
4191
6797
b310
6949
b515
3c8c
e39d
1e6a
f318
3150
7686
cf1c
32f2
975c
04c8
6bfe
b6fe
c382
c879
3064
7251
fa1e
6c6d
22be
472e
6825
3f8f
1026
a352
3984
c6d6
8d61
6a51
9001
2612
5018
ae97
fcb9
95aa
818c
ecc5
0225
9cd0
400d
5e57
db2b
577f
a11f
6c25
b136
6204
096a
9d09
3ec0
8490
d43a
d603
5408
3008
627a
9a83
6e31
6a62
5cff
6c75
4aa7
de0b
6615
e21a
eefd
2f76
eeaa
694f
bc39
f426
6012
aad1
b7a4
060d
577f
877d
4bc3
20b0
dec7
3a62
c48c
f19d
2cab
0ce3
488a
4922
dc36
fd88
c24c
a9b1
3a82
d546
0253
50c6
ac0a
f8ce
a303
bda9
3fb1
58d8
65c5
e3e0
90d7
b2ca
ab40
b76c
eb64
9a7d
b1fc
c2d6
9e6e
ab13
0556
6753
f6af
0c18
2101
7c76
cfd1
bda5
f32f
18a6
9ad7
f641
57d3
2ecc
4632
5287
5934
067f
e664
8f88
b9df
f20e
eee4
a9e3
0fc5
705c
3357
b2fd
5535
fdf7
a2c4
1844
3fa0
6480
634c
87dd
bd2a
50e5
d687
cbef
79ad
576e
c21e
e37b
a812
81b3
93dc
9dd9
f16f
bc93
fef0
0d66
1d36
7f5c
d37d
6469
bfcd
633c
7c50
d41e
cbc7
ccb1
57b6
b8f2
b746
06da
9410
450d
9256
7612
ab93
3e61
a691
e1cb
db59
ad8c
87a7
c0b3
1869
e043
327a
a538
7e53
2a95
5cf6
1089
5208
66f5
cf47
127f
d675
700d
cac3
ec44
39e0
a22d
dfaa
6848
944f
e255
f119
540c
dd33
28b3
2371
de7e
c0b6
ce6b
f212
5409
0c2e
5d28
cbfa
e2cf
2b7b
3faa
a7cb
b435
99a9
ec84
8403
8c34
ccf5
f182
8cca
4a7c
67f4
43b1
1639
8bfd
1b50
4f50
30a5
2444
f8cc
6154
e926
a161
4bba
f1bc
c2b1
bf43
1cdd
1f85
c361
97ab
37ed
9b79
1f8e
622f
9cb1
7cf9
c384
a4ae
3692
1618
9c0f
46cf
a7b4
852a
f741
32fc
d523
e19b
4546
96f9
a209
924e
d4e2
be42
9cb0
672b
026a
b6a9
06fb
0be1
d44a
6012
b81c
e06d
3b99
74a0
215a
7557
8960
b28f
d98e
1362
33b6
4215
5002
0041
0cdc
6274
0c6d
671b
34a0
4fad
6173
67b9
c031
1c24
a96d
ce32
753a
44f2
424e
eab6
3903
a4e4
5c6e
cf4e
2d81
f78d
37d5
a63c
2851
fcc1
8420
67a0
d9ec
94b8
8aea
6358
a378
6e0c
f410
df1d
b3ba
c240
8ee6
7fef
1705
aa06
aa9f
7970
f73f
412e
dfaa
2abd
3277
37a6
b5e1
762b
7606
3e71
e8cc
5cb0
d136
4214
29cb
cec5
e7d5
7416
8816
769e
21a6
9d13
d0be
5e83
8c5a
219c
ce8e
c4f0
2ea7
f6f7
46eb
b8b5
df45
6431
5104
5cb5
0334
403d
356c
ed70
2414
0ccc
1837
fefe
a32f
64c6
9efd
04c4
a15d
e56d
fa1e
2785
6a30
d699
e371
5cdc
bafb
8edb
4c14
6815
0531
3615
d635
3c2b
b565
bb6e
d9b0
ddb4
cdd7
93bf
0062
1e2b
6979
5754
5ac4
3033
da23
9a20
5e0b
3837
ed29
0df8
4d3b
0585
57c7
818f
a039
a284
4ee4
fb1c
74b4
f35a
04b9
9747
5135
e40a
512e
f016
8aca
24fc
63a6
1e14
aac4
0dc4
1eaf
ff15
57d7
d105
8592
4df4
529d
8e6c
1449
ffa4
4a93
3a25
15f1
28d8
60f2
c31b
4ddb
cf9c
690e
4148
8053
94a6
a916
e594
327a
b849
707f
8646
43bd
2660
a10c
7dc2
7b8e
c7cd
8392
2ec0
02ab
b34c
fbd1
6072
8e0c
4e14
12c4
b0cb
4982
b03d
e310
5709
2ec7
1527
9aa2
d25f
20bd
cd74
d306
4dbf
fce3
c28f
4839
22a0
d853
bf07
f9df
c145
6e2a
84ae
3ea5
6f98
56ae
284a
cb57
608b
19e0
3fe8
99f5
b9e7
641b
e952
0bf6
bbd8
6655
22c8
f216
4e70
b425
d34c
17e9
8551
9361
df4c
2c40
f2a1
484c
73e1
42c6
e214
eb46
489a
a5b4
590f
286e
f32c
70ac
7d52
3f9e
5ffc
ca49
cbef
9130
744a
0941
d6d5
ce16
77f6
74b8
59a7
5931
8c66
e93b
cba7
ed09
462a
c9ff
b3e3
a7ee
bb99
6075
8708
8ebc
1152
0d49
7aa6
e479
4bd7
aafc
b27c
62c0
6353
2d80
3655
a777
7cff
6a2f
e4f6
393c
4b5a
cddd
364c
dcdf
3815
c4c4
1090
ea29
f176
c9e9
3c33
9825
7679
21b7
f72b
74a8
4b5a
44b1
93f7
8aaa
ba06
f384
7b9f
cf3b
3801
e277
4697
4d84
fe3a
b318
10e3
9854
ebc1
6f56
39cf
5f37
f237
a9b9
f786
41a5
5ac5
885c
46e4
9f9c
a494
de97
17b5
60bf
60c5
a327
a2ec
4058
9ebb
c3eb
2e00
fef6
b734
adf9
0b3b
2314
f165
52ff
6e2e
1f54
b0fd
2ce6
49c9
e030
a4a5
a6a0
17e3
030e
dd73
6082
2a8c
cf4a
c5cb
7f49
650e
4e53
6708
fa23
5fa8
badf
640a
8744
4512
a050
5885
d8a5
aec0
24c8
bc88
1b0f
3f8b
6b6d
8470
2c0b
439a
1006
1176
fd1a
5f69
1f67
ef59
f880
2266
2821
71e0
c053
d425
a340
fc30
2070
304b
9752
51b3
c896
6cf9
ef5e
4171
0e69
219a
7b9c
56e0
82e9
4cb7
dced
6540
52ed
25c4
4e31
f213
50bb
461e
be51
a5e9
9f2b
de93
e49e
1869
519e
4c4a
12d5
6da8
f3f5
fa72
b015
66a0
36c4
8693
e0e9
53ee
d5d0
b411
62cc
4fd4
c817
b0b9
fbc6
2ca4
18c6
727e
bd4a
7a65
7212
55b0
9806
e691
969a
85cb
42e3
0f22
9642
d3ea
fb1b
d1a9
a19a
2b6e
6180
3201
e816
7384
163d
0e73
a1d6
3be9
9769
599d
6cf8
938b
b0e8
f736
f518
8c0a
d603
ae28
f157
8090
294a
e6bd
685b
debe
4a02
989d
f83e
0bd2
03aa
f598
7c5f
de3a
3f87
8798
4457
7717
fd5f
54b1
7c30
5b5f
020b
1c49
6ec7
e1ee
bf74
f597
9add
6d33
9a56
4da5
ccbd
7a49
df9d
93db
af3c
ba5a
cd9e
fe4d
db65
810e
d03c
7f30
edcc
2aa9
b3f3
74df
bfaf
da63
b0df
123f
d937
644b
d28a
a420
4559
1f90
3b81
56ed
7868
29ae
f115
94fd
070d
7b19
37e7
e760
bdea
f885
5bce
0ba7
f7a7
0a47
371b
e575
9912
fef3
ae3c
259d
e400
08a1
6611
60a1
8c58
3f91
ace0
4cd4
0714
7751
3cfa
4db6
459b
cc8d
0e99
3f8f
0e59
72d3
ac87
f264
c20c
5d26
9b01
f144
e560
232a
8335
d222
e774
8119
6d07
4b9f
5b2b
8ea7
22af
09ca
91f5
0c6f
f9eb
14cb
8655
337c
4ae8
f4a8
df87
3e81
fbc8
2acf
3250
1a67
9697
71f3
1969
01d3
709b
74c6
cf65
e61d
0adf
145e
bf9c
eda6
2b3f
d2b7
6f52
d75a
a53c
9c87
a60f
291b
3594
f9e6
9e4f
d479
ce39
1082
4c58
929c
7502
5585
f2c3
a42c
32d4
9d85
81fb
cc00
64fb
9be6
3167
8f27
6836
be97
b3b9
a4ad
5305
4c53
3e4c
dd2e
f273
a837
fd13
407e
ed3f
cc48
067b
1487
6133
f3b6
35a4
bfeb
f3d2
e633
02b2
3453
27a2
b78a
045c
3176
0523
7cf9
0494
9083
987e
3d2a
f97a
e11d
da1c
b117
e3fb
ae2c
57f6
648c
9d39
bb3f
7780
4e43
f140
1ddb
99de
d142
c005
f3ef
4a9e
566b
a6c5
f00c
69ac
7c82
86c2
b8fa
5abc
0d00
3660
564c
c51d
a120
767b
7c49
5fc8
90b0
74c1
9597
5f65
dd63
1265
3373
7ea5
a91a
cf39
58b7
25d9
f288
f65f
c1ca
278c
5840
2e64
c15e
3b2d
8886
56f5
385d
54bb
ec1e
c5d5
a91c
0af6
8e2f
dd63
a30f
2f01
5c96
a410
af83
7f03
5307
5694
769a
aa6b
56c7
b004
ff35
01bb
7647
7d61
6da5
d961
8a70
cea7
0f90
4e9a
8f0e
1f4f
6f06
f59e
12cb
fa53
a670
c538
3b9c
521b
aa4c
a264
a6b8
e961
67a8
8eeb
9a5f
83f4
dab9
6eaa
6568
8b7e
ce08
b9ae
403c
bbc0
ca3f
7cd1
ddae
39a7
dfcc
cafe
4a15
2c63
c52e
2c93
f8e4
6c2e
4495
ca9a
41c4
842d
75ec
048d
08fe
8c81
5403
98ac
0238
e448
fa6d
1fab
ec89
3c65
ecc4
3aa1
5392
d579
9bff
fd27
9038
7738
c884
4bb7
6112
2150
9c78
9d9b
1b8f
8acf
1337
c8f7
c83e
cf2a
65ab
362c
be60
63b6
ce38
dcfc
d0ed
cdc5
e4ea
9db1
0716
475d
518a
887e
07fd
acec
9ee1
1789
a523
67d9
4d43
40b4
1221
d536
f5be
e777
1a3e
da12
aed5
e31d
89aa
eddf
edd8
2f43
43d3
acea
71c2
590e
876d
7281
e756
d63f
ba10
8ed4
f641
6f5d
0c43
718c
590e
94b1
fe94
f0d1
c778
e638
1467
7396
051c
626b
1386
c1d9
b5e8
1d79
14c4
49d5
88a3
45b1
209f
31a9
2201
75d2
ddc0
a7cb
a08e
5b7c
7901
e0c6
6ace
5cc8
a9b3
999a
6f63
a209
d83e
c245
dece
c7e1
7031
c9ab
6037
ed29
f7b5
7529
e69f
7698
b7cf
1125
a7db
6fad
4a58
fcac
d47d
42c0
bd47
9e6b
2ebe
31e4
fd61
2c43
b10c
2ab4
2540
6b87
f1d9
0f71
e7f4
68f1
1ae0
7d72
20d4
baab
a699
619f
e119
5091
e38e
baed
a20e
733d
96f6
f0f8
0c43
db3a
210f
3637
2e4c
01a8
e24a
94d0
2a72
9d57
528d
d466
5536
675f
bbd3
2f49
74b0
1e4d
4c04
7f96
dd67
3dd8
cc3a
63a1
876f
4534
ddb4
569d
5e27
5d12
b6b7
4cdb
bfaf
0129
5f23
493d
1e9e
2774
cf62
621a
8f7b
be34
c2c2
ee61
34f3
0400
c962
baa9
7c3c
af3e
424b
55a6
5921
65c5
e6fa
a052
b2d6
4600
ba16
5531
dbb3
d99b
1804
842c
2bed
b850
8691
5759
3ea2
7c6c
89f8
c00f
541e
d294
6cb4
6774
75d0
72d6
9e58
9544
0e3f
18c5
9688
8c5b
20fe
8fe5
7fcc
c4c5
25a4
4eea
7538
dbea
1d64
8713
aac8
a0bb
2040
8294
e072
08b3
7ec5
bb90
28ba
0a70
5a58
9949
0759
1c31
e2e9
5ff5
1210
7d2b
d053
5b44
99d3
52e4
6dff
d048
df9c
a68c
98f8
c4af
cb85
ebbd
d227
0e5b
31d9
0f0f
c4bb
0f44
8a13
c269
c3a6
6929
7101
cd0b
09b5
9f51
fb13
7147
a5b9
feeb
a3e7
a9d1
61f8
731e
e078
a0b8
d497
2c2e
a6a0
af44
262b
ebff
f8be
545f
94be
cd6f
9ec6
cb31
0921
ccf3
b6f1
b2c2
120a
35ef
1569
f4fe
b5c2
2951
cc2e
aaf3
b4e4
fb51
e038
6ebf
9514
29be
6c11
1f3c
52cb
2271
7b80
0282
6eb5
11b5
c37f
6284
f19f
f737
0b03
d2a7
abdf
7a0e
a8b4
880e
4fd4
2e11
349d
9668
b675
415a
3181
16aa
4f32
5702
08ea
89bb
025b
9f0f
d63c
ade4
32b0
65e2
1394
350b
e635
a250
1536
4a11
d110
179c
0965
d1ff
d4c7
8cc4
66be
d7d6
a7bf
6574
478a
5d08
ddaf
3268
8f5e
c84a
7330
77d1
198c
aedd
995b
f552
af3f
26ec
b10a
f188
8066
9d77
998d
7502
b121
6c33
74cb
ee1d
b5b6
44e8
1486
75b9
328f
5bb8
3548
bf72
5663
1864
30cc
5751
4547
4b94
238a
6629
b718
d1ec
6442
8f51
d13f
e2a2
6b18
d484
cfa9
978f
3c0d
6c3c
6419
83be
3c85
696c
199a
02a2
e154
b62f
0ff1
8326
27f8
6be0
f1e9
62de
4e6a
758d
d8d6
1bb0
df18
46c3
e586
23ad
1bac
fc5d
168a
415c
e6f2
d06e
c777
494c
0cd5
9605
9b82
8d4d
6b28
a655
af45
ce1a
feb0
e648
6dff
b139
07be
54aa
aa37
7e36
4257
21eb
5a48
2510
2949
0a3a
0386
9828
ef79
3cb9
0898
9652
2599
41e6
2bfd
40cf
ea1b
6f3b
3420
fb7e
afbd
2387
9b5e
89c8
3562
10ba
2d41
17cd
b2b6
19ba
c4f7
c756
5afb
7f85
68a5
f991
312f
7121
550d
1a5e
b561
3e2f
041c
dadc
33c7
b107
9e9e
06e4
730d
38d1
8c76
ed7e
5e9a
1a0f
6d37
b672
3fa8
42eb
d78c
be06
971d
e716
4516
6509
1e30
7713
27ab
8d1f
2015
4f45
f1eb
8ca7
fb27
ada9
76c5
2208
319e
2f09
d345
2e90
6147
bb3f
eaf1
110a
a525
e82a
8547
a744
577a
d4f4
e447
fee4
28b1
651b
7ab4
24d6
78e4
ff9c
a33e
3b65
8377
a046
6cdb
2ded
e2b3
b2a6
fe61
2f9e
861c
9177
a451
df5d
dbd5
008f
3576
f3d8
3180
ebab
2ae7
3c75
baff
ff7a
aee0
d2b4
ac7b
da3b
e811
cf01
8aa1
8bf0
9002
6fc9
6a60
110a
1c90
5517
e349
062c
d2d0
379b
2475
2ac5
640d
63d2
95bd
113c
bc77
f0a4
7026
f36b
28cc
3b17
aac3
0abb
3976
f505
4174
19fa
da99
b18d
ebcd
48a5
87a6
d948
6e8d
26b1
d2a3
cfe4
ba93
efd2
3046
9ee1
89f3
79fa
4d97
05eb
ac8c
6d3a
9ed3
fc15
4878
f4de
79e2
d505
7525
7d7e
1335
00e5
4b66
4b73
519a
90c4
47b1
86a4
c49d
5ef1
c2d3
ef6e
6498
c3b0
a412
dfbb
9ce3
cac9
3661
275a
f7ca
6612
4a01
7545
994e
e835
7312
0554
5971
2a24
1470
bd0e
ff58
0d78
16f3
fb2e
1a89
27b2
8fcc
957c
3c05
99c0
368d
4c91
7d33
8933
645e
0875
a793
06cb
8624
e743
d032
6492
0a26
6fc6
61d9
3f14
3f75
ae09
7967
59c6
e772
625b
1340
fbb0
a8b8
4fda
ec35
e6dd
dfda
667c
912e
ad97
6dae
e1af
256e
ffa5
ec2e
6515
2fc0
8e2e
db7d
1a10
8821
5b89
272f
8ee7
958f
a984
3854
0ebe
4aae
d65e
16e7
c4b1
544e
4f86
7145
a1d5
6160
9589
382a
0092
b8bf
54a8
38fe
3611
4a67
c5ca
b65a
049e
a5eb
3d55
4b49
980c
acc6
3949
abbe
a1a6
6fb2
3bec
6e94
66dc
9aef
ceca
d82b
dee6
0d21
712e
2217
e938
095f
71d7
100a
fe7d
865c
9fec
af21
3104
8755
6351
7ac8
6c89
26f6
8775
6832
8427
fc7d
4ca3
cc72
fb3b
a7cc
fd20
b3dc
b20f
39e3
fa35
ae24
e717
c33c
ed6d
535b
baec
415e
3a53
2df4
f42d
6931
f53c
000f
17ab
38af
418d
9ccb
50c7
8c67
5c19
b893
0b25
fb53
d989
0c95
7040
fdfc
7edd
d6bd
c738
1d4c
98d9
0f76
343a
9dd9
9d9a
928a
f120
6932
b09d
a44a
1694
fec0
530f
c105
2119
9274
561a
c477
64a5
181d
2dde
a525
1dfd
6e29
6dfe
bb91
f878
4545
b984
6148
302a
b1ee
b883
ccd0
3b8e
b3f6
15de
5e80
a398
0112
be43
1e10
8dc9
b4f7
1ae8
4b48
e47a
c89a
c505
14b5
9141
f19d
4998
334f
6826
5b72
34d0
d512
bb3a
2eca
c08b
7300
f82b
70b6
c3a6
c9af
d533
c710
e52c
910e
6a4a
752a
add0
0406
04ed
19f8
bf43
d1af
df98
9dbe
af78
96ef
cec2
9572
90ab
c436
0f00
2f54
25ae
43fc
6a62
cb99
8706
f50d
2cd5
943e
48c0
e886
1fe5
bfa7
4a8b
fb66
ee9e
926e
2c48
c249
a965
e562
ba6b
c900
3fbc
8fa3
1746
c0bb
0e24
8311
7e68
67fc
ebeb
6eba
ed90
2a9d
d818
18d8
24ab
a09d
3197
6686
25a3
2462
ca41
a805
3a01
91c8
8c41
edc8
1c7d
4326
5ff1
88b5
a22d
221c
2f00
a939
1081
bfbb
1666
6544
7951
55c7
3f65
c58b
4efe
406a
d57e
e740
f4fc
60b3
0910
228f
2d75
4b3d
2f6c
9c61
b7cd
921f
a0d7
6f5b
734a
b91e
da7a
18c0
99c7
7156
59eb
57d5
c37e
35d4
7ba6
57e5
84fa
478d
ef69
cc16
4c16
4f93
c897
ff0e
d132
62fa
67d2
a072
a180
e53f
2b8b
c329
252f
de4b
c545
52f3
80d9
8adb
ac04
4b5f
b744
fc40
b5be
e271
9dc5
02d4
8df4
1c91
6941
e668
50be
d5aa
a25f
881a
f0ab
3d31
7009
8f8b
a5a7
5ce9
e735
585b
3e60
8ab7
21b3
8709
34e7
bfa6
7dec
f96c
2751
c15e
d1d3
c51b
5c34
ffff
7221
5fbc
bfed
4216
c565
35fd
db1f
4d82
1804
4544
9a37
0c15
0749
03c9
9f30
eb3b
320c
3b24
7253
e384
129f
ce33
389f
e54b
3d47
6f60
1206
4677
210c
f43a
4b05
b46c
a47b
5399
97fd
497b
3e8c
9241
558b
ec75
b104
1b66
3ec0
19d6
b04c
23e4
962f
3516
d9ce
cec0
8224
637c
6cad
8039
cf30
2b3a
3237
43e7
d462
a576
9b37
6c0e
365a
d174
fd89
a7cb
77d1
be68
6c20
139b
764c
83ee
848f
aedd
465f
379b
c687
2d99
23d9
3e00
0519
1d4d
2c3c
3109
2534
b3c0
75d2
7e71
bac2
a3d5
1b10
2367
5f06
ff65
5722
0794
af62
0d38
0a16
8178
12e7
98e0
9da0
791d
99cb
76ba
ba45
4d5e
59ed
b42c
71a7
5c61
cf21
4e23
f304
66c4
6f06
7e69
5d3c
8a66
87e3
2b5d
a25b
d096
14e8
d0fc
dd15
8407
e2b8
b92a
86f3
dda2
9919
da36
984f
00a8
d08b
6473
ab7e
9671
e722
ec4f
f284
5732
4eec
e965
3f81
7118
4b06
5437
1735
3648
4321
8006
e244
cd13
8c41
25c8
16ce
1a0d
8797
9391
8e30
f332
f1a5
9bd9
0d10
4078
99ad
a960
fad1
42da
9b5c
ed8c
44b9
6aa8
4e09
b09f
6fd9
4540
0eb8
f46a
facb
bf9c
f030
6eb5
7582
c239
4446
1a86
bb0b
7680
df6b
3d25
6c14
dd2e
e220
4672
45cc
9621
f123
5180
3c30
046c
83aa
d059
2a88
6f71
b2c3
e90f
49f5
eb84
a2b8
b9e6
87e5
fb1b
4944
83b5
157f
4bec
08e8
1bea
4781
c1ce
581b
416d
b8e0
49e6
b9e9
1d41
e208
a95f
7f22
da30
fd70
9ad0
d2ef
3ead
582c
351f
adea
20dc
004e
95f4
f24d
e66b
304c
81ac
4002
23a3
16b7
2c1a
2a25
4c96
0be9
0161
7754
9918
72c1
a329
ae7a
550b
32ad
b60a
24e0
4a00
5cbb
3959
325b
7298
67d8
204e
7113
8945
bc93
aee5
ff50
dc38
29d3
5d63
8260
5a73
12de
c8b5
02af
4dab
0195
81cd
242b
af2a
b60e
45ae
4a66
b671
d2a2
cb27
9514
75c9
f391
0640
a144
8430
0c66
ff8b
feb4
ee89
5af7
ecba
ae81
4f10
bcb3
8c93
6761
228d
9242
5a15
080b
b166
8c4c
09c4
0c09
581f
64e8
fa93
b5c4
bd53
6747
e088
d090
a6b6
4d9f
7117
26c4
df1a
5c74
62c2
9704
8565
baba
3bbf
f024
0d95
a23c
af51
bb5c
aa50
3953
93fc
5561
92e2
3c13
23c8
87ad
fec0
3e5f
5350
601c
a9b1
aec6
9798
fb3f
3428
0e37
8d90
f4ce
c195
0508
a11e
cba4
6e91
6690
8166
a2d0
253f
95f5
0275
cfdd
2b98
d396
6aaf
7252
285b
7c9f
f848
70b0
3237
bcb2
df23
052c
50dc
fcd8
fe38
3504
9257
bdad
9a41
218c
d161
80b6
cb08
aac9
126f
a8ce
824e
e69c
bff3
6f88
3502
28e2
02a3
a8c1
9683
71a3
2f1a
81c4
397c
84a0
0b43
327c
f699
0444
fd2a
2fe8
fd3e
e38a
6c64
82f0
3b0b
f2d7
2cf1
4d0f
24e1
ee9b
80ae
dd19
e12e
30d2
b5a0
78bc
f1ec
1e14
10a6
3d29
c8e5
3d2a
3365
cd30
70fd
77ba
3a00
661d
774d
0d5a
4f44
5872
f6f5
6e41
8618
748d
26fb
020b
7534
4c69
c324
3c2e
78e6
c741
ed54
28d7
8a51
bbdd
9480
6d41
49d7
cdcf
28e5
99b8
d2c7
01f2
53e0
7ab3
080e
ac93
5747
a531
da2d
e6c5
4334
20c1
8558
ce5c
a055
b94b
2a96
6a8b
1506
4d5a
a3b4
3dca
9a08
e790
9f1a
beaa
6b71
eb57
c66f
e31a
c76a
ce3a
73bd
113c
90c8
a318
197c
2546
2874
345e
905d
d8aa
020b
1d7f
611d
31dc
3164
c9e9
31e6
fdf4
29f8
62e3
def0
06f5
1daa
2669
6a09
ec9c
178f
547d
fc85
7882
b0a5
a27d
f62f
52f6
b759
6c1e
8fe8
8fed
6cab
775b
02ee
7654
25b6
8c02
661c
82d3
0e35
29dc
3e81
c112
985d
def5
658f
b11b
9f53
96a7
44fa
3132
7be1
d3a4
327c
db4b
54c7
308e
fd29
7603
2b2c
f9a0
3e09
4f25
21b3
f1ed
13e5
0e7b
d4a4
09f1
243a
8bb6
c331
6c31
c10f
3412
8715
ceae
7fa5
46ca
c2c8
1c06
1a7b
0dd9
9f37
9dc6
7b3a
3145
e334
e5c1
d115
2732
367e
4985
cb07
3483
c71f
8e64
92d7
69dc
8685
ffc2
cc58
c637
b7a5
5132
668a
33dc
941f
d557
0000
1481
50ce
dab4
caa6
d5d2
e45f
b04c
ed1e
0147
deb8
9eec
6315
8cf5
6a9a
c5e4
18e9
0220
f694
4a49
0c12
5b9b
07af
a573
504c
1889
ca05
0a82
6add
8584
6589
bd53
a040
942e
35b3
528c
685c
9537
5a86
ebd4
eb8b
59e1
fce6
9f07
ab62
b64f
e794
5d82
6a97
e54c
95cd
ddbc
5868
6fad
533b
5dff
ec00
08bf
6466
abaf
7696
7166
636c
c830
c476
9e5a
e491
e12e
ce70
a3e7
d5f1
e9b4
9360
5d17
054d
58ab
95bd
96f8
3fd5
9915
ee1e
799a
15e5
7f67
31fa
b1ee
363c
8ce3
ac4b
9166
1cf1
421a
25dc
8130
3f6a
1774
039f
f7ff
dda0
6f09
3ef5
ae1e
b590
0ea1
f829
18b1
509b
02ff
640f
6902
0dbd
45e9
a153
87fa
737d
0620
abb8
6d6d
54f2
ef65
eb41
f9e8
b6bb
598b
6f63
9cdb
8cd7
fe05
4088
b3d2
b117
92b5
2b7c
9710
9dfb
550c
a4b9
8499
7bfd
faf6
66d9
aefa
fadd
8f72
a266
569f
e9b4
4284
bbf0
d890
f268
43e4
ed50
2866
ef8c
0ca1
287f
1a89
b5a5
0529
36bd
7d21
f106
d940
ee47
a34f
e4c1
85d8
e3ec
4d60
3c2a
bc2a
bbda
6cee
5ebf
6106
bcb1
2a7b
f7cf
9bab
2f6d
ec58
269c
7d27
53bf
ca84
0106
e7be
d385
17c5
0883
296f
338d
4da7
8c09
8c06
6d46
4053
97a3
7d95
450f
c951
ddd6
e190
dd72
e038
0783
e3b1
4086
ebc7
a0c8
6b8b
c45b
070d
8f98
ce6d
1bef
ccc0
452f
e0c9
e02b
d023
cce8
1c53
bb5c
6c3b
38b8
a999
f27d
e24b
3cae
f2f8
3585
5a21
260a
6f7e
a9ad
791d
9652
46cb
4253
cb14
82b0
edae
5712
2b94
ead7
93aa
976b
3d9a
b81d
baac
be8f
9e0c
f93d
f11e
0864
e095
2c44
d588
a48e
9cf5
eca3
7a04
6ab0
6d3d
5272
e702
1b90
5976
8d68
9df0
a9f1
0c24
8c0c
2c5c
4264
330d
603f
e360
8aff
a6a3
45df
52f2
4fe9
e0a6
443c
834a
9bbb
4f46
47d2
f508
ada0
991c
5993
1f28
c20d
6d34
af3c
b7b5
8b90
a346
bc25
6eb2
9bf3
4beb
cd94
73a0
d204
19fb
7cb9
41bb
6323
f6fb
2ae0
f4d2
ae1b
e7a1
0cac
8e62
cc49
aeae
2808
8acd
3983
2d2a
a5f8
9d9f
ee33
ec31
6aee
246e
448e
66f4
021b
74d9
d273
8b98
fe00
efd0
