4e8f
365a
2c88
510d
feea
9552
5087
90eb
77df
1346
2c0a
4e37
ebc1
9fc8
cc8b
d7a5
187d
493a
2745
135c
86ab
02f1
2299
90a3
94b0
9c51
8366
8e53
ab97
c380
c7df
d8a0
8896
e008
e8c3
6f68
ccb1
b725
6653
b6a5
4f15
18e4
60b3
ab9f
f888
d960
4445
6158
61b4
bb40
7771
2350
f5dd
e131
a472
a231
a141
3671
a86b
584f
6976
bd44
e3ca
def1
1e72
ac4b
1f14
ddb2
386e
52ba
101c
adb1
26b1
e76a
95c3
df21
a28b
5b16
2a1d
f985
3cc8
fe88
b01c
a878
90f5
7c75
ef21
29e3
a6f5
78da
4fe4
37e0
4a7b
9de9
975e
a0a6
740a
d6ce
b99a
29dd
4eec
c85c
51b2
1b35
a74a
51a4
4280
3626
eded
05a4
979a
cfb1
489f
8f8e
9971
0dde
c7ad
21b1
2a23
0ea9
df83
de6b
bb2e
79b4
527b
daef
d50a
77a2
97be
1260
ee53
af0e
9827
b299
2d6e
e3f5
2f98
5b02
423f
0f39
0565
d4f5
efb5
fec8
ea04
3355
b6eb
60e8
1f19
b0a9
2036
fd44
e43e
35cf
5671
aeaf
0e25
38b6
6723
07da
200b
4717
7d15
e0c2
d02d
6cc7
8efd
0f9f
aaa1
dbb0
a329
8793
c462
bb8c
7d9f
a214
1650
0516
7ee8
40c1
ba25
c493
f362
b241
9627
839c
e7e4
93ef
8ad9
c6a8
9b1d
ef54
14b7
47c8
1556
378e
afde
2822
9473
f39d
7904
02ba
bcae
33fa
253c
8d14
2a0e
f302
c777
a2e9
772f
bb4a
c24f
9944
1451
dec7
270f
cb1c
3bd9
4ffc
c2fd
ce19
6648
99e5
0d7e
b664
1dd0
ea2e
198e
5a87
87e1
894b
b51c
0658
df3a
5080
6e38
3ee6
afc8
56e3
877d
e162
a627
efc5
3e1f
0df9
3d1e
5f16
9feb
c7da
28d8
61f0
6c24
9364
f574
f748
d5f8
4c02
db9e
4e11
ee0c
10bf
527a
5625
7c3d
50e7
b288
671d
518c
861e
8101
7a8d
5bcf
d7a5
3512
71b6
3eb7
b7ed
e159
e498
e4d8
56d7
85be
5e16
870f
2ed4
20fa
9dfd
fc2f
a94a
65aa
b803
8bd5
ac3e
c48e
9b4c
4c3e
6174
b9f1
5885
2ff0
42b2
2628
7f6d
f93d
0210
d91e
f6b7
2dff
517c
22f5
0aa8
37e3
f1e3
e394
73d2
c2b7
c244
482d
f70b
18f0
2f1a
ebc4
16f7
f1d9
fc45
947c
3b79
ad3a
9af0
f9b2
e92e
5b36
b39d
3c3c
78ab
67ab
feda
8bc7
cef9
3026
2709
e4dd
8fa9
f1f4
b0ce
2861
2343
2cd2
28a4
f4e1
b363
4df3
a686
fbfc
884d
c77c
ca82
da68
3e37
a4d2
18e0
3825
5404
6396
e582
e73c
6a08
67c2
59c3
1d5a
04db
5ec0
d870
033c
1fab
d4e0
9ca6
c52f
ecec
a303
176f
c57c
355e
e1b5
d637
5ef0
4af3
24ab
537f
15e8
7e32
b97d
53f2
7ea2
1811
4dde
8717
61e9
b6fe
50c4
9e6d
41ae
55e4
9dc8
ecbf
44ff
43c9
bc1f
9b60
eab7
bdd4
be24
2ace
f972
1feb
5818
8f0b
4f77
dd26
2ff4
74bb
41f2
b0e4
c5fb
78c1
2917
9b5a
4b3f
d6f6
763c
8562
df19
7a29
0673
9746
bbd6
d33d
1997
91e0
64fe
0d14
ba06
4e40
10d0
666d
911a
dc6e
fff8
e28b
bf37
4061
fc35
dbae
2aec
b167
83da
bae3
1c15
ffc1
cbef
9603
3d13
f45e
0bfc
cfc9
44dd
ae37
03de
5dc3
0cf6
5513
cd03
2842
0dd5
cbef
21c0
836f
43ce
e495
e974
6206
ea5e
3e0b
b342
5ff3
763e
4ebe
d3f6
1dd0
a65f
217e
724e
2391
4e0c
076f
e481
de58
9aef
5970
7c6a
6330
29f0
1e16
9ffc
0ce0
ae48
b276
d139
b710
d208
7832
269b
75f0
8925
885a
a4f7
2ec8
fd62
8795
ef0c
ebc7
7a55
63df
72a6
822e
f704
f0d7
5b27
5463
4ce8
d6cb
1864
cc24
11ff
2a8e
7bec
5428
a184
598f
b0cf
4451
ad07
e044
0540
37a3
7ddc
05f1
447e
a633
5c36
94ba
dde7
a9dc
5da1
fcb0
ec37
e521
a0a3
6ded
8086
afe4
1e36
7e4a
640d
bc41
e1be
fdb2
32cf
ea70
e696
d19c
89bf
1af5
fdd2
0845
b95d
22d0
f20a
6ef4
2793
3e8d
2e6c
ee8e
f57c
e702
2c43
2cec
4947
6e72
b0cd
8c36
cd0a
2b0a
229d
2c3c
f684
498a
9549
c28c
096e
052a
a664
51a4
4a58
8ba1
628b
807e
65b0
eec1
b505
0470
be33
2700
5e7b
d3f0
a711
edfe
2fc9
7f0b
b1a3
3b53
1871
4782
a633
538f
929f
7e47
4e31
900d
2f7b
7f20
4d63
bc24
2441
4175
81a8
bdf6
9bed
d3f0
07b6
45d2
7fe0
cbc1
f487
1c95
edab
79d9
c1cf
b1d5
42a9
0a5f
5fe3
46a2
0aaf
d9b1
8b76
5c13
5582
067d
71d2
7418
8011
9509
f8fc
e42f
eeba
64da
40e3
6926
484c
04d6
fd48
3c62
9904
30e3
64e2
5e46
74f6
5380
11f4
5b40
8a54
ed78
5582
e996
c7b3
dba7
9e5f
9fd8
410c
6a0a
cbef
1d15
15a0
6e44
67ff
5f75
b08d
bc0b
e862
5a0b
bab9
14a0
953d
6cef
8923
e3d6
72b6
6017
09d8
c504
23f3
1985
220a
4af2
9780
5fba
c623
fcdf
c024
c4b0
da3c
a069
cd46
c695
d475
2952
1871
18a8
aa86
acd9
9e74
4994
dd04
19b6
0031
8f1f
5a8c
2a12
b52f
a57c
5ce3
f999
c454
aeb5
6cd7
3b6e
0c8d
69ec
d2fb
2eda
dad6
0c14
7d1a
e0c0
bc15
4bcd
a368
3178
b1cc
94bd
9391
f013
7fff
03e9
0fe0
ef17
daaf
de4e
c874
fa98
1f98
416f
c2e0
1913
ac6d
4e7a
62fd
781f
fc70
a6f8
deed
989e
7c93
45d3
1bbf
422f
6c7c
89da
f36e
3035
b1ed
49e9
f372
5287
9e1d
38f7
d057
cb42
04ce
6723
e8d8
4d8f
de02
1aed
abbe
902b
f3a7
93c9
be35
9286
0652
bdc3
21fb
e416
c2a2
abe5
a99f
52a0
66be
e112
b8ae
92f3
189c
3c00
9a00
1806
1574
51f4
3537
a11a
7856
ff56
b638
16e2
e628
aa43
e83f
68b8
6a89
990d
1928
c089
4d07
f147
90cd
4c0e
82f3
1197
4f52
c458
6c11
a0e7
fc54
d243
7c5f
9653
5709
eb67
d9f8
e673
e394
5fc3
2c20
eda3
5e94
9c55
e2fa
6636
a3a3
f068
e1c7
404f
037c
b7ed
46b7
72a8
111e
3542
1f9f
c6c6
8d7d
bdc1
fc70
46a4
2690
a3aa
ef31
3f0c
8d27
64a2
4a22
a64a
f01f
13d1
c81a
5227
79f2
afdd
d31b
f9f5
c0a0
d57e
f62b
fdd5
228c
a45d
3508
5b55
cced
960a
f9af
e928
6673
d3f5
122f
660c
d8ce
6bd7
90e5
257c
fa93
fdf6
62da
cfca
6ee3
21c7
b09a
e63c
f5f8
e0ab
adbe
5ab5
f249
891c
6c03
67b9
3eea
58e2
6711
5035
f062
a6ce
a512
8770
e565
42da
0e22
3e9d
0309
21b8
624e
f355
8e7e
ff86
2b8f
c27e
d3ae
a076
1e74
6009
6c8e
d894
ce2f
d3e7
699f
9613
c996
9839
6b88
6022
d592
383e
579d
da76
8801
d376
ab8d
cb29
a91e
df5c
7b2b
7789
832e
9c4e
1bea
d32a
7aac
cffb
9531
6a6d
022c
cc34
18b3
e1c3
34e5
aaff
d962
df0d
1096
753b
4d76
efc3
d7e3
3b4e
994b
b794
3752
7de9
9deb
1e00
2a31
e88e
9059
eb66
6f5a
5a91
2ebb
53e9
f3e2
7f9d
9d59
f7b0
a34f
dd22
01e6
c6f4
eeee
1411
e7f6
4dc0
1316
a218
f473
758b
0d70
b27b
0f87
b9c9
6fbc
32a2
149b
a4b2
66a9
b49f
c076
de76
7deb
60a1
6180
657d
62e4
3edc
a97b
a895
9776
da42
3b56
f91d
3242
4197
0497
ead0
267b
ccdc
d82b
6147
ae5b
ba80
ffd9
571d
8761
d1b4
2991
54e2
bf8f
7757
5ac5
02e9
16e6
0076
5eb4
34d7
b4c1
1444
bd60
f189
4ad0
fd1c
0bd2
c408
dd62
89ef
b00a
4368
0b19
09c0
098e
119f
ac72
00f9
0562
a148
10cc
cd7c
8223
87ea
220f
41c3
f818
a003
a138
35ab
01dc
2369
d99f
0b68
9ae6
4eb9
5bf4
8ac0
8645
f6d2
5e47
b735
1c35
c38f
d66b
15ac
0862
dc09
5ce8
6c7d
8354
e782
d6a2
7609
12a8
0c4c
ac4d
36f6
05ca
cb69
e644
3a8b
50c5
a452
87ef
bc27
e659
5d73
9a90
aa64
9058
af9f
c92e
9092
e375
ece0
ba86
b18e
0ffa
fd40
b69f
8b4e
68ea
6d13
6bba
974a
eda6
5cab
fb0b
1953
8cd5
811a
d842
4efd
60a9
0752
2dfd
c306
7cad
db8e
d84f
087f
01af
4059
a6fe
4a4f
73ef
c3fe
d0b5
0e73
1119
7471
00d3
7b90
b898
adbe
20c8
a314
77cd
b7e5
99f3
83d9
fe29
54e5
65e9
24ad
36f6
3999
f694
c4b5
9726
1300
78d6
dbab
2180
5f39
9abb
f1c8
d936
29a9
1e17
b69d
e3f9
4461
6524
e98e
467e
2953
8c13
f34c
cce8
87f9
3d8b
7413
74c2
5856
72c6
8ad0
5679
6b26
480c
dfd9
cb87
7b9f
5f6e
89b1
dad0
7ee9
e425
44ec
555f
8a21
14b6
7b6d
0365
5ebb
158d
b050
19df
3171
078f
cd48
1c5c
e0f8
1b74
3f21
4cf4
396c
e4c7
09e9
abd2
33bf
0638
ac32
dabd
b09a
e8c0
5606
6c82
c53d
f59c
e0d8
06d5
8b21
f985
2f45
2f45
2e17
eea1
d68f
dd55
a063
e563
0140
1f9b
f815
1d66
356f
12d0
ef68
3059
f312
1af3
3fe6
66ea
b3a6
fa37
e386
76dc
215d
22e8
590c
31d8
d0fb
ddb2
65d2
e7fd
3808
afc1
d5fd
6432
404d
d171
94ab
da24
0710
1c72
ef04
f5a1
9af0
65d9
af12
afed
08d3
b4a6
73a0
f00d
7cb7
592e
18c8
abd7
baf8
7db2
2347
4504
e8b8
2217
648b
8163
8fef
cc81
8fb0
4394
fa97
3e6f
de1f
e2f0
964f
c061
9ae6
0981
ce34
dedf
2f13
4dba
7b0a
4d53
a03d
9955
11db
db42
49c4
3553
66fd
e79d
3826
40c0
1fa9
eef8
abea
f160
0166
1ae9
a6f4
498b
81e1
6a73
5241
b69a
5ed6
8e37
ed9e
36d5
922a
1052
2ed8
794d
f73e
d53b
34f4
381c
bf2d
4138
d0f2
a06f
0cb2
9f0d
05b6
aa30
0f96
37db
6867
9dbc
300d
c1d8
5771
f063
0a32
44d5
0634
a24d
7850
0175
e6b3
12cd
43ad
f598
6c01
0b2c
4946
46e6
3ecd
1cea
37ef
f481
c1cc
e0bd
61a4
c388
a69c
0796
0205
c798
6ac3
abdb
3d69
0ffa
13aa
b2f8
152a
07fb
1bbf
513d
5441
b3b1
7484
92f7
915c
f701
51e5
a4bd
c061
1a72
f56a
40d1
c03e
0089
b06d
b777
3bde
58b8
a393
14e3
d9e1
0862
ce3e
0c48
6227
e643
b424
7a60
cc92
2375
3bb1
3ba5
4506
ec44
827c
3455
d5c4
e404
4dcf
e3c9
8bad
8614
f732
2075
4422
b9e2
c9ce
3447
4755
3dad
92b5
99d2
1d4d
4ce7
9b53
9d0a
56b2
53a2
ff28
d8cf
c4ea
be75
f867
b0c3
22e3
bf54
5a73
59a6
b365
154d
d40d
42ad
896f
5ead
6e9a
dd4b
98c8
74de
6b7e
e11b
ca2f
e434
def4
c482
afda
7ac5
e414
c6bd
f0cd
5f62
d790
f7e4
6247
dbfe
65d9
1bef
1ed1
6175
fb5c
2023
a700
0c5f
f5e4
5c47
b0a7
7f85
cfb5
5bc3
a121
17b3
abba
a0aa
b6a9
eae1
e5c8
aab4
3745
ac1f
b162
3faa
583a
a46f
e4cb
8d5b
56b2
8618
71a0
0815
83e0
e488
e47d
ec88
68c9
fa23
fb1b
a1a9
17b1
7503
fa28
4636
04ff
5353
bf48
328c
27bb
6140
357a
cb17
5d2f
b9ee
6e83
bb88
cd31
f78b
7c42
4ff6
7055
b832
93a4
3b47
19d2
ec26
2556
fb2f
69e4
6094
aa4c
bd95
47d2
3f61
fd3a
105e
c38f
e5a8
281b
4d3d
fe75
a2ca
82cf
f0fc
943c
6123
ee50
8c69
899d
8648
b039
3ed6
3990
c691
5f67
418b
5287
3bd8
8e0f
a6f5
fad8
8c64
d3ab
9495
5381
486c
f0c9
2578
8ffe
abb1
de25
a6cb
0ba1
702e
81d5
16f6
8dde
793d
45e2
07c2
d38c
bf56
fae5
6bf0
e3c5
0497
6e89
67a0
87e5
b716
0175
6116
6c4a
83bd
a270
64a4
3e95
774d
a29d
3ae7
2ea6
556f
8b98
329d
9813
236c
dedd
ee51
a05b
8840
5f10
2d99
5e86
d039
b7c2
d626
e338
e010
4223
0a5d
a10a
c526
8a78
236c
8bd5
2efa
36c8
0fb5
712f
168c
adef
4077
4281
68eb
ef9d
31b9
414f
69be
b1b7
46cc
be18
2b5e
804f
0841
29c5
ee38
8e75
bcaf
d4b4
be48
23f1
3c8f
ee7b
1d4a
078d
37a7
9175
d56e
25af
7878
90b6
3825
48b4
2de5
2b2c
3eec
83fa
7c18
e673
bc36
626a
4c75
02ce
21bf
ddf9
69e3
d15d
64a9
d686
e57a
8ad7
e5b4
e962
9f16
1773
ac5f
b483
ae1d
74a7
5a30
27aa
6786
807f
fcbb
547d
46d1
dc26
3354
97dd
5d31
fe6b
8b4a
35ec
7617
289a
fa63
9c1a
f2b0
0e5b
239d
764c
e041
e781
220e
c302
3b6b
f882
3ad7
b0e6
8869
6ae2
ab31
439a
e724
264e
c251
9d84
e3e0
0901
6b1b
4c3f
abcf
c892
60b7
11bd
4744
5572
183b
3e1e
b0bf
642b
ec2f
d31f
183e
e9fb
8844
1e27
96f3
3585
f470
eb0a
b95f
3154
e88a
1889
4cd0
e773
685c
a5fb
d4a1
0abb
89ee
2ff0
f8b3
38cd
6664
5450
b658
8656
b945
7a51
7251
32fe
7653
1546
5d91
17b2
4aa3
659c
528f
d7bc
ac67
348d
a522
5d1d
3dac
7b92
3f72
1f48
6949
7e80
e1f7
cde0
c6a4
23db
f464
2a01
8990
ced3
7b6b
9c99
7575
cfe0
c89c
5fd0
0388
9861
d6d6
0755
0f75
4cf4
adfc
595d
92a0
a492
97ba
0cda
c802
b3c7
aa05
5f92
33bd
58d3
afbf
3ab0
605b
caa8
b9b1
df3d
217a
a9c1
3c59
6231
ca1d
eac8
09b6
4757
f500
0a80
b307
42d3
1ed1
4259
d661
d582
b2c4
6a38
5fd7
5ad4
4c9b
804b
107f
c92f
19db
2411
e032
756d
7703
1d2c
5ef9
8c84
a7db
83ee
ba23
cd46
bf79
2f42
1906
5b90
dce2
dea5
e186
5ea7
ef16
0209
90c8
fd7d
c468
497a
6198
2981
d2f8
7432
1eab
92dd
eabc
eaf1
2c33
f529
a459
2366
046c
add0
28d2
6150
2dda
cb93
78ea
01e7
05f1
eeb3
1370
e6dc
05b2
cb97
0867
d9c9
5f4c
411e
79f4
76b2
0e57
b2dd
39eb
61ae
41f4
8e8c
4d37
fc9f
a2f4
9ba5
93e6
a0a1
b8d7
3f5b
a1e1
761d
1a51
b078
bdac
beae
cb33
785d
4fe8
6440
6a9e
6c37
2929
832c
d0d3
5082
8d5e
666f
e9ce
622e
d2ba
6a67
ecb1
487e
3713
5915
7758
81ab
af37
ef48
91ae
b73d
7c4d
9841
c637
8546
7727
6a01
b2c0
9ce8
9d6a
2528
ba63
3693
c9ce
75d7
c40b
9b87
e95a
f1f5
0b83
7b86
5ab8
2995
29fb
0471
a148
36fa
909e
2c7a
c22e
d919
0d87
47fc
eff3
71fd
a342
2bb3
fb07
fc4c
7501
3522
61bb
9e9b
5e8f
df2c
5461
a19c
834c
bde2
12e9
0736
068e
31d2
fa23
fdb2
8d7e
0a7a
e825
0628
8a99
e64e
c217
8aac
6784
af1a
b327
7fc7
97cb
7400
abc1
fac8
bc84
6b31
3f2f
b689
786d
a6ff
8275
a31f
2a9b
0612
a931
c168
c9c4
db6b
96b7
bb0a
a680
142f
8553
f5f2
6c2b
a251
eadd
f512
1924
751f
076d
cce6
8ad3
8e71
4acd
9fe2
8a1d
96a7
079a
3fda
a361
3cf5
e229
c447
8cc2
6228
b3ed
cc0f
73d3
1684
d4f1
b120
9903
3a2c
6a7f
9c1d
c21e
df79
589b
777a
8745
fd75
745b
6918
b148
8d45
e9ac
fc2e
1a6e
8fd7
944a
2c07
44ba
8601
9f66
23d9
d721
8647
68c9
8616
99e4
bba1
acb6
d4f4
7d7c
bee1
5925
8adb
7997
39a4
d9de
0455
370e
ccbb
817b
0e54
0e90
d00e
c9a4
c3be
06ce
e4b7
a5cd
37d1
3e89
842e
86c1
da73
6485
3f83
5c8c
6e18
ac32
009a
4a46
4cea
c0f9
0c72
0a23
b0f1
3c5f
f28f
6364
da7f
76da
ebc9
d759
5c28
4807
107c
f988
938b
03c6
9a7c
7ac5
2b71
a872
3a66
d067
7b26
14bd
0f9b
72aa
801a
075c
2297
bd33
7673
f220
0ce7
8b4d
161c
7d28
92c3
0cf9
287d
b867
10dd
dc90
e37f
5167
99b3
6325
195b
438a
b699
2a71
b568
f60a
e25b
3052
ca5f
4653
3d32
67e0
96c6
c117
0bea
1ad6
7117
bdcb
777a
e4ec
b635
8701
4f3b
d993
a1f8
4b47
92ab
a28c
906f
47a0
6727
64e1
7058
352f
21c9
f48a
25ee
ddc0
b699
bd75
c191
f274
e668
503f
93da
85ba
c48d
3138
4a56
3c78
04ed
0f87
fbdb
ced4
6106
b04b
c67d
5b11
8271
501a
344c
d178
510e
1da9
1b3e
7742
e2e0
8bf4
a277
5e81
23b3
4d1e
a354
542c
cdf1
4881
5578
d50c
3ff0
7ac9
2f89
47b9
ebfd
f00a
153f
6760
a53d
3cc6
5696
0ef7
c521
0574
402f
2994
ca31
8e0c
f8e1
183e
bd46
0baa
bd33
5e9e
1c86
8a59
bcc0
bf14
d52a
9e29
ad4c
3660
e8a8
d269
c0d5
a521
0dae
c5b2
65fe
0f34
beab
3d80
211b
ae9c
1eba
5987
c044
d134
f67c
aae6
8e59
3401
f3f1
986e
6fc6
c993
27ad
130c
f1e5
4308
c2c9
356a
0f69
97c0
9d7f
180c
2fc7
46d7
fd1a
571a
c7dd
7162
9014
cb06
2d56
3072
4b49
0501
6c7f
e31f
a794
c623
b934
07ac
da86
3234
76ac
ee70
320c
3409
97d2
ba09
85c0
441f
6f4f
f80b
52a6
ef4c
75e5
7660
65f8
5695
a19b
2eb5
afd0
e2a5
4cbd
2dcc
7de0
c75a
71aa
7faa
bee0
953b
182c
de2c
8e65
f074
a06d
34ee
1e02
6891
eeb9
aaf6
a645
9611
c9ad
e63f
8228
7786
8c4d
caf3
a738
733f
8ae8
f79f
5312
e156
f8cb
9882
0ca8
72fa
95a9
8696
d6df
0d45
4977
afda
b1a7
8133
04ec
0349
3e99
66e0
e6c3
daa2
b3b7
63ff
30f1
5c88
2188
878c
6f42
7db4
5e19
d622
6a43
2385
3d5f
6dbd
44f3
9ddc
d1ee
ed77
6e8f
aabe
bde4
8cc9
4845
2f07
89b8
bc80
82b3
560a
cac8
2bfd
48ca
f8ad
baee
1642
a8c1
aade
60a2
68d0
7140
c1b8
53a9
af0d
bca3
9131
972c
da53
8379
0b81
ac42
c104
00cb
6cac
f85b
d5d1
11a2
5984
a430
a00f
fe17
59b7
6c3d
9de2
77f1
441d
a1e0
9a09
9660
a55a
0b83
f1a2
3abe
8800
6eae
b8c6
f266
5e92
2fec
92e4
766d
c268
afdc
b449
bc39
0193
2cfa
9447
125d
180f
964d
53ca
ae8f
c58d
c245
5889
0c11
ca60
c71e
70b9
a001
dcb9
a795
99cc
33b7
6632
3c0f
fa56
2508
08fe
899d
ba5f
e013
e7f4
feae
08b3
c142
0d55
908b
16ef
15cd
f404
0d18
2ab8
06c0
de5f
48e4
ad68
c2c0
6b02
0403
2d83
50de
8992
28b1
acbb
4939
6513
68ba
01d8
7511
7b90
feb9
6763
da2f
8a85
fbfa
5969
f395
e10e
2451
a371
0090
435d
364d
16a0
a3bf
0371
85d0
18db
4f57
5a89
7e10
2230
fd5c
04ad
5b16
4509
4060
5ab8
322c
ab59
4982
6cc1
0551
d615
f470
760a
8b14
f1b6
336e
a69e
a05f
26c7
20e3
2245
f6df
3d67
6e41
d849
ee4c
1ddb
76d4
8569
4dbf
8d73
38d3
ddcd
8802
958d
7cb7
5a9c
5bb7
8e54
d859
a7ac
33a0
d8fd
4bf4
62ba
42fd
ba57
afc4
f781
f020
1a3c
3804
ace1
871f
8cbb
de33
0ee6
5b23
2909
252f
6b64
7538
52b8
1a40
26ac
d668
d2f0
8bf2
1769
b809
2486
d987
8536
cdc8
cd72
04dd
797a
1765
abc6
c511
5c65
6e31
679b
035b
1f5e
8870
ac00
3267
f044
e814
dd74
746a
1fe9
c04a
8d0c
3b00
9ab3
21f9
2f86
0744
90d0
fb36
0c3d
370e
c84a
e595
c6bf
fbff
faa5
7e2d
13dc
a090
be83
ec38
8268
95d6
9b08
bf49
13e7
796e
87aa
08b2
14f8
b1f1
2fe7
ee11
84b4
7e0a
c27d
f78e
5ccb
e1e3
fd84
db79
3abe
3c3c
b09c
d451
3e61
38b0
f106
c5fd
c42b
5596
a452
82c4
b46d
09ce
241c
67e1
6bae
b124
3191
a5ea
3b6d
406e
78d5
db47
9d7d
5fe7
e442
e194
910a
65b0
a416
8a16
b535
4297
bd24
a0cb
ce4f
317d
4dab
6c5e
8584
6d91
7648
632b
6c7e
3a27
c778
5b46
a614
20bb
5566
4c6e
2258
4a66
570f
be6c
b602
eb91
6b47
ee1c
1c99
3a41
2ac8
e148
3d86
672b
d12e
0eeb
17ca
b126
d0af
cc71
1c68
7c7f
6ede
1796
9f43
b168
390b
cec8
6f41
ef73
8fa9
2f35
79c1
3fd5
9054
3eea
406d
0a1b
1741
1bc3
7cbe
e375
1e8c
8911
1f1e
a48f
24de
6149
f0a7
7416
843a
9b76
3c70
57ae
a434
a127
f99d
636c
0059
b967
7d7b
f86e
45f9
4d93
7786
922c
68ac
4a68
0790
a235
01d2
6b69
afdf
44fe
198e
653d
481f
4f5e
2ae4
4598
d779
ced6
9b16
c2c7
3c3e
8b81
22f5
c0d6
7b53
43e8
0c7e
e47b
58fa
ee65
277b
7ef1
09ab
177b
e99b
03dd
8b21
59c0
58da
319f
1a16
41a2
5491
4444
4ce9
d8c3
d4f4
1b3f
9ada
f0f6
90d1
a5d7
5459
9c6a
8c52
0336
a958
df4f
0e1e
e907
dfba
5a91
67b3
a3a8
9816
3d2c
fde5
0864
b3f1
b280
3f16
e973
1ed7
35f8
4ffe
252c
13c0
68d5
9279
10b9
11e5
d17d
4117
0441
e17f
dc2a
2886
bc88
ef07
339f
615c
e24c
6b5a
0d95
e346
fa12
eefe
f11b
e0ca
a3cf
9010
6e30
b379
558c
50a5
127d
5563
5865
6b04
f97b
39d1
fd9b
0c6d
0ab2
6a7d
6b1f
602e
ca50
9095
a618
569a
80d6
5939
1e4e
a0f0
0979
32d0
7192
8734
900e
c6cf
7b46
9b57
cf93
412c
6f5d
4630
0aad
4edc
c39a
9de1
979a
47c7
f8c4
bb5c
255b
7a3d
847b
54ad
9252
040d
cd75
9402
c645
62a1
1d49
eed7
b42c
464a
ac10
4965
0795
485c
4c2b
f692
a5bd
be12
dbad
4e0f
2747
3d85
497e
2598
c166
7127
9875
024a
8740
c5a1
e80a
e3b9
e2cb
70ba
712c
5862
f358
d46b
e15b
aa4c
d9c1
771d
d797
0052
a901
0e6e
4f1e
6223
afdb
008f
da38
2f9e
2af6
393b
66ef
f3f1
a9de
a7bf
7578
7eb9
7790
847b
dec9
0603
56a2
7e5c
2c15
4d6b
99ce
610f
cfd1
db9e
0328
f81d
7ef2
7817
0407
60dd
da82
5d0a
fd8e
a3d2
5511
7966
2113
a4fb
ed6d
b541
1dd4
c3f8
9267
d89e
8f12
9150
327b
dca6
5004
3da1
7a69
9255
4008
1e45
f00f
31d5
25c3
7638
d105
5852
f7fd
7081
1234
c7b9
3553
67f9
fa82
2068
c8ae
069d
c59e
c3b7
3398
7ea9
3131
2f74
6d1f
3313
948c
3b14
9fe1
fcd7
41b3
b44f
3323
f22a
51c7
90ec
bbfe
cd20
2b13
facf
3904
6959
0194
eaf2
c873
7da5
a747
3fbe
f58b
7ed5
2c20
9794
7181
3579
4adf
a0a9
61d6
fbed
c685
c760
609b
91cc
b1ca
68a1
74b5
b6e5
e0ca
ae48
205c
9cd2
ff6d
9315
e87f
a9a5
8837
7eb4
1f4c
37c0
c3cc
eee7
94eb
c334
00ab
dea7
d997
76fc
5a55
7dd3
6364
c493
2147
4f4f
09e3
9888
8bc8
8b14
de67
51ec
4f11
ed94
0536
c9c0
cb11
a14e
47b0
88f4
588f
808f
0375
4872
8b84
aaff
f6a3
c857
c4ce
0d11
5ab1
2e3a
ec6f
c22a
d869
77f7
018f
30b5
1c53
7bbc
3478
2efc
069f
dce3
9f16
3ecf
ba92
7e65
acdb
eed2
343c
eb32
acca
a071
d675
7b97
2d46
fb38
33fc
9f79
35e6
3e9e
6df4
4182
6000
321f
4169
f2d5
9a49
88f4
855a
bd91
b16b
0e88
ae5f
7d78
7786
7015
20dd
a94f
f2bd
9cd9
6939
ac76
4db7
7957
666d
883d
83d3
a364
e654
271f
9f83
ff9c
bfe8
dfba
5a50
a478
0618
9655
3c98
9783
b6c4
032e
6664
527b
789d
459f
a1cb
efb7
547c
8c77
4e2c
0dcc
c53f
7c1f
8954
5e11
5eba
b90a
0aca
2f9b
185f
b554
ccb1
4668
107d
cab2
8b78
e15a
fe4a
2a83
ad3c
7a73
9854
bc8b
5a48
7320
67bc
8d5c
eb0d
eb35
2498
72a9
7c94
b013
327c
d560
d54f
2e52
bca5
161d
42d9
ec1f
18cf
7e16
14f7
d8d3
0b15
db5b
40f9
0942
3fe5
22dd
1aa9
9339
8292
773d
960e
c3c8
36b7
0666
7115
c6c5
60c3
221a
579d
5a7f
37c2
1f2c
2bda
d523
fa67
6afe
b02e
7818
87c5
7e8f
725d
1d74
829b
b321
7932
b0a9
4c13
7283
7132
c06b
e2cc
4235
b610
2085
cfac
c6a2
0091
c8d0
6795
bfad
ba69
28cd
2b58
0797
babe
56a3
8f23
f771
a0b5
473f
ff7a
d547
4e31
1d51
583e
cf40
b46c
e31d
4cf3
1da3
d877
c06d
3a17
b952
11ae
a2ef
0c1e
4a07
1159
87b5
3255
96b3
1852
e17a
aadb
d440
c563
e291
6e75
a904
2815
67d4
2535
c2c1
1e1b
2b4e
f94b
fa56
62eb
ffea
7c14
0a38
309e
f469
16bd
a6a7
aaa0
3ccb
0418
ea0c
2894
899f
2c16
3be6
11ec
319c
9398
95c1
714f
109e
2fc0
74d2
ed68
bbff
5734
cf01
1f28
e59f
56b9
f435
b64d
88c8
3acb
b148
876a
21c6
d6c0
6987
393e
b647
f4fb
a6f3
f5ae
9f70
53b9
e88f
c6b9
9d03
8d61
b3a4
d080
7a26
b51a
1af4
96c2
0534
45d8
6fe5
c092
80f8
6ff1
18e1
23bf
eb20
47af
680c
8618
2fde
7980
5469
0ccb
f14b
2bd1
e3bf
81ae
11dd
64f6
528b
0f49
f4c6
a667
9fd3
a339
d2a3
d982
fee4
9d4a
bd8f
29f2
5c92
f896
81b7
ebfe
59e1
7296
d1f6
2955
67a5
ef9b
6214
abcb
2f34
8e3c
2514
8db3
7ebd
ede3
81b7
ccf2
a464
c444
ecde
1fc3
df16
cea8
3ae3
b5c1
8aac
3a34
b928
39ce
6e22
9a8e
4cd0
efac
a956
4465
e79a
2fe4
7760
049c
d712
15f0
6957
e4d1
38b4
fa1b
e08e
69f2
dd30
d9c1
81bc
d05e
4c2f
db62
dc5c
5bc2
f053
90c1
b4f7
93a5
120e
9215
8996
8551
6c24
7b15
6e91
17d0
4e4e
8ed2
ab17
744e
7f2e
e04b
5ba6
1d89
7029
a2eb
2175
be6f
20c8
684a
a98b
9fd9
8ba8
85bb
0dbf
27b6
0b99
a960
ff73
bf4a
2e99
57a3
92be
f3d7
1c92
e16d
bb64
718f
8683
2ba2
3acc
d290
c9bc
6ecb
4d69
7b93
f044
27c4
b172
63bc
a707
12ad
9dae
0c3c
0b4e
2d0e
552f
fed6
a3fc
eb89
e7c2
e080
8472
2976
3d17
8dd6
110b
09d1
20a3
75aa
4ed4
f15a
2520
0fdb
2360
5291
7aae
9b40
bac9
2056
d86e
935c
9d58
452e
fa8c
5c9a
753c
47a5
52fe
84c7
d280
2d28
27c2
2ab4
0868
210f
1ba4
820a
70b0
dece
7255
95a1
8fa4
3a71
a2c9
3664
d7f1
1380
a680
c50f
b4c6
6892
0e45
1f6c
f958
ede5
2471
d8d6
57d2
d43e
cca7
5665
28fa
5863
60be
0898
dbd1
3cc4
3646
a905
35d5
adaf
aa71
e76d
aa40
0842
6af4
cd9f
065f
64a0
3a27
ca22
9fb9
6f47
78f7
6e01
2d6f
a3e8
b7f6
2f83
c9c6
24f0
834a
fe28
647c
ae1b
2ec8
5276
40aa
e94a
0959
f73a
7dfe
0508
23b9
df80
fca5
2e9b
00ad
09fa
aee0
7da2
ac20
9bd2
4483
b3d0
fe42
f09a
55c9
e4fe
5861
62e1
a756
9ba5
9c38
e76e
98e2
ec56
7f91
2dc3
1f76
227e
d254
5d6e
1f43
d852
e45b
2d86
250b
f3e4
234b
e32d
673d
1bf5
7ac5
ddca
81b3
6e16
06f6
7e90
ef01
2738
3868
41a1
c239
82b3
34dc
c4e0
e9fa
6584
1740
bb96
137e
033e
9c98
0d3a
df19
d5a3
0fe5
9d66
8d96
c32b
25b3
74dc
7c1d
3385
7502
0667
b5ff
f1b9
1aac
bf1e
6d50
deea
e811
f9e6
8128
48d7
1079
e4ad
41e2
59ca
c65b
afd1
bb08
bc33
edea
0fe5
bba5
a7bb
f6df
35fe
1ab1
c715
4de8
e0ee
507f
460a
bd68
4110
abf6
5b63
d21d
596d
68c4
1811
fc7e
9c7f
b0c2
b84c
a9ef
dd6e
cb86
5dd4
4023
a502
7d3e
f966
3530
81ee
c864
e1bf
cfc9
5839
b02d
6b3a
4557
dc6f
9108
f790
c411
4500
334c
c947
e96d
318c
bb93
f3e7
6c6f
c1d3
1628
e40d
5b42
3a36
0078
0936
0399
7082
87d5
fead
52d3
863c
4c13
5fa0
9866
d518
a96b
ef88
a9bb
067a
720f
f799
410a
c9af
47a1
ed19
21f1
8270
d10d
12a7
6d37
23e4
061d
de23
1ca8
6a3c
0d01
4955
bb83
6724
caaf
410e
0b7b
f7a7
60b7
b07d
d5a4
c42f
744f
e156
0473
6c9e
07a2
440d
10d6
0d30
7644
c563
7387
1370
f50a
acf7
b28e
7c84
343d
bc20
3d4f
7cb9
f81d
1b21
eabe
f999
1b5c
1133
7873
9750
f021
ff94
5062
fb59
4746
3313
8b4a
ae45
1f16
3821
e417
1071
9190
47f0
b648
ce33
43d7
5bd5
cf05
eb97
8cbe
6633
86f6
3c66
dea1
d772
2fb8
b0ce
dff4
d193
da10
e0b1
50fe
28f9
3e20
98bf
62fe
eb2a
9d90
52aa
182f
2d3d
523f
9ad9
dc0f
8c01
a739
6247
00c7
f6c9
eb08
757a
9730
b42f
431d
ffbb
937f
45d9
d3ad
3f15
3f2c
f39a
d466
df4d
217d
6fc3
dfdc
94b9
cd6d
7a90
7e5d
6a8b
7a2f
7b98
c09f
5da4
6d36
ca86
42db
0927
c7f8
ab79
1fd0
05c8
eff0
2243
9bcc
140c
6d49
b849
b9d3
f919
8121
fb98
bc83
9003
f447
7507
cc5e
6897
51a2
d24a
d987
7ed2
300a
3e89
28c2
bd94
935f
78f1
f375
77a4
79e0
492a
0292
616a
afb9
118e
da5e
739d
902d
c6ff
da41
e259
e216
35db
af3a
acd1
470e
bbdc
369d
3ef4
3347
57d9
8f31
5308
77cf
77ee
1f88
94e8
051d
bf12
9726
65fa
94f8
f981
e3a7
f457
0797
b787
1728
2a24
59fc
e0b8
21ab
3c92
c72e
93e9
fffe
4ad3
783f
ba23
73e3
2da7
6c68
7fba
f6dd
d7bb
1743
d553
2dfe
2803
7a4e
ae7b
29f3
53fd
5064
ae39
6198
7ce6
f86e
713d
7458
c016
fc35
81c8
f8d8
380d
b694
7442
8122
c202
10ff
40d8
4faa
80a6
3f64
ba39
9238
61ba
f657
e8a7
cd49
7bfe
e4f1
3daf
022b
e0cd
e2d6
4a6e
8861
14ab
dffb
e545
b3fa
9158
42a7
a5a5
a0cd
443a
91dc
be37
f551
3f0d
a3cd
3c66
0886
a60a
87da
3818
d9c7
72d3
3df7
f8cf
c4b7
1fd9
3c70
6455
d51e
58b5
9591
f3d9
afa6
a3db
ba52
f84f
fe0a
5182
cfcc
24e9
3e14
a268
3213
f604
df43
cdff
25df
ddc6
8bd2
1dd3
ebf8
b7db
c3b3
738f
7e8c
b27f
445a
006b
30e7
218e
1c1f
532f
a7ad
6f1b
40af
6235
e187
027e
a6d8
60bf
f3e8
2e9b
1236
3f0b
31b2
b585
4bed
47f3
059d
9a19
0010
b36e
8d43
f358
98fe
9fc7
da54
3ff0
e88a
89cf
bf87
4e31
97b6
69af
474c
ddfb
e788
2fd0
a964
84d7
bfc6
72bc
22de
2109
b197
92ef
353d
016c
d961
a995
b10f
0a38
bbed
604a
fbaf
65dc
d8f1
c984
f48e
333e
2ca2
b22a
0928
909b
d70d
fc7d
9906
99ee
edb4
60b6
041a
3c5a
f521
c485
d896
cc1c
45f5
fbc3
dc57
221d
1bff
31e2
1dda
05f9
e913
5765
df46
a6c2
42bc
25ce
6120
d312
ef98
e096
b60f
9a72
4053
b260
e91b
3d82
7efb
8621
3d6c
fe29
ea68
3ab4
eb73
2c6e
c15e
18b0
d805
06ed
6caa
ca3b
876d
8cf8
835a
4567
5147
37ed
312d
f20f
3677
17ce
9072
216d
29b1
9669
7082
d5db
9729
36fd
dedd
6a02
3076
cc2f
95f9
693d
f6d5
86fe
5238
dc8c
26e3
743d
2d1a
3748
3a5b
a83c
ddd9
68e7
9df9
d909
7fba
73c0
1445
1114
5dc8
ad46
f572
d5f4
5c92
0fa2
2b8d
89c7
ade3
5434
afa2
01c2
dccd
5821
1008
fd7e
284a
7ef4
e8d5
fa06
52e7
916b
35b0
75c7
9b19
b307
d998
f86d
aaf2
a9ad
f4fe
ef7e
970a
59d1
5bc2
6209
dd6d
dbce
edf9
878a
a2fe
21dd
43c6
8dca
95fb
6918
5ee0
e9ad
ed08
600f
c742
f61a
4849
7509
3838
6ef4
0757
3319
fe09
e1e9
b5fe
7d1c
278f
3a00
0945
aec1
b01c
4daa
d813
ea4f
0bcb
2d6b
ac50
b8a1
d28d
7477
75ee
46f0
930d
ae7b
1012
8aca
a905
5a11
ed54
40a6
0b84
f254
8429
8d74
b574
b437
de74
0d54
6ac9
ba3f
0ad5
d247
9bba
7bd2
9569
b9bf
3113
41bd
cf34
cd4e
23ef
e2f6
32e5
322a
772f
2e77
c72b
73c0
ac73
d6ac
abd3
7f63
7507
4156
211a
437b
e685
b457
a197
a76b
23b9
6b53
e931
ba55
24f5
e967
3e83
f17d
2e93
904a
4c1c
37ee
945e
efea
5a62
dc8d
8274
9e29
f66e
a35d
ea95
8fa3
a54f
594b
7e4d
3d81
fd00
27f8
0664
e74b
7554
c70a
de9b
c587
74d2
2166
59d9
f245
c93f
efe6
852f
543c
3370
9dae
f1c0
ec23
4331
1865
0f74
d42e
7565
ab5b
b7d4
93fd
8dd2
9e30
f4ff
0a3e
bdf7
9fdf
d0eb
7787
2e3b
ef5b
d80d
696f
40f1
3d97
0da8
fd14
fa33
fa9c
3f82
7e3f
312d
5afb
e708
44ec
c0fc
960e
4768
8679
23c5
08e4
53c0
583e
5224
b216
80f0
319b
275d
10af
46d4
a6b0
777a
d1d1
2f0a
9c04
bca0
1462
2134
1d8b
fc2e
aee1
4f0a
9d25
73f2
4ad5
c155
a97b
d471
e211
2128
d2e6
bdd4
7868
2126
e3c0
7ed8
5ac7
c4f1
6073
3fc2
757e
0779
ffca
7365
cd4a
ff64
8a42
99e6
cc3f
f978
aa4b
1aaa
89c4
1720
d337
897a
3001
4faa
7595
3130
e2ef
7e91
a2b5
f8bd
658d
e233
9c2d
ad5e
0b92
8d3f
3f2a
2eae
401f
6a55
2b71
f200
19dd
ba11
3202
75d0
24ff
8159
5c7d
98a6
638a
578b
0ba7
b2b1
aa9a
2826
008b
e9ab
a3ce
c62a
3c9f
3cc3
961d
7fef
32ed
9c37
4e00
24a3
14ff
9516
bb57
c3a6
ed66
2a9a
42f1
a25b
72c1
975e
5945
66bb
c4c9
b6e9
e057
bcc5
4c3c
9c87
7930
b6f6
0f23
d0af
c6cf
4abe
d58f
a221
edc5
aed0
1d8a
791a
1a3b
5dc1
ab0e
7b75
bdac
bb48
b18f
9ab5
aa0d
c923
e5b6
b26e
2ddb
3317
594d
7d3d
ff26
27ee
2581
94e8
0b7d
e0cf
b2a9
c0e7
2892
474f
60d0
4acb
242f
ddaf
0225
7788
65db
7cf8
98dc
ab28
ef62
5f9c
7ab1
835f
b8ae
6a99
3d6d
df25
d588
57fa
de6e
c42b
3fcd
6485
065b
5d8c
e27f
1c3e
1ac6
4fe9
8929
5eaf
ae4c
73ff
56fd
4972
2145
1ac4
9482
6c19
cd20
6d7e
b80f
6cb0
7455
4dea
d811
ab97
89e7
68a3
b6f9
84c4
e035
7fa8
c8f4
d17b
0c34
bea2
5367
b926
f3e0
1f08
4f45
2103
802e
4f21
0976
0a4a
532b
35d4
2e49
dd32
3fa1
411b
e069
21b5
eac0
6b2d
3690
3600
87e4
8093
c13a
6249
c513
c351
f88a
ac05
ac28
f0de
700d
b6e1
aa19
1cfe
1706
8f62
e737
f470
0e1e
60df
c275
7f19
354f
77ba
0674
092f
7a6a
d814
8ebe
2340
40f0
f5bb
9547
af5e
2238
95e4
ca3b
8e3b
248a
c3e4
7c6c
2c48
4687
8d1e
5045
b559
3cd2
13ef
0d1d
25e1
dde7
f6fb
5381
87b0
7992
2808
9720
e727
757d
837c
b95c
0296
fd7a
9d1e
57af
b2c5
cb1d
f1e1
c271
bce7
b600
508b
76e7
235a
92ae
6521
7b26
8886
c26a
c6f7
12c1
4322
4944
b7df
3f88
b276
5cda
acfb
baa8
6e55
5227
bb61
27ab
2153
939c
e35c
d3d8
9e22
bedd
9a39
5921
e12b
0aca
50a0
2758
cae9
48bf
9e1a
dd25
1280
7479
aecc
1152
fb60
6de7
421c
d448
fcd9
8cf6
bb4c
9e61
8679
f894
f296
82b7
5718
2373
84cc
cd52
0bf1
4cc3
cbbe
c337
b9ab
a04f
9482
2ff8
12be
424a
5fe3
b3ae
3fb8
fe9a
0043
1c2b
8cbc
1cc1
50ab
2076
e709
715e
1ccb
d9bf
c89e
8c20
8a20
714d
47ca
b333
0fb2
7f66
bef5
cea9
9da8
fd76
740d
2b8b
011c
8d87
6aed
81ce
6431
3040
74b0
b951
0410
118b
d742
5b25
df89
fdb3
fde7
92f6
1238
e07b
48c2
0919
2043
09bd
565b
3af3
0e8f
8964
fe77
7660
30ff
9747
db0e
b8a4
2a30
080e
3879
da58
8c95
25b9
8bbe
d849
a1af
8785
9c14
65a7
ddfa
d4f6
172f
454d
5165
d928
be54
0c87
48f9
2090
2594
5bce
9ff6
fb30
93bd
118d
77ad
1854
4e0d
8ea5
4c85
032b
7289
a201
40e5
0d16
8a73
c439
e907
44d6
d38f
8027
ff68
90e8
50e7
51c1
aa73
c0a1
3f85
bfa8
1883
4072
9be4
0e77
2051
f5e4
539e
fa05
4205
c67a
f6f8
3f1d
146a
738e
4820
e217
dccb
0142
3e15
a4f6
13cd
3efc
a776
8833
f3b4
476d
2853
dab6
511b
e082
0202
2346
2976
a76c
c6da
7c6c
62ce
915d
9d69
fd01
045a
c106
d79d
c94f
44e5
9ab1
8c8a
ac5d
5f24
377d
2016
243f
ea21
3ca4
15c7
47b9
53ae
32e7
82af
f66c
03f0
2aae
7a52
eae8
e13a
e44e
15d2
c688
9be3
c392
1948
4eae
39c6
c857
e43c
8763
82aa
e4ff
800c
a692
0a24
67d4
e15b
f69f
0a8f
a73e
b096
7014
fc83
af7f
6a1f
cfd3
a9a5
253d
5f01
5199
78e3
ac19
32d4
38a2
010b
75b9
5363
f3b9
55e1
c9d0
4979
66d6
673e
0cac
9b57
222f
081a
2ac0
401c
b7a1
e5d5
ccd7
d892
8185
5c28
0112
b931
60d5
55a4
c9b8
4155
f972
f615
da09
4004
8eec
16d0
9b78
2795
e2f2
16dc
c0cb
eaa8
5502
9ff2
7d06
f989
0b9d
107b
73a2
7580
217e
6b67
b07a
b1e8
0593
0422
bf8c
3bec
456f
d329
96f2
b590
23e4
7475
970e
cc2e
0024
72a2
93fd
33db
8e35
931f
f29e
8849
6efa
d08d
98de
2e39
caf8
3f79
5f4d
2285
b83d
8c9d
e874
4fef
ca42
a5dc
318e
0efe
3898
9b64
5fa8
c224
04d3
85e8
d9d0
3708
212b
8d98
5e23
843b
7bbc
ae55
7da1
7f78
004e
181d
f4fa
7a86
c28e
d67e
871d
ab87
c117
6f87
3bbd
c32b
328f
b254
d9c0
2b09
5de8
5613
9792
5293
f6b6
cb66
1043
7668
f5ac
0344
d07a
fd2d
9a81
e6b2
020c
9f52
a9c9
24ba
4d86
8d91
d3c2
b70f
e3a7
6b16
1ce4
aeaa
8377
ad26
836b
31ef
a0f4
14da
7eac
b9eb
3f65
927a
9555
2d00
9e87
29e1
e711
d14f
747f
a141
bcc0
0921
ee3d
6167
dc67
b4ab
6add
4199
ab81
fbc3
8ef6
e897
c6d7
b004
f156
6ca9
4009
7189
c344
defa
f50a
5668
675c
58d7
e921
54cb
862c
028c
52ea
1ac0
a927
a078
4c53
e310
2533
3ff6
f716
d085
f89f
b859
567c
e0ab
63c1
3279
dde6
78f0
d7cf
c379
d4bd
27d3
9bc6
9cb1
136d
d745
9cc6
2f6b
70ac
ccd0
2621
3ce1
0ebd
c36d
24c3
fb1e
cc1c
ade6
4270
7925
e127
0b35
6edf
5535
8ebd
7183
31ed
255b
ba2a
f812
ca11
6fb0
1c64
23cb
5e5e
33b6
69e7
bdb9
54f1
a215
dcf3
f0a9
193c
d5d4
53ee
b2aa
f16d
87c7
3710
ee0b
0dda
7be3
927d
e5b7
8b2a
1406
d028
0bd4
e91e
d90b
c04c
014f
646e
e5b1
5b8d
cbda
2b93
1c88
a5af
0040
532a
d91b
1013
3f1a
b468
552a
f498
573c
81c2
c45b
e612
8019
c653
8993
f892
dcea
6a42
2a99
5e1e
0caa
5b01
ea62
f3ce
60c1
5d13
57d1
560e
5896
f009
a2c1
327b
70fd
784c
ca2a
6c2f
6e93
1878
af3f
d8ae
3b63
3919
f76b
f45f
8056
62d2
1d70
217b
7615
65b8
bb92
02fa
1c17
cb66
fcad
c1cf
40c7
6ccf
590c
7209
eab4
cb8a
c3e0
3c79
58a6
bfd1
dd2a
17a4
4041
9661
ec96
0d1a
7def
ee10
076a
9c88
220e
a339
2dc4
8fd5
2f13
c980
cfaf
8588
0bb1
5f1c
ab61
ef3a
3754
f293
ef30
f227
623a
2202
6f33
f881
a59c
387b
196f
4e9d
2880
0665
b400
135c
7cf1
18c8
f0bf
50ec
e9b6
a415
1a33
88d0
7bc1
20bb
ea22
8757
0434
8deb
8b75
279d
970e
9b5d
ea6b
3665
92ae
47f5
9301
70f1
16c2
8238
e823
c9a2
61da
0c83
4445
3dc1
63d3
d7ba
e2f8
37aa
9068
70dd
ad17
8a2a
71c5
97b8
62eb
4a5d
fc05
73e5
2a9a
84c7
ed6c
cc08
aa35
96f6
fe69
46cd
3cef
bd17
128d
79ea
5424
a046
fad3
7350
eb80
d41f
a5ba
28ec
4ad5
efdf
1743
5aa1
f2aa
0631
6142
1379
593e
2060
0eaa
e11c
4058
0932
2742
4846
583f
a2b6
c272
30b5
816e
bf8b
a985
5485
3389
24bd
cb79
3b27
faa3
b2ba
d281
62a9
80fe
bd06
4235
31d6
78eb
fd75
f605
4d0d
b130
c6a0
2a39
e5ce
28b9
4db0
a42d
ec50
5fa7
5026
10ff
e6e2
972b
08ff
1543
d971
fcc6
d2c4
20d1
3604
8c77
bfa6
3027
84d7
551d
d16f
36ae
341a
cbfc
3fd1
dbde
1df6
fa95
1810
2809
7341
9c84
ddc2
8966
339f
74e9
019f
545d
be71
5b27
1437
f961
861d
833a
46d2
5643
70ec
796e
c35e
d12c
6423
76a0
bea0
ade4
1f23
5395
0a6b
cc2d
1584
5a76
6c71
7680
7fc9
a87d
63e0
8e8d
d59a
9bea
259b
ac75
74b0
e1cb
9192
fd07
aaa4
ad2b
9dd1
fd2c
c764
07fa
1582
21d8
0af8
6aec
f3f3
38b3
b44e
5c3d
15e0
f4f3
e69b
aa03
603d
59da
fc77
fd20
02f4
4511
af1b
fd2f
e074
5f65
0038
b19a
add4
3901
790e
c034
c3cb
9f85
a69f
46d2
d205
cc75
c80c
8be0
7098
d7cb
11c1
9aa9
6835
71d1
ff01
0b66
454f
d791
d853
5a32
d776
abbd
c64e
850d
97e7
8412
56c1
4494
61b3
51a5
bd2f
7a36
49f3
5edf
66ab
41ea
f1bf
4d0c
9eab
e515
1e69
0095
c479
7063
0287
a65f
c7f0
4e53
d832
eeb5
7db3
b9f4
3404
9a05
4268
fe5d
2ca8
ec1c
bb33
bd8b
0dd2
e99c
82f3
3771
abbf
7687
afde
89a4
ef06
14b0
af53
bbfc
e059
c13f
1bea
afe2
f934
e61c
28b0
ccee
8bff
0632
79f5
d7d7
0469
4598
693e
2bd7
b7c9
e9c4
7c28
0850
a994
2385
1642
bb09
4278
bdd1
199b
e2ba
d730
855e
4f88
c434
6908
0bae
a642
687e
4281
cac0
bcb6
9c7a
10ea
13f0
ba9f
4b56
13c1
1538
978f
2ace
06ee
7025
1c33
6573
7b24
f13c
88ba
3f4d
debd
9fe6
c5f1
77e0
f3c9
79d0
e08b
dcf4
65ec
67db
32ff
9b74
8203
f49b
807b
39ae
5846
df13
47ee
8011
eeb6
9f0c
bb7f
c40f
0e60
e909
f629
4ca0
3190
0f2a
a55d
915f
c3fa
a118
d597
f753
ba33
6309
39f8
c713
7fd6
3d41
7b29
1bd5
7cbd
bd2b
aa37
4c47
ab4e
34d0
60e1
1291
06af
b6d2
9ca2
b51a
9e33
e420
03c7
c931
c918
d71f
4c42
ce39
f1dd
ee4d
68ff
b088
0dad
031e
ae82
7abc
8327
e432
5e7b
37f0
4e29
7de7
d1ed
79c8
7760
40cf
e446
0bf8
6188
2789
1f56
8bff
70b2
b115
dd5c
8a50
d374
2588
f0c7
aee4
ca36
306c
00bd
23dd
6804
51d0
1c01
38c3
16d8
622d
1fc8
7cfb
101a
939c
3f91
620c
91fb
793a
3c0c
3e7d
1e83
de21
2b5e
08c2
3443
95d4
9695
8056
bfa8
dafd
f05f
a240
85ca
853a
44a4
f30c
513a
3e99
1969
6c2a
a14b
c295
5a32
5bf9
2a3d
ba4d
efd3
37b1
044f
98c3
b109
aa41
4455
e052
a8b4
f304
665f
a210
6f5d
dc79
7da6
0482
7c01
8d77
dbb3
121f
0781
a8fb
7375
5b4b
4232
abe3
6272
841e
567c
2dc4
97af
1b25
08c2
9f98
2f8c
1440
bf0b
0fe8
d8b5
bf11
16c9
7689
003e
5a19
65f3
6620
8ec0
e598
ab2a
51a3
8599
e36a
415d
19fd
1bb1
5d32
9fda
fb43
a6a8
4951
75a4
5d5e
46ff
fa1f
d3e9
4427
41a5
01ca
938e
fbe4
0122
6f14
be4c
24fd
9b68
4cea
4719
1c40
2ff4
a3b6
9847
f177
01b9
1cf6
95e2
7c7e
c953
8c0e
e13e
04da
2a07
598b
3b85
fa6a
3566
65a6
842f
0403
1e22
312c
c212
11b9
78ec
5aa7
a20b
ee05
2c72
394d
28c6
3d31
4586
585e
df6b
5707
be40
64a3
42e1
131f
4d60
af6e
69ea
f1e2
29b3
41ed
1195
33c9
0572
d041
f60d
8fa7
9e4e
12de
a353
7efe
5712
92d1
f8a7
7944
b773
ac38
b6bf
69ae
2d15
a20b
488c
f5ee
0468
0cc0
6f3d
8212
48d5
6934
32b3
f418
620f
f764
3821
15eb
1459
46fd
3af9
015f
0d5e
5058
3d7c
b65d
8d19
9775
05a8
6d38
f146
681b
b459
a27a
c7ee
14fb
883a
5c9e
1c43
cef5
9322
80e7
eb6f
2bdf
1011
9fb1
fc26
fcec
0965
238b
8e9e
d6c7
f355
689e
5d6a
8f40
ee85
db74
e11e
fd2b
90c0
a558
cc24
3a4e
a1d9
80f9
4e2f
5e4e
9331
3a94
ac21
5026
4bd3
f9b0
558a
33a1
f84a
f519
53f8
5075
eecc
6c2a
fb7e
2853
1521
fb06
3529
c7fb
fe52
88c3
bdfc
b204
2b04
273b
d256
032a
865a
f67c
b400
a99f
ff1b
8a3c
7b31
a061
c268
2f1e
74eb
d0ed
9635
fb16
d55d
cb3c
2d3d
ede4
91d7
cf97
e0c1
9955
325f
a255
5359
c398
8f6e
34e4
56cf
57f4
159c
ece2
a5a1
f289
36f9
d369
2c59
35c2
c1a9
9a6b
cd91
a70f
1f73
bc35
fef6
54ea
019b
e789
c4b9
12f0
4aab
a1c3
c53a
9b2a
fa33
fab4
a381
7e49
0bce
c34e
1c24
8f62
e2a4
8d97
ef37
3973
0645
6d08
d5d1
c401
5599
b123
71ac
dcfc
9327
f86e
b836
ae9c
241b
a41e
f9f0
5d30
615e
6e84
fbcd
477d
f028
5151
080d
553f
4a81
a352
b713
6baa
8716
8dd3
dd18
e02a
62da
6fa6
ce1f
3dc8
ee28
d8a8
27be
4aa6
0056
ed58
6c99
62c3
e7c5
8957
a330
3964
9786
4cc7
52d7
73f8
4427
27ee
70e6
56c8
f161
2a8a
959b
620a
1066
1f06
9b13
146b
a746
63ba
81f4
c758
7c97
1277
31a6
bdba
338f
402e
c2ea
89ab
7635
2bcb
e957
bf64
5b3f
82b3
88aa
58af
7b2d
5670
1065
8a19
bf27
d916
4ba2
7890
6fc9
cd63
ed68
c9c4
7eca
58f9
d47e
9054
c519
5a6a
26bb
83ec
8dea
0246
2a8d
a0b7
5dc5
f4c4
bdd5
3f53
c628
9c1d
363f
c96b
e33b
58ba
5b07
b36b
8587
bba5
a31d
c327
ad4a
0a91
bb43
7de5
e206
2972
8a3d
043c
673d
6b9d
2603
a479
c004
14e4
0464
b1a2
fa88
88dd
4b11
2739
f4dc
5e03
5268
92f1
ac8a
9eb2
3cf4
68ce
9558
d28f
1f6d
9908
ac38
f830
d26e
714f
a385
6a2f
9900
0ec2
ebf0
ce2f
c2b9
6045
79ed
6bf3
edf3
ffa0
1072
f750
9cf8
dd90
1866
d9b0
1391
de60
50a2
8c62
add9
bcbd
a994
f248
3e1c
a553
e02b
acc9
7ce0
f14d
3e09
b59c
bb8a
93b7
2f64
d368
f0b6
66e7
258f
df43
c05d
f68b
56db
164e
b0c8
4bce
8b44
c30e
eac3
10c0
e85e
c7a6
6cdd
9155
c5cd
5f2f
76d9
30d8
b941
453b
1ab2
f27a
bb60
2f79
d8b4
469b
c33e
8b1b
b050
8215
8ba0
a2e0
c594
e22c
bebb
4c2c
6341
7338
ff6c
15d8
09fe
07e0
81d4
2ecd
ffe9
0f38
1aa2
9a1b
0680
e8b7
906d
3075
6ad1
a951
4474
c752
5db6
67da
c8dc
2e54
ca08
6b3e
06f6
6841
3c61
66fe
91a4
6b48
2d61
3234
df91
42d2
8b15
e303
5a63
b076
f1a7
0b78
68c2
23ae
a36e
2225
3b4f
c741
f996
b01d
8ac6
72df
a4c4
324a
8821
69c1
009b
8f58
fc3e
3a04
7ec0
eb32
48f2
3860
3dbd
2801
c6a7
ddb3
a1dd
e1d2
23be
b6c6
deb2
af19
ec42
1b07
9539
e8c8
73a7
5923
36c9
d7bb
261c
b5ab
2958
2aee
bdfc
e3f8
c4b2
b655
caf4
b7c2
823e
d232
627c
8e0d
0707
ff16
482e
02c9
2cfd
3c92
970d
092a
9978
b227
055b
feb1
a87f
6a1e
7077
0e60
80ae
230f
cef7
1195
bf33
c12e
ce37
eb34
2c39
c571
e5f6
f28c
81c0
5c26
57c8
ee3a
78a6
09f9
c434
4e21
c411
89f0
b671
fee0
db0d
f120
7416
34c8
3171
bf3c
0a53
b0f9
6f3b
c28e
6f80
45bb
d94c
c44a
138f
fcd7
1a8a
9088
6981
593b
1610
d3ee
5867
0d77
1a86
2f91
bfed
cc35
7e7a
545f
2bf5
0ac7
74b6
2d39
ca51
50f2
001b
df6b
f562
8d7d
66c8
ce7f
1907
65c5
3ff0
6bff
abaf
03f5
e021
ed18
b82e
7cf0
5d0f
bcd7
89f2
7d86
286b
1646
373a
6c27
7f67
886b
12c1
4d50
ff2c
a66f
f169
20c3
0f0a
73e4
551e
ae7e
cf32
8e6c
758b
ca2e
eff3
db06
f833
f94a
c0a8
8af0
c1ec
80e3
e1d0
6587
74fd
d686
36ca
a578
4ab3
a610
e66d
f8ad
1924
affa
9693
d51b
da5b
85ae
0a66
a7bd
b49d
d3ab
9b8b
cfea
2e09
e237
e03f
ee57
6373
996a
3a15
9bfc
ac8a
ed61
ba53
54bb
5bcd
57da
16c5
ea94
5ecf
75e5
1290
ca44
cbb2
0f5d
3b0c
fc10
5f09
9438
d67b
923b
1b4a
9fad
2231
ea89
a248
057e
541e
9eb2
ef59
f876
d0c8
6b19
6acf
9bdc
dc53
7981
8664
be1f
3c73
5dfc
6e4b
74d4
3b86
e893
e905
742a
b75b
d087
f7e0
922d
e296
3ec2
2fb1
ae8a
01f4
0d82
5ce7
956a
a718
b864
8f43
a3ce
dee0
e6a5
1887
d618
e534
096f
ad67
d6c2
d904
3267
7f62
e45f
24bd
a67c
9945
9af5
c820
5658
c7b8
690f
f749
fc28
5a2f
0d7d
f450
103b
6f32
919c
7d19
738a
5c3f
5583
38bf
94aa
48b9
0619
e7ff
9f06
a564
a5ae
1656
b4bb
565f
e3bb
1a3e
abe6
3e73
cadc
ce6c
30ab
3668
22b1
839c
9662
5150
a354
53f6
00b5
1325
8009
4161
e042
f1eb
d237
c01a
87df
8032
7393
9052
5c6e
4440
df4a
4c01
afae
8ad4
1e2e
72f1
bb3a
283f
4a29
ab6b
1749
fbda
8d88
88db
5b09
fade
f45c
671b
0c1a
6301
bf10
2904
32c3
6d68
c3a8
7437
dcaf
0b04
f505
f51a
da46
7752
97c9
fe3b
a359
30a4
f6ef
e769
6007
42e8
aa70
7bbf
d35e
8226
cc04
0a48
cbc3
cfd3
b95e
7198
a269
2f7e
cd90
5d3b
8761
c3a0
c7b3
e2ea
1f2f
b28d
9939
5ea6
76d9
a66f
68c6
bb77
64fc
babe
3886
3ada
7643
13d7
0d53
ab57
88ec
1612
a0b7
5af3
5d1a
524a
d763
ad8e
645f
71ab
f7c4
74e1
903a
d596
beb7
5bc8
4b1c
adc3
5475
c8f1
8591
133b
e172
024f
95e9
9657
e31a
961d
6ebc
f95c
2753
59b7
41c1
b08a
0178
c972
e3a6
7483
2e0f
ff70
6631
2656
b961
ed1c
3845
fcc8
9491
e12e
2b6d
74b3
5a7d
9357
aac6
46ba
3860
4b2d
3e7e
4c81
31fb
64d5
aa5f
324f
8560
7aa5
b829
6d23
570b
196a
96fa
41ba
cff7
95b7
dabe
bb76
bc77
5275
7514
668d
82f1
0460
c60d
6e7a
5861
52dd
26b6
bf3f
c643
2071
2159
f115
767d
4928
3d7b
6a10
b135
ed95
7e89
95f6
dcee
7224
763e
88d7
3a8e
4926
2392
eb84
ff3a
061f
464e
082f
f9b3
fb2c
cd10
d1cf
9e9d
c453
4d81
9d8a
b07f
784d
72c5
890a
40cb
3c31
336d
b995
bd42
19c3
995b
a47f
42f4
1df8
363d
2090
a885
0a9a
fab1
5636
99b0
4af8
73cf
f40c
e023
6b34
9d03
078f
2e8f
cd55
a990
067f
daa8
717c
fd1d
cacc
7997
8a37
cdaf
f68e
7328
7a97
08b6
216a
0651
5e72
0dfa
77fb
c7db
47bf
5a8e
af58
81b3
38f9
1ca9
26bc
a375
f8f8
db39
e023
0017
7fbe
7c58
3b12
3c19
1479
8c1d
6d0e
9aac
7cc0
b29a
2003
79c4
378a
2147
2414
4d55
0a28
1941
9897
2864
bf0d
0684
e8bf
dbf2
1cc9
dcca
8280
1130
1ae3
f100
64ca
303c
2316
6b9f
199e
8429
6ea3
24b0
055e
27b3
d3d8
5855
1684
4196
0991
0c33
d40e
aa5c
cbf2
d506
9c3d
b9c8
198a
2501
1395
c868
9c16
3a8b
1545
23a1
7924
70df
66a5
81ed
cae1
c277
0f1b
79fc
b927
30a7
a50a
755a
84ab
c5fa
f29f
7be2
250b
87aa
3ff4
0460
f13f
a849
77d9
de8b
4b6e
5abf
7160
3e14
ce5e
00f8
509f
1a7f
9f1b
e666
6186
b001
3bda
1659
7c03
c111
755b
357e
0748
a426
7595
5970
9751
4b96
6746
de9f
82e6
84db
0da6
e9e5
4ed3
8c5c
0b75
0ac5
652e
6997
c9ed
7a29
c268
16f0
db1c
ef3a
421c
52fc
c516
6187
2535
1bc9
8ac1
c879
f279
8772
efb2
11ed
2455
76b8
d007
b44b
078c
f520
dca2
4d64
377c
975c
955b
bed1
059b
4950
e0e0
346a
6559
da01
1991
db96
824e
d84f
28c2
dc4c
a7d5
ce41
cf1e
8701
8fd4
907b
a0a2
3046
1b26
01b1
74ee
28b2
327e
3005
6f7d
1251
955f
a20b
147e
f009
d01c
aa8a
3884
6c11
2c20
5fc9
1e3a
40ee
cae1
07ad
eb00
5d11
d79f
6042
4f25
f798
70ba
aa67
9b21
2faa
9bae
95ef
4c11
8838
25d9
81db
5611
a020
d723
466e
42c7
9d73
64a5
477a
b929
5c88
4d28
0c33
8234
3d1b
5b01
7e13
eea5
9a71
3ef7
3e58
60f3
7087
a3d8
4364
b449
8f4b
c54a
7517
9777
365d
29ac
9b17
02c8
76d7
b9f9
7aae
4f2e
a5ed
9f6e
10cb
6529
38a1
c6ad
c6a0
cd17
0658
56af
f5eb
c605
be77
11bb
4756
25f5
0de3
7605
6008
8d25
74e2
f876
e1cb
5929
4b7c
c4ed
c399
fc7c
23f0
4f87
c9bd
cb16
a873
f6b0
82b9
8073
908e
e971
505b
6ab4
1bce
0a21
f3bc
849f
b98a
7cb8
a46f
09d4
7402
0c1a
16ca
1124
2003
c5a6
9ac9
fc1e
ca2a
5f93
8a94
227b
f671
6a4a
4d72
976d
511c
cd5c
1887
0866
2b4e
0700
b784
5e9f
10cb
9289
48e8
94d2
7a18
fc48
633b
c9eb
c0c7
97ce
f4bc
297d
0f7f
238f
e7e4
df99
2bff
37aa
57b6
ac33
2bfb
0634
281a
6a5f
796f
ae82
7761
d06b
a650
0020
337d
20df
1f16
24fc
00c5
e645
bc94
1508
a696
25eb
a6c7
4808
2af0
9876
a6b4
c133
94f5
4ae6
c295
0914
e2a8
abb9
c287
00a2
73af
0e4a
ea16
5dd9
48c8
a370
0ca1
5455
ad33
c356
b6ac
6c2d
8609
a6a0
5bc4
e11f
ae0b
346e
6372
4d9e
af5c
b108
555c
02c4
dff6
f48e
8ed6
53e4
a1ac
4602
2668
e733
4c50
38dc
9eea
b5fe
3cad
64d5
99ea
8311
3d91
c9c1
6bfb
bdc1
4f8e
a826
9d4f
6900
63c9
39b8
ddbc
3bba
2236
03b6
05f5
2609
409e
002a
aaff
c75c
c7e8
26dc
f6ec
33ca
56e2
29ba
b896
8cbf
025c
07b6
bf1a
db0e
e6b9
2196
03bd
ac91
6186
f3b6
b83d
8322
453a
dc8f
cd45
706d
991c
7dc0
caf5
ec7b
79c8
54e1
8bc9
49ed
746b
3a18
eab5
ce54
4616
d558
64fa
e373
b68e
dc9c
cbc5
c4a9
6297
8c19
8165
8df7
4ee7
9dba
ab77
7ae6
ea53
0205
5e0d
38f1
b323
6027
f73a
f959
ec6b
0b8b
9f7d
ed2f
dbc8
1673
cd82
c2f2
4dbf
5bd2
bc45
952b
e966
313f
488d
22cd
124e
41b8
f665
a3aa
34ec
723c
6459
9ac6
5005
2224
2bbf
12f9
862d
afff
527f
0119
cb1d
0eec
719b
cbc1
700f
9a0a
cbee
0d99
59f6
3346
deaa
19ab
253f
9ff6
6e3f
90d0
b674
0799
f9af
b2c3
9659
8d06
a9b9
bcc1
f60a
3bb6
3f43
987e
e5f8
6c68
9cd7
f342
c367
c7d7
3301
cd08
45db
ad15
8a0a
0ef9
f020
7bb3
27df
61e2
dd16
7078
4d44
1bc4
1aa6
5585
e255
ba58
16a8
e72a
c78a
8b1c
cbfe
3bd3
f190
c11b
e2bb
b9f3
7f8a
d823
9ca2
902f
3bb7
d966
c390
6df0
a680
b99a
8e4e
34c4
fba2
8680
1ab1
5c12
4464
79e8
aae2
bbf9
4001
5bb4
4cd3
a9ff
6b5f
ad82
c95a
0753
7781
3272
1d14
03c5
3b37
f7d2
c7f7
3b62
2a13
8686
9f76
7c10
46c4
6246
abc1
70f8
3ba2
cc7f
a1e6
b948
37dd
ebdd
d6eb
8907
c9c2
5295
e2f7
4c21
9a4e
61e3
7e10
27af
e8a9
afec
1a64
2a52
4499
6237
46dd
91dd
c0f2
85c7
ae52
7383
f1de
84cf
a3b5
b7aa
9109
cc6c
a588
2a7f
5fb3
10d8
4298
d2d7
12e4
47c2
b748
e9c6
f04d
7672
47c9
618f
176c
0839
7e4b
ce3c
e426
fa0b
a7ae
58a8
f3d9
2d52
720d
9e4c
61c0
b225
c5ba
2da7
3e7d
ea66
6f23
44ff
1a3c
92e5
ebcb
0167
eef4
23de
f42b
33b6
55fb
cf0a
9d32
ae8b
aacf
2721
e17f
e193
0700
f000
4aa7
bdf2
2369
125d
8d74
46c8
7895
55eb
ae2f
9162
b758
aa66
9025
dc37
a45a
c985
1589
bfaa
422b
04ca
d7af
b28c
fc8e
6bfb
3455
4b38
34c4
5bd3
e3bb
1e4f
c439
740a
6bcc
1d40
20ed
e799
1c0f
a73e
3f62
358b
9cfe
702a
b216
25e9
edcc
cf73
f8b6
79e4
14e5
f0a0
27c7
b611
e7d6
8431
5222
5856
c557
0de3
0e89
f2f3
74c4
a964
929e
77e6
0c01
9b93
ac2e
2b79
df02
5028
170b
7d36
b350
11e8
562d
88c6
a4c8
c6a1
4423
a3e6
36ed
2fc6
0cd2
de33
8eff
a10d
a373
a3a6
2e5d
4f41
8efc
c251
ed79
c3ce
218d
5494
b103
cfb4
06f9
98cb
e980
bd3a
5849
be60
3e00
7efa
b9ca
6da0
41e5
b373
ed9f
897f
0e31
6d0a
1171
e5a6
7931
b874
5bb4
a953
252a
e27c
603c
ed8c
2ff1
304a
badc
66a8
a278
b3bf
6dba
9230
416e
a5a2
cfdc
3a9d
862a
5b03
7341
afc1
b90b
f447
4742
0bec
4d91
69a3
2d72
94f3
3df3
58c1
6254
e081
5869
0383
06f5
404e
5356
b3ca
7870
1de6
2b9f
32ae
5c73
571d
ce18
3205
c9d2
1b84
543c
e4aa
6db6
5ed6
a1c4
26bf
aa9d
74e2
6e4f
7af4
7db4
6595
a34c
0482
30da
c441
9f58
f53f
c3d8
30be
0fec
df25
5992
aafa
7ca4
3ed8
6bd8
59f1
d220
e905
d486
4411
0bb7
c745
24d0
9ca5
28f5
d0de
2182
41a7
02a5
1890
9cb1
dab0
04fc
0897
f30d
80b7
5780
0433
6a5c
e4d2
f128
c4d4
0cd3
c73a
f0c0
e354
4462
53ea
0a54
c71b
f02c
c096
e198
126f
7b8b
4520
392a
50b2
405d
0180
a9be
8554
9e93
09af
427f
be9c
e933
006a
05b9
4c1e
111f
b24a
263a
6772
1f7c
d252
fa34
ca70
461e
b471
fea4
9853
465c
170f
5647
9ffa
d8f6
db4b
32be
74bb
3cf4
d129
f4df
c8d8
dcad
c86a
935b
df55
287f
f39f
07c7
33ee
8a7d
87db
511d
9c56
637e
2399
2f10
88f2
f1be
fdad
fd92
b33c
026f
f16a
01b3
af8d
ff99
2a3c
5976
5b54
8e27
11d7
6213
e91f
0af8
a8e9
14e9
0973
76ff
765c
d3b4
0027
eb21
e2b8
32f9
87fe
8aa2
bb05
890b
b463
dcca
a447
1736
490d
3565
e586
2d42
77fd
2918
12c1
22b0
717a
320c
e7e9
60c1
1c0d
499a
9055
daeb
04d1
f103
b00b
8820
5249
afb3
8839
4068
edfb
6576
79c9
3062
8b38
d2b9
4799
6d57
446f
dd70
0cf0
ef70
d520
9833
fe25
0245
9db9
5580
4b98
5314
3a16
24e6
987d
7756
d23c
a31b
aa20
f0a2
a21f
07d6
3afe
0299
007e
22f1
537a
2f36
5d12
8a9e
86ac
41b1
93cd
45ff
1ce0
e109
eced
26ae
14c0
bd40
28ab
dfdf
02e0
8c4e
bc44
1a53
f3b6
14da
cbbd
3f1f
5fe3
ff29
2747
0a19
8c07
8eee
7095
a22b
683b
1f13
8ff3
ebc8
c0a6
3d64
646c
eb13
4607
ffb6
40fd
f7b1
f849
5e1c
4ea4
3df9
2aa8
1d13
17bb
56e4
894c
6e26
e1d4
d47d
9f50
2b27
d07b
8dd0
442c
da5a
5656
9eed
adcb
f97f
e631
b891
b5e8
3b2b
0895
152e
b406
9ed8
448d
a79d
e72b
e36a
df71
eaa1
7648
cf16
f22e
3e6f
2df7
74dc
9e2d
9387
064f
2b12
9ee3
b274
7876
8f90
2590
80e2
5d48
33bc
97da
d5e7
c93c
cae5
0e2f
5703
efdb
79d9
9c86
864f
9556
fa19
1d0b
bc5e
2b11
87fa
f3fc
2a8c
2245
1cd3
9df6
e40b
4f2f
a15e
1a6d
ac16
74a6
400a
b41e
d631
e2cb
f6ae
29d4
8b29
dd59
d89d
40db
2255
16a9
77e5
57ae
a4e5
9202
4fe7
c298
65bf
a50d
4f6b
6f8a
00cb
b355
3769
b13c
ff21
8883
f7e9
fca0
32a9
59f1
84c5
1818
30fe
781e
69c9
cf61
a52e
3e79
0654
61b8
7741
27bb
62a9
228b
e48f
b70a
a9ac
d4dd
8037
bdf0
acf3
ea75
8c1e
ff59
0dda
f858
218d
da3b
0daa
5eca
a656
3d3f
3e38
df26
c337
9ee1
5449
5106
4f8e
cf93
9ee4
40db
f909
955c
d832
e1a7
6c4b
99bd
7dec
8a96
e12d
0f1c
826b
8f92
05b3
fb87
8a6a
84be
6835
13a9
df06
b8c0
3112
e75d
d9c8
d4d9
3e30
de03
3ca2
5b77
8160
358c
8fb1
91a6
361a
a98f
a2a9
db16
ca3f
b649
1173
6d01
6520
a4fc
ded0
a637
685c
daa2
f5cb
be19
59b9
0c93
0a08
4e92
5f2f
871f
cdbe
4462
9f3c
1619
eead
7690
1296
42f3
ffe9
e973
d133
c570
f5c0
a138
d57b
cbed
cfde
f2c6
6fb7
ea30
bd25
ca2a
6aea
5485
aaf4
f16c
caca
db92
36b2
1783
578b
d3f6
a043
8cef
3137
1f4e
66bd
6838
2099
569f
255d
92db
36c4
f5f3
2b8a
3db7
c209
a728
fa13
c994
d7c0
a0f4
cfcc
4020
51f4
292c
7657
b7ff
5153
270d
2135
4983
2873
57fd
5d7b
ff6a
3256
38f5
532c
d19d
61d7
dacc
e3fd
9351
88d9
5ba3
b0c3
75c2
e9fe
b75b
fab8
3e2a
7c7c
aa9f
fda4
1198
3cc9
7e60
7d22
e899
9a02
450e
bbe9
b20c
54eb
ab29
a65c
7115
7c79
6aa1
511d
2da4
8be3
de09
d858
39c4
316c
c590
ad19
3a63
930c
ce01
1187
544f
8342
e4e3
7bdc
e393
ef3e
17f8
8789
2b86
0ebe
9a9b
f712
d8d8
8324
677f
592d
6823
470c
fc35
d79a
1275
b939
38f9
4da7
42fa
863a
3b5a
119b
e98a
6b64
b035
ba44
9d5d
3bb5
cb21
8e5d
6b52
7aa1
266c
72c1
ead9
b24d
fadb
8fc9
966b
4643
6516
86f4
b16d
68d8
e16a
4e95
7fb7
6c18
3eea
0cdc
211d
8383
28da
562c
7669
76e3
ca38
0fcd
8cfe
1629
9e2b
a780
6c07
4cc3
5510
5ad8
594a
cf84
a516
f7fa
d950
97d7
ab85
faeb
8680
d4ee
2b60
bfa0
eae1
4b7c
ac74
0f0a
3acd
3924
a55b
2a47
eb01
4a8b
5b49
562f
3879
ada2
6cf8
80e3
0962
0b00
4e07
0343
4ace
aee8
d520
67f0
eb0c
f4fa
ab33
f5be
7709
0721
6feb
8cb3
1467
e4c2
439f
b355
722c
2dcb
cbe6
0cb2
61a8
edef
3cbe
c28b
91aa
8686
23b2
1d4a
e7d6
f183
aa8f
61d6
225a
c29c
9505
7bcc
2ebd
6a50
7b9e
3b22
3c8d
d49b
2f99
b775
fb3d
f43d
b3c2
d604
5c38
a243
a3c7
65c4
591c
7fc5
0340
62ee
8dfc
6e87
0c97
1a57
499a
5c57
be3a
835f
1762
566b
73a6
720e
d959
3183
85eb
31f2
4832
e776
0d65
286d
ebe8
b185
434f
fb37
75b1
1648
776f
75f2
a210
e977
a570
4010
808c
d5f4
c33e
fa21
1839
f44a
81a6
d19b
9ce8
33e3
6d2c
a4fc
93a1
f03b
ff2a
4c98
38da
84bf
577e
258a
401f
29fb
2bf9
e22a
c435
2767
51f1
4cc1
30df
e136
2c02
06c0
17ae
4c48
51f9
7046
c048
2c03
7773
6bff
6bcb
9ad3
1960
a27a
dc38
23e5
b441
ac63
b319
97df
8bd7
1e8d
b0c6
5d24
0ddf
bb3d
7276
f2f5
143c
20a7
d9cf
0f5f
af5a
658a
9bb1
e924
bb1e
346c
a448
97cf
f9ba
1f4e
62c3
7360
de5f
77ed
71fb
2d0a
dae6
902d
7fbe
2bfa
45d0
9761
ba67
5284
fc2b
c359
3c24
f46f
d031
092f
fc9e
9611
e873
1404
5693
e6a6
9240
c0a3
440f
1ad2
e7bc
9e99
5b92
8ad8
af28
ad95
9fcd
f212
fc4b
6c17
56ea
b3a8
24fd
fc68
d2b8
fe1d
d4cc
e07a
3cbb
421b
5bbf
c628
c72e
96b0
07bf
9c63
d005
0cbf
a4cb
a117
b0d5
b901
6944
15ff
7ff4
21f7
4196
035c
c143
2862
03f7
e55f
8325
aba9
b167
8e6e
e2bb
41fd
fd37
ff7b
d49b
5abf
c921
7f7e
1d9f
59cb
b735
a3a1
5712
9b53
5614
5607
408c
64b0
e1d8
2c2b
fe04
8dd0
e198
8f40
e997
c989
5faf
7899
a918
fe8d
7209
43f7
42c3
8f0f
8088
fd9d
49ae
987f
3de1
344f
2a2f
d580
e9ea
ee77
7567
230f
efae
6ced
de6f
7665
ec62
ad63
4216
856d
ea3e
c037
d50e
382d
e0da
e252
782b
149c
82c0
d91f
e983
d5a4
8c99
b852
7e59
5904
fc0c
a307
e9f5
e1f2
73c7
e4c2
839d
3715
f231
7e3e
3c7d
ddb5
b982
1959
cb56
b030
9306
6318
836e
1c4f
34be
ade7
2fc0
0c67
d745
e41b
bc8c
0739
6d86
58cb
7e29
8ebb
5243
5f03
13e7
19bb
0953
b49b
d501
af8e
61ee
318a
0619
b252
9f95
e770
1df8
276c
8353
1018
089b
f430
4d57
f5f0
6eef
dd5d
5c4e
4912
f6c1
89a7
013c
5c29
f6b3
4f1a
c79a
aa63
a31b
e0a3
b556
3a1c
9c74
b43c
12fe
28f7
d48e
703b
d06d
e0e0
bb74
87d1
9674
a2a4
301b
248c
fa28
32ff
7d37
23e7
bde2
68e6
9cb4
c4f5
8cb5
7bf3
8b46
a728
d903
28d2
5068
ce10
fd08
7772
d4c7
0b7c
9029
0cbe
49c7
e6fe
3095
31d9
403a
8136
274e
764e
c84c
e00f
ec66
72fd
7239
d501
adcf
1e6c
cee7
729e
9fba
753a
a07e
0bbd
a4af
bda3
8bb8
dbf4
d83c
60a2
1925
1950
af91
0c77
9af8
4048
5000
8eb4
c9e6
49b3
6f38
878c
b654
b04c
fcfe
a2b9
ea85
ee97
8837
7a41
eabe
2f57
e42f
e0be
ba75
2647
8ef8
8ac6
990e
fe54
b431
1983
abd6
d77c
8574
840a
074d
ce25
17e6
5e2c
252d
886c
313e
c98f
9021
de15
4692
75a0
b2da
51bb
9709
8dfd
9f71
e901
c090
745e
b9f2
b91f
8484
4408
03be
6003
0060
b90a
7957
3f2d
1571
a635
d0d6
43e2
0852
350f
9a77
63bd
d0b3
6b70
2128
544d
8c35
d6ce
f0b1
b9f1
8207
7f80
6d19
7cf0
8b97
c769
3e85
ed17
e23e
a743
2a0b
ceeb
2306
03d2
3203
9253
64da
b70f
08db
c3c1
b3ed
9cbe
3010
f345
08aa
fc19
5106
5266
068d
10a8
3af6
9636
f045
7035
d7f3
0680
b419
4b7d
b85c
289b
5662
59d7
9c90
fa00
99f5
2954
0f47
051d
2656
ecd9
a66e
5af9
bad6
4d81
0d41
fd80
bf7c
a968
5e71
a515
1859
6a06
306d
a736
b8ac
be70
cd87
8ea6
3113
957a
b011
3a53
f5b7
ae6b
1f2d
e596
11cb
868d
6678
83eb
6c4b
c1a5
e142
98d0
1c23
5466
f873
22d0
e64e
100f
460d
7873
50b4
2fbf
cc11
06e5
ff64
f6ce
8503
eea5
2e94
d248
b17a
e7b8
2fe5
526a
8400
6fd4
ce8b
a58e
0461
1a65
0360
dabc
15f4
1cad
a73f
173a
c1ed
f677
9113
f5dd
9d23
cad9
b0ff
d6cf
941e
a41a
5661
3904
ef6e
e82b
12b6
d3e3
bedb
736f
8fdc
1c9e
3518
7ad4
15ea
ceb4
a008
cfa1
df32
6078
76fa
de94
c559
1c88
508b
59bd
1741
248d
47a0
b271
453f
ab92
e80e
d8f4
912d
bc83
c4c7
86d4
5ace
41c4
1805
541b
8118
d10a
d44b
cbb6
5995
a184
9c52
e687
59ab
73f3
c2f0
9f20
c439
5c3e
6000
5245
0289
c379
e3ac
864e
1fa7
48d7
d937
2c7a
9608
94e7
fdf1
ad7a
db63
610b
57c2
8177
d39b
9682
0490
ff70
6290
a2bb
6c9b
9ac2
04ed
75bf
c403
f7fa
7a0b
5559
772c
2e56
7e5c
d64a
1127
43dd
47ba
8927
97f2
58ff
66c4
04d4
7859
ff7f
687b
9eb7
0c2b
c8aa
e03b
05a9
0906
10c1
efc4
3a7a
97b4
51a9
2787
459b
713e
568c
290b
045a
6973
87f6
8116
b49e
6f70
78e1
2ee4
165c
af06
b75c
df21
4716
263b
7b52
4e60
1af0
1730
b481
6979
e3b8
eae9
447e
9029
841b
d1bc
4b26
afe8
9145
1d89
3b04
d69b
b4a5
1810
63fb
518c
92ef
3701
8b4c
1e4f
f8e8
3828
5187
263b
8d94
d66b
9b83
402a
c337
3425
e8de
8dcc
c45f
2e2e
f1dc
5431
22dd
b62e
b598
4ea3
2472
f84b
2eab
208c
0aa3
c10e
76ed
0d07
ea8a
4e69
7d84
d8a8
ac38
16a2
5ef2
e9d3
4b6d
af6a
04c4
c66f
29c8
d67f
7c6a
8d4c
835a
248e
bf31
add7
2002
98b0
d90d
7d6a
372c
3c05
3847
e7b4
67cd
b7fd
fe75
31c2
52d7
d39d
8935
5d10
a5f7
9e1a
72cf
d2b8
d0e6
2e9e
9c7e
636c
52f7
4656
49bf
2e12
b34e
e9a5
f81c
4b9f
d025
2d33
2b6e
77a8
4e39
917c
3eb8
d570
95ea
a30f
f915
6737
3f59
0c58
25b9
5b78
0532
e7e1
6f5e
8934
2cba
91d8
55c3
fce1
34db
8125
8dcf
47bd
29d9
75c7
6419
bcb1
bf74
acad
4c3c
b74f
4cfa
abfc
e2ed
e365
747f
71c0
fc60
756e
7f5d
40d4
292a
9d11
5e59
42ec
73fe
b40e
72bd
10c2
edb1
1bf3
b852
e107
610d
6fd0
431f
fa87
d785
6c73
2ba2
02d4
9c2d
4cee
4bab
3125
44fd
16e7
9226
c7ab
f308
3d3a
b628
6253
100b
fba0
84ba
4536
243e
e960
5bdc
90db
6ff8
4e06
bddf
4e5e
ba77
e1e2
c291
e15c
0e9f
b272
2094
acd7
c476
bc00
5f72
ba4b
b0d9
4a70
31fa
5983
3cfd
50fc
c53f
561f
1a9f
7e35
7e6a
be59
da20
1f4d
8af4
4a57
6e23
f61e
ca94
f180
dc75
36fc
55f2
4a85
a66c
6920
1d99
2f1a
dd32
7030
eae6
97f6
f9de
204f
bf3c
8fc0
c8a6
1b90
a85a
320d
dd8d
975f
7da5
82b4
e6f2
c229
a5ee
b910
0781
5b75
85b1
808c
d43f
b6ca
2d70
4faa
6692
678c
f12b
0803
2315
65ce
04e8
e9c9
f6eb
1954
0a14
3680
62ba
472e
2973
e11b
5763
683f
ec8f
06d8
9239
aa1b
bdd9
c282
94ba
55b9
b4ab
8696
1f9a
c5f7
167c
ed62
c9a2
7d0c
80ff
fb67
cea6
a1f9
1dc8
b64d
2cd4
ea76
2429
d5b5
9cbb
3863
ce57
626d
78eb
ce8e
1002
f5be
5bc1
350b
e8b4
7715
67c4
c638
ef9b
57e5
d2f2
eab5
8f78
769e
51d9
fd21
a956
d19d
e26f
2bb4
98ff
ab61
7b41
4a80
a870
1f33
7333
df41
b829
24f6
dc33
5dd3
5f1f
de14
94ae
4f65
4e9c
8901
fbcd
023e
4713
2339
3a5b
a813
23e7
909c
998f
f6cb
34db
539f
13f9
aaa4
e0f6
7663
140f
4c35
32b0
81d4
ae32
527e
5662
6ca1
c9a8
f2c2
a579
665d
828a
9a45
3865
e47f
0e4f
e229
50d8
24b1
7e30
95b4
0a4b
9d15
9263
0930
a889
c88b
81bb
d7a9
5cb0
7eb0
ffd1
da50
6382
378d
ef4c
1933
2f7a
42b0
7eb5
0fb5
17b9
eaa4
f829
84ea
8d17
538e
1551
ee13
3ac3
7270
e79a
f77d
4d01
0806
9557
eaf0
4c71
560a
988b
44d3
4739
5f15
4786
c298
b6f9
3d6b
c562
c8db
27f7
1b33
0004
afb4
e736
2b35
028f
13d4
85dc
d5be
97cb
b6c2
fc1f
7b30
4230
75e3
cc2a
1e5f
0097
668f
9f93
0202
68b7
60a9
c77d
e9a6
4b1c
66d7
8136
8cef
5c7c
77b9
2725
09ca
542f
03d4
3b28
3588
bfd1
ecd5
53df
29c3
bf0e
a60e
b961
f665
53e6
71ff
46be
d9b7
b86a
48c6
6f91
122b
8be5
3052
17a9
b536
3ac4
e60c
88da
bc46
6bfb
ea33
cc99
26cf
e30c
7443
f9b2
638c
d6d2
33c4
2328
6a1e
6a0c
9fbc
8e73
bb2e
13a7
92b5
1606
dbde
1981
e679
a016
f286
9cda
bb65
9bc4
97fe
eeed
3dba
341e
9d08
d07a
7db3
fddc
bb5e
4acd
290e
ff6d
3261
ae29
5ac9
908c
c462
4386
2a7b
b2f4
7ea2
a330
d205
ec30
f058
767d
5009
c4f7
6fc8
5906
1089
8137
5af5
554e
2187
2e6c
522f
ac2d
7772
ebf9
8d0d
14a5
bebb
7116
c9b9
ec0e
1c32
247f
5dc1
f83b
efd2
e9a8
15a6
8954
5f2c
0939
6565
2334
0dfd
1058
9483
f890
47ea
3679
f10b
7362
8a34
0501
2232
bd9b
5414
ea27
efe4
82f4
60e1
8e36
5f4c
27bb
41f6
6157
d90f
9ed7
528d
5d19
21d7
f8bb
9b12
13a3
b33f
3afc
39d8
bc23
4011
50bb
30fb
98f0
ecde
cf45
d68e
dedb
21b1
297f
2e3b
4852
f57e
3f4e
da97
da6e
7285
b9fd
0082
9bb6
4df3
57ae
b3cd
e166
3961
0e42
9ee8
2b39
d466
1208
ab6e
65ea
28b8
f5bf
885c
8496
046f
c10a
97a4
4e34
1d3c
c756
c562
5ee6
0a44
db82
28a0
044d
62a0
0245
2ac6
7f48
085b
f2bb
faff
0ffa
7164
0df2
6c9b
878a
19d9
8778
0a87
870c
7ea4
cc19
d9a8
d83d
95e5
f109
7428
a001
c909
b913
9b4e
d3f5
a6ea
ed40
769b
ed93
4220
4546
0fdd
0b42
24a4
c677
33d6
ce15
3d0a
c82a
fbb9
ec80
19e2
88e0
f05f
be66
10f7
96e5
6a8a
a82e
391b
8b68
8fa1
996c
e82e
7804
5310
7ebf
fbb5
efe3
db3f
7dfb
590b
88d1
2fbc
a737
2fb3
75d2
c11a
be85
a7b4
a716
da64
9530
c4bf
f86d
3c38
22c0
8560
8bd2
bf92
eb4c
b39e
fb67
7a35
2d5a
63c8
e5a2
f4e8
33fe
480b
1d40
228c
7561
d225
2721
541c
6665
cc2e
5e50
8f47
c31f
fea9
c7eb
df98
c458
961a
74df
1fe4
d640
b7a4
6d60
350e
02eb
005c
8655
17ff
0018
71b1
8b0a
c5bf
cb07
0cb7
af02
ebf4
0910
bea2
af55
6ff5
bde8
e611
c07e
ef7b
6c60
cf9f
c0bd
f562
c955
e58c
ba3a
d42c
e7a6
129f
e999
f51c
ed7c
db0f
b2ee
7ec3
6730
ed3b
2a02
47d5
f3e2
c766
39ac
6919
370f
cce6
afa4
ed8b
36bb
edfe
75dd
b5fb
94eb
39a8
bc59
3b60
8872
b8fd
fd75
188f
bbf2
0ed3
7523
66bb
bd3c
b13a
16af
943f
9de1
a024
04e1
86b2
f700
8f6f
eecb
a564
ae85
3d6d
c0d1
4943
15d1
3be9
d530
56b8
3b8d
fa50
691b
d70f
1e7b
deed
1781
9b93
47ae
40a8
0bf9
f2ff
5288
e5a7
236e
4195
0f5d
b0ca
520a
aaaa
2d90
dd31
f524
5625
e364
b83c
3b81
26bc
55d6
1dfc
ec18
ab6d
d036
3de8
f831
cc92
56ff
9de3
6d5e
0021
de84
a651
1984
27aa
5d55
84a1
cec6
c0eb
afff
a0b4
d1f8
c857
758b
6b22
8f69
1041
02be
4f6e
49d6
dfc0
c3fe
fc20
d783
2d96
7e61
e482
7056
845f
095e
d043
f15e
d791
8548
dba1
7386
a312
9545
1d76
7118
4e5b
f2b8
c869
4003
f16e
b03e
0442
05c3
056d
9650
b405
2bbb
2710
e5f7
f69c
fd2a
706c
4e84
bf35
7e60
3b4f
3d0a
9caa
cd02
0362
708f
f63e
f58b
8c42
821c
fde1
b2bb
1303
3fff
28b0
e816
ea66
e265
d701
eb00
729c
85fe
4182
1880
a6a8
9c8f
a71e
129c
ce24
0b5e
f804
fe28
cca6
9d06
eab2
579d
3621
b87e
220c
bc6a
56d3
051b
38bb
9fbc
7bca
a0cf
bfc0
4a8e
9747
42c0
4269
e86b
2c7f
ff62
3def
9d46
7f50
fba1
386d
aabe
9eea
aab6
4777
c810
aeba
142c
0275
b630
2295
c15e
eb25
d147
b4ef
48d7
f37c
3bd0
bbd9
4c66
e5f0
d812
a004
d0a6
3107
2b5b
92d3
0f35
2f06
8476
1ed9
de82
7d1a
9403
e4a9
3999
f8e5
9da9
ca37
6234
2fbc
06de
8416
c8d2
757a
afa0
20a8
099f
37ca
d65f
ce2a
76e7
6c70
aad4
4ce5
e669
a6cf
89b0
eeab
3fb1
72fd
4655
82c3
9722
2d25
b796
4bb6
1e30
4a6a
0c12
a3d6
ca3a
87c2
d340
09c3
48c8
7855
ac0a
7f1a
10ba
7eb7
b2f6
a038
d611
45af
b135
9808
258d
aad6
e481
9222
7717
5b7e
563b
1124
b189
a38f
7d5f
94a1
ab05
08a6
5a66
aa9d
2522
d1e0
a23e
ea99
ca11
0ea3
6bc8
1f87
6b76
47bd
6a70
79aa
d3a0
58e0
d83d
55e6
c0b9
df14
0d86
1105
f289
6f15
4600
6016
2d9a
dca3
22df
1499
258c
c7fc
aea2
997e
c437
ff58
dfcc
e362
07d7
ada3
4de3
260c
602d
c0ec
87ba
b05f
dcdb
49fc
1436
0db2
8d95
988a
0b3d
88e3
1818
fd3c
a8b0
52da
66e7
2847
71f1
4e25
1409
dbbc
0c91
f7a0
7d2c
6b87
440a
f10c
3906
40f1
2063
3288
cbb3
450f
61c5
c21d
d9e8
8da0
b5fb
e893
71fb
3726
595e
44a7
9c25
a74f
826e
95af
2b7b
318e
8a3b
1278
a31f
318e
4cab
0686
0d4c
79f5
3712
f0fe
383d
97fa
9a4d
7629
fe09
f6f2
3e81
ed6d
57ff
38ae
31a5
212a
ad2c
5a39
0113
fd56
c007
c8b3
92dc
4cbc
9fd6
4dd4
3a20
4c45
ad00
2ce4
23d6
8e44
ffa9
4258
6fc7
37b4
5fd5
a49c
dae3
4a26
d55b
29f6
fc09
e27b
b285
0a21
13fa
dbaf
5054
ffc4
034d
007d
f8ae
6482
3da1
0af6
8714
034e
0842
79c6
0f41
029a
df4b
78b0
0271
48a3
bc4a
d1ab
e7ef
bedc
fd7b
d2bf
1b5f
46b8
902a
fc17
0e0f
cc73
4d3a
f320
b741
7634
3e68
f07e
615e
68ba
d9b3
d792
5547
e49e
804c
2a8b
b5c5
9ddf
ff5e
24dd
9a72
c0ab
566c
7204
7bc3
a691
47a1
af19
e6a4
f7f3
fc7a
3ba5
5636
3307
3bd1
053f
c7c8
e952
1e25
72f2
ef81
682e
b694
1c85
323e
8646
58fb
b0e7
09a2
c6b0
34b4
8fb7
29ac
fc1c
841e
0239
5622
cfdd
ea1a
4992
ead4
961c
e0c3
3d87
ee2d
6783
06b5
2ea8
31e0
d4ef
41b2
a095
a0ae
a686
0f1b
1323
f15e
d51e
6a55
2c71
5c51
d70b
756f
028c
873b
9c33
fc0a
09d5
5e7e
e308
b878
9cee
d924
b6fb
38c8
7629
c93f
503c
8bbd
416d
71c4
b173
1abd
9384
9cc8
4c86
5f99
0d09
400e
3e57
d179
62fb
ce01
ecb0
e4e5
8ca4
67f4
fa7d
3393
8412
c099
d373
d0fd
ff27
a5f9
3144
b074
4e6c
7726
1230
f2ef
3119
850f
0960
aacf
c092
e014
1027
aeb8
1c07
79a0
67d0
02ac
1944
b672
3ddf
93d0
bbc7
9759
6d63
edb2
eecd
8f59
f99b
bda3
6810
5810
c8e9
2577
9a1a
557d
4611
7ed6
323e
7016
fa96
d63c
da96
ce52
44e4
7800
5684
1fa9
6d3e
d07a
b7f2
f31f
6f00
c80d
be6f
b284
8384
94af
d12f
4536
d0be
ec20
b3df
56e5
b5fa
bd98
2cbf
a35d
1ece
cdf9
7111
cdb1
8271
1d71
de5c
8149
916d
b95e
9888
77b0
c05b
5ceb
3b06
b740
4d0c
ae2f
0e39
3e9e
380b
84ea
9b76
ca34
4458
a47b
fba9
a87a
da6c
4026
764c
3c1e
f6ec
2e05
3a5b
2d91
b959
16ea
9f6e
02fd
4aec
e8b9
6bd5
2c31
1ffa
c64a
326d
4dbc
dc8d
a515
7b3f
cb21
4cc5
e27b
f1e3
0601
1aa7
c785
4844
403b
877a
73ed
5d5c
f457
6fe5
e85f
f03a
7f0b
a4e6
bae8
f8ee
311a
df34
c9e0
7355
956a
6690
b96e
9fa5
dd6f
eccb
840c
0227
aa90
7fba
4a5a
36f3
f551
4b6b
b404
0751
86d8
a8e2
d03b
877d
f741
bbea
4984
683a
85d8
1cb5
4d4b
942d
3ed0
2c78
300c
9824
004b
d3c1
efeb
f3f5
2a3e
3f17
5b5c
b346
166b
4fe5
2f70
a3c4
204f
8b2f
da2a
b8fd
8193
c192
c502
9284
095d
a972
77c2
db25
6705
417f
66fe
cff8
7836
85bc
c4e8
64f1
3fd2
a469
99a0
5a68
214f
3771
70f7
4db2
ea87
0cb5
3104
1a51
e74f
d2c1
765d
724b
de3b
18e9
1df6
a0ba
816d
92a5
f408
0b49
8354
12e0
b9da
55cf
3da6
ccf2
c986
1b8c
ef79
0961
1d88
ae95
f734
ea62
17b7
eb96
16db
b2dd
4427
e393
9209
fe0c
3bab
4acd
b781
66c2
ad96
cb24
a5f2
8849
4cf4
6540
f7a2
b257
c7e4
8d63
d014
8923
3648
a3d0
cdab
c58d
9acc
760a
d1c2
7b92
512d
d2d7
1f60
0b82
eb3b
0024
a72b
2432
a773
0e34
9f9a
02dd
331e
7d98
a073
f10b
30e0
a3d4
aaf5
8037
5855
77db
46df
2037
a887
ba71
04b6
47f8
1190
8c80
883a
5a3f
dacf
3924
802f
9d12
9696
6a20
2a85
9ddb
0742
a879
609e
385a
d20b
1007
ca42
eb99
421a
7741
6811
16a9
b8b6
0e8e
d734
19dc
6382
e608
3023
4502
4049
4c86
bb1e
f79b
cddf
1058
2217
f51c
a475
3be2
de28
3111
79e2
c5b9
b65a
86a9
1dcd
53e6
2bc3
e31d
3f21
e008
1bf3
103d
f92d
7b6c
5543
80b3
7d8d
9a87
869d
8bcf
a13d
0953
7c11
5834
386f
e9f0
c36f
623a
5b9f
e163
3fdf
d27c
ef92
8bfc
8752
deb3
d051
bcda
84b1
a4fa
b927
5457
f9fa
4c78
e908
bbd7
1f4b
af1e
d7c7
124c
9e63
f910
8e8f
6b7e
e449
e68f
b8e2
bc8e
46ce
b9ce
bb54
0a52
8bef
d2d7
4955
624e
9592
eb2f
f717
4241
3742
3435
1287
f05a
d5d0
82d0
dc73
c614
cf0e
b467
95fc
f846
b7d2
dadf
3263
5791
460f
e0d7
dc26
3472
31bc
7b85
2cd2
2774
08bd
0a28
181c
7587
631d
9cd8
dcb6
850c
3355
b06d
b185
380f
1edf
e3f2
6f53
051e
dd4e
a5b1
fca9
03f9
35bb
c5c8
e8fd
2eb6
c15b
4b5c
7175
3a21
3f5f
7592
8955
3696
0771
7cef
09bc
75ca
c9ea
722f
67c4
0c55
b089
55a2
a39b
63b8
1df2
6042
fbc3
6a89
917b
2ed9
138f
dd55
563d
e544
55f0
29ad
8074
b6d9
a278
477e
cc28
7694
0f06
2e47
6f4f
c97e
92b2
ec58
3e31
9ce4
28a5
b509
78d4
ce48
d617
8f0d
caf2
d219
5bc9
ce4d
5deb
df21
d63b
dd1f
ded5
4e2c
d887
ba7c
4c10
fd26
38c2
e278
796e
eedf
0f6f
254e
3dca
5377
20d5
3a73
d329
818f
a7ea
32ab
3fa9
3dbd
aae1
1064
bc21
308f
a9ab
e995
c390
91b1
1b8c
3404
49fc
02fe
b985
03ad
0961
f293
ecb0
7390
ea87
d52d
192e
bff8
ecf8
296c
cd81
ab18
8b67
880d
0dd1
9e9f
7960
d04f
7baf
bd89
ad9f
08a6
3566
8f7f
5455
fc11
6ef9
acb2
131e
1db3
cbf4
9ea3
046a
d4a6
f20c
7d7e
b18e
b66a
a81f
af77
e8e3
6b87
2915
a59d
b467
0a7a
4c60
06d9
2801
025a
7553
a574
665a
0c7f
f923
9051
ada0
0ef9
c99c
b874
edea
ad11
69a2
0a68
b155
6a7a
ed15
3c57
2374
0de1
ad6a
a969
4806
372e
53c4
607f
5253
b7d1
f557
0447
3b77
03ca
6041
44f3
0ad8
a6e1
8854
6741
301a
fe49
4e2e
6abc
4255
d5c7
302f
d841
d585
9b72
b8f1
ecfe
00d4
7152
520c
820f
3eb3
eb46
f427
e956
d42f
2e1a
a99d
2acb
e5d1
7caf
bf63
5ada
1cf1
5542
de4f
d076
bffd
b4b2
8f07
0e85
a775
df23
85d8
fffb
d843
ee1d
65e2
fae3
d89b
5954
fb1c
1ce5
4c14
e70d
db13
e100
17e3
bc6d
56e6
463c
8c85
b086
3e2e
c090
18ec
7cc9
c1ea
d87d
8cab
4f4e
40a6
669a
13c1
0147
3104
e45c
4e9d
f2ce
4839
a61e
b611
b233
593d
28cd
4060
8ac6
0606
bc76
c8d2
876a
ffb5
0f4c
ec9c
d8a4
4cdd
6c7c
bfbb
1384
c188
6c7e
1546
8e3b
9a84
8d98
a15c
5022
d1d4
fdef
ca40
36e1
b86b
77d1
97a5
40b9
aabc
b7e8
4c30
2ef0
284f
441c
496b
c3f6
c578
db7b
859d
8971
a986
d1e3
4a0b
451d
25a5
f9f5
e83b
cf5a
c9fb
0768
dbc6
25a3
a07f
65da
de96
67e6
d202
f3e3
87f8
3bf3
e5e2
34a5
4495
529a
9375
081b
c7bb
7d9e
5a1d
a18e
54fc
dbf2
fcff
f13d
0d83
8adf
bc8c
e0e1
7d30
125c
532e
7d87
4b60
f4ac
562a
a312
6501
08cc
7cf7
97e3
9352
9a26
406f
dc1d
7883
af7d
5214
6375
04dc
8067
c9c3
484c
1fbe
470f
2368
5301
4a39
2e60
635a
0f0a
de9c
b9a1
57aa
4b6b
8cb6
ca3b
5a1c
2123
c7f9
bc37
2712
ecfb
0604
2d91
eb8c
ae10
2478
2e3a
2eeb
ecc4
d63a
6b64
9a5b
39e3
890b
a848
cead
4dba
8eba
4a1a
fc99
e62d
7b8e
f14e
829a
36b5
fa8c
e042
d9b4
5c83
bbef
e7f4
89e7
33c3
da30
ace5
9407
56d3
0ae7
7cfa
3cb0
b365
8d08
c474
36a0
d928
0c03
abce
8ecd
fda3
5356
3ed7
c8f7
2ad2
f8fc
382c
6d03
79fb
a004
b06b
85d9
11e4
8b5b
5d2f
b651
14db
01e5
cfb8
7084
aba0
7549
e0fb
a152
f0df
8d87
2b67
866a
f86e
23a1
5fd2
321c
343e
c4b0
9934
4d9b
e4fd
949c
d445
93c4
af27
4a86
395c
fdf6
036d
9f79
5cba
c3c5
4134
9979
4635
a747
a9d2
796b
0cd6
05ec
f4fa
97b9
531a
d656
e060
1cc9
ee65
c721
636c
49b1
f06a
b50d
bb97
347a
adab
4160
a9c3
569b
6e36
98f2
280e
1e3d
705b
773c
894d
858b
cdf0
3b6e
7ef7
3611
4672
f3e0
67e7
ff4d
0b32
8946
60b5
a887
a1eb
bd58
ed13
81f9
50a1
bca2
a053
bdc9
6184
0af4
004a
6f06
0001
1fda
1f80
401e
711f
ed29
290c
4cdc
2f4f
5aab
ad57
6842
b720
da2a
bd67
65fd
9bc9
4425
0ad4
8ec5
af4d
978d
b467
771b
41e8
36d8
b987
df8c
55f0
1d51
4e39
5f66
1efe
ef99
232e
31aa
3fac
707e
696e
df04
5b69
5ff8
506c
e3f8
03f0
ab85
027a
a7a7
bdaf
178e
399d
a220
30ad
0c53
ada2
2b47
95d3
e490
3736
8d21
f5c9
c50b
b0e2
bce7
54e5
d4df
4dc3
ace7
79b3
a4d5
2c32
b2a2
478a
01c2
3c5f
86d4
8d82
1029
063a
e14f
d326
6fe9
b648
69f9
ec90
cf49
b6c7
ddb5
885e
c8be
a4c5
01d4
5435
2772
014d
3811
73cc
606c
56da
d82f
2e29
d500
cac5
265e
03ce
b27b
f83b
2c96
4a02
ef6d
3cd2
21ea
2475
d49a
459d
18d1
1ed3
f7f2
65ef
8a6f
f01c
42bf
2051
3bc4
9436
fcea
de84
c33f
59c1
83ee
d8ed
0fd1
fc38
22b0
9c8e
935f
d945
f904
5357
795b
c77f
ff6c
a17e
4ccf
7509
4220
e7a4
3ff6
7160
0d4c
c5e3
5036
6e0f
60e9
f34f
f3d6
3b3a
b733
adaa
d7da
457e
c739
91eb
d713
7192
0fa5
b285
22f3
1f1a
f4c3
0115
5ebb
c06e
be7c
7055
501c
7151
60c7
d508
360c
56b4
8c03
192c
b912
badc
b4e6
bc65
f7af
5d64
4ded
295b
e6f3
5ec7
1b4d
05e6
6bf5
0540
f4a7
d08e
2eee
28d8
ff6e
9994
7b12
b158
753c
cb16
f278
eed8
b826
b7f9
1bbf
ff68
1158
74f0
acbd
1690
8488
1243
8d10
e271
6b90
a141
4673
4935
4e92
1694
6d69
cc48
9a0f
c209
d077
16c5
a307
71fa
8ff8
62be
a2b1
aa62
0440
bb0f
9f30
08de
9e6d
3010
e4b6
0e8d
9a4a
5576
f373
d313
fb2d
384a
94df
eda8
9aab
c6d1
3901
905f
7a64
70c2
9914
74b8
2d01
9b27
51cd
1d68
5b25
7cf2
4c1b
4824
9278
5af6
b9f8
a6f6
9ce5
a501
6da5
da66
5b8d
e931
765b
691a
ccab
1e11
965f
38f8
2cdc
2516
0e8e
30ee
f900
90ba
75be
45c4
2b3f
951b
f3b8
b339
ce34
de8d
3a5e
9be4
b196
0a27
38a8
65a0
5765
3e32
8823
ce87
9f6e
cc8d
7e66
f831
74d6
3adb
bb4b
af0a
e427
8651
125d
a6ae
bdf2
a393
d925
23b3
062b
7eb9
bfa1
7c43
7ee1
f5a8
c409
7eb7
69fe
aa6b
57e3
1570
606c
14fe
692c
466f
8603
9ad3
4f55
6249
cc67
8095
4640
815f
e557
b14e
9983
b746
5480
e1c5
5cda
f816
6b0d
abf9
22c2
8dc1
2d7d
dccf
2340
a56e
998e
7d82
77bf
8e0a
239b
31ef
f9c2
d998
1e0c
61d1
d93e
f532
e9c7
a1c5
1ecc
36f8
9e7a
4397
2f35
d33e
e400
838f
1aab
a1c0
6215
9ab7
1e31
d649
6ccb
0792
4b7e
a83c
f062
84bb
c776
e051
7fbe
cf79
c016
c1e2
eaa9
7b26
9332
2338
f3d1
7d76
8f1c
c45a
2462
83a5
1e72
6a01
ee90
e9db
7a80
444f
71b4
d82e
191b
5d27
dae2
ea36
583b
8664
9943
6f04
e458
eb05
caf3
5bd1
d6e4
cd96
6806
fcc8
6ec4
e3c5
8863
2c03
ab93
090a
9997
b3c2
0109
d81e
2bcc
20ad
4b32
b5dd
6977
1b46
b09c
b5d4
cabd
3d96
9a9f
2b60
93cc
e46c
82ce
70bd
fb4a
c4c0
70fc
a3d8
223d
55f0
9640
30b6
6597
c5a8
7f9e
c1ae
1737
aa8f
cbe7
06f2
4d90
eea6
864f
afde
d7b2
4c20
b1f1
f8a4
80b1
523f
a522
6ba0
d493
48a2
2426
9ad4
b57e
240d
f32e
8f2a
6256
d205
dac9
2fe5
c75f
9142
af21
cb97
cbe8
7a8f
7162
3291
de8c
6bd6
60a3
6cf1
d8a1
ce46
e658
c160
2f4b
fce4
7893
9904
ad71
163e
6f5c
93a6
33f6
dd7d
3ce9
2384
0e85
cdbe
731e
a49a
3d73
b768
1d24
083e
aad9
929f
0550
2ff4
5a5e
4ef4
9451
c28b
92b0
47e7
94e8
6d50
b572
6321
b78d
8d86
8435
01ca
b87a
c5a2
75e3
cb26
d71a
2eb0
5b10
1460
43a6
7b7d
c0ed
a81c
f68e
2967
2d71
4cbc
30cd
1567
85a6
eca2
2b17
d72e
0d78
f647
2182
ff25
ff5f
9368
1103
886d
fa0e
7a44
0232
0714
12a3
3b72
6a1c
ceec
d56b
964b
7c69
bd69
e9c3
71b5
d5c6
4e58
7a4f
f389
88de
6082
e8fb
3ddc
3f83
7e48
c920
c245
f37d
ee6f
633a
a2e8
8691
450b
0365
9022
bcf5
e527
6710
d90f
dd13
b6d2
b60d
5a78
99ce
da39
0180
6701
75ac
85f6
43ef
96f7
f72e
a6d0
f3a5
43d9
7650
cf23
1f8a
f73e
4f19
2ea5
fd02
9679
b0b1
8291
d83b
209c
187d
7930
bb61
9a1e
7b09
efb3
dfa6
6250
04ed
8aea
1be5
47d2
ccb4
c501
cc93
451d
f9ea
2e5a
4c2a
c573
05c7
b74d
0bfc
8599
da33
0e4b
408c
e0c7
92c9
be9b
40cf
92f7
b733
46f6
ef41
e38f
300d
8028
d35c
b6d1
7600
334f
8acd
dd53
ef9b
1866
9951
54a2
2d51
7ef3
5477
5f18
4980
11dc
3ab9
74f7
8f45
35c5
e2f6
1f94
0ef0
7160
a782
2964
b316
7ec5
ae4e
8f3b
9f94
4a25
4362
c1d7
5603
2145
de7b
2283
b451
0f87
3292
6331
1443
1516
446b
fdfb
aa1e
78a4
abf3
033c
5293
5adb
23c9
1e8d
093f
2027
97b6
44d4
4574
d04f
2003
e670
5294
85ca
60fe
5977
f01f
3ec4
1943
b577
b097
e021
75bf
04d7
d256
48b8
4e5d
2300
f411
dff6
2955
d0fb
89f5
958e
9ed1
0f1f
6196
d338
4bd1
42f4
cf87
ea09
9de4
9ebe
7684
8f43
3b26
e01f
4f23
a8f7
dc61
04b2
433e
98dd
6bd3
4f68
6cc9
f15c
6a9d
6c3e
7891
bd6f
6e79
8e91
75ed
e558
05f4
8e86
220a
3fc7
b5bb
bdad
7764
b6a1
2d92
b561
6403
567b
9991
51e8
5bc3
0db3
021b
437a
ccf3
63d8
62af
96bb
d330
9d16
58cb
7401
5620
6666
c368
c897
6731
40ac
6687
fc61
e385
af89
c88b
bbf0
46b1
c279
9c50
b555
a754
a994
59bd
1a96
bce4
dcfb
0f25
9027
367e
4446
b508
724c
210d
27df
102d
43c1
9f75
5555
d3be
9d62
0735
73ae
2dd6
203f
eda4
c446
fb4e
145d
467c
2a3d
2bb4
0479
d8de
8fbe
5bc2
2828
bc44
574e
b484
830d
443e
741b
114a
2f92
9f16
c0ad
dc1b
d731
c62b
c3a8
232f
11fe
9c7f
a1ab
9cdd
9bd7
b996
1097
cb47
14ca
c1a8
19bb
ce33
c04b
3455
7ce5
ccce
f7db
b58a
5141
5833
a21f
fe7e
a93e
3ef0
2e07
ee45
7bfb
8021
fb6d
9e69
6def
3a68
fa96
b2d1
1cd8
ff71
7c82
26b0
3cc4
425e
286f
3a99
3705
e154
f30a
14c7
27ea
3d2f
207e
fe06
4af7
8509
1a23
98d9
95c2
952d
be27
5f33
1ec6
c151
b9c2
d4e6
a2ff
d4dc
0482
82c6
7a6a
8cd8
a00d
eac9
bbb7
d36d
b321
4e26
4a14
dcae
714a
1a2a
e82a
230f
9954
7e64
d5b8
a1b7
dc94
e571
4708
0bbc
b414
1720
1e98
0bef
6f6a
9436
6cf8
22c2
3cc8
d3e3
ae21
4dcf
647f
1c99
5009
a0b3
65ae
abe6
3656
5e49
e99e
4b7c
bc88
fbb6
536a
899f
985d
422d
7056
4615
7e1f
8850
43df
c636
3cff
7e87
e261
eb3d
58b9
d504
9223
71bf
201a
4890
67e1
9674
5bfa
055e
ad41
8e15
0c8a
1524
8a53
4817
583f
98b0
d88a
18a8
7f68
2862
2114
0a53
c584
ed32
a2cf
462f
a4a1
5336
16da
52c5
8bc5
6b93
3cde
3f23
1590
6837
8826
989a
4326
4620
41cc
9441
d0fe
446d
d008
e258
82d8
77c2
2153
4953
3ea4
0dba
3f1f
358f
276c
a859
b4c7
10c3
efc7
205f
0c4b
2823
d6aa
863b
29d1
8de3
4ade
ffae
c802
21d5
f7f8
2a15
ee98
bfb9
c774
d8ad
5304
b2a1
3f85
050b
fa45
b78c
4215
b2d8
8abb
2729
a02d
5b9e
6b1f
52db
2886
851b
cfe4
d5d5
3b67
519a
efd9
1f50
4c65
25d8
69e0
64ce
065e
7c25
fb15
3386
15c0
7e4e
8655
cba1
1600
33dc
86c1
c9e9
14ee
e71d
56a9
1f6d
b42d
9515
f4d8
4f19
4ff2
993d
5a8a
a1b1
4a89
78b0
4ade
2c76
b1d6
b851
0a90
9b8d
86a5
bd62
a88a
80d8
eb8b
a054
b1d1
a0ce
4ae6
51ff
f7d6
6766
886d
0501
98c6
9ad7
ab4e
873c
6d5d
704b
a8db
087a
624e
e65f
2ebb
aa4f
416a
fc1e
a0dd
044a
0e68
e0cd
0ecd
8475
089e
37d4
31cd
1d3e
80dd
fd5c
bad3
540c
dbe4
d543
b0f0
f588
199c
e85c
c8e0
24aa
cae9
eef9
2259
87e3
72c3
8f38
6cd8
0662
c814
be5d
94cf
0ce8
270f
fb07
7a63
3d6b
27bb
d63f
72de
50a3
2510
b762
68eb
e515
2c2c
3fdd
0951
99ce
5a01
8e32
5c3d
2bed
967d
4ed6
ff9e
02b3
2656
aa86
a593
53a3
6470
a104
557c
c3a2
3bed
1a12
24e1
4c26
52ab
9889
3847
de4a
a19b
e88a
fab3
b0b0
a7d6
cf83
65a3
a94f
4883
f064
2cac
ec5a
262d
ae9b
2f77
ac5a
3a9d
371a
06b6
335e
3781
1716
a3f5
54ea
da1e
7c8d
d1cb
a15c
46bd
2163
155b
e782
926d
6e19
b45e
44dc
b126
76d3
d2a9
5ed6
44c5
dc80
be7e
c332
5c9e
3e71
0e54
257b
2c8a
24d8
ad0b
0381
d24a
daf0
28f1
3e5c
2e80
e51a
38e3
ca29
ffb4
fd11
8f55
f43b
4c06
e0d5
13bf
fc75
25e2
d133
0403
d57c
c9c0
378f
9fff
0f63
7d93
f51b
2ae3
b9de
085f
a4ca
7c37
17ef
6c18
102c
a2ac
a002
026f
2fbc
8487
8b62
9c90
e7c6
5e32
bc34
c3aa
6077
1a7e
24b9
a068
2d7a
4b75
5d92
2655
5007
2068
98da
bfe0
c82d
3c3c
109a
ad89
5eb1
04b6
e6aa
5bab
01e5
4354
a929
fb01
93a6
b6e4
c5b4
f684
ad58
6c83
eca9
e3da
92a4
8579
18de
b98b
86e8
7f9f
5d86
c70c
01c4
4eca
94a1
ddeb
9cf0
d96d
9668
4784
4c9c
a3aa
2782
7eb7
4d4d
479e
e376
534f
4d16
5eee
c011
1c2d
7008
348f
65d2
3ac0
d557
024f
dc12
b95e
311f
d5e4
a7e6
29bc
a5e2
7d79
8486
75d1
8079
983f
838d
f2bb
81f4
b162
7746
dbac
3a19
eaa9
a71a
705e
d907
81c7
0d09
9fab
6e8c
dce0
a246
ed7a
2712
1e80
47dd
6ecd
2858
3663
d58c
6812
e2f6
db5c
3901
8fa8
a04f
9920
6d7d
a133
03e7
c9f2
82fd
7beb
8b30
13d9
0448
6a82
397d
7089
25aa
54d4
67a2
86f8
0f37
196a
1df9
e5e0
49c9
67dc
436d
7c33
321b
7616
0d1e
5fbd
2514
9732
d5ee
fe2b
6fed
626b
9318
3e53
43e4
4e73
24ff
5453
c4ee
74ac
6105
c21f
ff3e
e6ef
3502
04dc
2a03
908d
aef6
e431
4217
dcd9
a481
d8a5
8a22
3192
3765
2e75
d14f
0019
eac3
d264
26fa
d315
5966
f651
cdba
be05
2acd
5f63
dd57
afef
24b7
6954
6ad8
f61d
ca74
8d0c
b902
68da
d065
e93b
b1b2
3457
0077
500c
be26
304d
b4d0
fc78
9c83
ced5
3b4e
c4c5
f7d5
d857
0a26
4447
dcf8
0d91
ecc6
56e5
ca01
f5be
8cad
0616
78c6
08cc
d588
66b4
0042
cc98
3a30
419e
8f30
dd90
16fb
dc8a
11fe
6619
763c
1d16
2c56
c673
608a
2b2b
f652
c972
94e2
e4ee
8a22
b049
747b
6687
36cc
292d
52aa
7414
d977
29bb
87bf
18d5
2e03
0a53
1240
bf76
bec3
91bd
b438
b182
a02b
636c
b7c6
54b8
f517
e137
b384
e57d
cb09
60ba
4cf1
bd03
4a48
e644
666a
f30e
eb0b
f500
6dab
6f5c
cccc
2bba
4937
1f5d
18c6
a38e
ca5d
1e36
9510
3e0a
2886
5a44
ee46
a08c
9ccc
3ec7
b105
5210
110f
0297
7083
ceb6
2c81
5d7b
a6e4
36b4
f37f
4d52
d6bd
054a
9a8d
5d32
6f25
d1b8
0996
77c2
dacc
91b8
cb10
36fc
cf71
ca5e
b2b8
931b
9883
e289
e674
b9c4
c36e
211f
5062
c186
8aad
c740
b9c5
b0ff
08e8
af8d
a744
99ee
5ab8
6aaa
8b51
be7c
f692
2a39
9356
75c3
e342
5b34
dfd1
4adb
0754
9944
2cdc
f6dc
1389
0619
c64d
d14c
64fb
3119
3fbe
16e1
f04c
2033
9913
f391
cd8d
3600
c532
d5c2
c947
584f
0c71
5c73
d9a0
c044
7900
0032
2eda
a333
2eea
d869
b762
c39a
6659
e58b
7563
61d9
27ec
d694
2c2f
787d
5f62
806a
ef76
96b3
90fa
85e2
902f
c59a
ed56
3bb2
e710
3c5c
47f6
6f13
57b5
d102
0216
7928
d59d
588b
8f54
0434
a655
e1d0
4719
c887
8578
74e4
4e55
a592
edca
9035
41d3
4457
8677
ba86
5660
6eee
5b0d
eca3
420a
cb91
b828
eb2c
61d1
828d
6fd4
c069
2b2c
acc5
4552
d5b0
164d
f71e
4e7f
80c0
fb1b
49c0
d280
27a1
e7e8
3773
078e
3c8b
59bb
9c9d
61b3
799b
f8be
25fc
8c24
dc20
8cdc
1430
7cc4
e7bf
0810
e25e
e13d
d4ca
214a
603a
c741
f28a
f0c7
de2f
c945
6d4d
3de7
080e
2528
88cc
4850
2326
acb0
d561
2d13
c248
3468
f43a
fcbe
87b5
ab5c
7e6f
9f53
9e8e
d05c
56f2
abba
09bb
438f
630e
0607
d505
de24
b69f
ff4e
62e6
f310
91da
89a1
e688
5b08
4f86
6c2b
3855
7af8
1ca6
78f2
0a79
2f14
efc8
0b2f
0890
81f4
4206
10f5
0527
7855
9491
2a08
3e3e
ef65
3e6c
4d1a
1d22
ba3c
da56
5683
1dac
8d20
b7d2
f44f
8493
5b5f
b13c
be28
322c
bc44
710b
c627
4a2f
1a55
435d
ebf8
4ada
3a4c
44f5
dbd3
76e7
9890
861a
2e44
038a
413d
3be1
fde6
dac0
443e
7f6c
2952
689d
6a42
b894
e4cf
c92d
06b2
2ca5
2cf7
418b
fe4a
7ba0
8d7f
fa22
43b5
7123
33ef
ce5b
a755
a78a
88a1
1abe
ae5d
be1b
7a0c
f6e4
e74b
88d5
1561
bf5f
e80a
d0bd
d459
6a54
4b57
4f9b
8d48
4e49
6911
eda5
4dc8
871c
2f94
bc0c
b0b4
8ad8
6ea0
3f39
d7de
68f2
d597
5270
97f9
f35a
c7f5
491d
9f84
c953
a7ce
333a
4d67
0247
b876
28a7
fc2f
084c
167e
5178
598d
777f
c4cc
9919
b823
3dd4
d3f2
36cc
c4ac
2f4a
48c1
9bda
5388
5fae
0cdf
c03d
f945
cb2d
428e
153f
1e58
3430
ac69
66e2
9a6c
91e1
9a9a
d5d6
2f97
963b
594e
4e90
3611
171f
4baa
828e
0abf
2445
7ec6
0b7d
467c
d4ea
f4df
8f6d
53fe
fe16
d592
af1a
ffab
fc67
fb1c
5c69
b2e2
975a
d22c
39ca
7a02
2b02
84df
b194
12e4
1cf9
7318
4411
4b23
0f6b
debd
cc7b
aa68
09e6
f6f4
a610
657f
ce1c
6bcf
e78c
d7d8
b74e
b152
d44c
5728
60ff
2255
a4d6
d990
e7c0
d18c
2207
201a
3a9d
276f
34ae
1f0c
ded5
2ccb
4ab2
6cd9
43ac
59b0
3ad5
23a4
605e
d08e
7367
4257
216d
0db8
3b3c
321a
365c
7c1c
f3a5
97b9
99eb
8dce
03c7
db23
16bd
4cd8
6a0a
1cf4
4d21
db88
81ce
aa9b
cadb
9685
5790
e902
d4ea
a5ad
badd
62cb
0a6b
010b
6b92
d51e
04f7
d34d
eac3
ef7c
23f3
59c5
21af
f1a5
ec7a
b853
0a52
e97e
8caa
6870
987b
c6bd
6378
b9ef
1f70
7800
5f01
1a5e
df0c
bcf1
bfdf
b01a
4051
c6a1
8c58
4d71
22b2
ca72
6ebc
ceb1
571d
4f18
c9be
6859
468d
c3a6
65fe
43dc
d6e4
5cbf
f307
8b13
4888
19ae
296e
7bde
a31e
c740
c3f3
bb49
8d35
f1ae
5275
5e25
4afd
66bb
da1d
4421
8ccf
e920
5d3c
ff7d
0d02
7733
35b7
ae60
ad5f
4d3d
8f1a
a701
a25a
70e7
fc11
c7c7
7b9f
10a1
5c37
a16d
12df
99a9
66d2
db60
e79c
dd0d
b3f9
f6d7
25f6
f1f4
e1f0
a85c
b2e4
ada5
5f44
19f3
8a10
bb87
6357
8f1e
5f17
0eab
5de0
3cbb
2852
f6a7
485b
e234
2d0e
1dd5
f6fb
f065
ce08
d05f
e478
0fa3
1647
060c
63ac
9069
49d7
f679
1c51
e074
aa40
57ac
9f3a
1110
0254
84a3
932d
28d3
f7c9
9e5b
f173
04de
613a
6bea
4bf3
17cc
8a92
d7da
4722
6f38
d5bf
bb97
4629
74ec
9a93
7305
2196
1dc2
cbcc
8f1f
9995
6e90
6211
24e9
46c8
df74
d298
1f88
cdac
f15d
34cd
66d3
4f92
0ea7
2f3e
ad89
1a35
d8ad
36b7
f556
9701
3ddc
316b
7f46
b831
12e2
e77e
12d1
0260
2b54
c5d0
baff
9128
3b47
183a
3ce4
d534
b574
000c
26c3
b533
7a72
6900
916e
3ba7
a449
a2d7
5529
34b4
4a7c
afd3
163c
da0d
45c4
2ba3
f36f
6cdf
dd9b
67ef
579e
976a
78cc
f663
66f3
5394
03eb
9aba
dceb
3b94
aeb1
1f18
e71a
43e2
6e3b
c926
babe
4c06
1c4e
b425
1643
a8c1
9427
47a5
6ae1
b94d
d83c
d5e4
3793
f445
f593
e05e
1ad3
c010
acdc
bbb9
038b
2dee
f0e1
0355
aebf
f62d
5da4
547e
999a
8d02
3624
5ba3
323a
cb79
1a9a
4efa
98c5
aaf7
17b7
36f2
9011
d363
64da
990f
478b
6987
1a3d
073b
63e5
a7d6
324b
c8f4
1499
6c4a
5aa6
8479
dc9c
bf29
f552
012e
ba79
cc2c
cefe
2d6f
914e
ad4b
3707
7ab1
6b7b
0cab
d338
788f
dac8
25ad
8bc8
3d27
8d12
4861
4e09
6029
3cad
a8e1
4cf9
5c69
4c3b
0342
49cb
cf56
1283
6872
75ec
03be
c200
5630
dcfb
86e3
9b8a
f49d
e110
adbd
2a8f
6bd8
58dc
8ce8
a861
259e
f05f
1d2f
ccf3
8376
43d3
7c8e
e3f5
ccaa
e3c9
cce1
7266
121a
edc1
ee69
f4c4
81a3
a83d
665b
8206
7530
c347
db5d
c024
e067
c301
dacc
05a5
12b0
34e9
855a
5ad8
26b5
31fb
0170
824e
3387
e3ad
5c74
4bbc
3adf
9b35
1d2c
c767
40d3
2129
a042
f18d
ae03
b96f
4749
1059
9a51
aec8
a204
46cc
6d17
c582
8943
4988
53c9
6ad8
d866
bb84
682f
6748
dc9f
f671
7af6
274e
7898
6956
e865
29dc
5dc5
5140
8726
dfab
d379
acc9
3c27
3468
bcda
ab53
0461
fb41
82b7
37e0
4e91
62a2
dd55
ea2c
6b41
9149
0f62
3bd0
7fd9
121b
2168
2057
0a48
616c
c182
27a1
b2a7
62eb
cd98
8486
f55b
7a65
6106
604a
049c
1b22
d72d
443b
1fb7
fadb
b52e
3aae
8c06
36d2
3f79
0f65
a8fa
5186
2ed9
2e83
3248
c7b1
e85f
9991
9468
534a
5296
a2fe
1176
0d81
4e43
b601
c0f5
7ab8
f6d9
cc80
82a3
26fe
cc8a
1cdb
56dc
c157
e463
9903
a534
a209
ddac
d8d0
1f85
6cd4
b8d3
f71b
5532
5358
5d0a
6c11
afa1
2eda
89c9
500c
d83b
733a
6a8d
0ba3
874f
bca8
5bb3
100a
ebb7
0139
c69c
f1d9
95f3
40fd
27a3
b1bb
1093
2a7c
f563
d701
926c
9b4b
9bba
1bd1
b03a
f146
4fbf
9f9b
f9a7
1df8
7187
f49f
a10c
2460
c7bd
e10d
251b
8564
41d1
d7a4
74fe
6b9b
9993
4d5e
b5a4
643a
e250
2989
370a
c5f7
4890
67b9
11e4
34da
e3f8
d3de
abaa
ed13
c8cf
961c
3cc8
3fb4
275a
407f
a33e
34fc
6669
48cb
55d4
5f45
24ae
190d
8a50
24e6
c895
3fe0
691b
7742
da0a
d591
0360
fe21
bcfa
535c
9eda
a2db
728c
13ef
e7b1
dd0a
7641
8484
16a9
6f10
3c21
5f90
0f1b
f699
2013
90b5
7718
e970
438e
9107
b5b0
16c6
5eb7
0fd1
e6bd
002b
4b92
5493
0ee3
ea0a
9241
3c11
6f2a
35ad
fbc3
26a2
cd58
7f40
6654
53d0
05f5
0bd9
1000
e85a
7be6
1327
8feb
54fc
33ce
a2de
0465
ec7b
ae9e
e53f
fee7
5c7f
9301
9193
50c1
5ece
eb5e
904f
1251
58c3
2ca2
f561
8466
7985
8e62
92f5
1911
965d
cc55
5de1
01aa
ea85
259d
138e
45fb
b57d
b6e9
607c
ddf7
35df
1832
5459
160c
c6af
53cd
042f
e1ca
93ef
2116
ba2d
1ca7
eaa5
7080
66a5
d11d
f3d2
7f7e
ec2b
a1a9
08c2
b9ce
ebb9
8235
368a
7cee
01fe
feaf
1cfd
1632
ee4a
cd16
31a5
f634
d94e
cf88
9289
814a
1a45
6439
110d
b598
acb1
8a9f
79e5
8254
3370
6541
b7c7
dfad
9e81
4064
d6a0
e703
21b0
a157
9c18
8b53
7658
f769
4929
4721
f86b
b0b9
14a2
249e
e537
bc77
4230
3511
8094
e937
c80e
115f
8509
7c4b
2dee
32cc
9b04
edac
cde4
814c
2b66
99c6
a407
5c92
9838
6a7e
2fbc
018e
d814
75ad
4ad1
93ff
3976
3bbf
8256
257d
3ef9
96a4
cd61
8823
2f7a
05b5
52e9
3dc0
7020
cba4
5a29
79d7
6ea7
4d57
b6fb
cf20
fdbe
2dc5
e82b
f3f0
5665
eb60
9540
1114
dab6
d584
a58c
2b1a
40fa
6931
21e8
9f7f
2e01
bdbf
3bea
d3a7
b3cb
0074
601b
329e
1cd5
103e
e580
0b4b
2289
4b98
e53c
92ca
1b6c
d050
ddca
7497
171e
f63d
6151
60d8
a7af
57f7
4092
64f5
9c57
3c01
f26c
c709
44b5
6396
8fb8
2334
da79
626b
9d32
c808
9a4b
3207
9a44
29d8
1aca
9cbd
10dd
226d
f730
3b3f
ab6a
3f72
5470
243c
5a69
f957
cc8d
bca3
66a8
fcd7
816a
8585
b199
0846
b2e7
e20c
3f21
a14e
05cf
2b5d
12af
3221
a9be
0f99
6994
edc8
919e
e872
fcde
f64e
a105
1166
cb6d
f793
67da
d989
94a5
71e1
d481
cc3f
48b3
ee15
d348
7f3c
fa0b
d8a5
cd26
02a8
6d4f
e236
a325
dfe7
06c5
3405
694a
1e66
adc3
aaf1
8a79
5fc6
61bf
747e
b64e
5374
2ee5
cb8a
0cda
5a8f
5d67
0f7b
30ab
f4e3
f005
6d2c
37b1
5e65
c01a
4cfb
8140
6425
706a
33bd
0dd4
07f8
be93
b9e3
90cc
620f
454c
0518
f062
4723
5331
f2c2
488b
eba1
b4ab
135a
be24
f8df
b310
b3e2
b59d
600e
daf4
75f0
df74
1063
ed6c
2aa4
0b65
dbd4
b3b8
4083
6f50
4fa8
92fd
067c
6907
f805
edf5
1f71
8501
c354
d5af
72fc
169d
3e8c
7a93
22f9
14e0
e08b
2410
0e60
cdea
8833
f271
fe4d
6859
de76
6f43
bea8
938c
0bb3
b48d
0235
fe0e
0846
536e
41a3
f7ad
4a67
f8ec
de24
8da7
ff64
bc4a
504e
f84e
d553
2379
50a5
800a
1dad
5299
caca
1d05
cb8f
b46e
a4e6
400d
6e8b
f0fb
5d8e
d6b2
f418
1b29
9b63
381b
20f4
6452
fa20
b813
03b7
2587
4080
0733
1b64
2a00
69be
8b28
d79e
d83a
1417
88f9
b812
669e
a2d4
21d0
776a
b3d5
f770
649b
7287
3806
4d38
c15f
9c0b
e5d2
4295
e4c9
8fd3
0d0e
770a
89b3
c8a2
272d
16d6
946b
0775
0eed
c6b8
3d2a
a960
0cb3
a552
9bbd
6ca5
5ab4
8a58
6c18
9def
5294
711d
e423
f84f
34c7
14cb
9e72
988f
f677
5dfc
9dc1
605b
f278
6175
9ea5
04c0
dc93
f71e
76d9
36b7
3a26
b1e3
1c9d
7740
eb4e
57b0
6c73
981e
8745
fc45
4d85
35a9
a4db
9f5f
1b36
f4e0
b83e
d95e
e6a8
1bd7
774e
73fb
eeb7
cf5a
aa84
de2f
1250
dcb2
b30d
eaee
950d
bdfd
259c
1dbc
ab89
7f37
b414
c852
3d14
f4ab
3670
9e7c
4016
8ba2
935c
a4cc
147e
6d44
540f
af3a
91e6
0ba5
87fb
1541
b40a
0e73
5129
1335
291e
71b1
4f4d
c9a5
07ef
5ff3
7c38
d830
f360
ab18
094f
ce7f
9094
bb28
b616
dc5b
7072
6572
b9b0
458d
327e
7eb5
bc03
fcc5
b93a
15e7
fb6f
427d
7428
c196
08dd
b1ae
c3cd
2d89
d5cf
32e8
3176
2133
a6d7
a158
5169
299f
ae79
df2d
e52b
e8bf
f7da
774c
5e2b
8746
c21c
5fdd
f960
12c0
4d32
01e1
ce62
9103
14fb
8192
c151
c463
394a
fef4
888d
f4ab
5bd5
e645
724f
780c
4ad1
7cda
0991
a23e
bceb
fd55
0cf0
9c84
f54d
c1c9
4481
db8f
0d9b
cdc9
edf0
9db5
51a3
8189
7830
65b5
6417
a05a
c550
6711
d746
7169
1e17
4cc4
2938
a7ac
77a6
91c1
25f1
4ebd
b87e
0ef6
dd2b
8e2e
30c0
2d7a
45e2
430f
e3fc
94c8
23c3
d6ad
8bca
4d77
87c1
da95
a907
5421
0bf5
b6ac
3530
7243
6555
87c4
fc52
c774
da87
7bed
7390
588e
8949
e3ae
68d0
2988
edba
576d
06c0
f418
39c0
46c8
c8b5
a081
63f7
4a1c
18d9
d561
5e1f
e272
f04c
41c7
b437
2170
8875
3d9b
9b2c
2fb5
5ecb
7cb9
b487
a7d1
c386
e5a2
7007
eeeb
954b
6e74
d199
9efe
0b06
eed4
4f82
418c
7582
d477
973c
b214
e458
749d
e00f
a4e0
668b
f2df
a7af
4017
d367
787b
45e0
24c1
d05c
a268
3b2e
ebc3
6361
69cc
6553
1f3b
adab
2f39
e306
fe2f
a186
c319
d27d
d474
c6ee
1863
f87b
ddc4
e5fc
e8ba
2471
8850
9d24
da13
d35d
7e74
4864
a462
422d
0836
9fb0
9602
74cf
6ed7
361b
b908
b81b
2c80
3192
d695
855b
4aa4
6f3a
a9fc
2e30
1149
f56c
1c52
4cec
58f7
7e91
3f00
60f9
b43f
8b23
81bf
692b
9de9
340f
9be8
6855
27b9
6573
dd3c
71f1
75af
58d9
cfdc
5b75
4699
0070
b919
af14
530f
9fb2
f9f0
ea83
937c
c2b6
ba29
43da
8ad1
237b
a144
d0d1
7d70
4426
3898
7d3e
d30b
5c1d
ec03
bc3b
9b0b
0a99
f199
b537
0e7f
1dc1
75fc
47a7
83eb
b9be
5690
f1d1
bfdc
9695
0790
843b
d36d
8f41
c966
afb7
0508
203a
2429
e963
35e5
ce23
a8ad
8c58
3bdd
0359
fb55
e71e
eff7
386c
22ed
be34
4806
46a0
0e5e
0ef3
cd09
8507
7b7c
8f6b
a75e
5b5c
80fd
5ff7
f5ee
ab75
f94b
c82b
cede
7d94
55e8
418d
b2b9
2905
105a
4569
59e6
6eea
37ea
e744
ea32
e8ec
9eda
ff7e
24fc
3b13
f72a
bed5
3e5b
3de9
443c
c782
905a
9c7b
c75b
0b8d
02e1
b3b4
e4c6
4a11
0212
bfba
2ee4
9520
cd5c
3bf2
0171
747f
c266
caa3
e1a6
b200
69ca
1d35
290b
9f5f
20ec
077e
d42d
1a59
569b
86b8
48be
e0d1
fa8f
c652
1678
0029
a785
2465
adb6
f793
f0ea
3e67
6169
0671
fc92
9a8c
a0f2
a16d
39a0
2843
c2eb
9815
d97e
09f6
22c6
30bf
2c69
41dd
3521
eb8b
1f21
f6a2
8375
c612
fe05
6197
0a24
97a3
6379
ab51
8493
65c3
30ae
e682
35f2
2346
13d1
de6d
a71b
09d4
be07
0600
e0bd
0d4c
a504
ead9
9d93
71c0
cc26
9e10
6b3c
3673
b0ea
f198
5065
382a
d384
f42f
3e92
c5b3
1ce1
c81d
9327
464a
cf18
59a3
41e4
edb6
a38f
fc83
b79c
c21a
3aa7
ff14
da86
3192
06b4
1e29
5cd0
d5af
87df
b9b9
c923
b4b9
9c64
13b9
0a15
453c
8505
af92
eb00
652d
2edd
f682
9b3f
8340
ba2a
315a
8289
27a2
c09e
d65b
5d4a
371b
2dec
ea0d
5d56
e5d6
5107
b8a4
671a
26f6
8358
0c54
3ff3
cc87
ecf1
f0f3
4d27
2c12
66eb
eb63
9ddb
6a86
513e
cbd4
9824
6781
126b
6a43
2714
d6e0
ea27
4ee7
1107
e577
e26b
d86d
903d
ce8c
2315
9386
37d2
d37f
e794
135b
56fd
d0f9
3256
418d
b801
4d83
c1e1
6e86
8119
9de1
1ed3
c76d
547b
a602
3eb5
b44d
f6ad
e2cf
ed4e
ff55
b3c4
a239
972b
5b4c
449b
a13d
e154
d670
fb3a
e4ec
e493
53e0
7de0
7fbc
324b
9c8d
353d
f930
a27d
2561
60fc
9797
5966
304e
46af
d607
0ac2
5c2b
2c51
2856
76df
22f7
8347
5ce0
b36c
68b9
b54d
229c
1b1b
1407
c53b
c1d1
d299
9ced
6c40
aa5a
986f
4051
a724
b6b0
2cf0
115e
ec5e
e943
4cc2
acfa
f4a1
9d88
36e6
b49d
86c2
a835
65d1
470b
1da1
a061
f55f
2e66
6724
8391
42d3
51f0
8805
a36e
325e
7665
3202
022e
736f
f32e
3923
cb6f
3e88
93ce
e826
4f5e
f7a1
e252
bacf
a0cb
d1b7
a544
14aa
6899
17d9
73c9
2519
851c
6728
7ebc
eac5
eef4
028f
d6f6
97bb
c94d
e178
8c42
8ddd
9797
911c
9457
e75f
10d1
7e41
0c97
481f
68ca
9395
0c82
b078
5db2
7e10
d5f7
2060
02bb
2df7
18b8
f2d3
80f7
892a
5206
cdba
b889
3966
4a51
4fc3
27b0
8b1c
04f4
8a6e
8d34
a33a
fd10
db53
1e0b
d088
febb
ca75
d9b9
aac1
9122
04c8
4114
fa8c
d2a4
80d5
eb6d
5099
1973
96f0
ed3d
a5de
2fc2
660b
41d4
2a75
6e36
ca25
dc45
63bd
f574
50a2
310e
4945
1d55
d6b0
c631
5037
f0d7
0496
c781
cea2
246b
eda8
9b0e
2d03
bd90
1e89
853e
2b32
70d1
24aa
4040
83fc
9f95
4e62
c4c8
cf95
657e
64e0
468a
78d1
c49b
588d
b022
d909
2da4
a12b
7b96
c7b5
25c7
1692
896c
1ee0
0572
c644
448f
cfd5
8de8
8f01
145c
4c3d
26e6
fa36
f953
c6fe
33b0
a778
4e1d
a006
e18f
1b30
896c
9866
87f5
2735
26f7
93aa
2179
5aca
5c6f
5b28
d137
b336
0d08
dfab
c23c
1dba
742f
f290
3b5f
8ca5
3e8e
f568
162b
7653
0a88
7126
3e61
5d36
eea0
ab8b
9e4e
f4b2
0726
821d
f38d
6d80
ba9e
6d4f
c8b0
4315
95e4
1bf7
2eac
7633
687a
7a31
3230
8d9a
1dbb
f71e
5c30
8500
86af
a1dd
b870
1709
c0b7
c8c0
758e
1e32
f412
14d4
3a84
f14f
e87d
8dc0
d06c
d9c0
a22f
4a31
dbbe
4e15
4dde
162b
6aa0
6c14
80a2
6bec
4b29
45d4
4c3f
624a
2f70
52ac
55a0
2e61
ab43
ae9a
f632
01a3
6766
31ee
b793
e9e6
d7b1
8f91
1cdd
b334
6a89
aa5a
4e1f
b5a8
13a3
174b
40bf
e508
816c
8aee
76a7
262a
2226
2734
743b
5acf
9a47
a3ec
48f7
4e46
17bd
fe99
e566
c8c6
960f
8ba8
2cae
448a
7375
823b
c4af
24f7
9d4a
dbbc
b2ba
fc6c
f4b0
c45e
ed4a
8ca3
9085
e188
6685
2c64
d4cd
f030
dfe9
6fd3
033b
6046
8b41
e862
d7b4
c844
a374
c5fa
907d
e87f
1e6d
f35a
9a7f
9a25
4a16
82ec
54fb
e390
