c15a
f5d7
5e54
d50f
019e
3066
a4bd
49df
42d6
a9b9
f2c8
6e7c
c418
da1d
bdb9
7ac1
fb87
9e1a
1fd9
044b
367a
c5e1
88b2
7708
00bb
ff90
61f3
cdcb
3506
bf3e
b082
1136
6571
cd4b
8728
9ca4
f672
7776
9f5b
09b2
9d39
f1b5
4b20
d8c9
d2ad
9f04
d209
c877
f2eb
4eb1
6ebf
279d
8412
d6a5
73a6
06bd
0956
2b43
f63c
edad
5a62
6539
3d15
40cc
fbbf
eb7b
09c9
e731
1c7a
07b3
2e58
ec83
f0ff
126c
7258
e80c
39c4
bcb2
12d8
fb69
96ac
5e89
1c47
064f
a369
77fe
7772
865a
19d9
4223
1da9
de87
73b8
1d5c
8e96
ef29
2d8e
99e2
4663
c85a
6d85
5d92
e06a
2084
2820
8d4c
1328
bd28
4830
849c
3be7
2185
f30a
2368
3419
8074
af66
452e
8f2c
6c93
a784
1ac8
03c5
a8a7
7b75
3eaf
834c
4e9a
1c29
6763
59c8
e5c5
572a
5981
1d06
c0b5
2516
15e1
e519
2d32
2d69
7c5a
4cec
e59e
995a
361d
113f
62af
a86c
c138
64eb
cf7f
5d1f
ff4d
93d2
86c9
cf87
95b5
eec4
2caa
180e
2246
31dd
cb5e
5f70
186c
81fd
468a
4897
fe60
fad7
be47
5b0b
db9c
a127
5fa2
3d93
1b62
75f2
87de
68e0
d616
231e
5d30
6773
1cee
8be9
3240
7e23
1078
f2a8
ea65
c0b7
348a
0a07
a0d5
6333
0a97
5d21
01b3
6e15
8849
a223
54d8
90d4
d059
65c4
eaf1
529c
1393
91a7
6d06
8d52
cc05
cfdb
1be7
73d0
7637
88e2
9e19
3b60
7fed
5676
4e6e
8463
13aa
a44a
6a75
fc21
df59
5e92
74c1
d8ca
9b62
3828
1efe
c511
45ba
a1f8
41de
9e1e
de32
e266
bad3
1d7e
5065
c314
2eda
513e
b7ca
ceeb
407c
1ffb
294f
317b
9f92
3f83
2e49
48c8
d2c3
746d
e6a5
494d
8856
802d
1083
812b
56d5
6423
a88a
f6ee
e9cc
26ca
b504
4f8b
4a0b
579d
d88b
17a4
fbed
7a8d
04d2
799a
9467
7afd
1d9f
9e6f
8027
2f15
e624
d2d8
2554
4c4d
5817
e539
0f78
2875
8d85
b39a
5ef5
8065
2d8f
021d
d1ba
55e2
377d
d522
9b91
1e23
e8b9
8c29
b670
d492
91ac
464d
f977
27bf
f363
c5e2
69e2
5b59
912b
e1ae
5ede
c43f
4f26
bed8
b798
0010
8b3c
620f
962c
557a
f0cb
ac9c
44e4
cd55
edce
17e8
ad6a
96e5
f56d
cfa6
68cf
48de
235d
0101
0ade
e3cd
83c9
a460
6712
8545
05ff
afb8
25bb
ea4b
d69b
67dd
0ce8
943a
fd63
3eb5
0bd4
2e03
37ce
e446
9b2c
f1f3
a739
0a88
30ba
bc98
76b7
285b
ec70
9355
eada
e765
df41
0edd
3ff3
9e5e
8e9d
f9d8
9ef9
9ff7
7d84
8fd8
396e
74d4
fad5
4d3c
f97d
8482
d5f8
e2b9
ec07
388a
732c
fc26
e647
c09c
c621
2cf0
3ef5
392a
2fec
3200
4d9d
c019
11ad
309d
ba4e
9d6b
a2fd
04b9
7311
c975
8eb4
e720
f2e0
9dc2
f091
fe52
6e8c
505e
55d8
bf73
5c95
b126
3ebf
1f23
40e9
0286
4739
af21
1a42
4263
64bb
9408
770d
2cd0
d2a9
8d58
3d89
9990
8ac2
7961
6f7a
4a89
9a79
938b
8c30
78c5
75db
ec0c
c512
3032
b775
10fa
fa3f
c114
1211
c3c6
3287
b373
6e88
2292
c49b
51a2
f521
aca3
b0a4
375e
3035
37ad
b8fb
2d31
4f7c
c97a
d5a6
d78f
bfac
c0de
f926
aab8
d3c2
0887
be6e
1939
d32a
7789
9651
55ca
44a8
7d2a
0b14
fe96
b10a
6317
ccb2
7537
3069
4c36
f621
ba3c
b40a
9942
1005
3c80
74db
4875
e5dd
99e7
3435
b0b9
27ae
4deb
27fe
b501
8d29
b146
89e5
e27b
e92b
3e5b
134d
afc7
c235
2ec5
b713
5f54
058d
d28c
d81b
d60f
0512
0f7a
4a55
a397
c09d
b3a2
b372
1635
288d
454d
292a
caa4
0de0
2d2c
6dce
a667
031d
e207
4680
e528
8dec
79cc
db59
f3d0
6581
8710
0a42
8518
ce1b
c074
53fc
2089
5d03
5b26
3ee5
e1b8
fcb6
54e0
33bc
989d
2593
7291
7700
5b6e
6957
4402
9f9b
c42d
22b9
f522
f5ce
a3d4
e161
06a0
6e56
0f32
3402
fa2c
eb95
8963
afa3
f41a
1daf
632c
9991
4f54
c384
6fad
7529
3fca
467b
2a00
9e18
38ad
ad07
c357
ac28
0c82
51d7
664c
61a8
0e47
9b6b
25a6
4f68
4f2a
423c
fd14
7ad0
e41b
cf75
e1d9
7ce0
726f
2abc
958a
abbf
38ab
5062
4afb
f9ae
849e
2f04
2fd9
3bc9
2f1a
ab83
8672
b110
eb8c
b63d
8956
74aa
7fa8
5ff0
f0cc
d589
fc7e
b190
2453
1cb2
b60e
f3ec
6a6b
604a
bef8
1975
b98e
face
fc87
122f
d117
e37f
4ac0
109d
a86a
30e7
f018
8061
35ef
1fc2
e02e
dbf4
655e
ec0f
7f0d
757c
80e7
b40e
0786
2190
5bdb
6bdf
76af
0abc
9575
ca07
825a
af52
55d6
6cdc
7882
c831
f299
8f23
50ad
5b46
5b91
c478
689e
4666
0df8
3a2b
ac26
e0f4
9f57
ae53
aa6a
c60e
8a58
b6ba
567a
26ec
1954
9307
689e
7efb
34aa
5e63
a25a
39e8
e2dc
b3c9
0028
45a9
21a9
d672
2a19
5ef6
9e12
53a8
5f83
e942
4946
e1ae
a342
d576
9b64
ff04
236f
480f
389d
6891
d177
f331
252f
9a55
c61c
7a5a
3b56
c85b
59d8
e109
5bce
a96e
63b1
0f5e
06ff
9001
8b01
5399
24e1
f686
6015
f77a
9668
9561
a2a0
ae83
4840
fc4d
d1f7
892a
dce2
8b80
702f
fb4d
e229
14f1
4a23
b99b
d868
7fc5
21e9
4d3d
1c3b
d333
f778
f7ea
c2b7
7d7e
49b6
0f26
6724
60b5
1617
4603
1e73
0ee3
1407
5822
a278
9a96
e695
5109
c502
32be
73b9
b9a8
dab9
5437
8145
4d7e
5630
0df7
e243
c752
beb1
5995
ce31
ba8a
1053
69ee
578f
b62d
f1a0
c1a9
9e83
2a06
3fbd
290d
2c56
10ac
e44a
580e
78a6
6018
899f
e6be
34ac
9f7a
52f9
9299
92e1
3616
af6f
803b
26c3
3e21
9903
c337
8d68
764d
c5f0
f35c
07d5
a833
3479
87be
a946
7caf
9e41
8744
adf6
80e0
ac66
6e37
5ca0
2543
50f7
9e65
bc39
114a
da5e
c7ac
f34b
697e
4777
9a10
a39d
c9bc
4617
8baa
1efe
06d7
f8c0
43f6
ee64
383b
a045
835a
9f3a
194f
23d3
1422
98d0
cb3a
d254
8e3b
3120
4335
b1e3
8c54
e356
e639
332b
4ef8
3495
b21d
a71b
f426
87df
15d4
6d98
b46a
f7c1
8770
39b9
1e8b
6e24
938c
4216
de5a
7101
2611
91f0
3efe
efc3
6b03
9627
f242
61c1
397a
bd39
acff
1f3b
6839
2f4d
acbe
5c0b
5cd3
383b
7fe6
b127
6765
70a3
3d51
ce31
dde9
6b40
37ec
8e25
e647
90b0
4a64
6325
63c5
7db2
765a
72f8
bcb9
dfdf
ca23
0e68
fb18
eb86
4608
3a38
3ff6
e405
c48b
d14e
ef24
521c
5c99
6223
b9b4
d230
f44b
f88c
8d31
62d9
eec0
3c24
c1d7
2d19
04f2
cf58
d0db
4b1b
0828
53ca
1e76
410e
2747
06b6
e5c9
2f1a
0e9a
9d00
07d7
2d40
8e5f
6bf7
e91e
13e3
79dc
d1a1
fc6d
fe1d
2cdc
e648
d79d
57f4
8bb6
4c51
26e3
46e0
6944
0644
950e
6d19
717d
60e3
d071
f70f
22e3
c3e4
ddc0
cd88
cffd
4faa
8189
ebd5
4760
6b4d
f0fc
1f9f
a2bc
9808
9133
71ce
cbce
e440
ed0e
d142
8fd0
e7a5
b625
22c1
05f6
c738
8cd4
879b
c6fa
7203
089e
68c8
158e
1867
2cdb
c171
f0e6
56d6
ac9b
46bb
fce2
52a1
6af1
9a6b
f9ec
5644
8873
a09f
72e9
a6a3
961f
b35c
f0d8
cf9e
6567
ac1d
bc43
36cc
0ea0
73bc
8dc9
f1db
c3ef
0521
5e94
1f39
fd11
b61e
75ec
6668
7009
a540
55f0
1809
fb34
ca74
9cbe
1e3f
f600
67dc
0994
08e5
cf81
ca61
ac8f
42ab
0491
a776
32c6
881e
4818
d70c
d90b
d7d6
d8c9
0ac6
bfbe
a66b
e508
5c2a
7625
7128
20c2
5d0a
7602
df8d
3b13
41f7
8761
b04a
80ca
8061
7a1a
547e
b47f
5bb7
5f0b
2aed
6858
898a
76ec
d65a
bb7f
d533
8ddc
d462
0fbe
0922
c65a
d221
3596
5455
89f1
ab7b
a0ff
4cf2
4066
aacc
3a16
e05f
f7c8
9918
9a65
7197
4060
14d4
ea67
da43
9bfb
2971
e852
f251
f79a
98de
c45d
779f
ff19
142f
749e
17c8
e08e
2071
3102
43a2
f9e7
a146
7672
46f0
aabb
71eb
9f60
86e8
c15e
99a8
7e15
28bb
3433
12de
024f
b7e0
cfeb
b4d9
ea96
b8b8
96bc
d54f
7eb6
be4a
1fe0
7e72
dae9
646b
2ef5
21c6
b118
71c4
c886
bf12
f3fa
8db0
0559
41ac
d753
b25b
ae00
d608
9cdd
267c
93e0
2481
11c1
ef52
7857
3049
b495
405a
1e10
4041
11a5
ab03
d52c
22ff
4133
00b8
558b
680d
a15b
b0ca
9e39
6fac
098c
9eea
c1d0
05c0
7e84
1ecd
5f05
0b03
e093
2230
b0b3
059d
f51b
152f
4f18
47e2
4450
c026
2cd0
5c99
96e8
bc7d
b368
ad9f
14a0
c1ab
4ab0
7b7d
a459
f476
17cf
ec5a
f1d2
58a1
5958
de83
8257
46ba
150c
9e4f
aff7
f231
cc4e
ae3a
ad63
2add
ea3b
3bc9
7417
599f
0da3
8609
da2e
ded2
5b6a
0e75
cf64
8b80
576d
1573
c89e
c525
db62
6e12
6241
0310
2163
48dc
cc22
d47b
17b7
8af3
52c6
e8ea
683b
39ab
52d7
5e7b
093a
1353
10ea
9e7e
1771
ba9b
ec64
676c
3b1c
20cb
b95a
c18e
837e
9d20
f569
ec15
790f
3ae6
a024
3756
e76e
f318
0a71
d80c
bb9d
fbeb
cf26
6ad9
1f59
a542
9862
e832
79ba
b2a1
2419
fec4
b53f
8a96
68d2
598e
d4e9
3420
3155
c0f2
f582
a465
52b8
3c20
94c6
1e22
f01d
53ec
79a1
cb3b
dc7c
d12d
1425
80e5
73fc
1f85
0050
7f22
55ea
bca2
dd77
b494
5cba
6a9b
4290
445b
5137
fc63
ebe4
976b
3782
71b5
091c
ea30
85a8
2d76
75e5
363a
f543
8af8
6281
88be
cef2
c270
1a52
600e
7622
ea36
5fa5
e09c
a3af
7827
b013
28ef
2c90
cef5
6558
8e4b
805b
1bac
b804
af12
72e9
5632
4079
0cf5
988b
0d6c
80ef
615c
0573
a1b8
e7c2
7003
25d0
5f02
ffbb
94e0
8190
138a
d9aa
8e8d
98d1
a13b
131c
11f0
cba9
751f
8e13
45dc
39ed
92f8
15fe
1397
be2d
da2a
41ca
c803
0669
5b84
51c2
ef6b
0ce3
c14a
6d56
0fda
96c5
029a
a3c2
c684
c4b5
ac34
53cb
cffa
cf99
014b
2067
071e
ed45
48e5
ef31
bee4
7388
9874
32da
d5cc
3456
0d55
f373
507f
5e2d
6a31
2fd5
5b4f
2b4b
ca7f
9e30
353b
72b5
0abe
7713
b519
35d2
e92b
0288
175c
e3cc
d016
8f16
4432
a4e5
ab41
2992
5d26
52fa
cac4
85e0
4572
4baa
e2d5
8f67
adea
ee7b
9933
eeae
7edc
22de
9e48
4cf4
26c8
b305
997b
38f9
4189
c4f8
3696
b5c7
35db
6ab0
9a77
3431
5fe9
88c5
6cc7
8040
e7c1
c15b
64e8
b0b8
8337
fa41
08ad
96e6
2443
470e
8e08
e20c
d2a0
c370
0662
441e
98ea
ab3c
fc5f
a1ff
ae89
958e
e8a0
273f
ba1a
3856
99b0
d5d1
5a64
8cb4
9508
4753
b0e4
fb42
595b
a332
bc4a
2945
be9c
82e1
e146
c977
7b35
e19c
e05a
1e73
9c92
0b9b
3226
6e36
2470
e839
3cf9
a21e
3c11
77f2
d9f1
b6bc
7037
ac34
b44a
4773
a67d
9426
2bb5
f746
dbee
2174
6244
a439
4165
91e5
5062
db46
ed82
6fe0
3ed6
f504
cf16
b530
5e65
b4a8
c2cc
a861
1d5f
5a1c
ca85
965a
218c
47c7
4258
db77
1e26
8b5c
3ec0
0252
3353
4fb0
3760
2287
3ced
7865
9a82
6a37
e8e3
ea1c
6310
1fae
79ce
6479
3d64
005a
9068
5316
7fb1
b4f7
ea86
0b5c
5ebc
6d0e
8041
1098
4c5a
d102
6eaa
34db
a4e5
4437
35ce
3e55
91f7
f07f
ba10
0864
0503
4156
0bc8
66cd
d725
165f
46b7
75d1
aaf0
4c5c
e160
cf7b
57ed
704c
094b
b593
94ba
ee57
b305
e5f4
fa07
aaaa
9b37
962d
c814
b0c4
ee4a
9458
0ca0
4754
cd02
8817
95d4
21b4
0c57
ed9d
325b
1e76
5f01
4108
0937
8eec
e2eb
fdb5
1151
683a
aed3
c2bc
efa5
d0aa
62a5
7f4b
c5dc
ffe7
7ef6
ee3a
da77
8db2
b469
aad2
6f7c
82fb
3d14
eb13
6e40
a7f8
dae1
217a
59af
b121
8573
4853
183f
6771
5faf
70a4
bd4d
a22c
a21b
48c0
2a24
b99d
3501
9fec
5a4a
9c7b
0c22
7359
119a
5a11
2a16
2ad3
4ffe
cba9
9d01
bd6d
be33
68ce
42a7
fdd4
6211
b80e
c47e
cef4
1f15
1eea
0456
6429
2f87
fa20
2c80
050e
af1f
ff06
f68a
018f
9967
7add
fc43
288c
a9db
babe
d3b8
7299
5702
e88f
9afd
ef32
5d5a
b581
b682
3933
0d38
630d
dbb3
a795
1a05
f912
db98
f5e3
7f98
ec0a
8ace
c719
bfdf
212f
c6be
70dd
b6ad
a9a0
b9ce
0a00
5e1d
89bc
9685
9502
a4b1
81c0
da1a
b047
9301
e938
0fa6
c0b5
ef74
5252
01cb
69d8
ae93
1d9e
4dcf
b355
9a73
f906
ae01
c8fa
c122
3f93
b050
e20d
a612
d5fb
1352
4a91
4073
ed97
23c1
4ba4
a347
e366
fd37
62e4
19fb
77ba
ca65
dedb
725c
9b63
a328
0340
a1c4
2118
237f
fdd6
576c
cb7a
0844
5049
655c
ca46
a271
dad8
313c
5345
bbd7
db3c
9c00
dbee
5db2
964b
a091
1646
1258
2cf0
e450
1283
3ac9
6be9
e4f2
cd6a
6148
e407
dc0a
a28c
9153
4895
8c44
88d5
fa25
26a5
e0f1
3a58
b0c4
1499
dd18
a5e8
854a
3b0a
d4d3
789f
6d15
eff4
4bf8
a7c3
4356
a636
f897
c117
6c19
16a3
a32b
39be
5bc4
605c
d8f8
7ea1
9144
b34b
4336
0ff4
9ec4
79ce
9189
f8f1
69e8
9a48
500e
97b9
db39
41a4
6ad9
c7d0
7add
ca46
7bdd
ab5b
e8d1
969b
eb69
a109
a854
6ad1
adda
c202
1be5
c4c5
e2bc
9021
a202
9d76
fff9
2a06
42e4
0ab7
d53f
5cce
064f
6af5
41df
adcb
e14b
2270
4786
0475
ca97
8f9f
ce62
3189
0645
b0bd
d6ab
af31
ba19
14b5
05a0
523f
aad1
f979
5dc4
7c96
6ad4
69a5
d3db
2c7b
60e3
917c
33bf
06ef
b669
9bc7
4ceb
d62f
7e35
90b0
b09c
19bd
9dcc
ae61
113a
d5a1
bebc
ab25
9f29
a83f
e14a
ae02
1aa4
7559
87e0
2c64
52b9
4c49
e4c3
b808
3121
e884
5f48
46d6
7bc8
98b4
4452
f36a
5cb3
a56a
ea5c
efd9
415c
dcb7
5ea6
e942
b0d5
72eb
5578
6bfc
8c1f
6aa5
40e5
5405
0572
d434
b004
67d3
98bb
d66f
6bc9
a4b5
66cf
1c93
8866
dc3a
2dfe
8cc1
b754
f922
24e4
e14c
6ae6
c96f
0347
ee90
55d1
a40b
aaf9
6021
163c
7c02
b695
3240
a342
34ce
957b
aba0
01b2
9bdf
3bfe
79cd
4dde
25a5
90dd
a0d4
0b11
37eb
dd4c
622f
fc12
c57c
84cf
ca03
c2a6
2668
9564
a6d3
32ce
8438
3fe4
ba9a
a585
df8c
099e
4408
0ab0
722c
7aea
0426
ef4e
c103
1c5d
db9f
c81a
b3e6
1869
fae6
e2c5
03c1
f4b2
b7d9
e6a9
914b
3e0a
9a2d
3bfd
5c64
fe94
1770
1e24
98f9
005c
5b08
7fd2
c681
d9bc
7611
a32a
f39b
406c
61f0
0941
581b
8d6a
5de3
83ef
d741
3768
c9d0
a770
413c
85f3
de7f
4524
d7fc
d2ff
164e
5357
9925
466e
5b3a
fefe
fd5a
c6e4
6ea5
d23b
af61
2444
6052
b228
1e2a
1dda
7217
9504
c047
c372
c44e
b8c4
201d
2387
2b6b
dd34
e52e
b95e
1a06
7cdd
2b90
01c0
1ead
f5c4
212d
1595
be87
d6a5
3f52
4b3f
4990
1c81
0585
c8a1
0e10
4368
3d40
1b78
5517
6d60
86dd
6e3b
fc38
b10c
9bfe
5ee3
9270
c703
8452
4ac9
8e0d
31bb
7214
f0a7
d967
f08b
fb1b
a218
e748
4be5
364f
51e9
148e
8429
15b3
67d3
c808
ccb1
4a7e
cd9e
188d
e876
c616
1e76
2968
83b2
5902
6387
8bbe
31a0
2233
4905
eeb9
052f
452c
8fbf
eb71
3992
ea30
4e46
6f56
53cd
fcb8
8329
5538
0504
5b61
95de
9ac3
969c
966f
ea8b
bf35
3c74
3dbf
d952
e563
3fb2
b6ec
8ba4
f702
6c44
1aba
704c
36e6
d2c2
a6d2
29c9
e46b
ecbf
fdfb
0a3d
cb63
2caf
6b23
a424
9c1f
56ac
ade9
1745
ce08
75e2
4859
1313
ffd4
bcba
42f1
961a
d67f
5302
933d
9fcc
d9d5
cff8
a434
ab03
b92b
7ef9
fb1f
34ef
74e0
f865
9539
a973
84a3
0ed0
83c9
ff0c
1a6a
97a2
cce5
c53a
552f
7293
43b7
e9bd
82c7
22c1
8bc0
1ca8
19c9
5734
7b0e
7ca3
cb78
3b1f
866a
0667
88e5
8ea6
7246
0e38
feda
074a
1e59
67e0
25b6
11d1
0ded
208b
36fc
a0c4
00f7
9084
7073
47c0
f9a9
9dff
f4b2
3c09
9887
b34b
42a4
109c
1be0
5ba8
4d42
30da
112c
1a70
803b
f06e
3253
ab00
59ea
09d9
222e
cad8
6268
30e4
bdc0
8ad1
d72a
ccdf
e291
5b04
7b07
4337
52dd
fbdd
d806
06ca
3dd4
5fa0
060e
c50b
074a
2b41
fa05
f24b
d215
422a
cdbd
20fd
909d
46ee
5a89
3c58
dbb9
aab7
dd6d
c922
71ed
51fd
74b0
bbac
48e2
2038
026d
cf10
67d9
82eb
b024
624e
02b9
521a
7bd2
fb2c
1574
50dd
2075
ca51
3807
dac4
98a5
9abf
9f83
4829
71df
4513
30ff
3db4
2581
e0ce
5734
4f77
3314
89ed
8b48
68ab
ef23
e2d6
9270
4df7
31e7
a635
22a2
f880
6f8d
9aab
c73b
c1d2
8309
726b
3b2d
2003
4745
97ac
f9f1
bdc4
e573
ea31
686b
e231
4243
1ea2
1d83
58ed
3dee
b495
0e44
13f8
617b
8e7a
e14c
bf1b
84b1
efce
492e
07a4
05ef
78ba
08b4
6863
53a6
1394
0c34
679f
3a07
6ddd
1679
c012
168c
0e07
99a6
dd32
e99d
9fc6
e803
479b
d4b2
39f6
1ab2
08d2
e07e
e82e
c947
e653
e7f5
13af
19cd
f7a6
9a46
f902
7eb0
8b4a
bc5b
1a70
8e0e
5d31
1a03
4c5a
65d8
e08f
a26b
7d99
46f5
c887
afb7
f51f
3a86
6e24
aa54
5865
d5f4
a49f
9a3e
3fab
ba14
27e6
e605
0124
4cc9
8bc1
0526
b367
c199
7b93
c641
792b
b1b6
8ee7
b283
bb5b
c2ca
baae
028a
c8af
1c27
ae96
6dee
fdd2
3b55
de2c
f55e
d637
773b
c818
0c80
d1a1
7758
9522
5a59
a333
a823
4970
f624
61ec
8851
04e9
bbd7
bbb1
ccb0
3ed3
e1dd
18a3
b23a
f17d
0011
e4ed
693a
e312
b206
8805
aa30
675f
6896
6b44
2438
69d4
89db
2719
c059
f4b7
2d67
e958
b30d
f992
56ac
75b1
113c
a98f
a2cb
e72d
d7fc
455f
69ec
a9f6
7b6b
d38d
b29d
c048
9e97
1ad6
b084
1e42
bf8b
3dd2
a2b3
e713
3003
909f
9eee
ab98
f808
59ab
941d
833d
c034
0c95
7a35
f3dd
7aaf
6803
82cd
e097
b475
ca9f
0e8b
86d2
4f21
cc5c
eb53
2bf3
b955
d001
bab0
29ac
8a91
d6d4
de04
ef9c
a12e
bb69
7421
d5be
f43c
675a
c790
96cb
2b8a
e125
7138
cc7e
a1df
a477
08a8
2cbc
b2a6
869f
7262
b849
16ce
eadc
a449
61d9
8ccb
18a0
7791
c86e
f8cf
c29e
9f50
c89f
00b2
ea6e
b504
7562
b63b
ea57
5c70
ae8e
5539
abc7
715a
ebbd
432f
7eb2
235a
5984
60f1
1b1b
05f2
068d
6020
f309
802f
42fe
d0e7
81da
c3c3
8545
3dea
782e
0d6d
ec0a
42de
b2dd
f91a
9183
96fc
ac65
b5eb
76da
2821
939c
6a9d
2e8d
aa09
4b5d
3936
c06d
0b6d
9711
b514
ce32
8240
c4e3
92a6
44ba
ef45
c6fa
3529
a00f
1953
30f7
2721
c505
3edc
109d
78ae
d547
5630
b4de
d6f8
88aa
11dc
ca45
4f5b
0ebd
2ecf
764f
19bc
c997
e3e6
d7f9
b8f5
c944
4f51
ead2
dda0
0868
6ee8
a47a
fb5b
9d21
aaf9
3028
d9c0
e59b
96b8
b972
a297
02a2
7fc5
5bd0
ca2c
b7e7
c6ea
96b2
1b43
575a
c7eb
1cf6
c760
eb84
b32c
685a
5faa
217d
2c0c
670e
742d
72f2
0695
b8b8
cb12
25f1
06f7
f276
4c58
90be
204d
07cb
7ea8
c695
81f0
06bc
7fb0
a4b4
b9e0
6c4c
3a96
48ea
f442
f432
df6f
f654
46d4
d911
b5c6
42e8
bba3
ce4c
b96e
0443
f42f
b7a8
0dc2
2a5e
1d34
42a0
bf7c
5f13
4a26
45dc
8d3a
f68b
1d8d
33ca
6059
3ef3
0868
2a4a
5a08
ae84
2ac0
bb32
14b1
316a
2cc2
64c9
8e6a
9fe7
d26b
1d5a
34e5
2ca3
32da
2e87
543b
cc48
edaf
86b8
6508
3f51
0e8d
0480
f4c0
f75f
2b6e
3602
453e
a21a
e374
225c
fa9d
58f7
2351
9027
8bd1
fb3f
92b2
c748
ca6a
b7e9
e376
1a15
28d3
f24b
41f0
cebb
8aae
f2d7
4dab
1bce
c723
a984
594e
3dd8
0016
dd3e
e257
e05b
fefc
9110
5ae0
9037
8da8
acd5
a399
c7cb
2603
e13d
6f70
74b3
3e6c
e413
f692
89ce
06e5
1748
1175
55ae
44e2
c2d1
fa96
dada
9163
6df5
5fe3
fd75
2cb0
cf05
1ffe
51ae
1c5b
3309
b54f
b8b8
daa1
6f57
f266
9050
29cb
9392
8783
80d3
058b
434e
67eb
1918
1869
a634
f5db
77a3
5eb0
6471
3676
4c94
b7f0
ac10
3751
a661
3382
6c89
3661
e55d
01ca
7b7c
b8bd
0b31
d626
19c6
97c2
dbc6
c61e
a27d
81a3
77c7
08fb
436f
5501
d313
a9ba
b52c
1be4
cdbd
75ac
d5fb
760d
2365
8b3d
dddc
c855
134f
379b
5b99
f6e1
d436
645d
8424
37f2
b10f
ad16
0679
c62c
16ed
bee6
d269
71c3
e447
08c1
1433
eedb
3315
d44c
f8d8
b385
7ca9
1195
a5ee
8b4e
41d8
979d
5f60
f0c6
68b1
4d47
19fd
63e3
29f8
b834
a3fd
98bd
e438
6d7b
5473
34a0
90e6
2f39
2f1c
083e
4ddb
fb31
8e5b
b117
bc12
8ac0
610c
37fd
4b00
0168
f8d3
4112
c1ac
4d81
fa8b
d319
37e5
6f07
59b8
56d7
ee08
2ee5
24d4
a376
795d
ddef
e286
5972
74ad
b5cc
c6e9
1444
cc0b
c914
03ed
2e85
9abe
6d3a
bdde
055b
0002
d15f
afa2
8886
e229
c810
1809
0f80
422e
eb0c
5355
fcb7
4089
2be3
05a1
3eec
a278
0aee
3592
be85
f070
94fc
93eb
0516
91ee
ace7
c79d
55c0
6f19
a9fd
29da
7e84
8baa
9e30
c672
3ff5
0022
118a
3342
f629
12bd
e4ac
639d
22ce
128e
0b2c
389f
1ba6
cb5f
cfa2
919a
78e4
ad17
f713
4019
9710
82b9
d9d6
9f41
d298
50b0
6a7e
34d0
c6e6
e13c
654c
d14b
8931
e116
f9c4
0c84
407f
da04
776a
bc61
e406
d10f
6f7f
e592
a396
8ce9
0311
f022
4ab9
3729
aa79
460c
f08f
87b7
7f84
c589
9109
a312
6c0b
69f4
6ab9
d462
add9
4bfb
6abf
a5d9
414a
6659
9cee
f51a
f501
850e
df83
3d41
0a83
84a9
b27f
c696
7245
64ac
01aa
5764
692e
12b4
6f8a
d6b5
2bd1
4bab
687e
1657
8a86
22c2
00a3
cc6b
1277
ea52
164e
bfda
6f94
b383
5cdb
4f3d
59ea
1733
3cdb
e315
e5b8
e2c4
c466
f947
f164
179a
6752
d127
8ab8
e940
70da
e6e0
9a2a
e52a
ed8d
908e
de29
029f
4820
b64f
d4f1
a132
f78b
3eb0
fc4e
8d77
e590
34e0
419a
9a55
e478
3df4
080e
5b07
3a02
972b
6bf4
9493
a073
ca1c
541c
8aad
9527
d6af
4bfa
13fd
e1d0
afa0
ca9b
3879
c518
fc9d
7f09
65f7
40d6
a14a
b2d4
ae22
1183
66fe
eef8
155d
cb51
e1ec
b4f6
13a7
15b7
24f1
50f4
22ab
de1f
c179
8443
ab4e
0dc4
ec87
8557
346f
fde6
eeb4
9b4c
c6fd
14de
55a2
55e4
1fe2
506a
5a97
736c
ff98
030c
620a
4576
a2fd
d306
4696
ec0b
d9ce
43d2
f7cb
f72d
88ab
032c
d967
7029
96e7
8b7e
7da4
7d57
0bd5
ac63
b20b
e061
dd42
e659
d93a
2701
dedf
b7eb
b37e
41eb
fae7
9df2
5c92
74fb
7991
454c
badf
1129
79cc
32b5
fd2c
b676
444a
4743
a83a
73b0
2a18
a3c8
086f
fb09
0b3a
7e00
182c
baac
57bd
e127
f505
2f64
413f
e7e3
ce03
c9b9
6bf2
f7dd
1964
e6fb
2654
c347
7ca4
bd76
7b83
cdfa
418c
06ae
f220
34ef
616b
c34a
d329
a843
7bc0
fdc6
fb15
1732
5e68
5710
f76e
df6b
c6f4
bffd
ea4b
ee63
2086
4c1b
ce85
6f8e
363c
fe02
c2bf
ecbf
0ff2
c8dc
f8a9
7c92
a23c
bb8f
9e96
ddea
eca1
112f
a4c8
1750
855e
8f81
9459
7389
3460
91cd
df34
9af7
39be
a17a
894e
37b7
5232
6593
1c77
5d0b
f6e9
b53c
e6d3
81ef
bf56
9233
9c5c
cbb6
1b6a
c655
2dfc
96cc
1603
7f32
b717
ea24
796e
6f7e
d703
7a53
985b
5ed3
de06
6016
ade1
fb8c
5315
8d34
e118
12a3
db95
a02b
997d
ea95
6cc7
cd1c
8453
a314
59d5
c310
e7e5
e6d9
ed2c
c21a
c34a
4e17
e3b4
0605
b1e9
52cd
c552
6ea3
aa30
8069
e6e3
8e2c
7dd1
51b1
cb47
993b
029a
4907
349e
589e
fcb1
e3d2
9b3b
a977
ecb1
5629
bfed
f033
288b
1590
0baf
e017
de07
69aa
b9b2
93b6
f5d4
6d55
101e
f668
20b8
3994
153e
6f5b
c7c3
8d4b
992f
53d2
9cac
d886
c34d
4086
b3c3
d5de
5215
3efd
1d90
53f5
5e5b
9965
216b
6c00
de73
acb8
57d8
0e0c
6daf
dc1d
715e
bd49
9aeb
6a94
9c2d
e686
f2e9
4bb0
bb05
6be9
52f8
1cbf
9faf
2ab7
8d2e
890d
0feb
c5e5
b42d
d48a
3e56
45d8
dc32
62d2
8b85
b6a3
eaa1
d291
1b70
82e7
55ae
0b52
4f6d
2279
7869
b34f
1cff
cffa
332d
7e6b
cef1
3eff
4495
b8a1
281d
c1b2
827d
5227
7cd1
09d9
a7bf
e4f2
2057
87df
7e5a
0263
bb37
5935
6e7c
d7c3
8033
1acc
8c62
95f8
cde2
0350
c7d1
d460
085e
b8d8
9e0a
b586
ec1c
60d3
242c
33f5
cbf7
9981
7941
6297
98e8
44d1
3faf
98e0
ae23
3fda
037c
3a58
d1f3
b61a
7082
6e9a
b2c1
d184
86fb
0aa0
08a9
bb90
7a18
1a93
ce37
77ba
d4ec
d85f
4fc0
e13f
f380
5f07
ac62
af18
3f10
de99
b763
3bc6
9530
b5bb
0c35
e335
22a0
84cd
55e9
3802
043b
d3dd
4b4e
6408
869a
bd5c
893f
edca
62dd
41ec
2c57
6436
2174
922a
c01f
4962
9a37
8f76
837d
725b
0801
7ea7
495f
0525
a8d1
6702
7be6
2311
dfdc
0812
7ad3
b352
1615
4fab
3ac5
a61d
8a03
da23
8703
bbbf
d337
2688
8a1a
a142
2844
7492
504f
df9a
0c8c
f117
5728
9ad9
76ee
6ec9
a980
889a
10da
0509
e805
1cad
a050
bc99
33ed
0b6c
f3a6
13e4
95ce
cc03
e39a
d5d0
4c70
564e
d5bb
7479
957e
8611
8775
5150
7b19
3b17
1c96
d167
76f8
94bc
1aa6
1588
c59a
86b0
2d19
997a
be3a
2865
e090
8bd0
6eff
1150
73ab
cc91
21b1
db41
49c0
f85b
a5fc
be66
3d8a
07f5
e70a
9bc8
ce8f
1861
36ea
c92c
3df1
b9a2
a605
36e0
bcfc
8c33
c6b7
a56d
3314
296f
2614
b954
d1b4
9a8d
1ad5
b99b
f1b9
445e
83a4
f24b
1c92
0d1a
b0d6
156d
1fae
7a83
53da
80c1
92ab
f16d
3423
6e94
8def
610e
78cf
d9d5
6f4c
244d
5221
1299
a9a7
7dc7
8880
e020
12c6
b240
667f
1e65
8fdd
7917
3279
efad
691c
6ca4
9491
cb94
6e75
c94d
c752
c3e2
e7ac
e817
5a58
6f37
c001
da08
2235
9056
ea75
a2d9
10fa
2562
ee34
8fec
c860
edc8
4d25
a8ba
ab5f
737e
a22d
d259
b337
e981
4ae2
62c8
921c
fdee
b3a0
6bd7
7dac
7e54
2514
3108
ff50
7b27
c8db
4c43
01d5
6bfe
8615
4eef
8731
b938
b08f
edaa
e349
61de
9c2e
e437
ba1c
ae7b
4dc0
620d
4002
4667
e5d6
8433
0df0
72df
54b9
7a12
175d
42b3
dbb7
d521
a624
ec2a
d112
23fe
ab59
4b88
d323
3a66
7dfb
fcec
aefa
3b95
81b6
c23f
1ed6
ef86
c032
fd54
b564
d97a
bc78
f1d7
0146
208c
20f6
9cac
2195
e71d
bf6f
bd80
6f04
5aaf
0941
63d6
1d98
7641
4ca3
8e2f
7c9b
7b40
160c
6ea4
664d
ea8b
1b38
7c93
5b37
69d1
8152
1828
8e53
f245
24a3
c632
08e9
baef
9c66
6d46
f86a
ff4e
23ee
3cdf
ea6b
9682
9cdd
9458
c8d9
ac46
f594
1dc0
5213
6733
93e1
ae48
10f7
0df5
8917
fcfe
db66
a0d9
1ced
0312
610b
1bab
80e9
f035
28a3
156e
2c80
7d6f
807a
5195
c4eb
fa3f
8e21
fd4c
6cc9
b262
7c45
9271
7b81
4332
c798
9c56
96a3
8cab
5dff
e303
77c1
2751
9d7e
1871
eb08
b491
781d
3138
9804
bfda
5f23
8cf3
c69a
8fde
c90c
eedc
4407
81bc
ae68
8a2f
97ae
a3f7
b56d
667c
fb96
28df
3e03
4987
f2b0
8244
ccae
7425
28b8
a9b7
ecf5
b97d
a4c6
0a7e
abaa
5ae1
2b82
df23
ca69
d3d1
cd60
cc1b
1ab8
9814
6205
dcf2
c6b7
fda8
3e54
d70b
77c8
342f
1c9a
f12a
947d
83e1
2894
c6b9
1191
e6de
d3e0
57b3
10d4
6b70
94f6
0ad2
9512
f302
4c28
21a3
e120
9888
24cf
715d
bd71
65cf
034d
6de7
8622
bf11
c56a
75c1
3c10
50af
adb2
fd18
ab91
c96d
fa1b
5c27
3c13
41df
6ef8
f8dc
e884
e004
9134
db56
56a2
16c2
f532
8957
2f4f
3c66
4042
90ca
d896
3f39
5826
af7a
c138
c1e7
8003
2a46
0dc3
1e08
e3e4
2abf
20cb
93fd
dfda
5c9a
9f35
7451
9f34
2997
1bd3
8364
e2c2
fe13
83c6
5984
d0eb
a6ca
35d4
c488
fe4f
7779
2f42
87f5
b75a
eab2
1e02
8060
5430
4ed6
c4a2
d66f
d214
72b3
a75f
bf7e
4de0
fa9f
5186
8275
8e8f
9167
da32
9b9b
3b02
3366
65cd
1a14
2ae6
08c8
6481
b8db
3e7d
f38d
815b
9d8f
0865
535f
8fd4
93a9
a9cb
f795
0050
c2ea
01f6
947a
ebe9
d4b8
821e
30d5
8c45
206d
809d
4047
6251
6d8e
d7c2
d616
bfd5
fda5
f1b0
ae8a
b1f2
bbb9
9494
e277
674d
418a
8800
fc9c
f08b
e16a
cfd6
09f0
11f6
a938
848e
08b6
5b4a
aef3
e348
1902
5d89
9b4a
645d
6118
ee65
d1e2
d6f7
2ef2
e471
a129
f681
3bfc
acaa
21fc
fa5e
e50b
b74d
2df7
276b
9500
f5a3
6c67
23d5
efde
cc9c
729c
0e44
aba0
dea9
2a01
4a2e
eda7
efc5
c27c
6808
9abe
8cd6
9150
2ff9
8c6e
d736
9dbe
88cc
b419
5bd8
e0bf
fe13
d36b
27e6
faf2
e916
fef1
2dd4
665f
be3b
4194
a2d1
e735
1055
ac7d
7c9e
7f8b
8e09
deb1
0db5
a6a6
22e6
c0f6
7dcd
4c76
6e6c
dd4c
a285
c853
1a1a
dc12
4f41
68e6
fd78
c578
846f
b4e5
9f16
f313
118a
9514
162f
4a28
7476
9ae0
44f2
eded
9d24
968b
4f0e
b44c
3ab8
b464
7cc9
82a9
01ec
70fd
738a
c0d7
6816
9e11
b5cd
a584
86c6
9f95
68a9
03a5
7b69
79f5
a4ea
9155
6b89
7c7f
9839
61da
cb6c
15cc
1a36
1120
245a
1ce3
614b
72c4
1535
5982
a582
16fb
cba2
1533
b91e
aa20
aab6
081b
83ff
9aed
23fd
8140
18c0
ab1e
e433
b27e
be68
f5d6
576a
5c67
810f
ac0e
ef9e
94ef
9712
f1b3
51fc
ae87
9ba8
5a69
d8aa
0eeb
ab1c
ebc3
3d6e
d902
30b1
f83b
17cb
fb6b
244b
178f
3344
9aaa
1749
f1c1
33d5
6ea6
60af
8d67
dd24
9dc2
7eaa
3e2a
cf95
f465
1cb6
0e76
303f
029f
5bdd
0dd3
1921
8855
86d9
cbda
f5fc
ab18
349e
4027
159d
adf0
45fb
ea1b
669b
9fb6
ae40
302a
f9c2
a83b
e88a
cd64
7333
c95e
5e80
f6a1
201f
d95c
2c04
fb76
ea01
f031
2e4b
0f8f
648e
1406
97e9
28c6
fa7f
fd59
f826
514e
98a6
15db
b521
78d3
1251
f496
52a2
9876
f54d
51a2
c4b6
3d05
e50d
58e3
b650
1fae
c940
a109
0820
e73d
e75d
e27d
c562
5b45
d4c4
4dcb
67ff
37fd
9b80
ae41
1213
0281
c34b
6bd9
d551
90f5
7024
2ed0
1494
4c46
6226
4f9c
9079
03ca
5a50
2789
850d
7749
8d51
8969
40be
54f9
2919
f235
aa39
0a9f
db95
73de
fddc
2dc5
0974
7d1f
8237
e1e6
1ae1
d3e1
9130
2d91
3d40
b279
09bb
d988
5d86
d9f7
2b87
fc2a
01b5
41b7
83e9
3f1b
a603
2bc9
8869
71d4
5386
f7d7
336f
38a7
0de9
693c
5a0d
2566
af43
ca62
52fa
1497
72c4
fdbe
3e5a
943b
7b6f
02b1
e33f
b25d
58fb
005c
0390
242d
0743
3dd3
19f2
841d
1a92
abab
ca49
6189
a2d2
c0e9
432a
ce41
5b0a
5a0c
f52d
fe8f
55d1
52cc
8f84
3bf7
c5ec
8a28
1523
3a0e
e604
de96
a0cc
c2f5
6292
0db3
6652
0bbd
0082
ed38
35e5
8ef4
408b
7052
ffd4
53ff
bccd
33cd
8e0e
7f2d
2613
58b8
31fe
557d
362f
cbc5
4437
eaf4
be75
6975
607c
09a2
be04
0b60
7fed
69e9
412c
d9b9
c294
c17c
1f26
cc07
ef48
0244
c2a1
7f09
d7e9
b841
773d
e2e0
d784
8888
ef5c
7aa0
9c60
1f2a
2b46
449b
9d22
780b
339f
c27a
77e3
aaf8
995e
949d
a140
bdd6
c178
5288
9cc7
63ad
23cc
4923
12d8
dcba
2470
2748
4e49
4c27
b048
298b
43b1
1e9f
00b2
536a
b408
3fcd
21e2
464d
6f63
c7c9
f6e8
c2c1
4999
ce88
008f
76e7
ac23
bd27
aeaf
6780
93a3
119c
22ea
57a3
1cf3
4930
f9d7
89b8
01d7
141f
e3f8
1917
fe25
cc76
5b7c
4147
4626
4d7d
c483
43a9
40d6
b36f
ebec
3c5c
7b33
f67d
300e
21d6
4e3f
0e44
b068
25b8
2f63
0256
5b45
6f93
ff69
59a9
ed7f
57de
9aea
e628
c36e
f8d6
fadf
9cc7
0bcd
6c24
cb1e
7d6c
1952
d788
edc1
2583
b84c
03cf
3f5e
f12f
1c68
68aa
26be
0fef
e709
45b7
4381
7852
3973
950c
ed71
7aeb
eac3
55d8
d24d
ad7c
49ea
4896
0ac8
ee0e
84cf
d0e7
4083
fcc9
7e55
a14b
07be
bbf7
076c
0443
6a2e
3eac
b3cb
01d2
8ca9
a8c8
24b0
64ce
8cf1
0426
6df5
0299
bc87
f4da
9a61
4e0f
c928
6eb7
a4ff
f12b
a267
de6a
10a4
18e1
2fd8
2f46
c524
61d3
b6f7
7276
2427
a360
a165
a10c
b911
6b03
e5de
e4bb
5ee1
e43c
ef74
6e50
3ec1
d9e5
88c9
3434
cf34
9fa8
aa8a
1fb8
d418
3c02
6f26
b557
b3e8
e2c7
aae7
dda3
9dc1
9f0d
c32b
fc67
cb3f
456b
6822
3f24
a8ef
3d59
deda
bc94
cd1d
cff9
fcf5
8a03
0988
85c2
99b2
130e
61a3
baa7
f6e7
ca0d
67be
ec86
5d24
8d5a
1d9a
9611
caa0
3693
fedf
e89a
4d9b
8f0e
182c
e7f1
3d2f
3f64
9715
7787
1e64
550f
5c1d
6aa3
6b8b
6bc8
e7cc
1a05
e031
ddae
6165
9a87
fd79
b493
50f7
2053
eaba
bb63
5a56
9a8c
7ffb
dc81
54e6
e596
ddee
a721
aa1c
a603
f67d
bd36
d26f
922f
6773
2e2f
c202
7870
a6a0
e517
a484
2c6b
2b64
a7e0
9272
16a9
ce76
36b3
87be
7ea4
1dce
3402
9a8b
f33d
441d
8bd3
6f48
ba3e
1aab
a497
2e30
ceae
c9d9
675d
eb12
b9b9
5761
f80d
4564
8d16
815b
0208
abb3
22cf
8125
55c1
f8a8
6a1e
f2e8
144a
d572
26ad
6033
022c
46fc
f0c7
b62e
c3e3
1dcf
54ff
132f
3410
b782
95c9
e586
b7aa
3f71
4300
ae4a
7beb
35eb
24c1
ab8e
de9b
d65b
19ae
f911
05f6
ebef
4dc3
139d
f2db
e37b
ff53
0eac
c55b
33fa
0edd
cbbe
8ec1
1720
c907
eb27
17ef
8abc
c2a7
7132
b60c
eff3
d5b9
549f
bd3c
2db4
4844
a5f6
95f9
f68c
5e50
4fc3
cbce
3cfd
829b
944a
f0fc
8f24
3342
4cd4
7af4
74e6
4c85
8768
73e8
33f7
d981
d57c
02ff
7424
0705
f35b
b710
5a55
5f3e
b532
8c28
738f
b000
3013
6160
388d
618f
1aff
6757
f39d
64f6
41a7
9d89
b52c
f27d
eee3
2682
c6b8
a980
7e30
7ecc
42cf
0243
22ee
a393
0e1b
2e1d
92fa
c1af
2eda
42c0
86a9
83a7
57e2
d530
fff4
91db
690e
1c1e
8984
4e80
c334
d639
2ac2
cb13
70c5
f532
bfad
c1a2
2ac4
d681
39f7
21e3
a692
68d0
7276
3b78
4521
f520
b3ca
2c3a
ebe7
24cd
af34
fa87
9e55
c335
72fb
3f93
7298
48d3
7bda
5c3b
c16f
75f7
6570
eacb
f58e
b1bd
1cea
3dfa
a698
1b30
313f
e8f0
9acd
a4a7
687f
ee78
1f5e
e8db
56dd
06df
addb
a5bf
d351
83f6
e394
72b1
edc8
55da
a7c7
7394
be96
747d
29d8
d6c5
6b68
02bf
efcb
c700
b215
4312
fdd4
f1f4
8912
945b
3443
43ef
4c92
970f
5e61
f815
4b8d
8c9f
bf51
0a0b
fe34
ffd2
5757
48ec
2cb3
c96a
9bc1
9a75
9fe3
4dc8
638d
57f0
dcd5
5cc1
cc1d
67ea
93db
0798
0654
860c
6d8c
1812
9376
a90b
16e1
f340
0e3c
a2aa
1772
b4aa
c6a3
b15e
56b6
0b93
6521
2453
a1af
eb4d
fab3
c7d6
3568
ce4f
4e69
0610
b809
b0ee
5774
ca5c
e8ec
de41
e270
0493
c1e6
95ec
c365
045b
c313
8ec6
2188
8112
cdbd
ab77
b310
82d9
e891
35f8
b3cd
d760
61bb
5ea0
50b7
165c
1622
2495
82c3
8105
dfea
c542
6464
3201
7775
0e26
06ee
9d90
2093
2126
5de4
43c3
e018
5f4e
c980
fc0e
143b
3e7b
ea34
32b1
81e3
e81b
5a2a
fc2d
e0e6
12f6
f0d7
6842
a016
690d
30cc
fe35
e3de
f13b
d94a
7763
51fc
a85f
85a9
5109
b21a
0067
abdc
40ca
054b
3330
3d5c
bb71
45c5
8ca0
0d58
4181
0a51
8bb2
0511
c527
de3a
2e18
aae5
756e
12db
8c54
ec79
6c2c
ddf1
77de
07d1
0705
2a47
9ee5
a23f
9ce8
f953
a582
0a49
7936
b19a
fa90
c3d4
0d85
2ab4
2d16
15d3
1933
4113
574b
cb88
c97d
f2e4
5915
bb6f
e3f3
7801
51f6
a6ff
a6ec
edad
8ada
3faa
1775
7677
2387
e6ea
e669
71a2
2f1f
d8f4
f89b
8530
3f37
d7a8
8272
1861
e2d5
b916
6c1c
b08e
d5e9
19c6
96c7
428f
cb65
fb82
2bf3
6647
7034
031a
6838
3dee
75a8
d24a
6e84
fede
6f48
e2b9
8169
04e4
93ef
3e5a
909c
680c
4d3e
3a59
e154
b43e
f77c
c5da
ee3b
277e
563f
7ff5
efd3
9423
e5b9
d9f4
7744
c01c
00ac
7dd1
545e
cdad
13c0
eb5d
ea10
3f54
536e
4a8c
ef66
be8b
774a
2251
1616
e4a2
4958
0ff8
961c
2e81
c8e3
3719
e51b
b9bc
af53
f656
176b
3206
9aa8
4b6d
cd94
aa27
cc13
36d4
67f8
c75c
bd8f
19c3
8e58
b866
b859
95d0
e56d
a790
0c3b
bbe7
f246
4988
1dc4
1908
439e
8b4a
2ba7
e1f8
4386
ac91
1cd2
b966
4719
95e4
ae4c
474d
ab36
03da
cf67
fab8
8c17
359e
92be
d195
06ab
def7
240b
e123
5d2f
d88d
895c
f9b7
e3e8
f2c1
40cc
691f
6428
2b3a
722e
84c1
dbae
7016
1ac9
2741
5bba
2b47
92e2
4d59
16e1
d391
df6f
01e5
7c5d
8a2e
8502
dc5c
308d
caf9
2bba
5de3
05bd
df7f
74c2
b94b
ab46
14dc
9fa3
c0a0
0cd2
70ac
c07f
adec
70fc
f1a4
7cdd
9948
25d1
9002
cdf5
41a2
253a
88df
9c1a
6b0c
81b7
925f
a0f9
639f
caff
cbda
e44f
7155
3e33
d0d9
abb2
6f51
d8de
31cb
0928
3697
5601
1efd
66f9
34cc
6e49
ca6d
5f0d
5188
b3c5
8f2d
d3d8
d6de
6b9a
1598
0f58
7fa1
9cf0
c928
7968
6cf1
e040
afd6
65ce
f3b9
03c1
e3f9
5e09
0dc1
ba27
3fc6
9664
fec3
1697
1c31
2f86
3c30
4b48
e86e
bb89
2bd4
65e1
a7b3
c459
b0b3
1518
c7b8
6ee1
c574
7a75
0d2a
3cc4
b458
3ba1
ebe6
c681
ed95
5003
f463
4544
2eeb
597b
f5a3
346a
3eef
a3e1
ea5f
e7ee
2c74
a1ad
37c2
0c26
6688
6dbe
dfcb
1041
7953
831d
cc9e
4b09
4657
741b
991d
588d
8d42
77e3
851c
871d
d9d8
da9b
9bcf
d470
a496
9c89
b5e3
911c
3280
d873
ebc4
ed24
fcd6
6e48
7973
ce55
af72
19fd
adb1
58a9
21bf
f8ca
6427
a93b
dbbe
9dfc
0d86
5863
f3e9
9155
44e9
9b95
fa37
38e9
5d32
d602
b466
b76a
058f
4fb0
9c94
2b7e
4b7d
58a5
f21c
e59a
3ec9
1a13
7367
fb90
490c
b66d
448e
d20f
8100
9f46
bfd3
a7c7
ecfa
5235
6eff
0023
4f33
837a
9bc1
4024
f2ae
d501
9f42
005b
5f82
5b14
59cb
b133
59a5
d1c5
eb9e
e82e
17e7
286c
b800
4979
bbe7
f61e
d158
c700
44b0
286d
e1db
d153
c024
a168
84a6
88c3
7dd6
18ef
8aff
3bdf
e3db
08eb
5d14
da7b
6549
e341
082e
6486
6bee
ca29
1cb3
c36c
2955
004b
ad1c
cfcc
3639
10d8
491d
ee63
f95d
96a5
abc9
72a1
6ca4
ced0
41f1
ba24
98ff
75d4
a229
783d
af44
174a
5226
61f3
0e88
a20e
1cc2
3d05
fa9d
d13e
ee61
2562
f157
384a
3340
f24c
d2a5
f982
3160
e69e
079b
f53a
4e6a
684c
59ea
4360
8dd3
e3c5
294e
f524
38a0
5e51
6440
4de6
ccc3
e5c1
90cc
f0ea
7b69
ddb3
df06
6099
12df
1038
fdd8
9dd5
28e0
bcd8
559e
b3a7
b32f
ca9d
fadd
dad0
21d7
87f7
d682
d557
bd21
c419
cddb
14f6
3434
02cb
a7c3
80a1
9738
123f
8f4a
4739
b230
8b31
fd76
8563
c7b2
b15e
3332
d139
119d
356d
d9e2
4745
1296
f762
fca2
490e
8164
fa2e
e3de
4cda
4908
a1e2
ddeb
d541
0fba
81cf
9fe4
df5e
eb24
daa1
f49e
79be
af49
5265
05eb
7d87
1321
3769
a6f8
213f
7174
f4da
cb0e
25f5
f356
5702
4a74
6f6f
5c0b
883b
4bee
b612
e29e
bdac
73a3
fece
5718
fa04
fb8b
b301
aeaf
9341
0fcd
4565
244e
f729
456f
7dda
2eac
e1db
f882
9121
5aad
8122
e2b7
28a5
83ff
8742
72d3
01f6
0725
e5f5
9257
df5b
f7c3
935a
a4a7
4a72
2167
c92e
9d8d
8b38
f8ec
09d9
89ea
f1e5
d0b1
7284
58ed
a44f
b3b7
12cc
f83b
7988
7d8f
76d5
3050
779e
42d7
5b3c
f461
f7bf
d25d
4698
e2ae
c063
b6fd
f7d9
a1fa
931a
08e8
ed3d
bd3f
807f
50ce
18ff
4c16
aeb5
825a
1dd8
b6c7
f335
e0ea
bfcd
36ee
a511
a568
5eea
f1f2
7ba6
0bcd
f923
4f33
bd3b
b243
647e
f41b
c81c
a64f
8c7f
88b6
ea57
3d4f
e368
bb52
8a7c
f890
c826
ea16
8a30
3d0f
0514
46e5
0c9a
3da2
b865
43b6
5e62
0d60
a963
f959
002f
7f89
caa8
e80c
325c
715a
80ca
b106
950b
67f8
7a8d
24de
3e1f
8f86
a4ff
ea70
8d2a
5c22
81b1
9ddd
8651
b57a
ce77
ca87
c4a1
69ae
8837
fa50
71c0
2b93
4d81
eedb
d9ef
d580
376a
4248
023b
fdc1
f202
a4f1
8216
dd2d
3130
95ae
3bb2
dc7c
7e46
1890
f15f
1062
aa71
ad8e
ffb7
12fe
f876
c112
6be8
bead
f795
1d97
c791
8630
e14d
f5e3
4d39
795a
5b20
e264
054b
66f5
00ff
a578
5299
ad81
4713
38f2
ab9d
66ac
9892
e9ac
b4a0
4f42
c5b5
7cbf
a026
eac9
2b6b
08ba
49ce
613c
e2d4
7558
c4f7
cf51
2266
c2e7
8156
b52c
7edf
eaf0
10b1
0870
368a
882e
107d
49a1
085d
606f
60c7
8950
0588
4306
5971
78a6
bfa3
15a6
df3c
2af3
cc6a
34e6
b60a
0e05
ecae
2583
094c
0699
1e2f
78ba
1527
f474
1501
78ab
a920
3f66
403b
8621
0a8c
54bc
7ebb
0f5e
9ba2
605d
bd05
9be7
f207
dee4
fb73
0f1c
60ee
7677
fb38
1c7f
edc8
957c
4bd2
8a9d
80ae
0825
a343
5961
7726
896c
7f5a
bdb9
6717
f527
d9cb
7e2c
52ad
503f
c8fd
2487
7265
f78b
a10d
b852
43da
f684
ad8d
cc67
c7db
ae3e
9f7e
feef
40ba
ba14
a9ba
5ef3
9267
475e
c47c
7027
23a5
d94d
005b
a8c9
9d2d
4f61
e23d
89ef
db30
6ccd
32d4
e693
eebb
3229
d9c4
9b1a
3fb6
495f
99a5
aeeb
c895
088a
7ccc
6f0a
7c6a
92a5
919e
b357
b4b6
db78
c99b
5298
5f3a
25e9
6dfa
fab5
33a9
a073
3189
c377
1437
f3e7
55e2
3184
293b
c104
c9c1
5951
f799
05e1
f5a6
8ea8
0dac
eb17
2272
284f
0f1e
e6fa
336b
b1e2
e1f4
a226
1afe
da15
8eea
7dde
8908
addc
e3cd
a416
a7ee
158e
a38c
ac8d
f6c4
4b51
e594
4b00
4d6c
273d
381e
a786
947c
8f22
528b
b11f
8a7f
bc31
b3c1
4bc2
e0aa
1fd9
714c
33bb
6de2
69f8
ca69
857b
2297
d92e
8729
c091
e3d3
2246
4d96
aa78
eb00
69e5
1496
8b11
b650
f021
9b56
1296
3256
0ac4
4246
b2ad
a890
f59e
5323
b98e
8262
68f5
f49a
48ac
fab3
9dc1
1796
675f
6940
687f
58a3
def9
f5a8
9c90
d44d
8026
a510
ac95
9b36
db7a
04e4
3e5e
db6f
619c
0aa2
3202
38d3
f9e7
24b2
a6d3
ebb9
e98d
3204
471f
db41
34e7
e526
4853
7006
340c
b97e
619a
4fde
8d98
1bec
cf65
d115
532d
eafd
4ee5
ff67
0b4e
f569
fead
180c
6088
4cb0
3831
e8e2
883c
9e61
c5da
660d
5493
f05d
8440
84bb
188a
4bd8
9215
1c60
da89
6133
3f15
d305
9a19
a122
787e
9811
0f3e
9b9d
e2d8
235b
3055
ac63
be2d
d6fa
bf8a
d6f3
b71a
9b96
65ca
5ba5
6c82
068d
a2be
ad0e
403f
fe0b
8ec0
e87e
39cd
e477
b66b
143c
5e0e
294e
19ec
95d7
6f61
22dc
4965
2040
fbe2
0b7b
e202
5e75
74d0
a3ad
d2d9
cf05
31a1
5477
e056
0033
f811
ec9e
5d21
b871
8aa1
af1a
c193
adae
e3db
3e2b
47ef
063f
15f4
b0a9
9773
7fd8
8416
8fa4
13ec
3014
9c62
eb85
1d15
7d49
c38a
9fe6
fa09
92c2
d8f1
4b03
6120
1bc0
879c
c149
d6cf
950c
f8e0
ce3e
fe35
490e
559f
4dde
79f4
66b4
ae8b
4d41
3cd8
6004
cc08
e1fd
cdb6
71da
0cc8
38a0
386b
36cc
550b
3e1e
d69b
bea6
c5c0
f9d7
a9e8
a96a
9856
5dcc
0783
6946
7da4
ecb8
ae2f
ea82
464d
6af3
fc8e
ac39
8eba
f592
3a95
2754
f6a9
8673
a598
8bc8
45f8
c663
d375
73b8
e6d0
01f7
970e
940b
6b21
939b
517e
6427
2744
998f
ea6e
7d60
4af8
a2f9
86f3
f7e5
471e
698b
2931
cca0
2838
533b
1d26
4116
940f
5646
9f37
408e
374f
6b85
e94b
6350
01e5
86ed
7e80
ed99
43af
595d
2753
d12f
8d2e
7fc7
616f
3893
9179
f709
28ec
7b7e
b3db
ca08
0bd9
32cb
9a32
efcd
7844
4421
af1f
ba1f
7569
03de
b9d0
9c9a
5d05
4ab2
faef
92dd
2f4d
a717
1c16
e95d
03a1
d819
1934
5962
334d
25bf
8673
9004
f7e9
8b99
5172
e513
5b8e
be70
ef93
09d2
8368
c636
6b8b
f4d2
39fd
99d6
2ddc
e133
e6d5
96c4
c9c0
d3e1
f7ff
f957
2e75
e977
8059
1806
16cc
926c
99e7
65ff
570a
2c1f
0375
728f
d51c
de87
e55c
4b94
bab3
57a8
d2ee
f2ac
9ece
1997
a308
35ec
6100
f595
33ae
c9d6
b37a
28e8
0516
234e
3b56
2353
66b7
3b50
819f
6f38
1030
e068
5012
7def
e398
ced1
5ed2
ec30
bbe1
58a2
ba89
c0d0
0733
c24e
0bfb
a28a
e6da
2365
a23d
1bde
a5f9
96c7
6966
41fa
0316
b995
c470
4e37
7ad3
2e27
fa4c
ba1b
78a0
60a3
b9e7
8557
26fb
76c1
4a33
4cd1
7cf3
2d4a
98a4
822a
00cb
d9f4
d4cf
581b
7b2d
8bc6
32d2
497c
efec
b9a7
0b14
670e
032a
f01f
ca55
4434
1935
945d
0dd9
2635
1094
fe9c
c752
97a9
52d2
eac9
fcc0
4571
5243
8878
96c0
63a2
a934
71cf
54ac
fa2d
60b1
8f16
026b
fb48
7618
9937
b010
000a
ecb7
1133
09ed
cc78
c6d7
ed3b
35dd
74da
b7cf
08ef
7c24
e9f9
2a91
f5aa
21c6
5524
8e6d
0c9f
571f
2278
ef46
fee5
5f95
c58f
4d20
df3f
c535
34ef
5141
1bed
f2be
324b
293e
9dce
9436
7d24
f280
7580
ca32
465e
a214
8ed0
edac
e68e
173c
6e01
18cf
2330
feb4
6afc
6c4b
d98b
90a4
9912
a800
57d8
8a89
5043
3bac
6d78
2f25
bc19
0ee0
9f21
dff8
575c
dff1
b852
9985
f819
85f7
b117
ccbd
d8ed
906b
64a4
b1f8
b73e
ad7a
2fe1
c69d
4721
daf6
f07b
e363
a368
4243
c527
98a7
49f0
af8e
a1ab
d184
e9e8
31ed
2341
17aa
26a8
53ff
1a4c
5271
5814
36be
f700
2349
418e
0b84
acfd
02a8
8f25
da31
1805
1a57
4d83
4e2b
6877
b0da
23ef
7f34
fd77
cd72
c622
33e5
0be7
1c2a
be34
1b6b
1a7a
720b
a516
418c
ec66
7156
3ac3
3c2a
81df
1f2a
8a14
4247
fc7d
8ff0
e50a
85c8
9dde
6f59
70b8
7b13
1f9f
31d2
5901
99cb
4ec6
b383
53b3
e22e
ae04
930f
9c02
69fb
490f
3afe
c175
83c5
434b
2df8
fbf0
5bf0
20ce
b01d
55c2
3482
c138
2d15
cd8a
1c6b
7702
a1f3
13c8
e259
4ab3
3add
b79b
678f
d25d
a821
3716
155e
3af8
c059
5b53
a66c
9bae
3106
8b9a
5f38
9bde
241e
cb14
1bed
f19c
1694
16ff
35cd
771b
c355
97d9
fd0e
708f
9a99
fb1a
e3dc
73a8
96fd
a682
7424
4eba
70eb
a6f9
346e
635a
5b60
ba1e
4e02
4a9d
8296
639a
7358
ed7e
e1d9
33be
34ed
bf06
3972
12b1
76ae
39e8
ce65
323b
c53f
4602
ce8f
10bf
476c
5849
0455
b62b
9e27
0223
8270
dd2f
f95f
5b9d
b94a
38e3
82e7
389c
f752
5572
0e43
9ae6
a76c
9b77
7ae7
2e5f
90b3
96a7
2e52
c466
8006
d90c
d51f
0eef
9b3e
49ef
3db2
b544
a91a
d0c4
690b
2d64
7408
0420
5152
e5fc
137c
feda
e04d
ef7c
0061
c078
b009
4059
777a
c103
63d5
31d2
34a1
044b
744a
2f90
5a10
7453
cca0
9ce0
6462
7131
3937
a0b6
90da
98a8
5698
1d26
7509
344a
a2a2
79ea
3602
a96b
8a32
fd67
cdea
e051
e7de
cf6a
57f9
0524
65fb
a2d8
3099
94ff
a79d
214f
2c67
ba2d
807e
912e
8fee
a051
9fbe
caab
3318
0097
dc49
0ce9
afb4
829b
9436
7e57
d793
73b5
b3c4
3cc1
2508
60eb
0a9b
7e52
891f
82eb
b27a
af86
03cd
8d4f
6473
03b2
261f
2f20
7605
a22e
26eb
fd19
a3bc
4776
e179
ce1f
d6c0
054c
973b
b349
782e
baf3
6a1e
2f33
3472
0f4c
8a09
a785
d049
2214
5eaa
d855
dea3
042d
bc97
b0e0
cade
c65c
fa1d
0b2e
42ee
f5d2
5ed9
d22a
c660
5368
d86f
d88c
9d58
e0b3
0fda
8c19
28ea
0078
8b27
710d
ac45
8e19
1b75
b4e7
288b
b38b
8709
d068
96ab
d292
e147
5e8e
44d0
053e
0f25
8de3
45d4
eef8
4f91
b85d
e966
3ee1
5081
67ed
12da
475c
c085
1e2b
52c6
f59a
9774
84f2
f198
b2f9
03f6
46a4
e1c4
7a55
3a96
a266
c02e
0cd4
3856
b952
d344
9b4b
7027
1b52
0d96
291a
b3bc
08ef
bd67
2fad
105e
9716
0083
d852
5c9c
af16
3622
38d1
ad85
0e36
1b1b
928a
4cd0
879d
085d
848a
355a
17fc
b4b9
5e77
e242
db26
4edf
8b50
4902
4bfc
f08f
0b4c
4e4c
ae75
3033
1e23
87d3
d5af
3207
a2e8
f71f
5761
07fd
5048
4608
aad6
ad53
b7ed
d220
2eb4
e24c
ad35
b76e
c07f
2776
2659
4cea
6be5
8f57
4e43
7cc9
eb65
fb79
b0e6
65ea
f03f
f585
4d11
0c91
5678
1416
881c
6d82
5e40
0839
19ca
d882
6ddf
ff93
7805
2353
5213
fd35
f11f
f753
13b4
65b3
5f6b
b8dc
98d3
4b7b
eeb2
dafc
eb24
8400
8a3d
322f
819f
c17e
2c0a
b261
e3a0
06f0
49fb
3747
c754
7694
cf01
20bd
5aa0
4783
3f68
02e1
9765
cc25
0701
31c0
e3a5
140c
73d1
4e02
5816
d0bb
559e
7eb7
3381
c16d
17d9
20ff
535b
b35e
f2af
d313
8044
8d4b
5681
4116
3266
7bd1
7cbb
f428
4fea
2fae
9c4b
af34
5096
6739
bbc0
f6ff
fd05
f310
8880
78cb
2d18
85b3
d962
1b05
cb30
fc9c
7a16
9eca
0bb8
98b8
9234
c900
3dd0
cd03
30a9
5892
090a
27dd
165f
2c3e
633d
fff8
09f7
bdcb
8996
49f2
4747
5cef
d5a4
2631
41e9
5746
1e6f
3f3e
a4cb
3ebb
f0fc
2318
b682
73be
7d85
4366
c171
79a9
a622
6474
29aa
b7b6
0c05
f7b4
3834
b569
302e
17ed
1152
e745
ea91
d812
bd36
fab5
e227
c966
972e
0882
904c
63b7
f704
fe83
f7ce
0280
8807
08f6
0c07
d8d7
286f
a7b5
96f4
6c5d
2e81
2fb5
bf83
4094
7809
640e
4ca3
b86b
ccb2
2ed4
e8c4
88ce
f824
cd2d
9818
8815
a7fd
c371
4439
8c1d
be20
021c
dc4f
7989
0f51
8f6f
9ff1
7f7b
06f0
f94c
64bb
238c
9259
2a74
5ed6
8c29
8ed6
0a10
31f7
c646
15fb
7194
79f3
9d5e
a8f6
84eb
4a10
9d18
1170
84ea
c49b
7854
cf8b
21dc
8c17
d1a4
f38a
d1a4
f48c
ffc2
3410
86e4
1bd5
4b91
8d63
8bbc
d846
1f69
21b5
b8b5
a6e7
ee44
24ab
65c8
503b
7e72
cdcd
06ac
3763
d895
3fc4
9024
9ae3
b8be
9cd0
e58c
4ee5
3e76
d0f5
0eb0
7bc9
9eb8
ef05
0b30
270e
b4c4
1fd1
65ff
ef80
47d7
43db
2ccb
8867
8b15
3c57
0922
1ea5
e730
33aa
499b
c1c2
81ed
2ea4
2a97
3005
ec59
4655
00d9
2418
f862
3b1d
85c7
0afe
d51f
b0e6
8a00
414b
b9fd
db9f
8936
ab49
b50e
96e7
9cf8
8cd0
6688
99db
d9df
0f2d
7836
0b69
3d03
c7e3
8acd
0411
a559
12f0
e4d5
14cd
ba3f
1292
27c8
af92
c023
c53d
48d5
ac64
6154
7f17
c045
dc89
d2a5
97bf
a4b0
82f9
f53c
4c05
dbda
569b
9730
b3c2
d42e
4a4c
bba2
6594
c4e1
7a52
2c62
46da
f081
0e32
f57f
9a74
a820
f880
a87c
f742
bd64
f637
42bf
0774
8a1f
034e
248c
16f2
1e35
cff9
1571
3493
f8b0
bc8c
bb7e
2a2b
8543
592e
a633
48c4
3563
2e89
ba00
3bb1
4e32
4994
78ea
a78b
d250
d8d3
def8
1963
2110
fa50
e0f3
776c
9077
f4cc
bf24
d611
7107
c46e
3d9a
08a1
e6b2
c1a5
44d5
d7be
2b03
6a1d
a570
47e7
9846
7875
5810
74af
673f
54ff
2687
6d7c
e2e3
c142
270e
8d3f
013b
581f
f87d
8a01
0e7f
3f05
81c6
19d8
638c
b335
f387
62dd
cdb5
d14d
957e
b86c
ebd2
f8e5
cbbd
c266
d719
aaf7
0a80
4e87
593f
92c4
7b8f
bb96
4e79
e129
974b
36f4
de80
6b1d
4357
0688
49b4
5dbf
6a1c
9f00
f2d2
2a22
89b7
5ee5
bd03
7d42
e99b
4bd1
9ae2
1e85
4bf4
d8f0
5a73
9491
0797
eeef
22fc
bbab
1e16
0c62
e3dd
9016
ad52
2e81
f5de
cf1f
cb75
487a
9dc0
7b95
ccf5
7a86
3d3f
9e2a
c701
4e4d
315b
24b2
88fd
5fbb
2447
67da
5997
b949
87a4
d40e
4529
76d8
065d
b8cb
8673
aa74
7db9
e704
6c9d
6dae
13ab
dc56
11bd
cb82
6179
b23a
36c4
29d6
2562
177b
0020
c61a
bc39
50d6
6414
d4e6
4edd
95bf
8b00
fcf7
0f0c
5a46
7259
f270
7946
bed5
0f6b
f155
f7e8
6795
0be2
fa2b
34ae
4a23
14a8
d698
5bc8
894e
b271
34ec
6e90
9b59
a556
3a9f
05d5
c38f
f075
6b93
73d3
c230
79a0
076c
26e4
03e8
8cd8
b9e2
21d7
5578
bdac
7f35
e02f
c270
bfab
da6a
bcd4
0eab
f29f
86c3
e197
8666
252f
0b34
4173
b585
f49a
e173
c65f
11e8
dc06
c1bb
2707
413a
7717
7a54
c856
c3c1
43f4
09d8
6aae
aa4c
e273
65e4
912a
3de1
4630
4725
1dbf
e3cd
b69f
a519
b04c
5534
a045
960b
cfce
8bb3
bf3a
dd43
f3dd
724a
0b4c
0654
31d5
da13
ddfa
644d
3c78
31bc
ce51
2c11
1934
35bc
65e9
738b
e961
993c
0766
1bab
de96
152c
4046
0e0a
bfb7
74ef
ef1b
34f3
189f
ec3b
70ff
bba1
41a0
7d95
5e37
63a0
6012
326c
8184
3689
52af
8cf0
bf7c
594e
124f
ae6b
0310
7564
2815
c12d
f5d1
282c
e68b
cc2a
ec2c
2b05
1677
679c
1788
2c7f
244c
fe4b
33fc
e6de
b6cc
c34b
45a2
40cc
d684
0162
6c27
2314
3440
6f0b
b752
5efa
f71c
80a0
95f2
6d03
0321
692a
5f40
da9f
9b5c
07ff
cb47
bca3
7e11
b828
3de7
283f
0381
00e4
e896
92f9
5cd0
5fe2
e945
b020
4e57
768f
3df1
4e1b
4d90
6057
762f
7ca8
5b0b
5938
8f13
9606
52d3
ff8d
2f0c
e1c0
c3da
9ac3
dd3d
6598
3d91
c6c8
29e6
690e
f48f
2174
da92
468e
ac59
9ab6
c4a4
bc87
1a3e
921d
40e0
42fe
f8c6
aecb
1be4
f26b
a5c1
daec
6378
ba0e
6ee3
0605
ef6d
758b
66a5
1fa4
02dd
1897
0114
4c86
681b
8a26
1098
657f
9929
37e0
4b92
6b2d
81d5
f011
4dd1
1b54
704e
57b3
87fe
1981
0ab8
fd53
3a21
104d
4875
e590
baee
9c2c
7b58
691e
5a21
d2a6
15f9
6f74
1266
a958
3001
dc13
55a9
63a3
9697
86e4
2f42
b6d9
6a0e
2e97
3f1f
b6c8
169d
a623
7842
38bf
90ce
312b
6914
d3f4
5a93
1b54
0fa4
0469
e4ba
72d5
4432
a250
ec39
d0a6
23ff
3f9e
d1b1
3745
18ed
3ea9
28f1
0f16
e928
5362
c611
9234
5edc
76b3
d77c
66f1
ec68
280e
c69a
88d4
6e53
1604
2708
b45a
bfb1
a27b
ea7a
ff56
6294
87c6
9287
5a29
f27e
2703
5871
f0b2
d35a
3949
c0d7
155d
536f
2fdf
d488
6852
1447
bf70
268e
f91e
2e10
949f
4d06
9ddc
ce23
e2a9
4f14
d0d8
da72
c5c9
f8be
64b7
c330
0e7e
e3d2
3c50
b7bc
eb3d
46e0
2678
939d
8737
938a
10b3
2296
f7f5
a881
bd8b
b536
6c14
1c26
dfec
137c
702f
84bf
6cbb
9257
acd3
a589
ff9d
5b81
62e0
a675
9baa
d22d
6f3e
fede
707b
2b64
cbf1
706f
e29e
dc76
9260
da99
be7b
a056
106b
15dc
0abd
65c6
6bc7
6c21
a91c
43bf
18ff
7f79
8df2
671e
4cc0
0db2
f30b
58fd
e83f
5979
b699
619c
7faf
efc0
0150
403f
a794
f510
db96
5172
c408
66ac
40e0
fa75
2748
e8f7
991a
45c8
1063
4557
de9c
8c06
bcd6
9066
df2a
0bcb
fa97
fb57
c05e
9c8b
8bc4
63b4
31aa
d69f
e6b3
2fd6
3aab
c6f9
f233
f89c
0a21
0afe
8a14
ad67
8062
92ba
92b2
ebe1
fbd2
85bc
663f
9628
5bae
ebe0
ac75
3cd6
8e7e
0017
b6e4
cfea
7e15
ccc2
7696
da7f
ac4b
f44c
55b6
8239
835c
4105
157d
8ce5
d225
a1a8
c88b
0386
490c
0f47
b882
723f
c53b
2255
6ffd
a76e
fa86
8ebb
75eb
3838
0090
0a29
88a6
2cb4
8ddc
0a2a
92b4
ee10
eb40
9dfc
e896
47d9
20e7
1af5
57ec
8c56
4ab2
c36f
5c12
dbc3
4a7d
a83f
65bf
7e3a
368d
289b
7198
47e7
af0c
d366
ecc7
1fe9
2790
4928
6c61
d71d
8c64
5608
78fe
3bc2
d3aa
4d03
8b95
e17b
c946
cf67
bbea
1291
597a
1833
d123
6255
e4b2
c141
6471
9fa9
e479
9113
4704
d90f
218d
a025
0d76
126b
f295
740b
8a7f
1af4
2972
0d15
7cfc
515b
598e
cb57
f12b
6880
819e
b10d
a6a5
68fb
40ea
79b8
48ca
5220
8b29
4e45
b4de
a0c3
38a4
b59a
7b3d
6fac
297e
686a
baf6
e75e
69ab
d8e1
c18d
bba4
b22d
0b7c
7443
1693
cd1e
b980
fd8a
afdb
c051
9547
cba8
d7e4
31eb
17ff
8e1d
5d2e
d4f2
fdef
9629
5610
9839
e0d3
ed1c
d913
8294
6e04
d54e
8b07
2ed2
f6dd
3e35
4caf
5488
b7bd
2fa0
cc90
4907
bb38
e0fa
e3da
383e
74ae
cde4
079b
9b37
a28c
087c
011e
49fd
db26
839b
0cd8
b505
b73b
eb24
d590
aac2
7389
971d
96e2
c8fc
57a1
f360
5cb4
ddc8
50b7
cf65
aa9f
b290
574a
366d
cc7c
edab
a6c4
9ace
ef8e
3e24
9930
2090
c1e2
9ae2
b198
7cfd
19c0
ac2a
d5d9
019d
149d
721c
20db
e5d5
8b83
2f83
ed23
aabe
4096
b25f
d341
5092
3ec8
e2e7
a716
5215
dcfb
bc19
bb1d
277c
25b9
bc0f
3348
d752
1fb1
c52e
3d5a
51e8
d07e
e5ef
3943
eece
0f50
1170
1517
d02e
9ae3
c205
1c96
1e6e
5852
e3ce
9dde
0451
e9d7
ba02
6175
93f7
e7cc
f340
bcc3
4082
b910
a1cb
9b85
e715
5236
12a1
2868
6023
71da
68e7
d581
f5e8
240b
c15f
27fd
a352
ddc1
a466
dc2d
ab88
2f0c
a69a
788f
dbaa
ca69
cb5f
98ff
b33f
e75d
a0b4
4782
cb77
cac8
f693
b419
dce2
cee8
5880
3240
ad88
3d2d
2e60
dbc1
aba4
bfac
b662
b867
0e70
5ba2
ccc1
c29a
664c
4d13
70b9
94f9
6cf9
90b9
3bf8
6c5d
516e
1344
2959
65eb
3bcf
4259
5f95
d2dc
c734
6ccc
a086
2880
0180
fa33
0161
872c
9029
78f9
961e
4998
4732
131c
3187
e07a
8e7c
6f1c
1d46
c9cd
cb42
275f
2549
5bb2
e5aa
7282
1509
50a9
9993
daa7
9cbf
86ce
ba7d
b227
f145
3f19
0e0b
374e
1971
39ab
8338
5139
42d5
0a94
8180
f321
c294
e62a
3f0a
4f6e
99c9
22b5
222b
9b28
3bb9
1f46
35cf
ccd0
4c52
59d5
1ad5
8240
64c4
6322
8d6f
e636
51c5
b3d3
d81e
9ad1
765a
fce6
1dfe
edfc
8d45
de12
1e0e
3269
4ef2
cc6d
0f61
4ac6
95c3
00f0
dcc0
1cf9
fc62
89dd
ec6f
dec6
a9d8
c43f
6253
5cbd
1e4e
1b71
408f
6415
7e31
77ba
f274
5955
a7f1
dfca
eae0
3285
dd6c
23e0
f595
ac1a
813f
7ae2
cbd8
842e
ace6
01cf
2fe7
de8d
8cca
ec9f
5fb8
4368
bed3
677a
06e3
1d5a
5e4a
9706
cd6b
a7f7
1857
7722
1764
73f1
1165
9513
9f7b
172b
88f6
f1b9
8424
b238
9514
bf8c
3202
d7e7
9f15
28bd
fd44
16d4
cfed
6511
2c47
73c0
a16f
758e
0889
d156
3f73
20ba
f180
96b3
a233
e736
65ba
19c2
ad40
e129
1548
0e18
03ed
a473
2ccb
4cc4
ba5e
49cb
7c7a
ee7a
3f7d
ac2c
a3c6
1b3f
d11b
5d25
06b8
248a
cde0
d509
9fbf
159b
73a6
a455
c2bd
d7d7
0add
2428
5ee2
07bb
7ff0
7854
1978
e0c6
837e
6434
9de1
eac5
7cc0
1bbe
0915
9600
62f5
18c5
1707
86c3
ac4c
cc12
313e
fa79
1989
fb6d
6d26
5f6f
8509
9043
75d3
2cdb
8377
970f
5c42
ea6f
a3f2
3ab5
ef13
ca37
3f96
4ae2
697d
bcd9
1955
33e6
4019
1827
c7e9
6279
53dd
b487
efe9
0fc5
52be
bb50
3b4c
dc2f
9713
4b90
2ec0
b219
7276
5192
a8e3
8587
f391
5a7d
dcbf
6a4a
7d4d
acde
9868
9f87
7781
d15d
153a
f383
3c12
16e6
03e6
2e62
7dd0
24a2
957e
1759
7cb1
1aed
229a
89b6
18c4
f897
c528
d0db
f7c7
d221
d89d
10ec
ed52
72fb
ace1
b0ac
fd45
4f23
e7ce
2e22
6710
e45c
2463
6448
7439
384c
01e9
958c
7356
4260
3be6
7d98
1017
6979
0c05
ea07
5bce
9c9c
c295
5814
9570
63b9
d7c4
7fc4
6362
ed75
892e
f12d
a3ea
13dc
9bf4
f1b6
cf93
7a83
a9f4
9fb5
5c3c
a681
6358
97e1
34e6
6506
d363
9e8b
8fcc
67bd
6a02
f4b3
1f9a
6873
ebc8
e7e3
a435
872a
915f
a556
b0a9
bc3a
6e34
8f44
1e9e
6fd2
2523
e3ca
a831
8ac7
0556
1d48
c1fc
b125
a93d
3948
985d
3fd0
181d
dbc2
51e7
5032
7722
a5c2
6cc8
f089
90b7
f063
4335
ea3e
79cb
fed0
d6d0
37e6
972e
bdbf
c65c
2058
fc9a
c76d
e6fb
78d2
7b6b
4d89
b862
5690
4289
a210
b39d
a5dd
e5c3
c6fd
bdda
b5c5
94c4
0611
8ac2
521b
5697
4e1c
2c56
83be
740a
e2c9
2c5d
0ff3
f7b7
98b9
53b1
437d
5722
6446
d772
c3e7
7874
0600
c9e4
efe9
f6e2
31eb
d845
5456
ec9c
8f2d
a20c
0b4b
8466
a7c4
e965
71c8
55e2
f441
b268
be8d
c5bb
31b5
b946
b8b3
0eee
346a
6bab
f0f8
633c
a6f7
8afb
4fa7
6217
041e
b17c
d8fa
d0b6
d4e5
82bc
d4bf
76c2
58ca
daa9
99bc
380c
b512
e799
01f5
0a66
afd1
f052
1b67
32d4
de11
932b
9871
ed21
d41a
1948
00e8
421b
1e95
13bb
af1a
5387
003b
1ce1
713b
d9a7
05e6
de27
06b5
53c2
bc93
d4b0
9463
5ccc
25cf
4e69
ca72
6cb9
4eb1
d0d5
632a
71ca
32dc
8af8
209f
9faf
e3a9
c6c1
962d
1905
ac03
2549
9059
57f8
592e
7bd3
4ea4
8b6a
b19c
fb6c
8400
3a19
2e84
e13f
42b3
a591
9b68
7119
939c
c861
da47
6d5e
8299
d923
a65e
ef75
2844
26d2
8e5a
3330
cae2
9ca5
e3af
c8f1
0576
141a
5d8b
f21b
11c1
fc25
ee94
1796
b8b5
3a27
b4f2
a8aa
3ab3
4797
436c
e804
2b3b
d92a
f3b8
9a78
45bc
43a2
fe85
2146
ab4f
19db
a1fd
1ffb
4f03
2faa
004d
aa84
bc59
8165
7bf9
063c
65d0
e335
4666
3d28
102d
84ac
af33
582c
a61f
7462
3504
7683
640a
2622
2d62
1d66
d35d
159d
c86b
ca52
0075
ad70
4f17
4941
8203
dfd7
571e
601c
d609
e885
1422
71da
0890
0a72
a0b0
3932
cce1
fab2
272e
b645
7b8e
0d70
22d8
ffe2
aa98
c10d
73e2
1f76
8759
d323
fd81
d95c
af26
3265
f071
7459
5014
a9c8
644b
984f
61f7
349c
4713
eb11
7931
cd32
3444
9f0f
7a9d
fb3d
e4ec
5b1b
2a89
f4d5
e113
a667
0ea7
71d5
a2f6
b1c2
9894
231c
26bf
b3d6
8997
f362
a3a4
dd30
924f
5816
b25b
a839
ac8e
7ecb
eb23
9050
677c
013a
b90f
d491
c1d7
bdda
45a6
4a1e
7c55
788e
dcae
0420
7819
36cf
b779
b841
0a7c
75cd
6bdf
eade
4c3a
3ab6
bdd9
87d6
5dc8
f257
b72e
32a8
3af5
e9b5
8e27
1a90
20c7
016c
6270
3b44
d05e
5ceb
404d
e687
9c0e
65ec
22ec
e5df
76e7
869b
df52
a71c
2d5b
7465
fe83
c3dc
d4fe
5880
426b
0683
98d9
2194
253d
2280
fd93
6874
4339
07fe
45f1
a90e
2ff7
07c3
9f4d
a6fd
b15d
0f98
0fd9
4839
4af5
06fd
a8fa
4796
104a
4084
d0d8
c174
dd94
5854
eaba
5546
8c65
39d6
2ce5
2b3a
afc4
4644
9f6f
3e01
256d
bf35
d34d
9054
764e
6e41
dd79
d080
9cc7
fd98
69bf
6e14
9b80
99cc
9eaa
79ba
6879
4d34
c677
980d
0b8b
ce5c
65af
2d91
1f94
2d82
23aa
9c11
cd5b
f1a6
532f
aa29
4271
eef0
2bbf
6a45
fa84
209a
8d79
a656
863c
2370
a24a
4563
1114
47e8
2163
de69
9be9
1be5
3b65
a734
cc29
d94a
98e3
0e19
f486
77c2
58e4
90b0
1065
d01e
3280
94cc
9ae8
1685
375b
45b9
98cf
3bf0
3cb0
299d
21ea
9c6f
4361
aa6e
48a6
b1dc
b0d0
b4f3
9df7
8bf0
561d
3233
5daa
5c57
5cc9
4dbc
1072
1946
5335
0599
a4ad
46c2
8116
3b7c
65a7
f6d0
b5fa
85f0
ba74
54df
5917
b71b
fc61
a7b5
d2dc
8fe2
be9f
bb9d
b95c
045c
39b0
9d96
f028
2b30
982f
793d
a89a
2596
19d1
30a5
38ea
34ab
12a8
e8ce
e32e
c751
aa00
a416
d51f
8e09
d54f
c18c
0bf1
9c0d
b38d
50c7
fa5b
daec
b50a
2da7
3140
97be
fe98
8277
0995
6b87
5692
04f0
cb98
2a1b
2b25
3084
6493
628b
c807
8b2c
34d4
1534
2383
df6e
84f6
a238
021f
9a11
111c
f321
2c0b
4d24
8f4c
a8f1
d954
beae
703a
faa2
96f0
482a
df4f
ca92
f9b8
52bf
2dd1
2271
41d4
a00d
2883
31a2
905a
5851
b746
d181
4130
2e15
d2b7
3bd3
14ac
1417
9539
6bec
c9e9
6089
6f1e
99bf
0998
7cb9
96ea
7057
f7eb
d819
8a78
3820
de70
5bd5
d9b8
5ce6
37b4
d42a
6b85
8b09
63c3
d11d
b98f
1b6f
cb9f
f755
7b3a
c79a
097c
8330
9272
0d36
4763
6844
8d43
81b1
b92b
fa07
45f6
521b
ced1
63d2
cfeb
bef0
eb1a
26e9
88de
9e24
87fd
8355
47aa
0605
db24
f22a
4853
2b53
4451
0f70
dee4
544a
afec
1b8e
6980
e7eb
1046
69fa
ac91
6731
4474
07bb
93d8
026f
fad3
1b55
bc8b
abe8
cad4
d206
7003
16de
6aab
b1cc
7ea8
e73a
80c3
7df5
86ac
4ff3
0f15
9784
71f8
5cf9
74ab
1531
aa1a
48f2
87ce
0532
1a7c
28bc
50d3
fb86
aa7f
0dff
f972
bd0f
9e3c
7e00
362f
e3b3
9f40
0d5e
ec1d
5188
18bb
5076
74a3
6d6e
caae
63f4
6932
852c
e0f9
86d5
ba9e
fff0
7c84
2efa
ce50
403d
32eb
351d
a94e
cd6e
1d4b
384e
97d3
1357
663d
d504
0465
5efe
471d
9099
305c
8a4c
e26e
76c5
3a8e
3573
8fea
2b03
4b4e
0464
2504
fe4f
9274
db28
5a71
8ac6
ab9a
c7f0
5f4d
5a76
0c8f
07e1
3ea9
eacf
38a3
4fb9
098b
08e1
f9d9
dd03
e17a
c330
48c6
1fdb
8ba5
2949
0116
ab9d
baca
4974
36e2
ebb6
9220
2692
c404
d428
ea07
78ad
6f29
284c
7a25
073e
4d4b
0cd9
0d23
e5c9
c6b3
8cc7
5250
302e
c082
8b76
3a8b
8f67
c3d6
cf11
489e
0a54
4850
a971
39fb
9850
41b6
3209
d109
6adf
58b5
649b
fd6b
49ab
09e3
9c65
7523
10b1
c9d5
0a5e
178a
fc22
072d
e259
15fb
4b38
d673
63aa
98d6
9173
8ac8
4643
24aa
567d
6130
fb16
f185
f9ff
b06b
bdf6
3b15
804f
1df8
5d70
1451
c215
5ab4
06df
7adc
8244
eb4f
e678
1feb
2327
29d9
78b0
46af
05c5
70d0
9ba4
b354
deb2
2e2b
ec7f
71a0
f705
10fe
73ee
45e1
6b32
3d83
ffa3
a0e7
3a46
dd01
9b50
b2bc
423a
1674
7ce0
fb3e
be5a
245f
89dd
aa16
cb45
b3a1
69fa
f9c9
0153
b36f
42bf
8d92
a07a
f7d6
078c
3bb2
d7ec
860d
76fa
980f
3625
392b
96e2
5fd1
485e
2787
99d8
8548
33cf
7375
3ef3
3c5b
ba5e
b204
9619
5961
2296
e258
8dab
0ee3
6e6d
593d
2bff
5207
722c
0a7a
e919
4d15
1eac
0624
92c6
b11e
b928
ce59
2a87
69ae
55ca
0503
2876
e4d9
b882
9c3d
7f20
9972
4aa0
dc8b
d9e2
3bf2
2499
4c90
1b77
04ca
0880
2101
5269
7319
76ec
d170
036d
252f
1671
b157
aae0
5e7b
9d00
8063
d643
0760
88f1
9bda
be57
298a
56d7
9c4e
e5f9
29a5
d87e
bc33
b22f
6528
7822
d380
3a92
de0d
06da
de4d
76e7
8af1
35be
0660
ce33
c40c
71a2
36f1
6c3e
7a4b
ea3a
3151
4f2f
be1c
3648
fd9e
dece
093d
9164
031b
eac2
827d
be1d
ed37
1c28
87af
af7b
ccb3
c2ad
c6b3
11db
0f78
5be4
2d77
a7a5
02c3
d014
2151
cba1
d393
9ed6
569f
21d9
f759
2c6d
6c7c
492a
6a59
b66e
85cf
0bec
9840
70c8
d50e
5f37
d580
d0b8
ce0e
8627
2d40
cf84
3019
6d9d
4b7b
f315
fc80
a5e4
40fc
3aef
6867
3a80
0024
f8a3
8f12
5ef0
6ce9
2298
0189
76b9
cec3
5125
2465
b28c
dbad
d403
7fcc
517b
b88b
0fc1
fc7c
90b4
f631
da2e
efcc
65fd
028e
79d6
5d22
4081
9625
5f26
c51a
8aef
4374
e827
129e
7da1
1862
b2e5
2a96
70bd
1061
39db
17e8
4545
348f
2ae1
d2a2
8a3e
2630
60ea
b24a
5ed4
eedc
7f96
b7da
2a3b
a060
6b9a
f4e3
dc17
c4f5
b664
8486
48f3
05d2
a7ae
a574
fc62
e0ae
9741
ccbe
7d90
1fbc
df50
79f3
ff40
5798
3d12
ef0a
462b
0523
98f9
3009
2f65
9860
eea6
f471
3894
7c99
96cd
a850
e62d
10d5
f435
9a0a
1466
f12c
11a4
073a
f26e
24d6
c89f
199b
7867
c7bc
8211
10df
09b6
d957
61f6
2ab9
be24
af36
57ba
b0d1
8219
126a
0885
77ce
efe9
8789
a800
0536
9d9a
b80b
757b
a586
8c06
9d37
450e
f2dc
00b6
0647
9c02
baef
a141
58f7
afa8
a5be
77e6
795f
76d0
36be
7726
1add
cc15
681d
4a43
33e7
fdc1
5f9a
1be9
8e2e
bd74
9d07
84c0
9a5a
09d1
1871
7bb9
add7
ca12
08b8
bcc5
4f16
841e
67c6
d405
66bf
9fc5
6e04
036e
6a23
ed6c
5dde
00c7
5ae6
f51e
0c95
571b
9da6
0f9a
6798
5970
7d58
c863
1e24
847d
9065
c942
4a36
5428
7e87
2db5
6b32
069d
72c8
e3d7
ea07
722f
0605
27c7
f187
10f8
536e
42d7
058f
2415
8b84
4b4f
003f
9c5b
6666
5fee
0d66
9956
ecb1
1e2f
0b48
e44f
9b76
af12
f7c3
2698
ad86
ed57
4e12
ce47
642c
dce8
074c
c2b8
b964
ad49
07fa
ed3e
6446
3630
4a24
a42f
5d19
d8db
ff9c
56fd
2a8b
065f
81ea
eee5
f1cb
8329
ba24
8b83
aa0e
7d1c
3128
1e62
f06f
482d
bdcd
995f
4241
cc88
bb43
218a
a5c3
9fe0
6c5e
efaf
da6f
c0c4
ac2b
c77a
9859
0aa4
32cb
10b2
1ac3
9252
465c
b827
8b82
3a61
c73b
47e2
97a4
39c0
f54d
582b
d3b2
da4e
2717
f08c
b09c
3242
c898
5e07
75ce
2ef5
793e
8b89
7957
b2dd
0fce
7f9b
9575
0855
274a
081e
fe36
5c11
2892
e9a0
0812
a320
37b8
57d4
4302
1a82
3d98
dc68
0513
8523
c55a
65b5
3c08
4d7d
6502
7df4
3758
9ee1
3fc7
71fa
de33
ca3d
71de
5e39
f0c3
cb7a
fd59
319b
b8db
c99b
c2cf
de48
4315
fee7
37c3
e70c
9601
fd64
263c
db0e
9e22
5bf5
1d5f
fc70
bb53
1c72
c85a
e241
6fb7
221b
f6f4
3929
06a5
6775
77cb
b61b
6bfa
5a31
554f
e1f6
402d
1e9b
df20
1429
18be
2f3b
37ab
73af
3f4b
4139
b756
e27a
f217
5afb
9bd4
ecb6
545f
59b1
3eba
48a2
8ba8
4e8b
995c
9e20
b9b2
b5d4
801d
820f
0d67
6d1d
c81b
a000
d7be
b128
edb9
7534
b969
7029
e506
7e48
4c2d
13ba
053e
43ac
9b8b
b209
66aa
cb5a
d466
f5a2
5309
0743
c8a7
9f89
802c
4382
319b
81e7
5ee9
1cde
0fff
c5e3
e123
6ce4
a17c
229d
7eb2
bb28
f3d3
f66f
8d48
fe9e
3bbd
99e0
32a9
b5ae
f6cd
f4d7
ecfc
3a20
000a
b3c7
7fb0
3c9e
7470
e8f2
5f5e
3616
feda
f649
90f5
1269
5922
bd90
9b56
c7bc
6534
6b3d
fc2a
ddf7
4d38
262b
2fea
0b08
a78d
6f54
780a
540b
1b09
7792
7174
3767
6bf7
93ce
246e
5114
18bb
83e2
f4cb
a2b0
d1df
8f8d
266b
dd6b
5d09
5a42
d45d
8481
9d7a
c5b2
0adc
7c7f
7ea6
f985
7de5
48e3
870e
4610
9335
c426
879b
2589
cff5
3c7d
1d65
4cfb
0607
a90d
fc27
d270
12ba
dffb
2666
5bc6
1265
6094
3082
2d1c
f46a
738c
92af
e5c5
0bf0
68c1
17ec
e9e6
3cb3
f9e1
14d7
f1f6
2021
2013
42ca
e7ca
d331
0ef3
9966
1fe5
2fec
fa09
bf7f
2d32
d620
725f
b14d
a6fc
de22
ed5c
40c9
54cd
b92d
7682
c905
fd51
0268
4488
b9b4
112d
ed6b
f33d
0f99
ab4e
139c
8d5b
3548
e87c
d409
2894
fd84
d944
3b82
61a2
fada
e096
cd6c
e3a8
27e1
2074
f3ce
b9f9
dcf8
9cb7
bc6a
464d
cbf5
ba18
4f81
abad
7da6
4ea4
0b30
fcd7
8065
ecb1
10ad
c9bf
1782
52eb
884c
3692
50a7
244b
3bcc
9c7d
8a80
560b
7008
e89e
8b3e
715e
4b5f
8aae
fecf
161a
707b
64b9
c00b
f3c0
92a8
b646
136c
083b
0a02
f806
1058
e1fa
c1b8
3745
befd
382c
c3ef
1dba
4c49
698a
a8cc
dd28
ad61
679b
44b7
f0ef
10cb
4372
d504
21d8
b47e
cef5
d622
d14d
97b8
11ae
3269
e0fc
b8e0
2620
a6dd
b40c
fc77
df4b
d56b
3726
ff51
37fc
20d8
a668
7e41
0f73
74a3
92d8
94b1
4003
7e67
7861
35ab
caae
2c20
d653
f5c0
d12e
451b
a757
56ff
36b5
9658
f713
d242
78ca
796a
28fb
0a08
b9c1
9ebc
2794
ef87
61ff
9d45
b9f5
20e2
ed90
ee78
56bb
5d72
2503
39fd
1a16
fe4f
0a92
7a55
9ba4
feda
9cf8
f994
d9bc
f48c
24fa
dc3a
1a7c
93f6
9a72
1acd
cbc9
8912
cad1
add0
2bfd
8ba9
bcfc
7d92
971b
a8f6
c479
de31
b9b7
c1b3
720b
fabf
09d2
1905
7b3b
6de2
dba8
8a03
1449
46fa
fc0e
786c
779c
1a2f
516e
98a0
eb29
7501
5796
23f2
03a5
08b1
a33e
a1cc
da46
9780
89b9
8fae
2360
a2bd
95cb
9c0a
a0c1
f2fa
0cb4
d5bd
10b1
7e25
e99a
1fe6
7403
d977
2680
816a
5990
c82f
de0d
e5dc
e751
ac63
83b4
9dbd
2c4b
ca16
48ca
77f6
f83e
6de8
c4c6
0efb
202b
d3b6
175e
23d1
986f
46e3
a817
71c5
d7e0
7d86
7998
84ea
c73c
37b1
2d31
10a1
9607
86b5
c54d
a060
8932
d1af
6ac2
4e10
5ee4
7f16
fd46
6e1f
812e
98ff
f0af
78f7
ca91
94c4
a685
00d5
2175
b566
3947
dbd4
f31d
2e70
1116
0cbd
3d4d
d28a
2daa
233e
1269
2716
b363
aef6
d840
1653
ec12
4865
4444
2af4
1753
7721
cb27
c8f9
b96c
c2b9
103f
1d5c
71b4
6afe
63af
9f33
bedc
ae5e
aa6f
996d
7255
b862
769c
7631
aa66
569d
01d2
81f0
3b06
0037
bb7f
7d49
5572
660d
30bd
40e4
b7a8
c45f
9bde
42b9
e74e
0649
b5ef
8994
7eb5
0aa6
e24d
8720
0e77
dbcb
acc4
1e9a
4ada
bd7e
bad8
6621
1b98
bfd3
e76b
c0c0
847c
7839
b438
800e
ca2a
bd09
1e0b
fef8
f613
be8e
aefe
2293
c84b
7d61
c15f
06bb
979c
2257
f60a
654e
49ca
064f
f01a
d202
d59f
99f6
36ff
5b65
75d7
4d73
bf72
380f
79aa
252c
e1c2
719e
b0ad
65bf
986a
c69c
bfa5
e3ec
a895
55d3
5852
af67
2c85
d8e4
125e
85ae
5a5c
1163
1373
e718
5ab8
de27
dc21
4188
778b
6e4e
ebc8
b012
57aa
f972
d401
842f
34fd
6aff
1450
4559
3310
d59f
866e
c0a6
2804
ecaf
dc7f
8aa4
bfc9
ee0f
a343
ad43
13f4
0bf7
586f
5a6d
c5a4
b985
f55c
116e
9897
8d15
56e5
dca7
ac2a
97fc
d48e
6fd7
2f0b
e452
7ca9
b035
a439
1b31
9572
a21d
ce88
b50d
09cf
d88f
a981
0ac3
a33d
bb75
341c
cb74
e360
77ce
6a05
be85
5f73
df37
27ca
e9c0
d929
509a
f4d3
9374
b08b
2c79
38c4
753e
c438
eddc
c5d8
7378
9972
d758
2440
a23c
dca7
0608
63be
d808
d24f
5f39
959e
e846
b612
52e3
363c
b752
e8fa
d650
a7cc
b2f6
e8eb
423a
fa0c
4433
c668
6328
7b3d
a510
b313
6022
20c8
a26c
23cc
9aae
62a3
c679
8a6f
f40c
0986
1413
b170
8fdf
eaae
d130
06aa
42d5
dfe0
0c38
2afb
6919
e2a9
f4b8
2503
dfc5
3fd8
832c
a308
95ad
346e
a9f8
a593
f0a0
5f14
2355
69bc
2f77
5f9e
1aae
08bb
fba1
6a96
de7b
37a3
f941
25bb
ae6f
ff3d
5aa9
01d1
7f6a
db3a
4d2e
1ab7
b2d9
a3a0
b5e3
f13a
8344
5bc2
bb16
28c3
5b67
3da8
b405
e8f6
e46f
55bf
8d05
30a5
674b
ae1c
1c61
31d5
9e01
e62e
f8eb
bbc1
c417
5031
0655
0fdd
7ff8
1192
f455
9b73
fdf9
ff25
ba89
2079
a2dc
ac72
0460
d3b9
6c3f
8d07
2198
1509
fb07
bab4
25ac
711a
e4f8
1bff
2f1b
9346
90e1
2a85
dd67
584f
9e89
71b5
4e28
a8e9
1507
d2cf
14d3
9046
2810
77db
ec2a
c5b4
2d58
c320
6460
fcdd
fc65
6132
2cf1
bbd7
a1f8
9697
e8d3
bbce
2663
31e6
9e2b
2e61
6697
094a
5608
ae0b
810e
70ac
943b
c333
6478
d9d2
10b3
6475
7d19
d1ce
eb5d
c907
cd16
1355
ede0
30d4
99ab
7753
2861
2aab
9e21
b981
2738
fdf5
a859
de7c
21d1
cfac
806d
9ad0
8511
b4e4
3ed6
cc99
b21a
bc7b
ef8c
7442
89c2
4d45
5ef8
c27f
3403
d929
bedd
a3c1
a726
ab05
c4c9
8955
dc93
0072
4244
3752
9ccd
467e
0491
549b
6fc8
f08e
dbc6
e6d7
d22a
7709
23a3
9b77
4603
0b68
1ae2
e771
216f
adc0
783f
f6b1
5ad1
5132
c19e
2963
205f
ebc2
e989
7894
488a
99c0
f72c
5216
26b1
c595
1331
d494
a4ec
f7ac
35d0
ab32
929b
229d
93cb
0605
e5a1
050f
9879
fb19
9156
7e4a
30a5
c906
8b03
7f68
9dbf
9019
dda9
734c
2139
e4f3
6b31
b3d4
c1ff
df07
ef9c
852a
4ac6
fce3
d5ba
0bfd
ab60
2413
cef8
faeb
75cb
3f02
4ca3
7b22
3b3a
960f
1164
7920
4ed9
addb
69f5
3a0f
b01f
6aef
fab3
2ee5
7dc3
ea61
ec08
5d40
a7f1
c988
8f91
9cbc
8a06
2cc1
1db2
7a98
6383
8f82
6b88
10b8
f13d
308f
7281
96c5
7659
0a3e
ba46
56a0
8502
a53d
1989
d0bb
7c61
6249
886d
b915
5611
62ae
b7bc
103e
9f4f
8bd8
d4c2
9f8d
dd99
7f2e
e512
4e8f
a3ad
26cd
b57f
94b2
37bb
f090
d2ad
bb75
76de
51f3
496d
a6d1
b1e9
9b6f
e4e2
3d6e
380d
fca3
112e
ea18
4b7c
b7bd
3e82
701b
f87b
8dfb
69a7
01fa
c538
44f6
a7ee
b327
5c34
fad2
cfb2
fd14
56d4
f9b6
0365
72c2
1904
24e6
df3d
cfaf
2803
6a87
f429
b3ee
1810
093a
d307
6b8d
d583
ec4c
68c3
449f
72d8
e696
2379
388d
41bf
ae8a
0a10
2aa6
7659
f38f
337a
fde1
38c7
e029
2cb3
8657
f8d6
c530
f1a7
57c0
6ee9
c7dc
d960
3b16
ce95
1382
4f30
f29b
4b40
6145
6a2c
dea8
2172
db07
2463
aa12
5576
adff
69ca
9db0
01f4
a3b1
94bf
c3ee
6304
7b1d
9eea
53b4
c009
012a
b8ac
295e
6e0d
bf3f
86d0
fe60
90fa
b94e
03b7
b204
035b
2eb9
6276
8a34
a8a7
a5df
158b
657f
f54b
74d0
fab8
a758
c4d0
651a
401b
8e6a
e5cb
5ddd
b703
eec0
6f0f
6e3a
5336
2fae
962a
3b8c
afca
73bf
8d35
1d64
35b8
e8d1
b990
fd28
186d
337f
f175
53b0
1bdf
9569
e76b
4f79
5a24
3c82
f66f
b5be
e279
5e84
bba5
70a6
701c
6a64
18e1
eb00
9176
f314
0a9c
e7d2
3906
142a
2866
1c24
7231
798d
c461
104e
5d30
4d8a
d700
3b23
0f6a
3c4e
75ea
21a3
8cc1
7aa3
26f7
7b00
0ff0
ab3b
28b1
3301
6610
2ae7
3fea
6d63
4127
c28d
8e7f
7399
f110
1962
63e6
cb94
67dd
8bae
1b4e
5930
a316
b9e0
90d9
6838
2f6e
6833
d063
2e10
b2d2
4a91
0bcf
36c8
8f2a
1312
e1c3
5cf8
c091
2cd0
94e2
4bd6
a7ee
495c
3165
77ac
b818
130f
2602
f1e4
2dc2
e206
4876
583c
c093
747e
201d
33d2
2d96
b64a
f453
fd0b
9e96
af9f
62f2
3e33
8218
0cdc
5f30
e067
253c
ddf4
33b5
8d3c
c587
e052
4ef7
9db7
0454
df53
f5e1
35d6
9d5c
a930
2d14
4890
040f
2f3f
d488
fca5
e4b6
6e5d
5c72
3a5b
2483
bfa9
baea
59aa
2c4e
938f
78b7
5c71
2e83
5a73
d8a7
6e64
5484
6099
166a
4ec0
97a9
ff59
7024
da9b
ba77
979a
f471
9753
ad0f
8c05
5c44
ff57
2a05
5649
ea91
c394
6c81
1b12
7b8c
9a45
d357
b5d8
552d
1f6d
f3d5
3c9c
2a17
e969
50be
f2f5
141a
6fd0
164d
74a0
fb3c
b98c
4173
bc42
c027
f3a6
4107
bf54
b18d
7e99
0525
679f
35a6
63cb
a5da
966b
d421
1826
103c
c7b4
65bc
3164
11c8
279a
5f10
b165
9f82
ae5d
8b95
cfa2
33c1
a35c
755e
25f3
9ca1
d267
c97d
7037
4497
2d1b
bbee
2ecf
a522
c358
efac
b07c
ca8e
4672
6d5e
5bc9
ad8a
bcab
85d3
41c9
1aa7
5d46
5fb0
6ce5
c9c7
0076
9bb0
c012
ba80
7d51
fde8
9f7e
e6b4
356a
3402
301d
21cd
21dd
cf70
e682
cbc4
5069
a15e
9816
f859
d626
ec68
24b5
5475
7a7e
5108
e566
5895
967d
9151
d576
ab8c
e864
4626
d05f
a802
51a5
d333
8ffd
ce90
224c
c9ba
756e
2f6f
6675
16c2
9eab
7add
8d13
95db
0fb1
5e81
5d11
410d
1c2b
7af5
47f0
a293
2316
a45e
68fc
832d
d5c0
e22a
64c1
8f27
90e8
f62f
06f6
00f7
6e8f
ee1a
be60
3795
4ba3
49df
ca2c
45b3
f182
8983
33b8
49b2
6c0e
601d
055d
b6d5
169c
51f0
22f9
0784
1548
592e
e177
8846
c4ba
5940
0fe1
de77
3768
b6a2
7a42
6a50
ead6
eb9e
5e57
8a0a
fe10
7f2d
c47b
7f3b
1138
8394
981c
d827
7bec
b80d
8a44
07e8
41df
46fe
b2df
e57f
4651
9e65
1528
ff11
9478
7507
c589
cb06
a9e3
8187
9ca9
82d1
5551
29f2
58d4
be69
90e5
7760
c249
9e05
9bf3
bda3
103a
4bb4
d6ed
c1af
3908
cfc1
a054
fc13
4bb7
1fc1
b56e
52cd
3031
bcfa
0fcb
eab8
52fb
83c2
e8d0
4dcd
fdb5
45ae
d190
bfa9
33fa
4422
5c38
a699
57bf
2aa2
922b
6384
80b5
b1f5
50e0
7ab4
627f
6873
6202
f93f
9e6b
772e
934e
ada6
d184
f9ad
f83e
0245
ea16
5159
01f4
9613
2a6b
415e
b86e
d7a9
baa5
2e39
ba9c
2c8a
01b6
6972
08fd
9080
00a4
de26
996b
c4d7
9399
b8a4
5842
44e5
221d
516b
be7d
b17f
49a0
152a
7e24
c4ee
f9fe
7ad1
aa60
019d
8e77
7240
ad0a
e597
06d2
5b2d
aded
3982
5eb6
5ec3
0e67
1887
7e60
a904
7518
2594
a37a
a89f
4599
7168
84fc
7cc0
e50c
abb3
3001
9f63
8906
a43a
5522
6283
00f3
fcac
b0aa
ecbe
5aa1
fb36
b5d3
afbb
588c
ae01
084d
e230
8920
6cf5
7b6c
da40
e4e6
f0a3
63b7
2519
c021
f569
fd48
8e0d
5a31
a13c
b447
452a
e982
64c8
56f0
f1c8
2479
6092
6a26
916e
a0a8
359f
8437
9708
9294
8832
5985
b538
fa02
4469
1add
4550
6772
7c93
f622
7421
25cd
ec8f
65bc
274a
696c
4f9c
b6a9
9e9d
2f3a
da7b
c1c2
43b1
dee8
41f8
2130
0dbe
4fb2
6ef0
f3c2
e45d
6e50
062e
5944
12f9
5791
db71
54d1
2639
4f25
808d
418b
821d
d1c0
7f3c
da4d
fd76
d59a
13af
7ac3
9cdb
7bc8
3b79
e363
c063
4406
ae71
7a5c
518a
eb3d
ec1e
0ec4
7b07
c2e6
520e
14e7
5db4
0de9
203b
9dc0
90a9
f3c2
7ff1
69b8
0e4f
fcc6
dd7c
01de
0dca
6b33
06e6
e8b9
e4a7
0a8c
65f1
c3ec
7f92
512a
4b7a
1fd8
27f8
137f
679f
5025
b008
b2ab
19c0
af26
d7ac
4586
d494
31fc
7c63
d251
08b1
5c5f
a680
8762
962b
8195
f882
8850
474a
d6f4
5c95
2cf2
66ad
d9da
e81b
d1be
794a
49fc
3586
32fc
0f28
621b
9c16
7227
9836
031c
dceb
c2c2
8149
10f2
35f8
df70
d0ad
8429
f78b
8105
be01
085b
fb03
4a72
8bed
4c8e
6b0e
a037
73f2
a1aa
584d
d870
6145
0eb3
cc02
c7d4
4261
ee98
52da
243b
c51e
0f55
cdd0
a13e
afa5
7e54
a00b
530e
384a
f679
35ac
7463
54fb
0494
3b5e
df13
12d9
6675
4189
6dfb
8876
5be7
85e5
1665
0b8f
390d
0a30
e237
1b87
1712
a3b9
e641
f6b0
ebf1
6594
07c7
8191
fe5f
5890
f7af
5b36
2a42
ab13
6d08
de21
5689
52e1
f8d2
8ba0
16f2
3931
b2aa
644d
b9f7
c965
14db
fb9d
40e8
efc9
8b39
8aed
7882
bb25
673d
14e6
8db8
87ed
aebb
9453
5c01
46e8
8a90
2ffd
1f45
3064
3666
32b6
e4e5
ebd1
6aa4
6a89
9dcc
d268
b3d0
a579
e75e
6eb5
5953
06e2
a912
0939
387c
e7a9
3633
e957
5de9
6575
bb63
beeb
797e
6cf0
6bcd
d8af
ce2a
2071
718a
b760
9f53
1560
cd2d
54d0
4bbf
0e64
b5bb
074b
8004
c096
ad4d
e503
1734
fd36
f504
2400
1f98
5554
12ea
06f2
401f
a11c
aad5
f95d
bf40
20e4
dff7
9cbb
25b7
8407
98cc
12f1
2bb8
6f5f
4d40
7a3a
6729
52bc
ed0e
1c33
2016
f7c4
9c28
7252
7d11
2960
fce8
4a7b
f5ac
91d9
6026
5e82
986d
18bb
98e7
5693
741f
7a0c
9c95
b1e3
90ea
8f9a
fe56
1c6f
8493
0b37
9c4a
f12e
3445
e23c
79de
5d0d
2ef9
6293
be35
42ae
26c0
918a
b545
4d5b
d3d1
88be
8390
6969
c9b2
c865
d107
5540
7017
13c0
821f
a95f
ebd6
aaf4
481b
6850
0ac6
026c
1d52
f07f
4cb5
f7a2
3bf2
d47e
fc8b
ac67
1961
1fac
c69b
4f88
e38e
fea5
5a5a
c62d
e733
47a5
ad9c
1a25
1bbb
4ddc
ddc2
fd47
e461
5d20
f370
3f32
f320
97c1
41cf
9172
98bf
caf8
7122
0794
2d03
2f10
d3ef
b82c
91d4
351c
d06e
948a
703f
91e8
750d
aa93
c25b
f813
3345
010f
f713
7643
48ca
2505
025a
dbe4
d3eb
1c59
19a2
f6f3
fe56
0b29
89d8
d395
b36b
3e00
b236
bcc1
fe80
3b71
2699
8e84
1258
240a
f97f
0d10
8013
e74b
fe70
f87c
9937
452e
d432
18f6
5b9a
7f50
3952
36ad
4494
aa24
81c8
8a17
00c0
b20c
d147
4a2f
9877
36ea
630c
77aa
c627
9f79
af3f
0e32
5598
e82f
dc1c
f686
0267
204d
d044
b7c8
7e56
94cf
76a4
917b
7351
369e
e100
36f7
dcd2
8af4
1f78
9472
5966
4da4
0c0c
9158
9ef9
e1b7
6513
e67d
6ce5
4021
f658
f85d
0315
f675
56e6
e559
509a
093c
4e6e
cea6
f5ed
decc
b8cf
6419
34fc
686c
b176
0074
164f
1d3c
8782
221a
66bf
7ce3
69c6
59c5
0eed
10e0
5152
dfd4
aed8
2532
4096
c45f
338f
a8d9
beae
0bb9
ddc4
996d
5eef
158c
313f
3ad6
fb09
2d7a
ad7b
59f6
f151
5ca0
c8ae
17bf
479a
90d4
0bc1
3060
28fc
5af6
33f7
ccd4
e9a7
9d70
69e7
2f9f
7352
0017
9f71
d377
b5c7
7900
c155
b230
0af3
0ac2
395d
7ec6
1da4
203b
c68b
7a72
ed82
8db6
2f6f
512e
1334
6cef
dfcb
b4a9
f1fa
b680
f766
714b
94f5
e079
d9bc
6153
abb7
164c
b887
d749
6aad
1e78
3184
9595
caeb
f1a0
7827
e7b4
4023
c97c
cb3d
1a1a
d2b9
f725
8117
3de9
6506
f5d9
37e1
0219
bf7f
6700
aa20
97ef
9254
f1f0
1175
f9fe
ed96
9784
1db6
2308
cd21
7a56
08d1
c37f
7265
47f1
a676
3b6b
44ef
ba97
993b
b5a5
edc2
4ec5
865e
f04e
fe9f
6ab6
4988
f265
489d
0996
1260
8837
473f
779d
55b2
006a
7455
e884
de64
ff5f
5b1f
c996
23e3
e2ba
d07d
5970
ea70
8306
5934
d9d0
5922
ff14
60b1
4a0d
8db2
6e9e
aaf8
31ab
5e39
4311
4b7e
627c
36f9
b089
799d
1b56
65d0
6496
bf8a
f69d
d2fb
e4d8
27b5
7fbe
f8e5
ff8b
fada
13d4
7402
b3fd
3f23
6fcd
b6d9
62aa
3daf
ce1d
5bdc
d0b4
899f
473f
514d
63c7
b269
6c09
3e99
faf4
190a
ac59
4d4f
192f
625d
20de
4db0
a029
dca9
7075
b3dc
4b5e
c959
7c50
d943
f75e
3059
1c6b
5c78
35a5
050e
cb36
29ad
e3e1
e873
c190
49ac
e782
3c57
0369
8224
8842
e82b
5bfe
4df3
aeac
0a50
f5bb
f277
6441
7354
ed99
c2f1
811b
4897
618a
02a2
c04f
dc49
87e2
9a25
5a51
15c8
ce7e
3b36
072c
51f7
c887
a61a
393a
64ee
ee63
3dd6
0b19
582f
0ff4
a4ff
f7b1
22d0
8773
7b88
e116
f46f
77c4
76a4
82f3
4b2d
928e
49bd
8873
eda7
44da
c72b
38b9
83d9
e317
ba1d
af7e
24b1
a496
17a9
568d
b9aa
e4d3
6cf6
d75c
6683
a2fe
b841
712a
156b
3601
87de
0ec1
a65d
b450
bab3
6034
57a6
e8e5
b926
2ba6
8616
bd10
818a
24bd
ea5d
e364
246b
d615
147e
b377
f0d0
d8ae
3531
492b
3458
0d1b
554a
a6e4
46a9
2ef8
6d47
7d99
1124
20de
87f0
4607
7e30
a7cb
36c9
4381
7c00
9d74
49eb
d3e6
ef19
d486
8ba5
36ae
045a
f3f6
cba8
8ed8
42b2
9bcf
75b3
37ee
7a31
ad31
a4bc
116d
6f0f
3c6b
3480
efc1
2fdd
7e58
eed5
7fc2
abbc
e7c6
5c05
fffe
b4c1
f6a5
3a9a
c53d
3d86
6cbd
f066
c915
93fc
848c
012a
f4f6
65eb
279d
542d
f8b1
7e0e
189d
3cab
6a92
297a
b742
4e64
273a
7f9c
2575
284a
c5eb
20c9
8440
6f8e
c9f7
5b77
cdb4
81d7
b9ff
9025
2089
9206
239e
6401
077b
36e6
2196
d05e
4617
9e9d
89e5
4e37
619e
177e
a337
f2b9
da23
2cb4
3efe
c689
00de
432f
a24f
6107
42fb
82ae
0149
d998
0e49
8459
adeb
ca75
de17
aca8
d844
74b4
9c1c
68cc
009c
a42a
1ab9
db25
0e3e
c01f
bbb9
1139
2fe9
2b0c
d312
738c
5ccd
15e2
f5e8
0246
8713
241f
a0b9
66bf
eb91
134f
fb60
8bf4
af25
6576
dbcb
15c8
0b62
81ba
57fd
7b19
7e24
3345
aa6f
2a53
292b
61c0
4b98
4b71
21f1
d48d
fd27
e2a7
ceab
ad0e
d7b7
1938
c3fb
71d3
99dd
d530
6b6a
93cf
83ad
5c2c
e766
22db
c24c
ac63
19b3
11b5
08f0
47d1
abc9
652a
06d2
58b8
335e
61c2
d909
2cee
990f
ebd9
d357
4161
18fa
1493
d166
c5e2
a6e3
cdac
76cb
6ea7
bdaa
cbd5
1b36
6b88
5864
6c9a
f2b0
e24d
1790
638a
f92c
4c22
7836
06b9
f1f9
8c3f
6329
0711
effb
0d15
3b39
1408
b800
d418
fc51
6c0e
4605
875a
463e
eb6f
e789
8d0d
4749
74bb
95f6
3c44
249c
4715
924f
cd19
8318
20ea
5f11
1324
5abe
aa89
11d5
a246
3506
dd69
3af9
4e62
9ab9
cfe8
f7db
ac50
8149
05c5
a21c
aa6d
5740
e5dd
b9e6
adac
8766
bdf3
7882
57a8
0650
d7f1
c4f9
28ec
2f78
8a29
26ab
48a0
9730
ec76
722c
ea0f
5bf8
5d54
8b61
aceb
4f5a
97e3
25b9
137b
1961
84ca
84ca
4cc5
6ada
0c23
918d
8869
c11f
7bc4
20ae
695b
a5fc
3f49
9f11
7c56
34f3
ab3a
3016
07ee
c504
9b5b
2bef
514c
0ee8
4b16
a132
daee
9c79
74a3
e0ac
e6d5
6bf6
7a00
7b6c
0dc8
c7fa
7183
db15
7c76
e804
4c2d
badc
752c
cce6
50b6
afb0
003b
76fe
e70e
8076
23b5
d805
3702
cbf1
da48
709a
c120
8b30
744a
3dfc
8976
c13c
07dd
910d
dfdd
bcbc
3211
7adb
8378
dee3
82f1
9b81
82e9
7605
cf1e
89fc
80b3
fc65
b6a3
5534
3858
1054
9764
6d2c
7455
e08d
e4ac
d55a
0bbb
05c5
8345
410a
ccd4
b379
ffb9
973a
7f4c
cca3
3ba1
f28b
1a0b
e5be
5a92
a58a
2510
1bf7
bf82
2ee0
edc4
7de3
3944
3a0a
b83c
1ece
7537
c7fb
eb6a
45a1
4202
f6d0
c676
eeec
2a04
a7b3
6daa
3bed
c138
da6e
c2a1
8ae2
7739
3b2a
15b3
bd85
b0bc
4ae3
6854
b23f
0399
802a
05e2
1258
1b8d
65b1
47f6
149a
f75e
78eb
edad
f3b9
efcd
66cd
47d5
a0d4
ebb2
9da3
637d
97fc
b01a
1f2b
8dbf
f809
e9e1
c6cf
1f37
d8be
4e71
c01c
2e1a
8926
979d
2cec
8979
7b28
2694
71b9
3a91
6197
d8e8
45e0
f30d
774a
7aca
6675
9ae5
df82
7970
0889
cf74
fda5
85d6
b10f
a142
1243
b9ba
e9b8
43b7
defb
b063
ae2d
7e42
81e7
5c23
6f8e
2609
5c6c
3479
7587
4453
3a59
7b69
51c7
b723
4131
89be
644d
a500
12a5
193d
cc82
cafe
7b0b
4274
339c
1262
7ea9
5e7e
4396
4180
a686
697a
af4f
b160
5efb
48d3
3f9f
5509
c17e
f977
49ce
4884
a69b
41fe
a516
045c
95f5
a762
ef7f
07a0
570d
4414
67b6
d76f
c6ad
41c5
7eea
acee
a9bf
f8af
e1de
7d6a
5b06
bf12
15fc
5c4e
24bf
d5f7
b1b0
e06e
9ac6
c73c
f6c5
94e0
51b2
4f8f
aa7c
316b
c2b6
00f3
35d4
f0bd
e056
1966
b0c0
5691
837d
6d97
7234
f03c
a3b6
8939
2912
caf7
b620
1bf5
af04
536b
300c
3d27
69ba
d69a
262d
6e54
bef7
aaaa
8867
c7b7
537f
38ab
61ad
4c65
6ea9
3228
a8ac
32e4
4432
d122
d621
98cb
2092
898c
dddf
0ffd
0163
bcec
58a9
5ba8
dca3
2b72
88ae
223a
72c0
ba39
b3f3
1985
f3a9
a41a
5bb6
404d
c30e
aed4
57f2
2a6c
a6a9
439c
855e
1ba4
745e
1ae4
7772
4915
1b5d
7833
d2a4
6c03
ff4d
63ac
5b23
0a92
65f6
4c66
f1c2
4d10
7873
8a6a
c486
0219
8cd3
ad87
43ab
da38
888e
a9b6
2791
4b3f
a277
93bd
cd15
005c
a510
4931
017f
83da
1f4c
19c5
472b
a720
f0c1
a0fb
75e0
b321
9913
abf6
b742
6995
4732
acf3
488a
1592
efba
a255
38b5
2126
84ef
2768
c488
4b2e
8457
787f
8323
54e4
a292
4fd1
153d
fb10
42b5
35d8
3dbb
5fc2
3895
5123
84ac
2f24
589f
9a22
e4f7
7773
f0d1
8dc8
5757
1873
65dd
e6dd
967f
d054
92d0
9dd9
43cb
5b19
1e22
ee51
742a
0c20
9b95
c5f7
78f4
0d6d
fb29
c892
4214
064b
cf79
0669
996d
bf40
bbc8
2361
7678
cd32
456c
9b46
8b07
ec97
9bd4
97a8
269e
0deb
6544
e56b
eb66
2b24
b1ad
fddd
5516
e3a4
e93d
aca3
72f5
87a7
32aa
661d
944f
58f7
c2ca
5deb
6aee
a4bb
a2a1
5618
3b1e
b996
313e
8da4
27cf
7b88
c343
235b
e2fb
0b41
8a41
fbe9
014c
039e
8dbf
a974
edc1
8ab3
1139
3711
50b0
043b
2330
4ccb
ad34
170a
7198
32e4
9ceb
a3bc
f6a2
14ae
54b5
6178
c44d
8586
9bb4
4ed1
1156
06b3
785d
dc2c
a991
604b
5642
4f05
a0a1
f0d1
cde3
7488
6098
98d7
a49e
197e
3a60
240e
6f9b
7116
585e
4cf8
6eb6
b8c5
ea9d
7bb1
f973
bad4
309a
a3e5
47ed
2998
4381
3ae2
5d49
85ff
e3ee
6bb8
cfa4
f980
7aed
d4af
040f
f270
d85e
2422
e0f3
daa4
3331
dd3e
72b1
8265
b0f3
0e5d
7ff5
3518
157d
eb82
1f49
4560
c8a4
5770
180c
f0c2
eb01
f053
56ee
1bba
b890
d08c
e8a0
711f
e3bc
e4b8
3faf
917a
1a72
c963
2d16
d9f3
8f10
a97f
a36d
4735
de42
b713
8f34
cfd8
e222
03f0
0022
c365
0143
574a
ffb9
78dd
4edc
9c32
ed5c
2c7b
4a56
9887
71ee
1326
a5cf
d754
7137
bbf0
d638
d763
6b34
e4e0
9f0c
69c5
1738
d633
74bb
cecd
8def
2589
4e56
5773
cdb7
2d57
8aff
f8b0
b6a1
9880
7f12
03df
6e1e
c879
fe59
3536
5d41
5c59
f153
023f
4dab
12d7
498d
1d7f
44f7
999d
0307
0554
026a
6589
4d06
c78b
810f
7969
474f
af63
0b8d
a66d
a6cb
abab
095e
0e50
1065
d6a7
754c
b238
2164
52c2
4f3a
5fbb
6beb
ea5a
75af
077d
d47d
1993
68f9
917a
62b4
b171
145e
d7fc
f940
a078
fd1e
1276
49e5
a260
a6de
1ed3
cf2a
ac9d
8aa9
bcb4
83bc
91ad
2c21
a42c
af45
2434
926d
cfdb
583a
448b
b08a
6a25
73f3
0c9e
e52e
34ea
2729
f8f8
eb6a
3108
c7bf
3ea3
f140
e19f
c97f
7e5e
0e29
8d3d
6d64
1ef2
b3da
7906
5c76
8297
47ca
b998
03d7
50c6
bb61
8d27
66ad
1226
ede1
8b04
6425
a7c1
3810
6fdf
3c50
f564
82d2
43ec
6b39
9e14
3621
b543
8d2f
bdc5
2a28
3c5a
c9a6
0aea
9a92
f580
fa8e
f2af
1066
18b2
abc9
5ec6
583e
2d8a
748a
fb7e
6f21
9460
ac97
4d96
0e40
a327
402e
6265
455a
bc1f
d24c
2b96
d139
a069
b3d6
6f5b
3dd5
4dea
12a3
237d
a8a0
072d
80d2
13f8
75e8
513c
ac57
0a80
fa42
3d31
e3f7
70c0
3038
2582
7206
7181
6d00
5535
3ea8
0e95
abc5
c121
2fce
3fa5
317c
d1a2
ba7b
54f5
ea02
8ccc
3e16
f40f
100f
d2a0
ce8b
c65e
8804
a8c7
1f84
56d1
3b29
fb07
9033
19b8
cb76
4819
4bf8
23fa
3229
b720
10e7
f146
522f
21e4
a4d4
7520
2f6e
ef04
ddc9
8b77
25f7
e865
77e5
8d08
cb2d
2207
fabb
59b6
5739
878c
f816
9bc6
aa4d
b92f
7b31
5e4e
5bdd
c7c5
6703
6d77
d278
ab74
7403
e8d8
6244
87d2
d9a6
4a9c
c6e9
8ddc
9127
93df
6210
f40c
8b5d
4ae8
48b6
d327
c5f8
a070
100f
9530
ef67
8a54
a9a8
a7ac
07b6
85d0
940d
6cdd
0617
68d9
13c2
c798
0b65
5073
a3bb
43bb
1162
afc4
7b5e
bcdf
5f47
f1a7
6c69
d217
f039
49e4
84ef
73b0
c3c6
dfcb
a201
a750
659e
f273
ca24
1096
3b3e
0ad2
2117
be91
d74c
2360
c34d
5231
d578
f43f
621d
e604
0d59
965f
c5a6
45ac
af7d
5b6e
1183
cf92
a385
e203
7b89
d855
6300
003e
e019
1854
35ce
72d1
81f4
e93a
e2cf
4e10
71e8
7a51
9367
77c5
40d6
91e7
a219
41cf
2661
94b3
c455
4ce8
dc6b
22b2
9e83
7b76
15df
2835
b7c9
93da
0708
672a
25d2
13de
e943
3c33
bb4f
a34d
0f26
7d58
f7f2
b17a
c312
4a57
73ef
16ba
6592
7819
d02e
6c0a
4f1a
22e5
e8f1
7a9a
3151
9b2e
774e
9347
62b2
7636
5e67
306b
88a7
55fe
db08
5b25
a699
6ee1
ee5a
540d
6364
7c7d
220c
e9b5
ce35
a231
5241
8c8b
e987
6377
42cf
e02a
bed1
6294
aa53
718b
3e5b
4ec5
b673
662d
dc4a
a21e
8a83
9bbd
a67f
9187
29ed
48be
9c43
6619
11fb
2100
4e10
501a
72ee
80d1
e4d4
4523
3622
8cfb
1018
f470
e556
5ef1
c087
3d3f
f627
ac02
545e
d45d
eaf5
5f0c
181d
2072
b78d
3bb5
e4ce
fe20
777b
f785
9435
410a
5bb6
7659
5928
0a45
b8ed
263a
7546
d2d3
302c
00ca
efe9
eacb
af7f
7d24
33e9
ea1a
6396
2a71
9280
d5d4
0057
9a42
f69a
44cd
6333
dfa0
9e68
cd4e
1a11
d2ae
c8c1
8026
1282
ecb9
a9c7
7a3f
b838
4a7d
1ab5
bc03
512c
3ad1
814a
89e7
a221
c6c5
2f73
4836
9665
5ded
74cd
d37b
3a7c
455c
a93f
a268
e80c
74e1
2caf
e8cc
c679
9459
29a3
b8ec
4b81
9b6c
171f
a5d5
c75b
b55a
f89d
46e1
a574
4f00
c8bf
cd0e
d892
f08a
8da4
7607
4407
7731
53f8
1bb5
337b
acce
e6d7
27b8
655b
5f2e
57a1
161c
5696
549c
31f1
a634
3524
d0c5
4312
b98f
2d4a
f600
01d7
3163
0369
f032
00c8
e707
409b
c608
f259
8cae
2b68
b0df
9764
5f3c
4ccb
3fd7
053e
46ed
5046
309c
1ed5
d1f0
80fe
4134
a629
93b4
d5c7
92c1
9815
1750
ef87
9339
b7d5
0634
4220
fa54
71c4
5570
8ce4
5fe8
fe5d
7890
edc6
2c7c
2e68
68a6
7c9b
cfe5
45b2
8dc6
cbf3
f114
281a
f204
c3d1
570f
ebf8
ac9e
b1b5
263e
6f52
6b34
1d70
3fa5
36a5
0d56
928a
fae5
116c
d486
8edb
cb02
e859
0bac
b035
e99a
3810
867b
5cc5
e490
f231
f483
7528
a95a
36b3
6708
ac26
1007
1d96
1319
2c3a
64a3
8e1b
0fa4
8043
479b
962b
dd02
61dc
8bf5
88aa
e631
f209
5385
d2ef
fc3c
beed
11bd
3ce2
2e31
1151
d419
284a
5ce9
a27b
f376
9266
c57c
341c
126a
c7b0
9c79
da6e
73b5
b9af
2948
043d
afbc
d719
dc5c
101b
d3d7
09b4
4b41
5aea
4c5e
13f8
fd5b
911e
1087
f5e1
c928
85fe
80d1
aab5
a53d
bc39
377c
f27c
3e62
9687
5ed2
c4e1
4b07
739a
c6ee
0ac4
c3cf
8598
4330
3098
9f20
cd37
fdb2
5d5f
8170
e043
ad65
c7db
3a5f
5767
e97e
aa01
c703
93f1
e29a
3a97
9685
86ad
ddc3
857a
3661
2ad5
1c99
d59f
ada3
e342
cd92
00f3
c056
aad1
562c
8b45
2b21
4982
1baa
22c0
c059
9e25
00ab
e6dd
dcb3
d249
441a
62b6
daa4
db8a
00c9
f0c4
a475
4b9c
0601
cf7f
ee21
accb
0715
264c
bfc0
287e
ce06
3464
771d
4427
4dbb
cd38
1295
9448
a180
e776
b964
45e3
6101
6da6
1f3e
b892
8a13
b5d9
240a
06d0
8aeb
8528
371c
b526
fb9b
b2b0
877d
f34c
b5d3
e1b7
ba11
c8ae
6539
b82a
9c89
c8d3
bf62
8fa2
0e53
74e7
ea2f
ef8a
5021
8182
28e6
74da
7222
8e87
30ad
c75c
672c
977d
f47e
35c4
cbeb
7c7a
8c8e
597e
bd97
0fd8
5530
9ba6
2948
fb5b
91e4
86f4
756a
ebf1
2661
208c
1e41
8e6c
68a4
5cd7
fef6
5d4e
8942
bcc6
3895
905a
6df5
f3ff
8a61
1c9f
24f1
c1cf
62f6
7cd0
f3a7
7db7
3990
0910
32b9
b72d
7e46
e316
749c
1c97
586c
d3c5
95d2
d8b1
adb9
6a23
e7ea
3a45
4183
a084
a36b
17cd
1790
21c9
abd9
a3ce
29c4
1242
b3f6
a6a1
ee2d
9a6b
471d
e846
0e91
6963
2192
cbd4
c054
0661
0b2f
1018
74a0
5a3c
a2b5
d6b5
d98d
568c
4545
14b4
add3
e0bb
bb4f
ff5b
f5df
1122
89a9
0944
d387
5acf
189d
3d10
c8ab
282e
9a3f
1937
ae83
882a
af20
60d6
bdd1
b43c
55b3
7fd2
9a64
4019
87cd
f4d6
9114
579a
8c9f
dbda
07b2
b050
ac5c
0c83
09a4
2def
8e05
7896
0632
7f03
1cea
b6c2
5675
0c0e
fd7f
52f2
a0e0
b95f
e498
cb8c
1703
d9fd
1511
01d4
ba2d
71de
346d
01ec
749c
1f54
ebb9
3d18
2f33
5273
882f
3846
eee0
5cbe
4ea1
091c
c713
725b
dbaa
ab09
5354
18f8
32cd
8f67
283f
2967
7c2f
55bb
b616
3380
b653
7811
0432
2823
1122
a85f
963e
ab48
7bc5
1d22
1106
7892
d3b3
3dd2
9141
5c80
e2b2
e53f
4d28
db68
e799
8db5
ffc7
0376
7702
312a
4460
0649
b764
7585
693a
493b
dd6d
2530
5452
818e
e416
f4b3
c006
3a7d
b10b
2a41
f22e
f512
af6e
a0c2
6032
061e
ad8f
2ca2
5bd2
4ca0
2f52
19f6
9dd3
428f
b69c
3eb3
1a65
3159
31a3
7319
a54e
631a
cab1
c2a3
e773
1c4e
8e3b
7b74
7b5a
dfa0
a96a
85bb
4715
022f
5cab
5155
bc85
7fcd
720a
23a1
292d
14a5
a1af
515d
f2f9
1512
0ede
e6e0
3b64
3722
2aa9
34ff
2c17
f362
a1b4
05e0
3032
49ab
4d50
2052
f304
9662
9d51
7120
9b65
5c22
d9f8
d42c
0cd0
6262
0b83
f33a
19b9
78ba
a086
cde2
71e6
f09e
4f4f
2098
7394
e4a4
4b53
3569
51b3
5521
3802
74a5
dd4d
aafe
25b1
9386
1f20
212c
9c14
8b24
197a
1e0d
1557
63e8
c6b9
ff86
f38d
5e04
b978
a27e
aaf3
ed95
e5cd
b489
e595
b713
a424
f0fe
80ed
3880
95a7
b5ec
9e3f
a241
f87f
276e
b71f
bd30
da36
fde8
a92c
2028
e9c9
10ab
af1a
3e2b
68e6
b61f
ff9f
965e
abf4
5c68
8808
b770
4708
900a
dbc0
9c10
7e08
b0a2
0beb
ca32
5fed
304d
1af2
d39e
844a
585a
39d2
32d7
6565
63eb
4a55
5fe6
7d1c
4d80
5004
f762
b1fc
8cb9
b628
70bb
b0e9
e67e
9e0d
2a90
74aa
a293
47e2
704a
22d2
082a
6bec
3a93
4ecc
2451
ffc8
e7ee
b548
9d50
b317
c13f
13af
ebce
f813
a23e
f9ae
c7ae
7b56
9a8e
d54c
0cbd
188c
d4f5
e8e3
f820
6ad9
a79a
8c01
4c6a
d789
a285
3b30
3741
f230
1932
9b53
6138
ba41
c9d2
bd1a
5f67
08d4
19f0
0711
d6fe
ca70
ff6d
8c8c
3343
0ba3
121d
1336
2144
e9ce
11cb
4163
4107
f93f
48ca
acf2
4293
d7bb
5931
bc9c
1d5f
9527
a91b
9f23
a2cf
bc29
f7d6
0ea0
a237
66fe
3308
fda3
1014
42a5
a261
a6b1
d6c3
c3a3
dbc2
58a6
12dd
cf14
b579
e5f3
4b71
5893
a0cd
bc59
c741
0511
ab03
26ec
f25f
a171
da91
a871
87b3
b788
e66a
c076
ec72
fa1b
4b3f
1bb6
2749
6a50
64da
95dc
6817
ee6d
51f5
fe84
2a84
3003
1abd
bef7
4289
1a47
d5de
7b6e
f635
e5a3
0113
c5cb
a406
c416
9924
a858
0142
fcc3
935e
c9ca
d0cf
7f7e
1309
fa0e
6cc5
091e
6218
4af4
ad38
c9ee
a9d4
e830
e53f
6e36
7e43
0014
6684
bbd4
b3e1
f586
7fed
71c1
f3f1
9273
ee7e
e6d1
9a2c
429a
c6c6
1428
845a
7fc5
bdc2
741a
4a95
711c
ca5f
d22d
5286
750b
082c
2cb3
2f82
7001
22e2
185c
d4f8
5858
7c66
11db
14c7
1c31
5903
b6fa
566a
a53a
701d
4304
e85a
8483
d0ca
5f8a
11f7
09f9
e83a
c134
1116
6e94
e0c9
eb8c
41c0
a9d1
00c0
cef3
db69
70eb
7bc5
a6d0
c2b5
854e
4db3
e5f0
ca3d
f85e
e739
c43d
7b85
0349
583a
19df
8ef1
e873
1f3b
94a1
7e0a
4122
85ee
fccc
d2cf
ff09
674f
face
a912
b953
e496
7dfa
2b5a
cace
7733
7214
93eb
d49a
f548
ed7f
8626
6170
ea95
5cfa
a051
f204
6ce5
5b3f
f976
c22f
b50c
9390
247a
b3d9
5ee6
92af
e432
0737
c510
8339
38dc
62cd
f929
80d7
f5e5
5201
82b8
8bf0
bd19
4912
bca0
5bae
2dbc
2f27
d268
0de5
0163
ece7
cc1d
ecc9
6f50
9701
69d8
fdc0
97d6
f5d0
5319
2062
3525
7a15
9a8a
80d4
5969
b0a6
2c2a
3424
0875
9f29
88b6
2af1
e6db
b489
46e6
0e18
eef4
1a57
405d
6a9b
d622
efee
5fba
a886
9930
e031
fedf
4244
70c3
9cc2
c0ec
c255
3d17
9751
87a7
dd0a
1fd5
9e5f
81c1
b4f0
84e1
8faf
cbe7
bf14
055f
424b
4309
87da
d0b6
9dde
b39e
8be8
4b37
5e78
7198
a528
d6eb
6da8
351b
9be9
c2e9
b254
3470
514e
a583
d7e4
d293
06d0
52d6
934f
ac93
0d8f
2740
3c92
689f
5c09
f8cd
cef6
a9b5
b34e
3103
2a76
e188
43d7
850a
1391
2ead
6caa
7115
d7d9
45a1
84c8
c368
89bc
94e3
8297
d4fe
3f5e
584f
addb
8e57
551e
3fd3
2461
cae1
e480
d529
b5df
c2dc
0b52
1b19
d1c5
e7d0
fca9
87d2
e2d4
55a4
6b09
e144
f706
4ec0
6f69
3fd6
9744
326f
c3d5
a531
325d
8aa2
866d
f612
88a8
ce17
e375
9a2a
a789
52c5
db6d
e40c
fcf8
2654
374b
a943
6177
bdee
84d8
31da
3c51
17ab
6c37
afae
73e7
5ee0
18dc
250d
543e
8787
5c12
a64a
73e4
524d
7b36
ebcc
e500
3a16
8c35
0e03
3d2c
b55b
3690
67e6
e678
85cf
bfd0
3f22
ef6b
8055
a766
5e6b
a630
a858
1f8b
cf63
a030
6e08
f9af
0ba3
232e
5266
7299
f5e9
664a
6f3f
4b1b
a51e
737b
3b0a
81c1
0d22
0a15
3ed6
a4ab
753a
4610
0a69
eda0
171e
5552
804f
6717
5679
fef9
c747
f025
6417
0345
3b0a
0eec
9263
b988
e2cf
c9da
5721
460c
82dc
1f80
bd4b
0e26
8eae
8f6c
2029
080f
508c
2867
8723
c01e
f605
c496
7bb4
6bea
480c
f018
6398
d3f8
119c
8968
e357
63c3
f9f3
0f73
5be3
5458
ef3f
c582
e0db
d1b0
9935
8512
c6bc
d578
b13f
c9e4
8269
0367
ec0f
a1d5
aaa6
7ca1
effa
d50e
85ad
04d3
ffcf
323b
bc1a
9275
7759
6dca
f55d
c767
95fa
f578
fbfd
e46e
a9aa
f772
e641
ec11
96bf
27ef
1304
5932
663a
b6d4
ece4
e465
9008
cf4a
d87f
157d
54bc
eb3f
1117
9181
3834
6890
f02b
fadb
6627
8983
20f7
e7f3
fd28
d4c9
810a
0759
5f79
2a10
3cf3
b730
389b
1ea3
febd
aa2c
fe00
8c94
818c
bf04
314f
2bd3
7407
2e43
109a
1555
a116
77a0
a7e5
1e1b
2cfe
6227
436a
e18b
dd70
29fc
f90a
a730
3ea4
2738
0488
95ae
651a
cc1f
4354
ce17
3c2d
7431
2270
cbde
7428
6670
30a2
dbab
cdf4
e2ad
fdaf
0c4e
418d
3e5f
7092
1f76
e411
56a9
38ef
ba6c
65fc
b8a4
f029
f38a
4c17
be85
db95
5b28
a07f
a4de
7066
2e81
e140
afc4
09bc
ddb4
e4c9
4c49
9a42
8286
417e
15bd
c84d
f4ea
35eb
3d84
665a
1fb7
b02d
c605
b95a
2ea3
8715
d96d
0d66
a451
0b01
b6aa
a05c
e201
cbc8
667b
9def
6db5
947c
e009
5e49
497c
d551
f789
45c3
ce53
533a
f425
5481
aa9a
aafe
ed9d
a4a0
d536
5acf
6135
3b7c
65ac
59bd
994c
5e81
f076
a5f6
61d5
1d05
5647
ef08
2c99
dc9c
0f39
60ef
5853
4b89
1a02
01c7
6b69
9dce
6a16
a5fc
002f
e553
70de
c745
c4fe
d437
ac58
1308
050b
f04d
2418
f605
8e62
6700
e704
f779
0bfc
6bf7
99ec
380d
da19
c4f5
2298
3bd7
927c
e0ea
a5a8
e0b5
f63f
3a04
c3f7
f3a5
ac66
13e0
0b65
aa3c
85b0
ef22
aecd
8c19
4316
a82b
ac35
770b
41d1
9ccf
6deb
72be
2e1a
41e8
1f71
0df1
1e4e
634d
cf3b
35e6
d378
c103
fc54
2ae8
8a63
a110
0724
991b
b4f9
7315
6bae
677b
7c5a
dcdd
85f7
1c67
ce46
c6c1
feb7
c8db
dbf1
b886
5dd1
d741
03dd
79bd
dd46
8294
dcf2
5c80
7f98
960e
8e00
a266
86b9
4ca4
3dda
f9f8
1785
8971
97c8
8ca4
0245
84b7
2fc8
a4ec
c990
194d
571c
7bff
e36a
454b
ea8b
acc8
650a
12b3
06a1
b1a3
00a3
074b
48e9
fb23
f4ef
d4f7
4537
9209
6662
76e6
f9bd
ee19
f484
1142
04c6
04eb
c4fc
2c3b
fabc
9832
9dd3
0be1
feae
f16f
4beb
e554
3c04
e4ea
1b65
dbec
c6f7
cca0
28d8
e7ed
6c73
a28e
f200
f0d5
53fe
2425
8890
38cb
15a1
b963
b53f
61ca
4f65
57bb
0bc3
a6a4
9f35
03e8
20ad
eb65
f32e
ea26
f1fd
a41b
32cd
8263
e37f
43ae
1a40
de6d
fbcc
4240
972e
d6e9
26df
c8d9
4fe6
048b
e0f8
154c
20ad
2c0d
4714
5840
5079
63cb
4a98
497d
0865
4816
91b3
14f3
c4df
3ba8
82c0
72f0
cfb0
d2bb
b584
cce7
c3a5
00dd
6d31
4ccd
bc21
a406
cd25
2a31
ab45
d4e5
7905
9d7e
4d99
3fe1
643d
cb7a
8695
7826
2e46
79fc
26e3
b355
3b04
16a5
d3ab
b8c4
ffe2
5b8d
08d2
23e6
123a
0a52
6435
1614
02cb
c868
8252
661e
0814
e0af
81de
d75d
15ce
5b97
9aaa
64de
316f
044b
bd67
4874
89e5
c023
0cdf
7c06
6f7c
b7ce
a28e
24e9
4c66
dbf7
ae38
2b16
3b47
753a
179f
cac5
b18b
eaba
f440
302e
57c6
d718
8b40
22c6
94e0
ae79
d5a1
61f7
338f
2135
2b79
7fbc
21ac
0dd5
21f2
7631
dc34
1368
99e3
cd3c
c6ac
77e1
203f
d7ca
7400
edb0
fd93
cc94
6be3
1e0c
07ee
