13e5
54bc
2e17
9ddb
b617
05c8
0900
a423
5ca6
7380
b550
f33e
e9a6
27d1
9533
7568
6ca9
7867
3c7d
160f
69ba
4ee9
4987
b39f
8c3f
60ee
f4fa
4c34
f583
5b2c
154b
d927
8982
afc6
96e9
b0ba
0fa6
a055
e122
9298
866b
9646
2201
7ec9
9cbc
83f4
76aa
b603
4869
0268
e6ce
c33a
441f
55e9
86e2
0229
f6d5
5a39
2338
90cf
af47
d07b
b4bb
fd2c
237f
7a27
1db5
f080
60c7
ab44
892b
38e3
8f2f
172a
6da1
5eb5
fb86
f8bb
7684
c6dc
0802
8352
1ba3
76c0
5ea5
5867
f343
0139
4ad0
dd43
1ed1
84e2
e901
b9f1
56d9
a939
2f0e
7e86
4f91
2b83
0eef
162a
a317
7e7c
4dd6
b57f
3c3a
6043
aae3
80c2
27fa
a247
d31d
272d
a94f
f5e6
2c52
f073
c859
7354
cd2c
9c63
fc51
3db2
6492
1f8c
21e3
3241
5f25
9ff6
9c9c
06d1
c88d
354b
7d70
9956
81b0
3347
1597
8270
af24
29e3
7e7b
a3f4
6e0b
750d
fcd6
025f
b81d
e6ad
a15f
bd9e
f26f
3f0f
4448
9fab
dc8d
c946
f288
233c
a66f
de3b
131c
063b
2dc7
cedc
6f63
8c25
ff0f
0ddc
60ff
ba6a
9ebf
586d
56e7
fd50
8663
fb78
c245
d538
8987
6277
c9d9
b0bf
5006
8a1e
8a97
a680
a275
8741
1dda
2b72
a7e8
fb4a
2d39
5211
265c
6c39
6e91
519d
40bd
f314
2a2c
dcd0
28a9
d9fe
f2da
dc69
1d37
35a4
f00c
d80b
6743
6eb1
ea86
0e7b
7d2d
2c24
9aed
5c1e
5830
443d
a74e
dcf0
3b26
baa1
e46c
b28e
5763
340e
b69f
1911
d388
f88f
ed99
5570
8577
c804
659a
082a
5845
ac8e
c8e1
e972
3199
b077
21f6
50e8
14da
8296
6792
0505
b921
ad5a
5e95
0e3a
80b4
ecfd
bb4f
4a94
9d6f
a826
92f0
8ea9
b302
9a41
327d
d6e7
07b2
334c
bfa4
6030
4af4
4fdf
f958
b918
ba1e
6980
41d6
966f
499a
e5a3
895d
45c3
b956
5405
f932
2fd6
c02b
d412
7924
53c9
fbce
4db2
1455
1cac
daf9
0ffb
6bdf
4427
46e3
1464
ecb9
1a3a
58bb
43f6
538a
b85a
41cc
7ed1
bb04
ed4f
aa86
d6d7
6cbc
66c7
42b6
f8da
6918
88b5
f800
48d6
ee3c
9313
8a37
4703
fb36
ab62
c82a
8773
b7d9
46c2
4cf1
89b1
5c0b
2a99
182a
034a
a0ab
6b37
039d
7c74
bee9
da07
f743
c5a7
ccfb
3540
4b46
9d35
b39d
e5bb
7953
f15a
88b6
db85
e212
c019
01d0
41a8
dd65
2c8d
d068
4664
ecc4
b680
c548
af8f
e3d2
6305
86d7
30c2
c6dd
ce20
75c6
5a4b
e701
790b
d879
0bef
e29a
b3c5
4e63
eed5
d879
bcd0
f557
33f9
845e
3d98
9871
0d8e
afff
baa3
9cc7
8434
1697
5ef9
6a10
3e6a
760b
ad13
d1a4
44c6
422b
2007
17b4
552c
8d8a
9a87
6c76
fe58
bbe5
34bf
eef4
2d10
f247
1019
c621
2824
0c1c
a613
0ed9
b5ef
5b3d
60cb
eac0
adc5
1db6
56a4
ca16
d044
3a0a
ec89
f543
2fa1
43e4
3fdf
90d1
a42a
9020
dd56
3117
2f4a
cab7
7f2d
1332
65ad
e13d
6f8e
363c
fd4a
6c36
f73b
31b4
db54
45cf
6ea1
5b74
6c00
ae41
35a3
25cd
a985
b14a
00c2
b9d9
94aa
ed17
9929
c988
ca19
18ee
3340
d4cb
2987
bde8
587c
4e98
1e45
cd9c
46a3
20f1
e64d
b9cf
ba76
db0b
4363
f43b
9f02
445a
6829
c889
4e01
427b
e55a
88c1
015f
506d
5c24
64e7
1bab
7345
14cb
2f8e
f114
6d8c
bef4
156a
fe03
6274
63d3
a0ae
1778
9d4b
7fe8
f7b5
cab9
41b0
0cfe
49e3
2186
8da4
a951
374f
0345
b9ce
62ae
8495
6271
6a1b
d1ed
20f4
dbb6
157a
efad
f4b9
c31c
7bdc
206e
fb16
b2fc
78f0
ae85
fd8f
22c3
c0ee
24ef
45df
a98f
3b36
4179
be41
581a
43dc
63f2
972d
ea4e
e196
35fb
9204
a4e6
729e
1fbc
cc25
a1ba
32f8
be2e
6855
2f22
c95f
02e3
42d5
261b
c593
eea6
7714
1fb0
37df
da71
f48e
960e
0425
fa70
75e7
6501
8cee
942a
e0e8
47e7
00f0
8a57
bca1
fb5f
e020
d03a
4ce1
2846
3398
24d9
700d
1c6d
b7a5
6f43
907f
0e15
7a8e
463b
b4a5
c84c
2ec9
a3c4
93cc
4073
0eb6
f9c0
2dcd
6e41
b108
9624
9bb9
43e0
8e05
6e91
e379
bf6e
2bec
79e0
022a
c129
5262
231a
79f5
b0d1
244f
17cb
f2db
2bd0
09c9
dda6
00ee
6a42
3c58
760f
408d
d1fa
5b4d
e93f
095a
55de
4a3f
64d3
7861
80cb
ee93
36ee
5723
ff87
eb5a
c13d
6841
172f
c886
c6e2
78e0
6546
6912
060c
9bb0
9d23
73da
0f22
4ea3
5c8b
6e45
39d7
c674
4715
ccd7
ff94
e65c
6460
f44c
c16f
8242
5560
1dca
02fd
6cb9
fc91
9d13
147a
ed76
1fb7
6b5b
81fd
7257
3f55
1762
c87a
ef5a
9961
5a38
ea20
6b17
a0ed
94b2
ca71
0039
ae20
ca4c
70a8
50d5
6152
fa75
d9ba
b129
75f7
00cf
fac4
d4d1
f651
db28
b7f5
635b
1f12
3252
ff8f
5f3a
7981
22b5
2d19
4f13
fcde
aa33
80b5
7358
8e12
b29a
2c41
7afe
4f9d
3583
fc1e
51ce
c9cf
f778
5fe5
d0c7
66a0
72d4
e26f
a709
45b9
ffdd
7cc1
3560
9db2
5853
1115
781e
cc4f
9d23
0d0e
932d
25a8
b946
1fce
252e
9328
bbe0
4bd5
fa5e
9413
4e43
402b
9127
640f
5a38
8ecd
85e6
54ad
855d
7452
ec07
4359
775f
2b02
6395
a55e
22cf
0739
68e9
4c04
69ee
c95d
1aaa
8e6f
416a
9afa
92ce
2f75
4d9f
1272
2bea
002f
2613
6f07
323f
6812
8fcb
1d2e
d136
cf5b
443c
f488
dfde
4ff4
ab4b
8867
3c3c
5115
4f9c
4207
fad0
3a4a
470c
bce9
753b
08d5
c6ae
1814
b741
ffea
1264
e0c3
7c0c
0ec9
42f5
cb09
1f22
eda9
eb39
c95a
37e0
c4b7
b2a3
f62d
dba2
2838
50e9
6103
2fcf
174b
9f3a
7686
c934
1674
c79c
2993
e67a
6cc1
a850
dda0
0971
512c
e1d1
e409
62b8
2de0
cca3
8df2
6215
b990
bc6b
afa2
4824
ec52
b297
af4e
8a45
0b57
e3d8
5656
8bb3
8402
2cca
f065
ccd2
2a2f
f1f1
3648
8ea2
0fed
7d69
b9a1
4fec
0e96
8f08
e08c
32e6
5c9c
35e0
9a31
f510
8d18
bfb1
66e4
17aa
dd4c
ac8c
4442
d093
51e4
4509
e830
b4c9
b641
3f6a
a006
75d3
142c
6be3
f735
0a3a
b6be
5149
0644
4eb3
4097
fa5a
0a2b
02da
d838
7b30
a759
c1cc
1c97
3c65
b56e
da1a
b733
406e
3832
6a54
4823
8e79
96ce
f029
f687
8a5d
eb7a
7397
9357
4694
13a3
8d45
d41f
4f87
d264
e577
1551
54ed
c6de
7ed3
d084
939c
02e6
558b
736b
6de1
87c0
d108
fb27
9459
5045
33dc
6f00
884b
0a06
04cd
6491
2bf5
8686
6292
c7ef
5bbd
0c6c
b840
cd00
7db4
1159
0beb
843b
bdff
a71d
3370
a906
522b
a88a
8804
da9d
9613
8f91
08c8
9a27
3b7a
41e1
38a4
c7e0
d8f1
4025
ac35
e467
fdd7
00fc
021c
e587
f97b
09ce
97ec
d118
c4c2
92c6
cef6
0b05
fc50
d77b
32a0
d5e8
a50e
5d4d
5bfb
5b9b
2faa
d04e
7848
d72b
d09c
9a43
bc15
2f49
2e53
30ab
6d2f
fae8
e46a
11ee
5f25
d77f
6103
6595
743d
3d90
1ae7
e987
ab9d
935d
ff8e
2e6d
1d31
8b06
4fc1
a61a
51f7
3ab5
374d
a0fb
667b
c4d3
71f6
553a
5df6
68d9
9699
a15b
fe03
2212
969c
3939
d4c9
f094
6432
d074
2216
e0ab
b62c
05e7
149b
8149
45e3
15c6
70d9
794f
62df
690e
cb41
0f50
6b8f
9a9e
b495
4126
440b
5dc6
728d
34c6
a1d1
d4e3
e8dd
b49b
28a6
d10a
aa77
1457
9175
a8c2
94bd
df0e
51ac
4237
9209
f50e
817c
70e1
cd6a
0452
3c3a
4742
4675
2af8
4485
d332
d879
f048
1592
9fa4
c59d
4c52
7925
5dd0
20cb
0872
28eb
314b
0b56
409c
a7d5
d6eb
6de7
2438
0316
01a0
832c
2598
ec9b
940c
f85f
0c37
ce4c
8dad
35ee
7751
73b2
e96c
f888
f777
770c
5d4c
069e
8b80
cda2
78c1
db86
5e54
6304
6507
269f
cf86
b3cf
5ce9
665f
17ed
ac13
39eb
973b
9e27
b839
d67e
3ead
5d9d
ad92
4692
44d3
8cfd
fa18
02f2
4dc6
dadb
e013
8c26
c577
752d
70ba
b7ca
d107
0f87
0a22
833b
435b
04e0
3223
60f1
50f4
24bf
780d
c7ed
e45b
383a
5675
d5f2
ab8d
44d8
a57e
fd18
a7b7
2002
7a9f
e982
9ac0
c050
6f12
3efb
dc12
7487
4b3f
8f0e
b9db
a417
8e84
11d7
49d3
b613
ebf1
ee7d
749b
8e83
329c
5601
fde9
f1b3
7d0f
e189
bb79
4208
76d9
1e4e
312e
faab
3a75
eb92
5f3a
89aa
680e
d3ca
dbfc
533a
b795
7103
fcb2
2a5c
b28a
a35e
c671
bf9c
95fd
1fd5
266f
27da
1d19
2533
ec11
2a9c
d84d
8105
72ef
77a3
a5c4
6e39
be65
86d1
c511
5d6f
8080
d916
953a
9fc7
f2d3
619b
605e
f547
f9bc
2c00
7cde
6ea9
a1c9
7d09
0cd7
4651
ebd8
0feb
d3f8
d2d3
8788
72ed
8427
c203
d87f
6cae
645c
052d
9c25
34ae
b00a
f762
8f5e
1d40
7629
4501
6535
fe28
466c
2a30
96cd
9214
fc6d
a7c9
77ed
27a4
d266
92e9
34ba
b70c
dc6f
6d9c
c23b
aa7f
bc02
f018
2386
f7c2
5d7c
1f4c
a811
1f18
6177
9f42
b898
a476
7a24
9fe5
e900
22c4
be77
0670
bf1e
ea17
de4b
4423
d712
dc37
c451
0880
8f9b
b5ac
cd84
e7dd
3da3
879c
c428
d869
45ac
40a7
7947
1efb
7c2e
00b5
9549
438a
a402
ebf8
a1f0
e436
5fc6
d82f
dd60
6ccf
6b91
353d
0d53
9dec
6de4
d3d0
f778
02a1
19f2
4fe1
b3ef
b6fa
9b07
95f5
dd72
7909
b701
5be0
6614
fcfd
aafa
c084
b058
ac62
9737
4dac
9850
b142
feb6
e845
11cc
693b
0b33
67f9
e51b
8c18
0c0e
82a6
ab21
40a2
bd6c
c693
8350
4f2b
d0b4
de82
2530
7f2b
b795
15c9
0a1a
523c
2a16
4555
5003
ca16
558d
de08
b99a
5316
8446
ecc2
23f5
0a18
d98a
4177
c812
3e37
0fe0
e69f
9471
8174
f7a9
fb3c
6bba
2040
b07b
6456
2a6d
9b94
6e27
848c
18a0
4855
217c
8825
7d6e
3434
5014
fad4
2fd7
f6df
ee34
cce2
d654
d322
63c3
b2f0
1268
1b12
b5fd
f6dd
f68e
8908
c45c
b64e
a387
a8b5
f95f
92d4
eda2
a91f
2a8e
737c
94c9
5c64
a5a1
61a9
dc20
2f1e
66ce
a9f5
f666
0610
70ee
1885
c7ec
2268
1359
63d7
b75f
c2fd
2c69
d60f
070e
7046
575a
a729
0910
59ac
2ed3
f055
937b
754e
1928
f2ae
e330
fcd4
7d95
d642
1dd3
0f48
002f
ccb2
ef7e
684d
3f6f
a3ea
7703
7079
1fb1
e70e
a0d5
cea3
2728
e60c
ab20
e6b1
49e2
37b3
187c
9f04
57b7
5860
4829
12b7
cbad
ae92
b988
fbaa
8a19
edc8
c465
a289
4c24
aea7
a5bd
1220
38cf
f7c4
af3d
4405
b117
b1f4
b2a0
6072
9f9c
02bd
d34a
6e71
dd02
63e5
93db
8e98
36f2
f37e
ed0f
1119
cb74
c40a
0712
503f
18eb
0753
3edd
a668
90a2
8f7d
fb32
68f6
17f9
4a60
4695
e759
da5f
fe26
02ff
2020
cb68
72d3
d498
9ed4
d0a7
43f6
0f92
7661
836d
292b
3e0d
8ee9
1996
c261
3bde
1a2b
3c55
2aed
6eff
d9e1
78af
02fe
8bf4
4c22
58ac
94ef
6b60
59e5
da17
d632
ddc1
7490
e885
c2be
c0e9
1f66
e882
7493
d104
bb0c
36eb
70e7
1c31
fb20
b568
5c2a
7ad1
2590
9243
ab2a
4106
fc73
6c08
8b8e
f4d6
ae68
9128
f01f
e84c
a320
7a09
0331
9764
491b
7513
98e7
286c
1441
04c2
b887
754b
026d
c52c
d547
da22
6788
50ea
34e8
4e4f
cc9c
ec10
a3f2
90c2
811f
6b1b
4eca
eee2
72e9
6cbf
f1cd
1df2
5a3b
03b6
0707
7fb8
ed37
30c2
8ca5
ae50
9de7
ef95
96d0
1254
0387
b620
06f7
c867
b397
537a
0478
b5e8
8f10
e603
4431
dcfe
f5c8
b957
8eb2
b9b5
4eab
5023
a042
4520
2c71
b33c
342a
d181
ac51
2f3c
cf5c
bbab
c04c
1985
c9ac
d7a7
64e8
ecd2
8277
0b69
d7b5
26e2
c548
8e36
5908
8e46
a9b2
5f81
0d1e
9746
1a20
479b
c0fc
3742
5dec
e2ae
42b0
8360
bced
2cd4
7adb
7f53
ddc7
68ff
86b7
0ce0
b39f
907d
a387
8199
d89f
6ae5
785e
4b94
b5dd
be0f
3d86
c991
9d99
f8f9
7685
8ddd
d39f
732d
32e9
7fb8
ede0
794e
099f
c089
8f80
9e88
b732
8c0e
b96e
73fe
4705
4ba0
8639
153d
9e26
3f74
9b1a
1ee3
ec0f
7937
fa3a
d87a
c3d6
44df
8042
accd
8bb1
9517
f60e
ab8f
e178
1f57
e976
6ee9
8e8f
fd29
5652
8f5e
c170
4ffe
1c39
8e50
a419
0857
8e6b
1404
2f6d
8489
02a1
c162
09a5
d0d7
8461
df5a
c71f
b819
9e7c
ed28
4c6d
a0ff
0b16
b61b
526e
85c7
47c8
b6be
4248
df75
d990
4f20
9e02
5025
8990
288e
5fcc
75f6
94e6
b415
1229
7686
7438
08a4
0222
8963
b9db
b63f
bfdb
2d56
a7f9
3a92
5e64
b85b
b42a
ccda
2f37
a4ec
1c6b
acd9
da7a
4bf1
f24d
cca3
95ca
c7c2
d495
745e
96ad
2b87
2a5a
824f
898d
d874
5aac
f90e
652b
5173
c35b
c13a
f8b6
8224
f3dd
a33d
9dd7
0d84
9308
56ee
75aa
062c
888e
dee7
4ee9
fe61
3db1
dccb
d2b8
2d19
2a34
f829
3fb6
8d9a
76ad
ed7b
ec50
dd71
07d0
d895
1867
61c5
811f
3671
94eb
f9cf
8a66
246b
85ea
8f84
6e46
3dc8
ddeb
aeaa
ea3f
3ae6
44b0
5eae
9bc4
b7ac
a913
cabc
fbfd
5cc3
c3e2
546f
b35f
89aa
e096
9888
8774
5e15
728f
ea8d
56d4
c0ae
e833
2363
6314
9d62
432c
0b52
d7e8
6f73
1e7b
4673
8fb5
e8d5
1728
4815
8fa2
5a22
f421
4938
3329
c537
3913
5606
0029
ec4d
0ebc
3901
3a2c
7759
45ef
bbd4
83bf
9120
670f
f49f
0bea
5ca0
da61
ef5d
1e33
883a
56f7
ff7b
cd41
4a40
6387
23cb
f186
a441
7147
79cf
5d73
57dd
f02a
fd17
462b
ffc5
108e
06fd
4703
328a
b96b
ff09
dc28
fc9f
45e5
ffbc
686d
de47
c49d
0ae2
2d77
ecae
1a36
3a28
19bb
e7d1
c401
071c
c08f
aae4
1a4f
857a
d878
c93b
59e5
f410
d8e5
ec46
e1d8
fbae
c58a
3317
79a6
26aa
cf3c
d319
f965
d8ee
1b94
33a9
1597
d94b
95a7
eb7c
1f33
cff5
59d0
0d81
1ab5
2406
c090
696b
8124
0a70
8eaf
2970
bc61
29f4
f7a2
640b
db74
65d1
c227
011b
b9c4
7ab6
cf5a
1ccf
84a1
f94e
564d
6619
72f0
5371
c8e6
8257
2cb1
b07f
5521
3c04
5101
ef9c
0f11
86e2
01e8
5368
e42c
570c
859a
6b88
293f
a700
1f1f
d858
320c
f442
7a45
dc69
9e79
9ff8
1573
9756
33aa
1028
8817
80ad
494d
aa2f
4e18
7073
0980
ab1a
f223
85b9
8378
a956
cbd2
26ea
1baa
8da5
f736
6cb4
5d3f
4847
35b5
4159
1d93
5c8a
9448
1ccf
573e
a9ff
49b7
dfce
8a35
0441
b8e2
33c4
e043
866e
fc7c
55b1
3b9d
27cb
32e3
1d41
950b
8593
d6bc
8b15
0911
4ff9
0644
c98c
35c0
e519
3909
88be
a3b8
32ec
2620
06be
ef87
af04
b20d
7f1d
bd09
a42d
1b33
9aa5
e63e
8d73
ee50
0e7f
6e0d
ea55
c233
8c23
0495
7d46
3f78
d6e0
9396
3b94
742a
5665
8946
a480
33ab
d7de
cd42
29d8
d74b
5854
1cfd
18b5
29ba
b216
a22c
64d4
1e6d
06da
dcf7
c0f6
3adf
8917
08c8
dd58
db0d
71f4
84ac
3a91
741b
2939
ee65
105a
799d
02c9
43f8
2c78
581b
6dd5
0b37
4b33
c76b
1d65
cf21
f845
5e7d
122e
d3ca
7c71
fe91
dc7a
c6da
45a0
18dc
5abe
82fb
76f5
aa32
a15a
ee3f
4ad1
936a
b8de
6da3
d1b8
38f1
2ea8
b27b
3f8a
ec78
4af5
ad56
5f64
3b1c
7eaf
c190
1439
863d
aadf
7718
4dad
2644
9546
aedf
03c0
3f72
b81a
99ce
0dba
38a9
5c3f
1a32
d7b9
a0f5
7043
9e08
d45b
1490
d23b
4f52
4dad
131f
0f62
1e14
91b5
8df8
8baa
2f5e
7789
60ce
c5a2
bb86
f24e
938d
5f66
0558
583c
40cc
3d1e
d7af
6223
c11b
cfb0
9b46
cfcd
1450
ddf3
8ba5
d3f3
cb41
c74f
8562
91dc
4c2f
3527
6d22
f19c
634a
e329
e9dd
8eb2
9e9a
c3ea
5a7f
0682
b147
4325
ff37
767f
b1ef
6875
dfb4
dbe0
2707
0127
0d92
e8d4
493d
8962
d7c2
56f6
384b
5a95
a03c
8881
4e2f
4af0
a36d
cbd8
f155
c7ba
6230
32ad
cadb
d8ce
5533
86cf
3b90
d99f
e632
8c96
1f31
e06d
8bcb
a93c
b662
e143
0d79
b6a9
8fa1
0cc3
a15d
4d0b
dfaf
c8bf
a25a
42b7
cd8c
a414
0804
add9
60cd
d14c
ccb7
5aaf
5af0
ffa8
3080
c3a8
641f
38b4
0a3b
6b5a
bbfc
b267
b7b6
6535
c000
7980
85de
6eb0
d9e0
fa1b
75b4
67fa
6b2b
6f47
f419
e376
456a
94fd
d0ab
7d66
7e84
62da
e106
96f5
476f
8dfb
f75e
ac0f
6863
745e
3a52
d387
f40e
b0f7
d82a
aac3
f54f
5759
648b
23c4
1636
0267
31f7
69de
8998
a428
a1d4
5809
6462
a391
47fe
2089
3a03
729d
b128
c480
b599
8f6d
1708
20db
4c34
1e26
a524
8208
0289
87f6
3525
5491
9c58
7650
e559
bdb4
c29b
47e2
48e5
a998
0a68
9d0d
b942
0ad2
6ccd
41f6
9177
0923
e219
e209
1fda
20c6
f1d2
1d68
8d43
bb4a
e437
7d5f
4e9d
a279
5471
549e
3691
7d07
c4aa
5855
f7ad
0c32
daa8
d9ce
2cea
cdf2
6937
a4db
f0b4
7afb
f3ee
bea5
de25
d61c
ee14
c99b
12f7
e3b0
0429
6b55
9b70
874b
c6b7
fc97
f46b
5025
642e
d996
bfc6
0b22
ffb9
6fda
7abc
af62
71db
cae1
9d90
74d9
b322
5f2d
4fd1
5bd9
abac
e6d1
48b0
a476
e8ce
c3d4
c2c8
acbe
674b
cd58
bf32
7f29
6507
1539
d165
9075
7a4a
016f
d5c5
69db
702a
055e
1638
2492
748d
3dc7
948a
3ffa
e465
88d3
c0cf
c53b
2177
dd74
6370
117c
d6d0
26ff
00c1
8146
9dbb
c20c
4fa6
3252
542f
789e
20ae
0aba
f506
1daf
a94d
8e3b
6205
69ee
3d30
5f28
a5a2
4a5a
173a
4d77
e3a3
79e2
e77e
255d
661d
1db3
ff2a
6445
6ca5
8aef
383c
4625
e4f4
274d
c3ae
5297
08b7
9dd7
bf95
d89d
14ff
2a13
1111
f233
81a9
24fb
5216
4a3a
47ce
e17e
1351
bc87
6e0a
8281
0939
346e
ea22
fe3f
800e
4a27
6525
a04d
7b6a
dce7
2480
aa06
f599
cc4d
8582
3901
94e3
d089
c743
7c27
cdd6
e3ac
3c17
b592
12cb
2470
92ff
3a77
1aed
5de5
cdd9
ecc9
32ce
5093
47bc
ed46
4199
9696
7dde
2d8e
9ea2
8278
1896
f8f3
15f6
91ad
bf66
b25c
053a
ef68
9dd0
2468
fe11
f1b0
a699
e02a
a15b
eda1
ecf7
c870
c8fb
3d53
84e9
0b70
eb5f
f23c
19da
8dd6
5f38
7100
d231
ca71
cdb6
1707
5e6b
996d
6731
e745
2ee3
0f76
73c4
c1d1
21e8
867a
fe24
e526
2d10
144d
c0cf
7ec2
bd16
4e1e
a696
25bf
8fe1
3d98
6cd3
48c5
aea3
a5b1
12a6
b367
3ed9
6380
33c8
6833
f091
8160
dec9
1f18
b507
17ec
aef6
cd0c
0b26
82cd
8ebc
8454
4b3c
0dbc
8a6c
37f3
93e7
f952
ec62
f5e8
6a2e
76b0
63b9
fa8c
6beb
4a26
a271
25a6
b1ae
0148
591a
7d59
fe22
c4bd
6b12
1130
4013
854f
f10f
647b
fb55
4042
80e4
c49b
8ccb
5981
be03
f87a
f8a8
b546
ef7b
4e25
68db
a11f
6870
79d8
a9cc
5827
6a77
d95f
ce89
22be
8d00
58e9
363d
6a54
46eb
32e9
bafd
bdf6
7774
fe81
f728
e72f
f1ac
35d9
fd02
953f
fd5f
0180
d3d9
d165
9796
076f
56c7
d813
3239
0eed
e458
2bd2
75b5
08aa
cb89
40ad
6a8f
dd89
c910
bc0c
b33f
4fcd
a567
dc05
ff04
f88a
0d89
b103
1b87
a119
5caf
cc80
2244
e211
6431
d722
6e79
a41c
f671
0136
916f
d2c8
36d1
b4f2
e491
0c1b
9740
6200
bebe
f3d1
7d0f
a5ed
fe72
9481
39eb
15e8
96a3
3b0f
28d3
45fa
f396
a568
31d4
e73c
d3c4
755c
1c57
b634
5f99
41f7
a2f0
3706
0de2
08c0
e965
5cc1
899b
1d69
2dbf
def9
6bb8
5c60
e31d
2e6c
8b83
e07f
b303
0c34
fa5c
6280
658f
f338
074c
5099
e445
0f3f
2819
94d3
4f74
d1d5
a67b
797b
b724
7d07
89cd
f7eb
e7d3
ad4f
53c8
d7b0
09d8
8866
44aa
0e30
483e
fe20
311c
cfd5
245b
5da9
7184
7a45
9394
8cae
fc6b
2c1e
02ee
8a8a
edef
5531
1582
ba7e
a1d0
9abf
1e11
32d4
a4e5
c21f
86ae
067b
c196
1cc9
eb52
5b15
0d06
38c7
ec55
dda4
7156
a061
aca5
f124
a44a
1470
eeb7
676a
d3f6
e64b
467a
08c0
43e4
0e47
f4d6
4b87
ac77
7617
bc2b
80e7
3faf
8be8
c85c
42d3
2cb9
f544
0c0d
bb5c
6dbf
0589
05de
d0c8
10c6
bea2
b211
a6b1
8d07
2c2e
222e
a14b
052a
9ce0
b6a6
5ad5
8b40
a0b8
fa45
1090
25f0
87ff
aab0
025c
a899
3183
a392
db5d
da6e
5aaa
4e8e
451d
35af
8497
c537
93d6
000b
636c
669e
aad4
2c2b
18cf
3524
ccb1
e53b
c7bf
b04d
660d
b80e
d5b8
c23c
47f6
f7f5
9abd
40b6
06f1
918c
fac9
2acb
ee5a
7f0e
0a15
40e8
92b4
e1eb
e628
e674
ff3d
038f
e75d
27f5
aa8d
945c
16ed
90e0
a01b
29fd
8cd2
0c3f
f73f
4e87
19ce
7a22
0808
084e
78c2
6397
27db
5eac
2ec9
96e0
14d9
bde7
0c2b
f72a
2c5f
c24e
5087
4e21
7769
af75
3e2d
0a73
8c32
3546
dda9
8b82
dec4
93e3
5da5
3579
6b2b
a55e
152c
74b5
2644
9aba
dd4d
5bd4
a6ce
3fe9
6ff0
a3b3
78d0
45d9
cf5d
789a
969c
2a12
0c1f
d37d
d7bd
33a6
ce2e
bb21
79a7
457d
863c
e3ee
6b1e
856f
e4c5
97aa
cfee
5113
8309
0e96
4a93
31b8
7f52
4e0e
ec0d
9168
b526
8529
0608
9eb8
af23
af14
a410
13ed
b029
17fc
f908
31fe
5f97
8ee6
8b4b
849a
41a0
42ef
1f51
1f08
d692
ce53
6e56
bfd8
9f0d
fe69
af0c
6e1e
de39
99dd
abc6
614f
4087
b736
90f2
af73
ece6
7840
ae11
b3f5
3b6c
0ef5
2597
d9cc
b7ce
4885
b6f2
98ed
e6be
49e9
38ea
e1d4
1d94
02bb
b28c
2bcf
b368
e5a8
73a9
0dfe
41ef
1b94
9133
7723
e359
bfa8
e2ad
2e9c
07ef
dfc2
6d79
cd85
3152
cd5a
223d
ecc9
a95e
cb01
5350
d175
296a
070d
b404
9715
3baa
6ad1
0ad7
1503
590c
dcab
07bc
1858
a1d6
f404
56a9
7082
6ff1
f6d8
0df8
a2c1
cc51
6bc1
7d2c
999f
fb86
9805
5002
050d
4457
18ee
2fe0
af0b
7cec
0133
9084
8a6c
4372
73b6
a4eb
738d
1809
7aaf
3cf6
15e4
fad9
a503
12a1
7769
3a46
3493
c7ee
e52e
66ed
0adf
425f
46a1
936f
742b
9d39
afb8
76e5
48a3
4cb7
38b5
e98b
f1b6
4781
662e
23e9
dd7a
13cb
707b
c0ad
f232
c84c
c306
e164
8c2b
6bfa
ecde
52b8
103d
82ab
a7e7
7397
8119
9db2
4dbc
70c7
1726
2a84
489c
ff28
e3d1
4bd9
a9ba
8e2b
4270
aaa3
53be
549f
9e67
db2e
c646
ee1e
3c1b
17f6
6e41
93e8
5867
0611
e5e2
1c74
2aa0
b12c
431f
fbaa
9333
97d2
cf22
9808
40b3
e6fc
98f0
e2e3
a002
aff8
5955
8f27
49c1
2d23
97fb
4c06
15a9
db7f
3982
44a5
1cdf
ced0
f127
d329
d3aa
47f9
0b74
e13f
7ee5
67db
5b75
d492
2c7c
0112
21e3
ca44
2d11
f7f0
0cb6
7567
6552
ed2c
8cb2
80ef
5939
5ca0
9e47
6a9b
9b33
2cc3
1e66
a26e
844e
d1aa
5969
04ca
f68a
d94b
0ee0
0f2a
fdf1
9ebd
f06f
ad8a
4d88
eef0
e9da
45e8
d304
babf
4b15
00c7
1b72
12a7
501a
2152
a346
5630
edb5
3764
d2b7
6135
8272
8416
172d
5072
9c2c
ac72
97b1
a989
c0de
9c50
739e
8507
f420
3cf2
9621
192b
d24e
6e5a
715b
e176
bacd
e590
575c
b3c4
7e27
0ba0
6bdf
63c4
b34d
058f
60dd
bc48
2244
b536
cf20
e6cc
8edb
7667
b7f3
5a23
8f90
67c0
9f91
34ec
d603
9035
7e29
f99c
8bd5
0b87
b9a9
b3ef
97e3
8933
a824
fa09
d889
2b2a
1141
5dc8
5d65
02cd
2693
d2ad
4661
2271
d07f
873c
5923
4292
97ea
b86f
9095
e106
246e
c90c
e22c
5120
f534
50a7
d7c8
14fb
2173
7d3e
6570
c491
60e5
bfeb
d527
49be
c8b7
ffa8
f855
401e
0675
9199
c0ab
f62c
1971
a999
dd67
a188
a280
f1fb
b13f
6689
d158
73d5
c711
ab26
6c3f
5b69
b46c
6357
df94
ab45
7789
c073
6b05
6ea6
2014
933e
0899
9cf0
5220
4239
605b
2c6c
fa22
4e08
01b0
edbf
989e
744f
1087
02e1
de34
f9d8
137e
5610
76bd
f152
ffa7
7c01
2880
2df1
f5ff
9593
7a4f
a141
4be4
4b32
db95
5d64
e505
2fd1
346d
1fcb
57e5
f731
5f4a
9b01
57e2
413e
5811
96a3
2900
83d5
f87e
5ebd
a522
8316
174f
50d5
933d
1d4d
6407
acba
f0ae
626a
cc8d
15ec
1911
f15c
cdf6
5dfb
7b17
43c0
e453
2e53
ef22
c401
1dec
ece9
b2c0
f958
63bf
694d
3e73
1dba
22f5
dbec
1298
10ba
3211
f84a
988b
93b4
0350
25fd
de4b
1a31
bedc
4553
a125
097c
1e20
16a2
2b13
8ffc
a661
9f8c
e759
3057
5fc9
2212
a3b8
6154
d0b9
2d0d
bb6f
391e
97b6
5aba
7228
1c21
690d
f112
6d15
d600
bc6d
dc5d
4b9e
2dec
06a7
fafc
1080
009a
dc41
01cb
4359
9510
cba0
3475
7241
277d
a83a
78a5
e5aa
4bb4
1a5e
8f76
60d1
1dca
1069
3442
8c10
a8cd
2ebf
6574
f981
9dec
0248
c319
68c6
2f27
1fa4
c3c4
4b30
a5f8
ab52
f9ab
5f42
2fea
cc69
6e79
0b12
f489
10b1
6a48
88ee
4ec6
1b09
9c8c
d653
958f
2f90
98ff
3c34
5949
27e7
f42f
236c
81a0
7170
f382
bebd
91ef
f7df
53c1
2347
897a
2c6b
6559
282e
70ad
8b57
1664
30bc
8a2b
8ebd
7f67
a5d6
15d2
28ad
9a99
c84b
9aac
c398
96b6
b678
a62b
7a60
3d5a
8f01
1557
56e3
075c
98ee
7868
6394
8a61
0966
e7b0
dd70
9bb8
d58a
92e4
537e
974f
af31
374c
b095
705b
1d77
cee9
f00a
bee8
e885
8d2f
3e69
f808
c2bc
7711
b559
4c2e
d73c
0f1f
2f81
160c
7aa8
95aa
bef3
c2a3
a08d
3003
8874
3df2
c0e0
f604
320e
016c
9708
3983
423d
948c
9087
ab6c
ef4e
ca3b
eabd
9466
78a7
834c
5be1
6a30
a58f
96a9
e489
b1a7
1290
0df5
e986
d90a
9fba
908c
9deb
b87f
c989
40a2
62c5
2879
c9fa
79c0
d683
c0e0
6377
08f7
91c8
89ca
89cc
414e
5f7c
a206
1895
3564
72a0
b923
9cd8
2b5a
a34f
b30b
e898
3da9
448e
9531
0004
ece0
c8d6
07d2
20a3
8afb
be7f
d11f
4d87
93ee
13d7
9632
bd8b
1886
d7f2
cc66
7894
70ee
2c43
206d
2465
62f1
e97e
bb2a
4a1a
4a95
af37
4cc6
8ca0
b2e5
788b
616f
a3c2
9f4a
9862
0b5b
0b37
0c09
cdff
7d88
e87d
a452
2d1a
5ee1
cd88
2174
20b6
1c79
0b45
3c47
1f9e
1e30
88be
f5e5
15b7
5530
2b4d
47cc
71c3
96f0
d888
1973
f1ae
349c
7912
8f30
3d61
bf63
8ac1
1215
f58b
d8a8
1e02
ed35
3ab7
542a
2cf5
818d
a2fc
f50f
d45f
930a
3f56
c783
cd91
a12d
eee0
043e
2b41
0f2d
a785
8648
7d73
8d80
4401
d5d2
4eb4
b0e3
ec86
b35f
4a0d
6db4
30e4
e90b
c482
c2e2
14df
d4eb
1c52
8c89
5622
856c
d9c6
a447
dc8e
b60a
962a
b62c
52c2
8c50
6bff
0fc7
a24b
e33d
3aad
2d90
4f2e
fab2
e2e9
4c2e
1831
4cb5
553e
add1
a28d
291a
21ac
a00c
26f6
ed21
7981
42ba
960d
5e7a
592e
4bb8
ab10
dd78
4a6a
4160
e5d5
f399
598d
ae5b
19cf
4c9e
8bc9
2d9e
cc75
2307
be57
0a66
704b
d05b
12fd
9d70
a6cc
98f1
ec7f
3e2f
4d06
a8a9
8fd7
7e20
7ba5
c5b1
b70a
4436
3918
1f4e
f4c1
7a24
d0c4
4cb2
c600
451a
a75e
d86d
f140
5ed1
4c20
d770
fa8b
bd69
48ec
dd8d
b731
46d9
9e13
0600
f507
9c84
533c
e899
b9d8
91d5
57f6
21d6
5ae2
e95f
148c
9e99
5df7
ccd7
e27d
9572
6c90
3f24
6283
e1df
5bcf
9b6b
73aa
bcd7
8736
2c3e
242b
4d68
1abe
cad0
50ee
f809
1f16
504b
0d8d
3c77
a1ae
62a4
0493
3d80
c537
6885
1378
2bdb
db52
379a
279f
34f0
5efd
500c
5bd3
1ba8
918a
ed68
0043
9735
975c
e2d9
2f78
cad7
6aa0
8ef0
124f
de77
1d6a
9439
c008
5d23
d5e0
f61e
31b8
86e8
ebb0
b34f
3300
474d
8d3e
7c5e
4eb1
fa73
350c
b0b6
91fe
e1ee
95f8
12e4
2434
d86c
cc7a
e493
64e9
a00e
c106
19b0
822d
64e8
bea0
ee0b
b87a
6b0e
c65f
8957
7038
121e
79cc
6e0a
46b0
2f21
01fc
5055
c7e0
a8d4
378e
b60d
4d56
7605
3d6b
0f31
877e
e902
576d
e924
0dc0
0754
690b
984a
1343
6cca
d90b
10ef
8fbb
536d
7308
159b
2c83
3fbb
37ee
4782
584b
95c1
a8b7
684b
c894
f7df
bb29
758d
dbcf
45f4
bbe7
073f
1e78
c159
27b6
69bf
5eb9
6e7c
e764
af5d
172f
417c
1164
5e97
05ba
14c1
1396
af12
87fb
b93b
bce3
d3ec
ce34
2fc0
949a
825b
da78
4a52
f784
f25d
7531
2561
bb07
f804
67e5
7c50
6fc6
34d1
6549
150e
2633
a205
1fc8
6db8
9f23
d58e
78d8
4c88
2f09
93ed
6063
7a0a
98c9
daf4
718e
3d8c
6a42
46f0
e0bc
b96a
26b2
9e93
67a2
4078
fab2
ce82
9db6
8dec
843b
c60f
fe46
27d4
8af3
a9bc
006d
ca49
71b2
4ae3
06d2
8c4a
1843
7b05
4812
637b
fbd2
5c11
b512
bd69
70e7
44c7
6519
5c40
92f6
6483
2d87
4c07
21bd
e3e1
f88b
02f3
d664
edb3
aa9d
912b
806d
62d7
2149
2b11
471d
a279
505d
c3dd
71dc
1205
36a7
0e41
3ebe
9516
6504
d6b5
3d9f
6ed3
c4a3
b4f1
9802
af8c
531a
e9dd
39d0
bd37
67d6
21bc
0dcd
2a3c
eacc
8c2d
2648
937f
dd77
9f4d
16cd
208a
ce6e
d3f5
b250
02c6
967c
d7a0
3eba
8b11
0817
7784
ac76
73f1
1fb7
31f8
bc7f
2e9b
32c5
d141
5293
0694
e4ea
e1fc
c648
1838
325d
0e0c
1405
ab17
13dc
44df
81f1
4bbf
edcf
c0f3
ac0d
aaf1
eb8a
b6bc
bcdf
ac8d
2536
0702
f285
d773
3644
b909
013c
8ec3
3b8e
09e5
bac0
f27e
8474
e4e7
7934
20b9
80cb
c26e
4d1b
cd3d
ae21
8c6a
2cba
64bc
4a03
7b94
07ce
3cb7
92cb
973e
0900
8ba8
72b7
d5fb
26ab
242f
81c3
3e5e
ec03
3355
64c7
eedb
8c88
519b
c668
f7f6
0eef
42be
80c7
b616
a164
e598
3a58
0543
3893
ff6a
e29d
f2bf
54f2
982a
1c8a
a847
0b12
0970
5d5b
3c76
d3fb
0a62
aed5
2967
1a8c
3576
8f2f
f89a
d0f2
15b5
5d60
4412
9f4f
dc2c
d70b
ca3c
291c
b745
a062
3fc1
16a0
0680
dd10
ee6b
2534
7774
9fdf
44f9
253e
8193
d863
6ca2
9d22
8afb
da81
3b6e
8044
d620
e1d5
f28a
3038
e625
11ec
376e
3eb8
4235
bf49
a8f0
4120
cc2c
af9c
97fe
a369
43b0
1a8a
b01a
2a47
2918
c00e
9b86
4eb5
f7e6
1fe5
e3c5
2109
c342
3f58
cd35
204b
4372
0a90
28ee
0b1c
bea8
8281
2419
677e
b442
c220
8a6d
e467
3abb
1e8e
7c85
383e
2e0d
528c
d45d
f09d
7308
d4f8
e8b3
6b67
a979
1307
4f16
3f55
9910
fe8b
ddfe
f13f
6042
ca57
ad8d
8345
77c0
7620
9e95
6aa8
2354
fc2f
207d
f316
b710
c52a
43a0
b90b
2b68
799d
04db
7bd2
6492
a312
d23e
2242
6b94
41c3
cd87
b292
81a5
4004
eb23
6f5b
93ee
34a8
4f75
5c97
47eb
c2ee
4c94
a382
4a5c
be30
dbe0
475c
4988
0fff
017e
7961
0071
a6cd
0f5e
4fa9
d52c
758e
58ed
261c
4e9c
87e1
5cfe
5847
1490
f4d8
76c8
4a25
7027
fa61
1cc2
cce8
50fd
e340
4a14
03db
f2b2
36a3
c753
06cb
e6a9
191c
63e7
25fe
5fd8
059e
b2a4
4fb2
5265
e4dd
0b20
f454
df7b
fd03
a15c
f50d
d7c5
2e7f
2d9b
2595
ecaf
2e7d
969c
349d
1524
6b0e
165b
6f00
18ee
c6d6
9062
4a52
3c33
c404
3690
902e
9aae
c161
6cc2
3a64
a88d
0e4c
6f43
1abd
18de
c54a
f091
cc76
50d3
50ea
967a
e277
e23c
8a7c
bf5f
09d6
0f61
59e6
87de
3ea4
3430
50cd
1cc8
d37b
34e9
f7c7
4800
4088
ce27
ec75
4429
bc11
ea8f
4327
e49c
7b37
87d1
dc01
d696
6c57
d5d7
5d43
375d
1ff4
3fe6
04b1
0983
795b
5d8b
cdde
fe05
369e
9612
cd29
d77e
759d
6923
88a7
a31f
8bd5
d088
61fe
2e00
4426
5c2f
cab1
cc04
df51
3ee8
348a
de65
5246
26c4
cef9
55c8
53b6
7fbe
be83
9283
a4ea
9690
4439
c6c7
c044
b0c3
5fb2
0b64
f416
85c1
9390
7fdf
c31e
c130
14fe
688b
b39b
be1f
824a
18ee
a389
905b
d535
7fd5
2d4a
fc75
3c32
94a9
e6a6
b91d
39d7
713e
4da4
0e90
4bc4
2950
73f4
c029
8068
6825
b0f4
e8a2
b866
2684
06e5
a63c
6a5f
29b7
844d
61d4
9f0a
3fc4
7685
4aa5
c38f
1145
934d
ddf6
d9c7
fcc7
a161
487f
1b26
86ed
155a
7bd7
508b
e14f
95f4
5ecb
624f
113f
57ae
731c
32d3
26b1
b902
f591
7889
61ec
3cc8
8722
c78b
cb64
ef16
934c
1227
8df9
27c2
0ff5
e242
7240
e6ea
f999
edf2
f234
72ae
89f9
d67c
3eeb
01dd
9229
e674
dc35
bf3c
e732
483e
c854
ac45
854a
72e3
c3ff
016c
2467
45da
8b7e
ec1b
e10e
714a
eb15
9c1f
ab65
11b8
ea66
4c74
dfdd
16c9
4253
15e7
fde7
d223
f5e3
eb8b
0f8d
da58
4482
46a5
6d1d
3766
e618
246c
7153
038c
6abe
b7d8
99c0
ce2c
d18a
2a58
b3b1
f452
06f1
a69f
d04b
3dfb
161e
0249
c0ee
b1d2
4db0
ec1d
16f5
38a2
2cfa
7287
4413
927b
3ca7
2687
5151
8966
88ac
0976
b08a
43bd
34be
08db
4f2f
1978
b34f
e7be
e1f0
e0de
4de2
0016
5a21
b8d8
7c19
b91e
4904
2942
753e
26bf
0e68
6520
4ce5
4d62
9826
ad4d
68ec
c605
ea13
1043
e135
a7ae
b58b
08d2
7cf3
fb3b
72ea
1cc0
e4ea
ecad
ff75
fbfb
d6b2
d86a
3436
734d
95e2
48fa
78f3
6cba
753f
6275
0b73
d6be
d83c
6be0
5d10
c024
9eb0
2063
c756
0bb8
6853
c954
451e
5c12
9ed4
87dd
7319
1f64
50dd
0d05
b962
4eb9
351f
df66
7dc0
17eb
293c
83a2
5a14
56be
934d
98cb
8394
7d74
59f6
e308
47db
3b03
23ef
a00c
95b3
1cf7
c412
b284
06f0
e62f
ef8b
485f
3c5b
fc30
d58a
fd30
a4af
5579
c6b2
3e11
43d7
36d8
02f9
02cc
e9b2
6356
26f9
29f2
0d64
6982
cfb6
8529
41e1
0d38
6018
f0a0
67e8
bb88
de1d
205d
11d8
2a25
6715
81fb
a764
016f
a874
fa1a
fd31
6113
be31
77e5
38c3
b6ee
f1aa
44c7
992d
ad1f
bae8
7535
8cc9
5e11
8596
2f8c
89d6
6f72
0bd9
c155
33e9
b160
a4d2
3f91
3e68
3824
325d
8228
a805
13ce
933b
d0e9
c900
6bcd
23dc
4866
5973
8cb1
07b6
cd42
efd9
0a44
c3f1
6e17
61b2
1338
d7d4
0dae
4bfd
60b4
d3c4
07c1
d8a7
8bee
5200
4408
f7ec
0e5e
2e31
4710
31e3
14c2
fc8a
3cc7
a873
13bf
922b
bfcb
2d9b
bf73
8fd4
d12d
7ac8
83a5
1de3
e7b8
2723
a871
a08f
59bc
45dd
2d93
95d2
d191
551e
281c
7c93
aeb7
c619
bbbc
edeb
95b1
583f
7303
9914
45fb
d45d
03f3
9f7d
57dc
96bb
7b12
6186
e336
40f9
5c02
5f26
f6ec
b881
b484
7253
2817
a856
da2a
dbf7
e8df
2292
9301
249b
b92d
8c1b
d65f
f734
c638
9aa5
725c
3983
8952
c00f
8583
9826
414b
c47e
e883
90e2
44d2
f882
ffc9
28f6
abd1
7b67
c18d
c2f7
8ae7
a771
aa22
3551
1453
8213
11ff
84cb
0977
469d
8646
b4cc
b184
0de8
ca99
3c53
5c43
dd8a
3b39
f168
62b0
fe87
bc71
7dd4
69e7
adf9
1282
275d
ceb3
5a42
39d1
db9f
f69c
33dd
4dbf
9120
6019
eb63
f439
6bc5
c90b
2068
7606
4c93
151e
8d76
6894
4200
51b5
5e4d
6942
8cc4
153c
ddc2
f0f4
681c
a8fe
f519
fbb9
c18b
71b1
882f
110e
4f15
bf14
7060
22bd
fa0a
f488
a65c
4ebd
f930
4e98
c2ce
180d
2e68
5489
db03
9ce9
8010
3632
5cf0
25e0
d2fd
43a3
7f11
16ac
9163
c0d2
8fea
4e58
4565
5129
ca4a
3324
1333
ff9b
170b
695a
49a2
d632
1ac0
0937
921c
4910
531e
d6d8
c516
0671
6457
c214
7bab
0dcd
95ef
66e7
8f4d
84fa
f121
30f7
e30f
d5ab
26bc
bbee
a7c3
f395
317e
752f
8c8c
10f4
1429
a940
0d91
9322
cd7e
bdc3
033c
f983
20ec
9fd7
9a38
e043
0813
9166
0c64
2ca3
48be
c9c8
8042
36bd
2645
cbe4
aff2
ed66
f952
49c3
6ba8
4aed
9182
4f70
de13
91ae
e3a3
42d4
1b1b
9685
7ff8
3d8c
2aee
2fe9
ab4d
3a2c
8f2f
5ce7
7ebb
13a5
f695
fb34
5b7a
0cf6
248e
1036
0ecb
8583
a8f9
983c
5f35
cec8
7c9d
0f8c
8f52
895b
5ff1
fc7b
be9a
55e0
b8a1
c3ed
9e49
9df6
6a55
1950
31f2
9a15
8fdd
7f8d
4358
4283
122a
2247
d13f
31e4
6d7e
5e74
a3c8
1a33
0f0e
e83a
e2f0
1536
74b0
5d38
1865
0f8c
94b4
af4a
3cf6
b97d
d40a
7687
3d53
0803
d100
f948
0feb
0070
89f0
aad4
ed9d
69f7
e4ed
4f7b
f141
d8a5
513a
113c
a197
7801
41b0
c695
28dd
e4c6
9c1a
7092
3124
8761
9ef9
df88
8df7
870e
7d85
3d8f
352e
cbc8
4831
9fa9
8933
96c1
67b9
96f8
5f52
6279
0574
f660
f089
45c7
82b4
7ada
c1ee
2472
487e
bc51
595d
7f0f
120a
a0af
da87
fb12
8d08
4a1e
4584
0756
0ded
9a10
103f
0202
d2ed
27d0
9f51
5201
912d
d48f
4759
81f8
b114
1217
704c
ae70
aa3e
d965
1f57
5beb
e896
96e7
85dc
050c
6157
6195
cd7f
914c
7c1d
927d
6f38
a952
8d34
6e1a
5acd
6ea4
3a1d
d663
deb5
06a7
5346
9ec8
7d9b
be94
cd21
a380
bdd4
61ad
cde5
5a0d
4a6c
63b7
61b9
9d9d
a164
6a29
3b26
a229
6bf5
8377
7376
9515
b80d
b657
9140
c781
4d84
6d4c
0ad5
81af
0b34
2064
c0cc
d593
f6cc
6595
2aed
7040
bbf9
9053
cab0
9f15
2018
53de
daa3
20ea
3970
ac61
3924
487c
c3c7
5038
3898
3c2f
3d06
197d
9682
528a
51eb
de31
42eb
f9d6
7bcf
f8ba
b89f
f915
3c41
f48e
13b7
9e40
cd90
d51f
e10f
5e8e
b1e6
7495
439e
109d
257a
3541
243f
5722
f208
5d42
e4b4
4c3b
ac05
fb17
fb99
71f5
a5c7
8a08
be46
4488
6909
d747
e3cd
3705
2694
9a5f
fd35
75d8
9452
b72b
93fd
f0c3
2aca
338d
4bee
c92f
9f1d
5ddd
8738
53d6
4448
5baa
5fbe
c086
c250
3a2f
68ae
af57
0b71
f22a
f373
f1db
edc6
6448
1580
1c27
9e07
7636
c994
bb0d
3778
15de
eea5
c742
761b
9a7b
efb7
0aab
ca91
66ad
1bb5
0ab7
cf43
33be
6882
49de
72f6
5b93
ccfd
eaa0
6606
f30b
98ff
5270
744a
9182
5e9f
0681
a5ee
ce23
7cfd
c253
e0cc
d13e
5394
dc5b
50ab
ae25
5c12
eff2
df06
5340
87a5
a375
4fb2
1d60
2924
f09e
658f
875b
c2f9
af09
d7fa
c37f
fdc9
8a78
6c42
4394
5b9d
5114
ade1
4055
b67d
170e
96f6
34c4
71b0
53e9
cd7c
e086
a25e
2eb6
107b
a772
c994
0c43
6b3d
ae23
802e
e901
7dca
5786
9a44
5e02
7b80
812d
6f31
e844
e39e
6dfb
80ca
1a63
d97c
6f60
d78f
0b0f
ff02
7b03
1c6e
fa03
ef14
09ee
7761
06d9
2cf6
7b40
3857
f4c5
0bf5
786b
1a6e
e386
7345
bf2c
c0da
167c
4a4e
4b47
6e32
e1f2
2c9b
7760
c51f
2429
2906
d56d
2959
c558
90f0
59cd
4ac1
9eb5
4113
0b0e
91f7
a517
fc8d
e95b
e33f
3b65
3453
56f6
499b
786d
e8be
c6c4
5f7d
ceab
3e53
ac83
c37d
9a9a
cbb9
5924
4135
3e48
fde0
a485
2212
6a57
78c5
8cd4
c4f4
25e0
b50d
72e3
45f7
f8d6
383b
f5b2
c436
fbf5
1201
6a8a
3358
b2c7
9efc
bd7b
6958
0c07
0268
8bf2
0700
585a
954e
5f81
da69
b681
3c6e
42fe
81b6
7133
9b3b
2a22
0d55
b689
499e
cfc8
1de7
1be5
d93a
c8b7
151d
1d0d
c72a
09f3
35ac
afd0
1605
6d38
490c
3378
cb8a
f9c6
374e
8b1b
c521
2996
9041
dc39
0e60
327f
9ab4
8741
6c0b
4f4e
1bb8
2fd7
7267
7261
b328
e767
8e7c
fbc1
52aa
e1b6
c8d8
eae1
09a2
2d3f
cb3c
9d35
d30e
690f
55f4
4527
b12a
51b1
2e8e
cc2a
feb4
b1e8
e0ef
5a9f
b447
4bb2
0534
6abe
30ae
ac1d
a4cc
123b
a26f
5aa5
8b0b
a236
a82a
c241
2d7d
1986
1fa1
562f
875f
d13c
68d8
649c
e89c
ac98
1fbf
e167
f075
621d
0e06
9abb
4f24
cf5e
14e5
ac78
dd46
7ba7
89bd
b49c
3b31
037b
5158
4c45
eff8
f159
2e68
e22f
41bb
203b
0f5a
5e94
ec5d
970a
bffc
7b47
9534
d837
e54e
4de8
0ebf
ab58
251f
5b93
e219
d77e
4e21
f284
2a31
c282
92cf
477a
8b05
4a5b
2e5d
d71e
b6ea
1a07
ca27
8dea
ab56
d3d2
0dbe
87a6
c43e
4f3b
e073
ac13
caa0
92ab
39b5
0470
d78b
5a20
b39f
aef3
1b1a
1844
9285
13a9
ef8d
5b69
0b00
52cf
3879
d4eb
daee
d6d8
0f8a
b52c
0db5
474a
01f3
c724
aeb4
cb4c
ba25
fd2e
19af
c260
280b
43f0
6885
bc78
4a35
b28b
ced7
aa9f
4fec
4f23
05a5
f18b
e0ec
cc76
fb48
a983
f8fc
d752
f9f4
475e
ad06
af3d
6578
093c
029f
5557
7eb8
4011
3f3b
e12d
bd4f
77ec
c9dc
29ce
5622
9a63
8e98
5fae
4566
6c4f
2c74
a89e
21a9
7646
22b3
7e55
cf59
9091
c82f
b5e9
9e41
afbe
5364
3849
4f46
5e9f
6e62
6f19
5453
8ce4
ad78
c9c6
b813
dd50
ebca
fce3
731a
f9d2
afbb
e75d
318e
88c4
0862
ad5d
70bd
5a84
30d5
5c08
5067
38fb
b4e2
a186
8b9f
0147
17dd
c196
8c7a
7974
1ccb
726c
2132
5f8a
2df3
a471
2274
531e
f34e
ba3a
6295
3380
626d
fb99
179a
7606
6e21
6418
86a4
bbf7
b705
32d9
8683
c58a
60ce
14cd
02b9
a427
ef7a
93db
ae8e
9855
39cc
eec2
fc83
c709
fa43
e6bd
331b
0aca
9c11
871d
5242
25e5
cb63
3f5c
87b5
1e89
129c
0ba1
d431
7d19
5e10
1085
cec2
db77
a11e
c621
14bd
87d4
9c08
b678
87af
ba7a
28b5
72f8
e59f
31aa
e737
5c03
5b39
3abb
d59d
b072
869c
3a5a
1d95
5f7f
be41
d19a
fbf2
57b5
7846
b1a4
3b9f
b5d2
29e4
e53f
5800
ae18
a0f1
f1e2
c405
bd97
436a
29b7
1c00
68f8
0902
a8c4
a46b
8b88
4999
b1bd
5cdd
fcaf
ddd0
d98e
7ba2
774c
e20e
6946
4d9f
af31
db29
384a
c166
0699
24c9
4281
b640
66af
e648
586d
d87e
49cc
f7d6
8dfd
fa9e
e405
ec66
811c
0172
3e9e
0508
be60
dda0
d8a5
b2ea
3f65
7db5
ada1
b0c8
2f42
8bac
773c
495e
1f8a
cdd5
9d23
385b
f2eb
4085
ddd0
aa25
1630
42a9
f09f
b8a8
3324
6b56
277b
3f4f
cb9a
2a69
061d
9653
f3df
0645
3ea5
5e3d
24e6
662d
02c9
699f
9a72
8403
cd54
d802
7e1a
d2ee
dd97
0d72
d11a
7df7
b3dc
fa76
be46
aa97
5723
8448
9981
75bf
1194
5d8f
be9e
1138
8639
2bb0
6fae
76e9
ab66
f2fa
7340
5b4a
092f
b5f2
a7e0
273d
d1ec
bef0
5eae
35b8
1c9e
ca7e
bd1e
0d20
260c
91dd
3373
9ec2
c392
0888
94b5
f200
25a4
12db
2bd3
dbc3
6b3b
dc8f
059a
8fe6
7177
e8f1
6f0c
d0f7
9d6d
010e
de83
ba41
f84f
ffe9
2b9f
e093
27d0
c0b1
0b70
3694
af72
b9aa
8a96
2c1a
97b0
14a7
aca2
1a17
c84c
6967
75fd
7f56
aa7a
1711
da76
b7cd
5a48
e317
0baf
640f
2886
527f
477d
556d
5d74
12ca
777e
112e
06bb
61f2
d83c
0c77
c110
0d3f
7975
e553
fbf2
3881
1f58
cafc
a73f
12cc
f9a5
017a
16f0
6ba6
31f9
9a01
34df
d0fa
4203
c031
83b4
6f47
e17f
f0e3
4233
d943
d52c
88ca
8d96
6536
160b
ac55
b6ec
e500
1939
8956
8f84
c3db
eff8
0b77
8a71
e54c
0d55
00a1
71da
47a4
ed44
dada
0e30
8ebb
6966
91b0
3e86
1582
aefd
e49b
0cd6
d112
2e94
3bc7
a93f
022c
e888
9669
b2c5
620b
b917
81a7
4564
6fab
39b5
0196
76a2
00bc
6013
5e4a
c333
4a58
fc91
f681
038a
29b9
446f
6fae
30ff
01ef
dcd3
82aa
27dc
708f
8f0f
c06c
27c7
89bc
cfe1
bb14
5b50
b302
5a34
19ce
ef3d
2f3d
159c
a088
b798
da92
2013
967a
8693
4163
bba7
e29e
9974
463b
a316
f073
27f4
072d
f32c
9def
3dff
353b
fc62
f8af
e353
8fcd
4d94
8704
e109
2568
7d76
2a01
b128
46e7
f71e
0d75
e668
858a
7761
9e90
0193
a32e
ba2e
a2a6
977f
a9fa
dfda
4da1
9a9c
1fb1
1e15
c7c6
6ee0
2ba3
9fce
eeb6
936a
7abe
fb62
8f9b
f142
ec8c
6894
3a8a
f62d
082b
bb0b
60c6
b32a
7e9f
37be
3fa2
36e1
6cde
f4ae
c2d5
8e87
9498
1e20
83d1
51c9
c57e
4cf6
58cd
6f77
27b8
2481
b0ac
98ab
7d2e
a9ae
b4fc
bd14
6ea2
b2fc
22c5
6e42
5174
fafe
b5c9
06e2
34e5
1b6b
138a
57b1
2737
cb2c
2af9
bd58
4605
cc46
01ba
ea7f
bfd9
6861
c145
c873
fd43
47e8
f931
5259
dc84
518e
0c06
dbb1
162f
5c98
2bdd
0bb1
134c
4e06
6f26
e2a1
f02f
c92d
aedb
35be
633c
7b9c
b304
dfa8
891a
b6b0
547a
e43b
6738
3e7f
1225
5791
1bf3
f1d8
3e2e
1e42
33e2
91a6
8a9c
75f3
e7a6
4e46
2014
130c
1ae2
10e3
4c40
14a7
4159
7d39
4eab
613e
f00e
0738
bdfa
1151
8662
d681
7338
f355
3e5c
a98b
a488
6493
26f0
a64a
80cb
9bc1
0361
e9a9
fb38
0a56
0d73
9a2a
2279
b884
6680
ca8c
57ff
1100
495a
4c57
3c35
6533
6f2c
fac6
2820
e9f2
3d87
227e
e4fa
ee3b
01c6
b752
3ad1
bf9f
39e7
1b3d
31a9
4921
dd02
4c42
1430
c1a9
2161
54a4
cbcf
eb4a
e148
ffd3
2b7a
1e74
1b39
5d35
70b6
2259
83f5
6712
c7b4
9343
3647
80d2
d6c0
fd52
4943
0227
bc31
bccf
f77c
de3f
f22d
a26f
0edb
ef27
f768
3b33
e5c3
2547
7dd8
8d1b
a1f9
d568
3abb
e385
ee20
a5f2
1c97
cbd0
51f9
db54
6f96
cc30
e9cc
208e
1dac
61ad
fa2c
1f7b
8e1f
9298
b2fd
a947
4996
12f5
3be3
07e9
8e23
499e
df96
725d
0b29
f748
6da7
f113
55ec
952d
e4d9
4d76
172f
8c87
6de1
b5f3
fb86
6eb1
b8bb
df28
158c
721e
fe7d
ec06
7054
cc0a
e833
2c77
eaaf
7060
d6b0
bdc5
d478
08f9
5d05
7b94
0e50
e012
8108
b92c
396e
ba32
ce63
6e1c
5af9
becc
8568
7801
1084
758a
8a19
b863
864f
dd97
7dae
b35a
f022
dc76
e5a0
f6f0
7b76
8bb2
be7a
1b5b
da50
0c10
5362
2723
6b2d
a342
1c4d
9ae3
b055
7dc8
3be9
369c
aaa2
2a78
94c3
ccad
4826
69a5
4aea
1202
4e75
6592
bb31
0287
287f
fe68
a687
cbb5
e757
c48c
11c4
b4b6
d18c
e65e
666a
351b
7cd5
982c
85f4
65cc
9994
6f4c
af38
1da5
6950
979e
1a41
38be
d4a5
11ed
5eeb
af64
4f2c
5745
8411
3790
d513
b354
00e2
b173
bdac
cd91
a37d
d432
03d1
eaa0
6fc2
72c9
a816
152c
fefe
cd7b
ac8a
4022
d555
42b6
dea6
f225
aa5a
4b0a
5b8d
8e7e
4b79
cc96
3d43
d316
8f79
f5d3
9514
2097
f4ab
f92c
12d3
296e
9b92
01ec
9039
2d7d
6b25
d3e5
58ac
70d5
fdf7
1a05
59ab
dac7
0c6c
7a76
1fee
2f8f
8f77
ead1
6861
8fb9
1021
039b
daf3
6617
1c04
77f8
0358
503b
6e3e
be94
55d1
33fc
6968
7fa9
ee4f
76f3
c773
afd3
c38b
ee74
6cf5
f5ce
f386
772c
0ae5
bc6b
220a
b82d
772e
1976
34b6
d4c3
cac8
915c
5a7e
4bc2
9124
ca79
c2ad
f375
0f40
d1ee
6d08
d1b5
0e88
ffce
fe52
f7b5
ed4e
b2be
c804
dcd7
128c
1b18
0988
df18
7156
b55c
2181
691d
4863
fb35
3106
5dab
2bfe
064a
4791
d19e
ef70
fef4
13ab
65ae
964b
5137
4169
04f3
bc74
7fd0
a14e
0b3f
d35e
5be1
3f28
9a35
892d
207f
f4c0
dff3
d8c7
dc0f
5181
3a70
e362
d4f8
10e4
1133
a395
3a86
9e75
e17c
4c13
d9fa
2df3
691a
184c
74ed
6621
0f34
a9bf
1abd
d7c7
564d
8290
3595
84e6
fbbd
7d46
ea9d
1bff
c38e
6f0a
4c83
98ff
fda5
0b95
0109
f844
7744
6690
c411
3a01
fc5a
2c0c
4c34
9c18
7f99
17c2
1dd6
79f2
42fe
fbfb
f5c2
566c
688e
7ac1
49b9
8b00
a24e
cb37
597c
0fa4
05ae
4d87
9bd3
a579
5962
1f62
b933
d665
0e2a
6b8a
8f05
d392
02fe
5260
87f5
5704
fa70
2dcb
f074
541d
ae71
7a37
eadd
700d
53e8
7f88
f939
918d
258a
04fa
85dc
b8e5
f79e
2b87
10b0
3e48
c1b5
ca95
1cb0
19e8
d28b
4118
7ae0
ab12
4113
d70e
0d8f
3f21
2017
8f64
e809
c814
4a9f
77cb
f1e8
182f
9a88
3017
aa4f
6afb
40b8
6c77
b0bd
0da4
e7b2
84eb
d651
4fe9
ccd6
c513
28b6
dbfc
0d8f
d7e8
8f12
91c7
25a2
798d
99db
b5e3
c293
56c5
d5de
73da
31eb
b310
a208
ac7b
95fd
2dcc
afb4
3797
e013
1d1c
53ab
5ea0
17ae
0c17
5b9f
7e9a
bb41
fc86
f24a
ebf8
ae51
777c
2f86
5a07
d48f
ed7b
4bff
5531
e1fd
e297
42ba
8109
71b6
d124
b958
7749
0742
4d74
b2a2
8616
8868
acc3
c9d4
367a
7573
6075
9fa5
f52f
0731
a001
ea8b
20c7
38de
2d40
9347
34bb
ef1b
e93d
3f0d
a518
aa53
47ae
99ad
7477
901f
ef85
1295
7609
3778
a76b
0540
eb9d
aa61
268c
0b0f
a317
9258
d152
8389
dc67
829a
562e
518c
bc7a
d9ac
b4d8
2f6d
fc9d
f3ca
7032
32d8
0c1f
8ff7
461d
4079
eb6c
7079
dc7f
022b
af98
fce4
a9f6
44b2
10ee
e880
e987
01a8
2e07
41b5
08bc
27a1
65c1
fa02
ad29
08bd
cb91
d567
bc62
a042
56d7
1421
b89a
93ec
f824
6298
6ba6
f15f
70e1
6c62
be75
848e
e61b
aa4b
64a9
af67
e5cb
d6bd
c423
fd35
9107
11fc
4acf
7ee6
33ff
b968
d408
c1c4
afa2
0dc0
8ac8
e421
d12f
a5b3
2fa5
c34f
09dd
86ab
1b5c
2d65
e7d6
07cd
a7c7
e31e
c759
2909
d07f
4029
cb6a
653e
e69c
b45f
74c7
d489
fbf6
291d
4f8d
ed18
6b27
60a6
91d7
8d2a
8606
ca5b
edb6
4a01
4a38
ec3b
d89c
4d39
b2a6
5801
3124
fb7d
eec8
b10f
97d5
d632
1bed
7c37
1189
9092
400f
d12a
cc47
b822
a9d3
deb0
b9ad
1fe8
1cef
e7bc
01cc
d36f
88ef
8bd2
ad40
da16
d2e5
4cd8
b090
4880
abde
f863
8169
9236
8e21
f9c2
475d
bcf8
5c9d
3d01
cb24
a859
ac57
89c7
6f6a
450f
3117
0d2e
b078
b6b7
aa54
1a36
ff95
998f
3b3e
37f7
6194
beb1
00c8
25b8
dc61
dcaf
c280
afd2
cb34
0975
90cc
f01e
cd0d
b268
9e17
536c
4895
9233
1344
4b8b
be27
ff99
2106
c1ab
8698
488e
9dfe
2ba6
eb14
f1d3
faa2
0319
cfd7
2827
3706
b2d2
f75b
9396
ed94
d4ac
5094
2e66
ab82
2299
a91c
2f54
8cf5
8b70
14a5
0cc9
f0c0
2cc3
e90f
eaea
befb
8f50
8e73
e4d1
499c
7db1
34f5
7532
3751
8fdc
5632
dc64
600b
28d2
1b60
b0f6
6f20
8bbc
1d05
f0fa
4cc1
12f8
7970
3faa
d0c5
9f5d
6012
d796
bf21
5f25
b27f
1572
a46a
519b
da3b
6a7f
4a27
a5fd
3d98
6091
6ea3
25d6
f0cc
1c25
c8ad
b5df
ea34
6380
83d8
641c
3da3
cb68
f936
8b00
998b
a57a
aaa2
bc83
e8df
cac9
1aa6
a83d
d96b
c0a5
d0ff
6305
2cae
49c8
1df2
3f4e
f9f4
4056
22c8
2fd0
e2c2
61b3
9726
356d
3bd5
f487
2349
a02d
ca5d
2a30
59d7
6363
78c1
2338
1b7c
551f
e4df
3518
e3b2
896c
ed9d
d348
c37c
b9e4
807c
7174
31b8
041a
7739
f4c4
4fa2
d316
b552
53fa
f2e9
347a
d31a
4089
bb7a
1756
d5c3
2a55
8323
db1e
4eda
61df
3ace
95cb
dcee
1fc1
8b46
d890
4647
f508
02ad
a82e
f826
06c5
e4b7
46fd
1326
6207
86d3
1572
7637
ebb8
e14a
71db
fa7b
8fb0
4584
d8d3
9a0b
8b9a
cab1
f7ba
40cf
4d81
f974
d8bd
7918
f1da
83b3
801c
cb02
e0e7
b387
5401
3345
bc2c
e2d6
300a
80ed
aaad
d3bb
e99f
90b8
5505
c54d
e343
1b02
58a1
9bd8
c666
63a4
9fa7
436a
1b5b
8412
0582
787d
176d
b956
b075
c72e
8f9d
36d8
181b
a9aa
2850
f3a6
cf95
835d
cc24
67f4
f0de
818e
ef47
a061
17bd
6edb
b508
e2ce
d48f
b11e
339f
3f5b
3248
71ab
0f01
6923
760d
aa53
d2e1
a5d6
bf99
3710
6633
3b53
c757
d0ad
20fe
be10
7e81
7d90
a2a9
315e
2105
ff5f
32db
7ee6
bc69
62c4
baab
6e7d
d8e5
6cfe
5ed1
dbba
d70f
1236
6289
a7b5
af90
b3f8
585f
e686
4bbb
56ba
9619
12e7
66c5
3b80
11cb
3362
97bb
6fae
84f9
88d4
6ff9
35e2
3dd7
8062
a48e
c55a
60d2
1fdd
df40
3dcc
0568
135a
de41
78f6
e40e
70b1
6b0d
5a22
ca3f
9eac
98f6
730e
605e
d397
90da
1e42
ea27
892a
8794
09ef
aec9
0f50
1b98
9a20
53f1
b55d
9616
3d34
3b43
f450
1e5a
abb5
a225
263b
2ffb
7f8d
7f48
0486
ab37
5ee2
59c8
f917
db42
a57f
5501
029c
21eb
b746
9bd0
7719
b7c9
ab2a
684f
7aad
7172
6ac5
a26d
44c1
729e
0879
698d
221e
ab32
c9a4
3f1c
a70c
cb02
eeda
c289
7f68
5ab7
74ec
029b
b728
1f27
c644
91a7
1394
3c51
09b8
35e1
5681
a3b1
584b
8fab
860c
412b
1690
f94a
ce84
8564
3536
cfd9
0a7c
1b71
4b0b
81e8
8f78
b1a0
1e40
ec5e
23e7
6e60
3c6e
1c17
891e
da32
89e4
9224
49be
e1df
a0d4
3a55
0154
2bcf
bae2
469e
9d8a
52ca
aafd
ded5
3938
5752
25e0
692f
64b7
ae0d
02bf
e191
cf5c
bd68
7fcb
5da6
1240
45c2
af76
7768
66ce
81b4
f3d7
6fa3
18f9
e50e
e91b
d91f
f80b
aa22
8466
f897
4612
bb67
0c26
1197
17a4
a649
801b
358a
fd57
8966
5191
c503
cb45
685a
b1bb
8263
df56
f801
3a20
7350
2628
dd3a
397f
2717
55f0
ff0c
0cc0
1217
6017
1da5
aeae
71a2
5a4c
2586
055c
4116
b536
38d2
b538
3f2b
0ca8
3595
5388
3e8f
78ce
8426
bdcf
ddbf
bb30
852b
65c9
db00
d591
621f
c547
1980
0bf7
0d6c
adf0
9c09
2749
b704
b65c
0767
b038
cd7b
2692
45c4
845e
3097
49ec
b83f
156c
4d32
2587
ff7b
6d7a
4552
67a6
7a8e
4ec0
a0ef
dd87
b079
1dcf
354d
6230
4ac6
cbbe
751a
d012
2296
4a3d
0de8
bb29
abd4
1e05
eeec
948b
dc8a
e07d
4024
61bb
4d47
8a0a
7a46
400a
1bbc
eb78
c00f
9d6c
8b87
5892
a877
150c
410c
91b2
be39
8e1e
3af2
23f4
fb2e
2363
ecc4
4337
c4cc
76d7
9b47
278a
9d99
ce61
122a
f82f
d7a9
1084
a335
46ff
2e8a
1d0e
65cd
57d3
446d
a2f8
c771
8051
194c
a6b9
b599
a2d1
f77b
8193
825e
f426
65e4
367d
9ba5
f141
3a78
0d29
d5c8
bb92
a346
fcbe
d74b
c872
741b
34a3
0619
4007
bb0e
d50c
4d18
baa9
81c4
972c
a9a9
df2a
f1b2
b335
c9ef
e9ba
c0a9
9382
61f6
22d5
5c44
e93d
f6d2
2156
f0d9
94e1
4078
cf3b
97f6
309c
0603
d761
c588
6872
ab92
b3f0
d3f5
5e86
6497
b252
725a
6c3c
d684
ce01
c78f
b07f
7046
3f48
efcb
891d
a536
88d2
e3cb
07ae
b9ff
f653
406c
20a5
450a
fe49
1c0e
6eb9
904b
c27f
49ef
7532
78a4
be99
47cf
7cbc
f7cb
4017
6f84
8f36
59b3
5de3
1faf
e96a
55bf
161b
8032
5066
3480
cc05
ba58
c76e
c2a9
3d11
2625
cfe5
0d0e
ccc0
4ec7
18b8
397f
6741
42e0
f80e
28b6
c215
2a14
d4a2
bdf4
dc3e
af03
4b1d
df35
f0f0
590f
55f1
d2c4
9ff0
7fef
4e23
4fad
f530
3c23
5057
f479
51d8
3ae5
29e4
d147
9d2f
f583
bffc
29cf
ec84
09f8
8209
98e5
4c85
3e3e
0d1b
e5cf
759d
a1cf
e1f4
0231
dd8c
bae9
c6a9
b88a
cd20
9517
5696
b21f
b7c4
353d
d1b2
e9d3
dd50
7eb7
ed8a
f39e
5590
8543
92d9
4d1c
9e12
9fe6
8ed0
8ccc
4970
a9ec
0d99
9d20
b2d5
c402
4739
1be1
dd75
33e6
4e1c
3ea6
ddd3
1820
b442
7728
411c
0048
f7b9
a6b7
63ee
524b
5f24
91c4
07c0
d2da
60d7
8cb5
ad92
dd18
6ea5
5431
39c8
bf96
045a
9c21
c6ea
16df
a317
c010
a18f
1270
c5cf
378f
d92b
db58
4864
09ed
2cfb
0327
b506
9ab3
a4e9
e54c
0b46
5abd
59a9
fe89
134c
b331
73fa
96ed
5672
0361
6a1c
f2bf
638c
0357
2ca1
049b
97ad
3817
5bab
1367
e595
9641
10b1
5413
8b7a
9134
18d8
1002
a664
d9ca
3b3d
2c92
faff
4a50
63d2
dce9
179c
764a
b21d
50ec
eb29
8367
8ffe
56a0
2ab8
ce9b
25d7
7d15
2807
b752
a301
2acb
ba91
fac5
8a56
1422
8f8f
c6e5
77bb
a890
8d9b
44c2
badb
5f84
5ec4
a4db
c07d
96dd
5081
65bd
a476
c8ac
4846
f017
0f47
171b
1bde
039d
4e7b
6f73
e35a
a702
39ac
c6f3
75f9
88d3
ccaa
3750
8340
c2a6
6695
5ac8
676c
d0a2
9483
c25b
476a
3b4c
bd5a
9799
0794
1eaa
ea05
dbdb
449d
bcff
efe5
31d9
8366
b01e
b296
6d7d
6d87
9003
e3db
4806
aa96
06ab
c863
5826
9fb5
3aa6
b1da
fbea
b6b9
b48c
88c5
8b81
d202
3395
4c30
735a
a124
b1ba
fa4a
4b81
58ea
bfc5
f653
8669
0ac3
8af9
e4fc
0e82
7afd
70fa
c4b2
daf4
b999
00d2
1cef
4019
14ab
a7ea
7141
8ef8
a492
a6cd
7588
cf7f
ad9d
aaa3
c59a
f477
1967
35eb
0cbb
5ac3
632d
6e47
1432
c23c
6905
cea8
3420
826d
568b
4c4b
6ffb
9afe
c136
a183
3b65
2b19
d6a4
300e
a4e4
b67e
6f16
566a
59fb
2dfa
5cc2
27d9
c090
529b
b119
1d98
8bf0
0320
9c56
b6ca
9241
852b
f067
fe8a
4a3d
91fa
1a1d
10d5
4dee
2a52
2963
7f95
617d
bdb9
d64c
62a2
3718
63c4
9b97
3f99
cffd
9fd7
564f
b3df
4448
682e
e6b2
3844
e64d
4468
4286
898d
cb31
997c
7caf
ae1e
bf98
e1e4
b060
48ed
3f7c
1f5d
09a7
5aac
69d5
8968
1038
d95a
62b9
8ebb
ff7d
c730
468c
58fb
b474
60ac
3286
3bfa
fbf8
2570
3a29
072c
9a84
59f9
dc53
ad9d
d8d6
bc75
663b
b18f
745d
4c87
318a
fa57
9ab1
7de4
cd75
07e2
b23b
9b67
455b
e14b
bb10
1833
678a
6ed2
861a
186b
99b4
b5f5
e730
82e0
83cc
968d
a1c1
041f
bc80
982f
99e9
3d1f
f493
79ed
361b
c7d9
cfe9
321b
af17
b970
fff4
d9c0
422e
10f3
fcf4
8c03
e492
3e9b
5f6c
8971
5bd2
a9b2
7d70
4b84
566a
c86e
967b
62de
2f29
46f1
5205
f491
c9fc
a234
9c11
855f
9fb7
ceae
412e
f7e6
e876
7b32
f21e
e91b
ab51
7de9
46cb
fe89
78d9
905f
86be
c1b8
72a4
fe6f
d3cf
3d27
9e62
1ce7
8fa9
cdd8
3e03
9887
a104
4316
3d94
83a4
a4f3
3871
8fb1
a6a8
91e6
ea2e
07bc
f76c
f981
b123
b646
8252
732a
3c5d
46b5
c348
af51
2ac8
600e
375d
c762
e190
b401
cbfb
e7f6
d1ab
4d5c
d596
de79
f11b
0d21
8e1b
bee1
50c6
772a
7af9
7ae0
1f2f
6a28
61e0
cb1b
267e
0e96
cdfd
b206
dad7
822e
57e1
cf60
78d9
4cca
6922
42b7
73af
298c
9131
b785
39e4
4955
35d6
3442
e770
b4b3
d15c
86da
f5db
4bdb
8662
7661
a00d
eb23
c91d
6fde
5b40
cf76
90b0
a18b
23b3
18b5
19b6
31e8
ea5e
50e8
fef6
bbd9
433f
b45b
7940
724e
3f0a
0c8e
5ec2
008d
c14b
8eaf
da0e
c31f
76f0
a711
cba9
1430
4cdd
991b
1396
046d
e128
34ac
a0e8
6f08
0474
6f8b
658e
9400
99a6
741f
1fb7
fb88
e3e7
bc53
a0df
815d
a12e
da46
5cfb
2e25
64d4
79c7
505b
62af
5596
4689
6ad9
34c9
691b
1e6d
ffff
7992
d7d5
9747
1e88
6721
458a
cd37
361a
22b2
3437
0071
b831
88fb
b9f7
83a9
beff
8c83
d418
e5d8
f307
04a8
5c5c
0971
21b9
bc80
6b22
4d57
c8d6
2dec
6ca9
b4a7
b116
d7a2
5e07
4ef4
daa9
e3e7
8702
e050
eed8
4d6c
7697
d2ac
bd45
2d24
9c69
67a6
855c
891d
3ed4
3b3e
ad0e
bed8
0a49
2a9e
3c72
322a
98fa
8afa
24c0
d83e
d91c
129a
747b
9a3c
c7da
5f88
6bb2
31ea
cbdf
ee53
550e
4617
d163
92e5
3b93
99c5
7864
346e
eb14
0253
c7bd
9aa3
b39e
ef49
8670
d1c0
a032
7339
77fc
5a02
ab7d
f53a
69c2
3db2
2608
0039
eddb
a342
8b6c
9a44
2431
664a
04e6
7ecc
e60a
9a74
c20c
8949
32d2
59f0
139f
00b7
81ff
d06d
84d9
0c6a
f62d
8e8c
35f1
0aa7
4ab0
4777
623e
9ed4
3f91
0e59
a05b
303e
df0b
dbe0
67ca
93ef
316d
9b5f
39ca
f736
2266
e814
c396
0cd9
c9ba
347a
2a76
e1af
748f
df4f
294c
625c
aa26
9523
b2c9
4526
1e2e
c9b9
3e2e
46f5
1a8a
6fc4
66b8
58f2
6eeb
fe9e
cb51
907a
eeff
19b9
ebcb
0f79
973a
4004
7411
05f4
658d
2799
5338
e30c
94a4
c8f5
00c2
0d31
6b9d
9332
b725
8efd
bcc6
caa0
d67e
a996
141d
aefb
94b0
6ff6
9b30
7d72
8981
8abe
3ce0
1cb4
b21e
a1b6
18b8
51ca
7179
b50b
af76
365d
e296
0e5b
af7b
9671
9e0f
5e64
ac98
03ab
f195
f94c
0852
67df
27ae
2c72
6923
20ca
264f
30ef
e835
bcc0
52f5
91d2
1cf9
e813
31d6
5958
7ed3
c778
6845
e5a0
9ccb
7d9f
3997
d468
1435
d10e
2b0f
8f9e
235a
1b16
91c7
f404
6c52
6ace
66fe
3f80
7581
94a5
2ec7
ba08
aa00
45b7
d02f
6940
35ee
3051
dc92
07c0
4904
7da3
9c7a
a0a6
6b5a
1ef6
120e
fd8b
9aea
1d32
9d9c
9863
be46
4b39
4895
99d2
7b8b
61c5
9144
a087
d33d
9de2
865c
2190
fb6e
58d5
ae51
6d71
ecc7
8de0
f882
6a96
1da6
3b90
267b
4a36
1e3d
7d2f
d882
2335
788c
6c8c
8f1e
68fb
93a1
b850
e578
fc92
4dd9
f825
bba2
f8ea
83f8
7bba
ff71
2f67
308e
6d88
b384
375f
ec0f
6c32
7cb4
d1b7
3d5d
5519
ef79
4292
843a
c012
92a1
6af8
4210
2ff0
547c
9d33
5884
e7f9
c4dd
43f5
56ac
c1c6
d4f2
abf8
62b1
5c97
a3c1
f7a2
0d68
f625
4755
f69d
edfe
3460
7c7d
df26
bdab
efc6
ac26
14ac
a789
e9cf
ae8c
6264
bb84
13e9
b074
4956
7a67
c18f
7bbf
5319
6c5f
9b0b
1c68
cc74
f824
a78b
be79
c2ff
6a72
3837
dd82
7153
5ea3
bc30
1d6b
30ce
be9e
e5b5
2fd9
613d
84bd
342b
8758
6dc3
04e7
3a8c
471e
39d9
754c
0596
fc55
e614
0598
c88a
0b86
cd92
3467
da4d
062b
f18e
3fae
11bd
6c79
24b6
efa8
98a6
0f74
5fa9
1bcc
1df7
0d6b
25ad
0790
613a
9f80
7473
75e6
73a2
b3c8
bdc0
aaec
5e75
0177
0f95
11b4
3487
4f42
6dc2
ae2d
b222
36c3
f6b2
e921
a10c
5db3
96ce
eaa6
f44d
a253
ddbc
9ddb
46ff
4bf8
ebc3
20b1
9289
d7fb
1db1
fd56
8d9e
0d88
0271
7b33
6957
3962
9096
569a
0c9e
3e77
0a7f
2736
0a0f
3234
ec81
3ca1
7e08
bc0e
2987
13de
7a0b
1c32
b365
2578
fb97
e2b6
cd5d
d74a
640a
ccfa
7b36
8d8d
291c
f047
1df4
8ccf
6157
51d1
402a
8a4a
8c5d
ec4a
e8ea
1745
d99d
63c7
e054
8849
41ff
fab8
87c1
446c
b402
d3fc
5a8f
892d
43f1
9afd
46de
1ea0
4cd7
2528
862c
829b
7c9d
0f77
ca81
5bcb
83df
8d6a
8d8f
c5dd
4ebc
1373
72de
442d
4e84
145a
9308
f07b
8553
dfb3
66d1
0ee1
a785
03ec
ef21
ff47
baa9
19b0
5045
6a00
4802
dbb1
e7e3
e4cf
6133
8b39
d91c
6265
ad8e
e1a4
4a35
d010
b1b7
7130
0431
5c7b
2282
cc93
0331
6493
5884
1436
3c4e
7e51
18d6
88f5
74ed
2a29
859f
1928
025a
12c7
5a2c
a2ea
086f
5ea8
902e
830c
0272
c8c3
d077
2c58
fcdf
59db
d6c9
c2c9
3cb5
b688
eb48
6cd2
0754
de6f
33a9
1ca2
9db2
da5b
f07f
f9ff
7b0b
be8c
480c
53b9
736b
eddb
6a32
fd45
399b
324b
454d
b878
8b81
0e34
0d3e
2451
822e
f067
d255
88cc
74ed
d634
8e6b
6796
3073
e340
86b1
8501
acbf
10cb
cd2b
128d
935b
a29f
c874
17f4
b2de
5beb
7449
738a
fa85
7741
74a6
513e
2bab
565c
04e7
0acb
bc97
f215
e35a
c995
d8fd
6d18
ef74
4e3c
d178
5ece
aa8e
3598
cdd3
d1de
1b5f
3cd3
5c04
4cd2
eaf7
4509
c992
72c5
b815
9a5f
0c8b
1e24
d186
5b69
6d2a
fce1
c6e5
8895
5b21
1628
57b8
e4ce
955c
2e0d
e625
f4ed
09f8
2be6
5259
57f4
892c
ae54
e81e
09ff
c8b1
bcff
3db1
b6c2
a9aa
cd14
28b9
7d58
be23
7f3c
8861
1a6d
0e36
69d4
77c6
133b
98b9
62a2
6e1d
88b2
3a58
7ddf
7ed2
a3d4
5ca1
ec11
0684
7dca
7a66
4c54
2dda
b49a
3af5
e8d1
5586
075f
b5d1
814a
f803
923a
876b
cf61
0a52
da8e
5ed8
beb7
4be9
105c
0c3f
c391
8613
b91c
c918
40a9
0c9a
50c3
c90a
d8e6
02a9
7388
ae72
4fe6
6c6c
9e06
9826
c7d2
8479
84b1
7dc3
2415
f524
bcb4
896d
2fb8
d25f
dd91
dc27
b8f8
1e3b
b69e
662f
4ab8
be3e
7a5e
7408
8c21
296f
31ab
b023
940a
6e49
83e6
9c11
7c84
791b
cf63
a17d
e91a
5989
36a8
947a
88d4
69b8
d44c
d320
a233
f470
b186
7e6e
ca64
b680
a298
394f
cc5c
a3c7
e4c2
a36b
2ee9
f513
092d
b555
d79f
301f
bdc9
b40e
2cd4
e9ea
51a7
c3db
8cd4
38f7
5be8
78c1
b056
a803
2bc9
13d3
7132
f9e9
d077
807b
056d
f22e
b102
415d
2d81
51aa
fddb
9c60
692c
ed96
8f2b
4389
63a0
8573
ffc5
68a2
aa5a
c4fb
503d
20b4
1a54
b284
8d96
11dc
7b3e
18c9
659e
41c1
6f7b
b280
0741
e52c
04d0
16d4
0b7e
5ab5
3fc9
a402
b83e
5d14
d379
c0d5
7c6f
5e31
aab2
04a8
1330
c2b2
7045
e0c7
9b22
56bd
b600
9e1d
688a
7bdc
99c5
2448
84fd
1818
c6e5
9db5
a899
e529
6569
b183
ce28
c3b3
fa62
72b5
1e55
6424
39b1
32e6
161d
d7d2
bead
5008
4831
4dd4
d25c
25ec
1ae1
434d
117e
9650
ec00
1847
b98e
c825
8d98
eaeb
a4b3
18e4
dc3e
b207
3c8f
6390
9c9e
80e9
dcb7
924f
d2bc
fe76
75c4
b9c0
e0f2
84c7
51f9
e2bc
dd53
e70d
4680
79a3
5e90
4b83
bc1f
4804
f63c
d3b7
2195
8db0
3d97
edcc
4cd7
4bd8
f1c3
9152
be08
2a02
ec0e
ec9e
4b93
4fed
f6fc
4fda
4ab9
8c32
2499
f552
88c2
bf0f
7a54
9b41
2307
ea99
e648
6af6
f136
4e90
e9cb
9730
8ab6
cd29
36a6
2bc7
c213
75ea
5091
e585
e543
1c55
cc06
b182
8686
b338
f692
47a4
9102
89a5
e503
902d
af1b
6451
1cd2
7058
6a91
a6f1
fbbb
e025
7b0d
a62e
a8ef
d9cf
f4a5
108c
942e
17c9
4023
4960
6278
8e4a
2549
34f7
bf7d
2200
3ad5
e08b
52dc
2e3f
f7fa
7878
c6f8
daea
2ef3
636e
2de3
9bb9
8dfe
e925
92db
b560
cb1a
89bf
1cd1
ee88
ffd5
29cd
537e
39f8
d4df
6015
7f2f
e0fa
7b73
97e2
f28a
cc71
87a1
6016
48f9
7023
32d1
8b54
7eac
01a7
576e
86a0
018f
853a
d38c
b607
9c06
e9c5
9cb7
a445
30dc
eb0a
739b
c132
dc44
3901
9db5
3f27
be61
2134
eadb
825d
16e6
365e
c1ee
9b08
c3c8
016d
3d64
91f8
b24c
5d7c
bde7
e47e
422b
5aa5
b74d
805f
8f9b
2c11
947b
6ffc
2e10
24a1
d19f
94a7
3043
1175
bdda
0649
d131
257b
18e5
7229
600a
30f4
d9f3
b668
4c0f
dcbc
18f4
9560
b4ae
3bdf
d387
4f59
99d6
7634
8752
b087
2e0a
b5f0
dfe2
9b23
efc4
9ade
ba52
c1fa
35b9
6b71
d8fd
c3fd
b78a
38cb
0e15
1a88
a498
50ae
0c52
daaf
9eca
d79b
1848
9c66
865d
5ac1
d7c7
d8f7
e9c7
ff06
e58f
1a3e
c47f
6daa
eb53
3e81
bb78
69ba
d2bb
b757
26ba
ffa4
9b7b
7519
dcf3
8436
bae6
8f33
803f
3eab
0329
4a70
4ef3
bd1a
3ba0
3e03
c80f
847c
bfd2
2d9c
7a9c
d702
2624
61cb
d337
c380
a140
a49b
18f2
02dd
6991
a1df
da70
09ce
48fe
d14e
4fa1
030f
ffd3
03e3
59ee
1830
aa38
3e49
a369
ae6d
6b7b
737a
14bf
f9db
c47f
f599
9852
5e3d
1539
aa15
fc30
8ff1
e1ce
39ff
b512
d3c7
f7fc
5a0e
801b
e5f2
dc14
2355
9828
e85e
0166
b74e
9401
1618
54b3
26a3
a0bd
10f6
bccc
e6e2
fd50
9f43
cfea
43d3
f3cb
89d2
ea1c
312b
58f8
01bd
1e91
58d2
0e75
509a
b1ee
6850
caf4
6777
9b1f
3b08
d23c
f566
b800
c6c8
5f40
91df
6d06
4997
972f
d191
7d2b
d695
9e2f
0e23
7a80
eb2d
4ee4
1b6c
7907
b1df
6290
d625
ef18
5c76
ed98
f81a
95b2
8924
3592
2447
9af0
5665
146a
81f1
1557
7c29
9d2e
ed93
1572
7074
a5f5
e1f5
ea06
0572
6f1d
aacc
fb7c
e707
c0cd
a82f
6750
423f
d18f
fdb5
c371
d666
e154
9599
3eb2
8365
a4ce
86d6
d44a
7659
7eba
8cb6
bf8b
34cc
5e4a
5e73
ba2d
8290
84cc
1a60
4a30
2946
02b5
edf7
1cb2
4ae2
f634
a241
51af
859f
fcd1
9ec0
d766
1582
b6e1
5a59
46ad
26ff
c640
0a2c
06f8
0487
26ee
d0ce
1182
4ec1
2984
9d28
fac4
5774
c0d9
3f14
5703
4713
b459
d8fc
2b70
2cc3
f3df
0ad9
0ed3
54a3
b7c5
18a9
bc70
560d
caf3
a3fc
8e23
acde
447c
f6fc
b2ec
222b
6573
9ecf
dea0
d3cf
9646
12ff
9ebf
4cff
cccc
45e8
7ae0
459b
2b4e
8ad2
1a88
0423
b3bc
3ddf
a64c
2533
bd17
df57
d75e
80af
8e79
4ec1
336b
34af
0dd8
1241
4ba2
c3b7
cba8
bebd
c304
305e
425d
0d98
42cf
a491
2047
4c8d
47b0
cad5
05e4
bb7c
d6a0
4e45
c91e
6afc
3072
cd19
40b1
ba5c
c71b
db36
5757
e6ce
5ef7
a437
f503
2cd2
c77f
966c
8aba
311a
68f7
f9a7
571b
708f
3749
8fbd
2830
2ffb
9e3b
5bde
f41d
1442
8fdf
0d9e
e47c
8108
7787
4393
dbbd
5790
db31
1407
c6f4
5880
ff60
f8bc
bfa7
65ab
8e20
19ba
5791
fefd
2343
e16e
0b54
89b4
d94b
e061
9279
0de9
d82f
b859
7930
69a0
7ce4
58fd
6011
3a5b
07e2
b2a5
d58c
7a16
2ad2
4f38
559f
d63b
572c
a51c
8d02
0f56
d0da
4000
2352
2c8d
0221
7ca4
90f8
552c
e3ac
9169
ae53
0f52
40fc
f92c
fa13
460d
69b6
d50e
7a1f
6e08
ce7a
3825
a2d5
6517
ec69
6000
e3a6
1fc8
8b93
ea13
e326
4a33
9a93
8d47
38f8
6cec
96af
47ab
48fb
e20b
24ab
1b93
24be
55d1
d1d2
44df
d1a7
1187
650f
7076
ad61
8a0f
0f0f
fd4f
ed3d
31b8
1344
8697
82a2
de4c
d0e9
7f1f
2374
0643
7f37
155e
ffe6
aadf
ecce
0dc4
3f6c
c8a6
bd42
23ea
0836
8cfe
c48f
fff8
cbc9
ae02
0da8
8a09
166a
979f
5424
e23b
b05e
003e
7a5d
f1db
2692
92c5
018f
4258
223b
9d41
1515
bfe9
19df
2fe4
1940
1132
796f
5c06
aa3a
7284
2796
7abf
5bc8
c210
0f1c
9e62
fdf1
0e3d
428f
b0c3
4c0a
529c
0462
5549
193d
5494
c64f
7a7f
83f2
ceca
fe9e
3b2d
e578
e8bc
f06c
6c12
fc1c
c385
b2a9
b2a8
ee76
3763
601a
1b22
08ad
98f3
5fc4
d815
1ead
3082
d227
b28a
682e
5537
1958
3cb2
cef0
f342
eb25
4d62
6421
718a
4988
9c42
d1ed
c60c
0a3a
e399
f4a4
e346
b740
0c3c
8b5b
1d69
5165
d6b1
6043
5860
43d3
dec7
167c
9de3
7379
8563
f638
7486
df3a
f19a
2b32
120b
563c
c820
0a22
3869
1a64
641c
0d9b
ff58
6d98
a54b
ca6d
6bfe
2cd5
85d3
bac8
4968
5972
cef4
6c47
c782
3f95
6eaa
b250
3b1d
1aee
e00a
ebde
9336
31f3
9eae
63a3
0160
28da
8e3e
e258
d4a1
b289
7fef
6897
6b8a
d6ca
a3b2
587d
de27
3f6b
4a19
d24f
11f0
2259
1f78
d3a0
113a
d3dd
b6d8
8862
1d66
2d0c
6b06
d684
2ef1
3a41
e7fb
8794
d679
c7b6
15ce
cb15
d41c
f742
2412
5fe5
a7f8
e259
6aca
64a7
dad8
baed
83e8
64b7
9e2b
0570
15cd
5b4e
b8b5
a50a
2163
825b
f8c3
643a
a1f8
f2cb
2a41
f54e
510c
b7a1
bd8e
f92e
1992
3008
b255
d282
a959
c0be
58d4
ff13
c784
33ff
7ea8
7df2
39a6
9aac
6aad
674d
6b25
9f17
aeff
8847
af15
7a88
e005
9131
2587
b196
55fa
35b0
4f28
3f47
dc4c
bde3
e661
3dd6
c08f
df1c
dfcf
f431
a6f8
ae86
9b7c
e33a
ae67
b568
9d6e
e006
e99b
efdb
42f9
82f4
ea67
c204
6d0d
943d
7497
c363
8708
65c0
3ae1
2388
ea82
a538
5834
ec4c
83de
8b4a
a046
4888
b7c8
9d4c
c06b
23e9
b434
7fa0
5715
1db5
51e8
7334
4c7d
165a
8b55
8283
0e6f
3f33
900c
7556
3043
feab
d877
d540
5738
6d4b
3d3d
9ec8
83eb
51b1
663b
7b39
42f9
844b
9560
e6fb
88fc
0393
0780
c323
ca88
cbb7
ce6d
96c3
032f
bfa5
f9e6
c53f
8ecc
46ad
7666
cfbd
cbed
0b64
9c0d
3a17
8cd4
46b8
fdf9
683d
7f01
72aa
176e
03a1
3e8f
9c53
4861
b50c
72f8
becf
ba5b
003b
8cbe
cec1
7f1b
7f15
5abb
7276
f540
d109
e35f
0bea
7d31
28f3
fd16
2604
ca92
33b6
dd4c
0088
000f
ef66
bbea
f7a0
949c
d20a
6234
ca8e
6c33
9168
3ba4
960b
e8e9
f9f1
6106
1b7e
ce4f
7eb6
6cd3
6897
5fce
c715
c8b1
f98c
137c
7e20
11b1
b2cf
2b6d
ac6b
f311
f8a6
6cf5
7918
9d3b
f600
7d97
31d6
dc01
8f71
58da
72d3
fa17
7617
cfde
913a
1763
f5c9
bc89
7359
1ad0
74a6
f685
e0b0
dfca
735f
40e3
ce20
a782
ee80
8eac
d266
a5cd
1fb4
9df2
d19b
3fa4
0c56
9980
eaa9
3725
95c9
e4e3
1749
8fba
4805
b225
ced7
1469
7398
8ae2
9539
9255
0d81
bcff
11ce
aa62
8dc3
c272
eabd
7753
04ca
7f7d
cf82
417c
f732
bd78
bcc3
6985
0262
4605
d579
b2a1
a3d5
a42d
7446
67cf
f720
b8ef
ba98
46d7
b9a9
e8bc
dc09
d8c6
6ad9
8b53
e941
a4af
783c
f493
b2e0
205c
1335
e495
e2ec
511c
5698
3657
078a
1520
89ee
866b
acc2
7a0c
edca
750d
f214
f8e8
7076
8856
b2d1
78c7
a60b
e92d
2d50
3e31
019c
63ac
2c82
2bae
8aa1
4799
d06a
c253
28cf
6655
b574
aa38
7cd2
57c1
cb81
43cd
c121
88b4
7616
f5e7
b7d9
bdc8
40b5
df6d
7a4e
3d90
c406
8614
6c18
167d
0b7d
f445
1892
4c7a
c9ee
cb1a
5de3
ea8c
796a
4040
d704
1940
a0f2
b48a
de14
0fdf
7bef
d134
ccb2
d430
9fbe
22f2
90a6
932f
55bd
c121
28b0
af27
8ced
738a
bb81
af0b
c130
4996
cad7
0de7
33b9
c431
3f33
3568
989c
5e7c
0660
98d2
e11e
be24
96e5
3ad9
725e
4881
3dd3
016c
653d
81bd
7de3
af49
47d5
2715
a5c3
7313
0bb7
5383
f96a
ff76
683e
1a9f
7422
5f93
349f
1464
c94f
5cff
a451
4aa5
4a8b
bab8
8615
5a1c
1c73
367d
6fcc
f70c
7e78
6ca0
7f9a
8023
4570
0d64
d131
192d
4b2d
c5cb
d67e
5227
b38c
bfcb
07d0
4769
9723
853a
3db1
0ce6
82ac
1ae0
de22
cbaa
fcd4
85bf
f662
3f34
c334
c963
a1ac
aa73
258f
e6e2
dfa0
4752
30fe
fbf5
840c
7ffa
6ac7
ac91
b32c
68a3
ac43
c28a
fcce
3e82
aabf
e696
cc38
481a
fc87
a0ea
8261
94e5
a3d1
4743
9b79
991b
a5c1
0f6d
7f93
7cd8
8921
3476
8943
7112
ea6f
9b38
54f4
5e1a
d10a
7dbd
040a
1b10
e150
c407
fa72
875f
4a59
504f
a0fe
82e1
e80d
1f8f
8331
9dc7
816a
1f6f
ff6b
3c70
8430
69fc
34ce
1969
273d
c60a
d022
628e
58cc
324d
6c6a
b65f
9a17
f577
52ad
7e73
4702
c3ea
01ec
3455
8f24
70fb
e98c
ad0f
0aa2
6a9b
7bf9
a167
b242
bd93
9e6d
10e2
1c2f
0997
2491
4f68
5b3c
f13f
178d
ef03
d513
5221
5c69
7dfc
9e4d
c106
7808
8b8d
3b57
af99
f0c1
bd40
0009
47c0
f227
0d1d
3eb8
b673
b21b
42a0
73b8
b73e
4208
c1f0
99fc
ce22
8fa2
6dd9
3546
a87f
04c7
2caf
1b2d
f319
541c
5c86
262c
1fd0
d5a3
815a
575c
75f2
1857
0576
3066
30ea
f5d4
efce
8901
38e3
d184
65d5
c190
bcc5
a875
e5c5
ace6
8468
81ec
7449
0a76
bb1a
3bd5
3888
ed36
199f
d5da
1155
05a3
bfe0
c118
9ca7
ddb8
b58c
03ae
8b61
9f4b
66a7
5a01
14c1
bd37
a293
749b
1599
2f9e
6ad4
0e1a
47ad
a69b
e3ef
affa
d624
e8e4
a692
deaf
4a2e
3c1e
b7dc
0a2c
3e58
9247
229e
282a
04e5
c992
eaf1
db5c
91df
ca0a
1a33
e0c2
61e4
315f
e467
c4f0
bb6a
0a5d
81a1
1c86
ea5a
5187
a44b
c709
872d
6ec4
5764
f570
c5f8
d6f2
2c62
8d82
894e
ad2e
7fae
5c23
08b2
b691
0732
4652
0022
0f4a
fb2e
91ea
650a
0834
55f0
1053
c6c6
5717
a7c2
d233
3567
2cde
cc21
45d5
0530
776b
5e17
015a
8b07
0713
94b1
6b02
374d
f1d6
197d
62a0
edd4
2bdd
2ffb
9ec3
a4e7
feae
511a
d8ef
19d9
27a2
a3ce
aff7
49aa
2332
8d07
0611
a61e
a893
cb8f
b20a
62fe
a1a2
5f5f
aa6a
7178
0173
9c48
fee8
0f4b
130d
20dc
f10d
53bf
b86b
37f6
226b
5ae0
4726
a167
3395
ba75
61bf
a014
946e
26f3
6501
9a4e
a574
d81b
b5b9
c8e7
ce29
e991
0072
00e5
14b9
e7fb
f407
f655
fd2d
b9f3
5f68
7c8f
c307
8a68
2674
ec13
c82b
94cf
c9b1
14b7
8802
acd4
06ab
a0a9
f0b8
29ea
8c6d
1d4f
545c
ddec
ceb6
c21c
9c3a
efe9
ea34
eebe
8080
f01d
22df
d720
d5e2
2ece
5113
f64f
bb0f
8144
e377
9038
beb7
5d94
c622
1d9f
8cae
c274
a682
af94
c479
5aed
8b4d
5932
cf88
0dae
e8a2
4d1b
7c20
d572
6b67
355d
564d
bca4
c644
0071
4296
8fec
03dc
9065
bc40
3df6
c114
8b89
be80
bd07
dc8e
4390
605e
efc2
440a
9eee
de57
0c00
72eb
062a
1cdb
373e
1943
6b0f
522c
9c38
cc62
f10b
eca7
e951
68fd
d850
791a
4e99
4f1a
821d
4422
e078
38da
9af1
4bc6
3371
2120
7f0a
b4d9
6009
27c9
e7dc
cab7
e815
3fbc
0df3
bf97
c677
7e9a
e9d9
6c57
eed1
5c9a
6f2f
50db
ab81
4d6e
5211
828c
1904
7e96
aaa6
93f9
a764
4e02
72de
daa8
b383
019c
249f
a7b4
9b22
e061
5a25
98d9
860e
33dd
49b3
317b
5385
aec6
3379
d2e3
4c10
f9d2
daaa
7c87
be06
6797
96f8
4777
a617
81cb
4fbf
59be
06f6
2f0f
fb2b
dc9b
5830
1945
8d02
da63
fa16
0315
1ea1
63a1
3294
9e72
31d5
6137
b47f
bf14
3aa5
f6ce
af06
9d1f
d860
7a98
aa4f
22a3
7b6c
f7fe
fb2e
7c7a
6d65
9937
bda2
bd62
a862
5e53
7549
1fd5
8744
2818
2507
ead4
de3b
b49d
8825
1e74
07ad
5984
1299
1e1c
e165
9d5f
390d
397d
4d55
084e
681b
1f93
df75
c6b8
787a
0a2c
2311
6555
d5c4
a87a
aa1c
a3c4
e2a3
1234
7ff5
7b45
8dae
de8f
3bee
f58e
dc18
01d6
2e6d
f3e7
d2a0
ad84
0a91
be02
6f78
f815
603c
e5bc
58a7
689a
f6ff
559b
f9b2
2d92
bf1e
0e98
d5a8
5571
edc6
714f
12ee
e811
87e2
ba82
afe8
4266
7a57
37e8
1356
7ccc
bb35
06b4
df9f
2a37
410f
aa7f
d67a
6f88
3f02
7e13
89fe
bdd6
e358
2a81
d0d3
fe22
5e8f
e257
8c39
8087
196f
f809
31fb
d056
daf0
554d
5695
bb6b
e500
e6bb
fdbb
d3ad
b0ab
4b59
fc47
3046
46d4
a625
e2a8
7c46
daa1
0624
b58c
df02
ddcc
feab
a5e1
4232
533f
88c6
1bb5
40e6
8eb2
f552
c0ec
9cd4
0cc8
60fd
a6de
7b2a
ddac
4e62
f57e
e6e3
8b99
3ff5
5ed4
5d37
f5ce
e6d1
d456
ff91
ec2e
4032
7c26
85de
82dc
2799
22bf
41f3
193b
0ca6
342e
2fa1
fe66
55f4
4afc
8933
dbea
349c
8f46
e4ee
7718
7874
8aef
5d30
fc63
5c2a
8061
f722
5d0b
d178
f0f9
1fd7
3f34
e43a
6099
9959
3f2b
7b8c
65e3
809c
1105
531d
6e96
c54b
d733
9be5
4100
0a05
7eb1
a629
a03b
7a0b
29c3
4876
47cc
6a26
0890
1280
8e9a
8eb7
8384
a0d0
80b3
761b
f8e8
f009
8eb9
9f7d
c723
477f
9592
a520
810d
1733
02f9
ab13
3066
577e
213b
fa13
ab97
e2dd
e831
7b06
fb94
f10d
5d91
1e04
efc9
b615
3379
bdbf
cf4a
679d
2df9
d8ba
f4b2
c118
55ed
d9f9
526f
033f
9079
cdaa
0f3d
7e65
ad59
ebca
f497
b6aa
a984
e711
03ae
274d
f50b
bb26
0890
2345
ebdb
5bf7
7062
fe01
6a65
1171
32f8
a522
4558
599d
9adb
9235
2f29
9c2a
c13b
a93c
e9e1
8428
a4a3
ec25
9490
245f
8487
da1d
6476
a709
2746
1be8
7318
187c
eaea
69df
34a4
a11f
4a6d
7cae
3750
8cff
08c6
2ad3
5d41
9afc
d9e7
7ce7
1bea
32fe
cc6b
fa63
1a3c
6e8e
279d
1b54
80d7
eb55
2d6e
e96d
3cdf
0033
9903
5e92
e090
eb09
7e5b
135b
e8ac
415e
ea66
b616
8371
b130
4a19
b274
d682
9fdb
9a2f
698c
f099
6770
8f8e
d6dc
3ff5
bca2
2871
a6f6
d23c
db9d
775f
eeca
d232
bf0c
5bc2
21fd
2322
0dd2
ecb6
f42c
93e4
c6ee
3635
ab36
9865
585f
2200
21ba
85eb
1b32
8d40
553f
86ed
4425
9cc9
b7e6
923d
62ad
c757
a582
3625
5539
e095
efc1
844c
1721
c835
a976
4191
7adf
3e95
04ab
da26
4117
f264
d3b6
7bf0
a5e6
32a8
9081
f413
738d
e18f
5eb9
2418
91a6
7199
9740
d009
53aa
501f
9ff3
ee8c
44bf
36d2
2b55
0e07
fb93
9714
3586
ed61
312d
cf72
4ac2
2917
e46e
673b
36a6
2392
fdb8
288f
78ac
e815
5174
e8af
d219
3350
3c01
ce28
72bb
26b8
8e0e
24a8
01c8
7944
9864
9708
a06c
bb16
3bea
9792
c5c5
7059
6a9d
216b
236f
e814
a8cd
f1e5
055f
4823
0f87
5df1
0a8e
14fd
3036
3863
9722
6a0d
4f99
8c40
f2d0
039c
4293
a7ae
2f11
ed9c
da62
a11f
55e0
41dd
1acb
a6f7
09a9
5676
b8cd
b986
746e
2b69
e336
f663
91d4
4b83
5ea1
d6e3
aa7f
2c8f
824b
0ccf
81ee
0c8f
b56c
a395
d2a7
7846
0c6b
18c5
4af7
5dd7
0f4f
9dc9
5c3d
0944
154c
8218
9047
511d
966e
aebe
c072
c5c3
2c59
e7ba
0c01
2d05
96c6
510e
0ff0
917a
988a
160f
65d1
515d
0796
5c1d
4f38
2540
f4c9
2e09
e8b0
21f9
912a
517e
e715
95e7
ec2d
3f17
8062
df9a
239c
8c83
7d5f
55bd
80c5
659b
5585
905a
b279
be85
f496
ac28
23c4
f21c
e294
59aa
30d3
3d4a
9b50
1e24
29c3
5571
3187
bf25
3c6a
0a22
8743
264d
8919
b4b7
28aa
cf00
a920
6d8c
d9a3
fa3c
1d1c
540d
750b
97f9
d488
9712
ba18
18f0
f317
4fc5
56e0
7ebd
6fc0
1365
6b5c
fc9b
2626
7db7
27a7
ed81
8589
760d
3a09
e977
8a55
532e
4a8c
0904
43b6
11e2
bd68
84ea
55fc
4d3b
f923
140b
ffbf
2ee7
bae3
c820
7566
98bb
0bb2
cc79
158b
bebc
e5ed
b507
150d
8ee4
5fd3
b412
34d1
d3ab
aa6d
e62e
7029
03a6
1c47
58f7
c41e
cfb3
b2e7
b4e2
0c15
e1cd
25b7
ca5a
6733
0c66
abe2
d5e8
a1a6
4fb9
230b
5cbc
b355
cb8d
4116
c37d
d8c6
3117
85d4
25b3
147e
e5a6
3a2f
e3e6
a54c
2b58
31fa
eb74
8cb2
0b4b
8818
3fd9
88db
abe8
91ad
baaf
fb37
64e8
9ce7
9120
2ae2
8a0b
347d
123d
6cb9
3618
9aa9
8625
6cab
8877
9746
c52f
7828
1522
15c8
2376
36a9
e8c5
61bd
ed39
3511
1980
eab7
c523
22a7
aaa0
5237
3fa9
4542
2b5f
3cc2
d2e7
4459
4cab
2569
f5a0
7543
f047
675d
7420
ea8e
3af5
7f11
c48b
98a8
aaca
e6f9
5a9f
d9c8
6f60
05bb
f73a
e168
9124
02b1
34d3
ce36
d539
e0ae
a60d
1cd9
de85
5ecc
804b
20ba
2fdb
e1aa
278d
352f
73c3
7e05
f2e6
1104
939f
fa4d
e12a
fda0
2a2d
349c
f80b
5216
858d
7515
3c82
3d75
efa7
246b
ba6a
6461
e671
cc07
c7d7
4ee0
d179
1534
de1e
b7f6
16e1
cdd6
09ec
72e8
6fe1
88cb
5ec6
6b5a
a3b9
e66b
2c33
3bef
5205
93f3
aecd
c4dd
af10
d2e0
fe42
9f4f
4c9e
b6dd
1863
6eee
567a
1352
84b2
e1c4
2769
6f81
c088
5645
a4a1
26d2
7ac1
8ee9
abe3
ddaa
b6f6
4a2d
2ac9
46b7
8281
11f3
a4ff
433c
9e87
9d4b
be4b
5c1e
d4fd
6a22
4d2d
ab69
70f4
5a29
954b
1a93
7475
e80c
f1ff
c45e
12b1
de94
3ccb
113b
9d84
aade
a751
7a9c
e9e3
184e
4c81
408f
f695
d931
59f9
4c96
1ed3
43a2
41ce
63d7
148a
c038
24d0
b8f7
ae42
dae6
dafe
2e9f
eb59
5eb3
29ad
d8e8
8d92
0621
edaa
d3a8
e059
d46c
749f
fbe3
8dbb
cf03
54a3
0ea3
795e
0884
40c8
49f5
3334
9066
8c86
98e2
548f
d2c9
9462
49a0
5e5d
ce05
ac39
6c29
4410
731b
3210
8dc8
cbc0
095b
41cc
41ae
a8e0
de60
a519
6e19
3b56
5735
f2ae
d5d3
0a93
12e7
1888
b4e1
5165
8c5c
ac0c
3c66
5efa
d11a
1fd7
b735
38f3
203e
3319
14ed
e25b
2c9c
59fc
af50
b444
2fb3
bd8d
7c2f
9078
a9f5
8bf7
5193
526e
02d5
06ac
fa6a
03c7
cdda
dd06
6f81
c6ed
4b16
2e51
4986
e4a0
5613
0c35
994e
0d9c
cb20
0d9e
c7ca
a51c
7287
417a
4645
8b0f
2697
3bcc
85c1
a146
a02b
114a
662c
d195
99d1
0401
8b78
9c98
73d4
3de9
aa72
846d
a1ff
7363
d65d
d2b8
83c2
c46a
5487
08fe
5e05
d534
08f4
2dcc
478b
2425
9dd6
6ab2
c458
f420
f9e7
9054
50f2
902c
85c9
dbcc
e9a8
284a
96ba
4e1e
54bc
91f4
7058
09c1
8a30
a4b7
4e7d
4200
1eeb
22f7
f102
2abc
ea7e
7baf
5607
607a
ac65
b4bc
1ab3
c209
09b0
cbeb
b694
e75b
17a4
208f
ba30
1a3b
ddbf
fab9
c4c5
5a82
5d86
a39e
4e10
1258
d8c4
d641
98aa
f150
199f
8b35
351c
9f9a
2df8
debe
04d6
c797
aab2
9bf8
c978
ab30
de0c
2b86
04a2
889a
e90e
24bc
093d
21e9
89d9
d68c
8969
ec1b
523e
f2fd
d8f7
0d5c
6a1c
dee4
f634
ec5b
b60f
004e
a221
4824
0039
2fff
501b
a550
717c
979d
1f1c
67d1
7de7
6f8d
0bc2
15ed
292d
0dbe
24a6
547d
7a66
1531
d4e3
fc2d
ab0f
1936
eda1
2713
81ce
7ba9
ff03
5453
417e
e0ee
cfc3
04bf
103c
1d41
b83d
e207
bf67
fe84
128b
d886
ab0d
f416
38cf
017d
82be
16b2
9c90
e763
7c27
df7c
4535
a0a0
c0cb
17b4
c33d
bff5
f1f0
14cd
8dd3
88a2
6fd1
4f28
2568
df8c
4fec
99ba
4c16
0d4f
b219
5a03
4362
9d13
5e4f
b6bc
0447
3735
dc33
3b8b
1c9c
514e
9501
9dcb
9ecb
fe02
17c8
832d
3e7e
4374
d5ec
a15d
5441
f443
ec62
98a9
5d78
63ff
1dc3
1392
0dbf
7671
b253
fc56
fc0d
20b5
ebac
e348
8de1
ea3c
0665
7e85
4bac
ecc8
5dfc
a9fa
ea86
1225
ef81
3bc8
e8d0
9c75
92fb
97db
249b
5aaa
ddc5
e8bb
8b53
06d1
0bf0
0188
dca1
7095
c532
f93b
6544
d6be
9191
f927
21e4
28df
90bc
4743
a2c0
c2b4
daff
4a0f
7bd6
a83b
c1f5
2178
f5eb
b167
aa34
577c
a0ee
0065
5ba3
049c
30b3
c620
54c9
1986
93ba
143e
8414
f322
0cae
ff8f
4acf
26b9
4d52
e5f8
3a41
f629
750f
74e8
3269
3713
c592
5a55
5bb7
51d3
4982
fc42
1a0b
9972
3ec9
f74c
3334
3e42
c87a
26b7
5156
f984
5d53
f011
d7a4
5a6d
a76d
eecc
3f78
90f2
6ef7
5ee1
7dc7
d848
5788
e75b
1b82
cf03
493b
f841
86a6
a214
332e
0d7b
46ac
7789
7c9b
0ba3
d7a3
6566
413a
2543
c123
ec16
7261
d346
2ef7
2b23
c6a3
51bd
3de4
906b
2d20
ce12
f20b
3998
9ca9
7115
b2ab
00ec
2279
473d
8058
14aa
2aca
35bf
979a
008c
9b37
1cda
37f2
5b6a
3e98
c854
8d36
4235
440f
8499
a90b
4705
890c
2cbd
84fa
faa7
7a66
cb06
bac2
8b41
a468
a4fd
fc81
a03e
388c
81e4
ab93
3d23
f358
570a
4839
734a
0f09
0ec3
6759
248f
0a4b
8f76
5df9
d938
d17d
4521
27ac
d1d2
efa7
29a3
3a53
6705
f350
49cd
84d7
b437
29ac
d80a
fe7e
ed10
3e7c
7cac
a8f9
de10
0a6a
6e2b
80ac
d915
8d79
52d0
e2ec
0cce
7464
a6c5
6e27
5939
8a88
fb0e
70a7
fc95
e775
6a1f
e348
1144
c55c
4af3
30dc
12ee
9db2
5b75
7570
e1f2
15f9
b8eb
17ab
7446
c20a
506f
9915
316a
14c4
365b
ce44
c987
92ef
cd78
874e
f589
a463
8fd6
5bb1
eae9
f88b
9f8c
4382
e5b2
710a
fe1a
b329
4dd5
aa4f
9d7b
c175
9904
3248
89ed
cdf2
6d90
ad4e
a7b2
b272
52d9
32c7
789b
8e9f
1445
c198
a3c4
7e07
f649
9ad7
5758
7f06
a487
f815
4c8a
bce0
33be
0c32
3054
c0ce
3d5d
053e
c646
09de
52d4
ed7f
fafa
4b11
2dd2
6ef9
b954
8dbd
a333
f2af
cbfa
3bb8
705b
38b0
0722
e53f
c36a
6865
605b
f283
5b08
45e5
1d56
104f
7bc8
f031
c638
8134
f79e
4fa6
c458
bed2
8a4c
042c
10bf
1606
8f47
2868
7614
efda
a479
a0ef
b417
f8c8
cae2
5b0e
b7c2
be33
24c9
9e52
bbf4
19c0
4488
73bb
e12e
61ec
0e01
d9a5
90f5
5fca
979f
350a
97f6
b6df
7a13
5df2
c797
126c
6439
27d5
711e
9240
8df4
efda
c00a
e019
27a6
cd17
bdc1
beab
7727
bd17
d20f
70dd
5b72
e7f7
bbe3
f90a
3a8c
e397
feb2
96d2
b22e
f1c6
3b67
5bf3
fcdf
ead8
8333
ceca
1a63
86dd
3025
fd85
87d4
1be0
f0cf
7151
ebc7
c07a
5662
20b5
6924
5356
f00f
4eee
1122
04ae
5104
5e22
6a01
ae9b
4503
ca70
bf2e
f79d
30e1
b239
e4f2
b411
8834
0a6d
ada4
ed98
b72b
ce24
2b39
fa27
d3e1
7e3e
7c5e
275a
29ec
ce46
0221
9dd2
8a6c
ae85
08fb
866e
88b6
7767
5e0b
9fe8
2ccd
ed3e
5db7
35db
aad8
27cb
c83e
3529
0e9e
956c
7388
aa5f
274c
10c3
ce62
dc16
4c98
b13d
718b
5738
ce71
8452
0067
6f0d
75d6
97e4
d757
2c97
cb61
6bd6
e117
9e71
59dd
95f4
2a9c
3f10
97e3
7e51
3c2b
6f4d
c8f7
999f
900e
9dee
a828
1274
2afe
a100
61f0
e541
f357
29d6
aa66
89a6
0150
f2f7
645a
cebb
1806
8bac
3bcc
5c56
c9c8
d39c
80f1
ee62
3615
6cd9
2b09
78cf
915e
4765
f8dd
e81f
ddb2
42b5
50c7
e2c9
377f
0382
aa82
4a7d
1763
53e3
37f4
8e83
cf93
8af9
c987
5d2e
c259
73b0
84f9
5cb9
fdb5
85c8
941b
fd08
d49d
9217
7771
ee5b
daec
a23c
2b50
7fbe
c96a
13b1
9564
59b1
c861
674f
08e6
f1c1
2c49
bfc3
3ffa
4322
a79f
a9e5
c0c6
f01f
d119
35a6
be80
8328
55a3
f645
65ca
57a4
e50d
c9c5
f1fc
1e12
b670
56d9
a214
97ec
4816
610a
688b
cf42
8e19
270f
2c44
fc91
fd94
cfb9
dd45
0b6d
a78d
cab2
1541
069a
f74d
595d
8f5c
06a3
9c4d
7a2e
6b7b
f2e5
4c40
2351
5142
d92b
69b6
898b
5e07
e489
83a0
c1bd
98dd
08fb
2131
555a
58df
c30f
732c
9524
569b
a13c
0ca6
8cb7
312c
54e8
e6b1
3264
0201
751c
0026
b9d7
e68c
ec84
3ad9
497d
052c
e4ef
8b27
c760
e846
c27e
1504
7b60
c848
40e4
9e84
f849
19ef
c9aa
6ad1
0363
4943
7117
f701
aff3
d4ba
2a16
b504
252b
4ffb
37b7
d4ae
7f6a
d5e0
f913
6108
200f
f048
abb6
5798
3a60
bee4
090e
89db
92be
f734
5ea1
8027
bd77
3ebc
bac8
0cbc
f041
afff
50f7
a901
66fc
c52b
a4dc
fe77
035c
d48f
e812
c06d
84f5
3472
2518
c4d2
1e56
789b
477c
3db6
994f
3527
0e08
9033
5b3b
f2a7
26f1
5a4d
69e4
f7a2
9f1f
40ab
b69f
9f1f
7ff6
152d
8c6d
8318
f126
9fc5
bd5c
a5c1
e3e5
a92c
b723
6251
58d1
a32d
0619
0d7f
8c52
f5a5
b972
85ed
bcfc
3b5f
26b2
9a33
7536
a226
503d
e2f0
c68e
d6a3
40e6
6b3e
4822
e4e1
7a43
cf98
39dd
c8d5
5211
5be6
f84c
13e5
1772
e272
20d4
6ecb
99bb
bdc2
9a29
b027
1439
61a5
4aee
2495
e8d8
ffca
f03f
3814
a002
239e
b32e
bb6c
a55b
9959
c477
083e
fec3
00c1
1f11
a24b
cd3e
df2a
de19
04d9
f46b
73bd
13c6
ac47
6934
b5ac
f29e
a360
ebde
8446
54f3
7874
0179
fb4a
1e57
5aa8
3793
d792
6120
ad1a
da13
5be1
1307
47fd
5c04
d830
9fe3
ff5b
aca7
29fb
6451
5fd0
0847
6c1a
1086
1992
2eba
4540
8df1
e06a
fd01
f6b7
90af
270b
27bb
7503
459f
2149
a734
4179
a25c
c26d
c15a
833f
1bf0
5bab
e28d
a4d9
e3e2
ce48
d249
7ac8
39d0
6cc2
d2b2
ba9b
7ca1
f251
169d
0502
d18d
bdba
e84d
1980
5d10
f660
1deb
bb10
fdde
6769
284d
3bdc
5e9a
f76b
92e2
578b
0804
bed8
975a
e691
060b
39d4
9adb
6858
9c03
041d
b7b1
fdda
5db5
ca1d
3486
454b
3b13
fbc9
39db
8e84
9596
1b8f
ad2f
bea2
93af
c387
37bb
1cf5
e74a
8124
6ef1
d1f2
f962
f16e
b910
0a93
c511
59b1
4151
60ca
e962
d6bb
9de8
0df2
cbbd
d439
6f81
7bd1
5a07
5296
e6b5
2941
e918
3cbd
ce19
fe7a
7556
e380
5bc8
7444
098a
42b3
885e
e8be
c425
761d
1012
65a1
a7c7
35b5
3777
bbce
d491
d425
0c22
e917
3b89
92db
6ca5
d637
c1bb
9209
9d77
e621
60fa
2619
236f
275f
e15c
2d4a
e729
10d6
76c6
cb2d
c749
6cfb
7798
4cfe
c693
cb2d
a274
c32c
1de8
9355
3ef4
1232
d8b3
1be4
1723
91e0
e2f6
aed1
e1d6
527c
70e6
f810
4679
89d5
6142
492d
61fd
7d57
5988
a88d
8468
3746
3ced
0682
f6ac
b8f6
2c62
dd30
d46d
3b96
0c6d
c89f
e338
2c97
c381
b4c2
5ef9
a671
b31e
25a3
3b61
2349
7858
9324
6c4b
48ce
f937
45d5
e771
4377
46ce
535b
4a17
2b21
5b55
2eb1
c0ad
4e76
fa4e
9320
6616
0030
cd31
0d40
1578
d490
38f7
a109
104f
754f
a579
c61f
485a
e76e
fb25
43bc
6e5a
7ee3
b669
62a8
2f00
75c2
26d9
4096
950e
c52a
0874
f21b
401b
0c04
e2ba
4ff7
89a1
716f
abe6
477d
6ba1
6907
231f
4e51
91c7
83bd
dae7
d7fd
e9b5
ef20
a32f
5fc2
38f3
3d8c
0538
3a37
e62e
119f
f41c
7fee
3c2d
685d
0a16
a1ef
0f2c
07bb
dd94
2cb1
fe7c
fe7a
7264
5a9c
05ac
2fc9
a824
d25b
2693
96d1
7975
21f7
cb05
17da
abe4
b655
968c
2ed3
983f
ffaf
959d
afea
53fa
1cba
a2f4
d575
e4dd
8d32
7f8b
ff17
baa2
868b
100d
fa64
d1d9
e5dd
0496
0f6d
1430
46b1
6636
f602
c915
e887
705e
7ec9
bffb
7d45
4339
1fad
24c2
7eec
5e77
d3b3
62e1
368f
6a8f
8e24
7414
49ac
c97a
66d9
3263
f732
ec52
4be3
8807
bf82
7d12
58c4
3505
a204
d9ab
db2c
e383
9ade
dd2e
c4ff
ac59
8869
01b6
c63c
f9a3
23aa
ff12
555a
835e
d914
664a
656a
1235
983c
e491
724f
1fa6
4892
2c85
9749
26c3
2140
faa1
1d25
2d49
765c
0912
1ece
c62a
4bba
6b0e
1563
80b4
6fb8
daca
8961
29fe
a9b5
834e
89ff
ac4e
e7b6
d566
5ff8
e254
f5b6
76e2
74d2
0ee5
17d3
3c4c
f38e
cefd
1036
65f3
2525
bab1
e3fd
d92b
3fc4
0052
de60
9a73
2851
35b4
46ae
e429
78e3
60b8
93a3
22ad
65fb
16f8
a810
003e
2497
8bc8
c7cb
ee85
94d7
d277
72d9
bf7a
91ef
a869
b86c
95ce
cd4e
fb72
7096
348e
215b
3310
939e
d72d
b659
8ae9
1051
1aab
73c7
1393
86e5
eb2e
f073
6624
6622
4301
943b
9399
999e
c9a9
526f
a3c4
2a7f
180f
b81f
f7ec
e1ad
427b
fecf
318a
bf9b
c3e9
246d
9c0a
cb06
3a12
9048
dff8
fc5c
201d
a54f
b95b
e740
1a46
86b7
8a6c
49e8
cd14
d5ed
b525
1ed4
a04a
68f2
c13c
91ca
4a73
8b2d
1808
705e
37df
9c80
8387
7e27
40b7
2478
a954
9432
3d48
45bc
ba41
80c3
7309
21fd
b1fd
aab8
6261
98cf
5def
cfee
1753
4cd7
370c
2cbf
5f8a
7fab
b696
303b
6342
0443
f46f
0b52
4185
7422
bd68
f7f2
f70b
68da
1c78
f0c4
d7f6
b664
97b5
90d1
c635
18d5
a34e
2cf0
9f23
2a78
305a
a1f9
d5aa
af3f
d860
c0a5
f649
812f
ea42
5789
ddf8
a7b6
eb09
6415
42f3
128a
3995
fb44
11d8
19ab
c748
e0bc
1b62
d322
346b
ab05
6a50
4dd0
5fb1
2d2e
9ef7
788b
f756
5343
c8f5
b127
533d
9658
0280
5611
9db0
cd2a
5e16
61e6
13c7
ddbc
5504
2464
cd7b
c821
c1f6
bdde
3771
f829
75be
b44e
02fe
ab31
49d7
dd4a
fe4b
9e8b
c862
178f
142f
999a
b5e3
3602
98e2
1858
915c
f032
c9ab
9de7
4662
463d
3543
db9a
a9ab
c60a
93f0
03ae
fb3d
381a
42ab
1723
d3ba
1282
ac0f
6349
72fe
ee84
0e7d
bd8f
9901
63fe
a680
d861
0b0b
4112
002e
a970
3c80
87c5
aa72
dabd
9bf8
01e3
c77b
b5c9
a305
3032
db15
2e4b
b81f
4c96
1695
1a20
7caf
2771
1828
90e8
a6a2
0a47
da15
06fe
2a1c
f145
bb6c
8723
fd9e
79a4
68c9
c22e
e411
428b
f2ff
588a
759a
4ca3
b26a
1d75
f7e4
b961
54c2
8432
e521
9f0c
c52b
76c1
8984
c021
16e6
cf82
9343
fa8b
26cd
f760
fcda
374d
651c
eec1
48c5
31d1
338e
b302
51b1
8451
9464
a22d
1540
9d80
e6b4
e9ea
bc0d
16d7
23cd
c1c5
70f7
f8b8
9dda
a34e
ee29
4bca
7249
7f5e
fbf7
dda4
7383
4e4a
2d6a
3ace
81bf
1843
8861
b795
d482
7f39
2881
384f
202d
e137
0007
4901
2014
266b
fe66
8ee1
1ec6
7efe
ad08
e0de
f81c
0b30
0d55
9f3a
8e5f
4154
3bca
c5d4
23ca
4972
7cb1
42bb
8350
7c89
6ae3
30b7
3eab
bca6
5089
134e
d264
000e
0aab
71a2
538a
a296
8516
1dc8
f0a8
7b79
911e
7ece
dab0
9b85
fb3c
bf3d
8e99
015d
4436
9b55
3e05
ff9b
c13c
18b8
fe41
10b6
4499
d2f2
872b
374a
7716
05e5
c4a1
4e7f
5550
5722
b07e
c239
aed8
0f1e
76cf
a0db
615c
079c
375a
aca6
f2e4
4a1b
eb80
099f
35d8
f26b
25ed
dba9
6384
c875
a65d
fed8
3e1b
e77d
3117
f20b
9e77
bde7
6666
6d50
e479
40c2
a7da
8d94
93c3
cf84
e030
d11f
4083
edf8
9dc0
7818
00b6
2749
c9b0
8548
d613
c98d
5184
2cc7
468d
f18e
bf7d
757b
7cb8
ebbc
e216
cd69
de9d
3e2c
921b
ba52
91b2
ce14
d2f0
64be
cb93
7c03
2145
3204
f7f0
c3d8
4480
6b85
68f9
2528
ad03
2031
949b
2fb2
5a1c
b90b
5de4
56f7
09fd
9a9d
0552
8404
683d
94aa
18f9
95d4
bcdb
2185
fa5d
9ddb
9b39
c88d
7581
79c1
1eb6
bb71
5a99
7582
aa67
e345
f266
4b6c
7d2b
01f8
bdda
d4ab
9bca
2e87
33e1
1376
0cc0
ac37
e336
bc76
015f
ba2a
4ec0
4ab0
bdb3
178a
ce31
72a4
030a
29bf
c534
8db9
be65
bebc
1bcc
c9c6
d495
8ba2
ee46
a004
be96
c894
f88e
833c
cf0b
cd03
252f
a584
c97d
9bd6
b61c
7c41
9341
e8ad
5ee5
32ff
6d6d
5c07
aa75
c1d2
c3f9
2d1e
5420
d188
1a89
077f
ff54
701c
825e
a60e
f7d7
5bd9
2e1a
56fb
8443
dcf8
2ddc
516f
e082
b2c1
c610
9c7b
c43d
a114
7a54
c0a7
4379
bae6
19d1
6e7e
3565
0061
24ec
1fb6
5e2c
deee
adf8
6bd8
d5f6
1b31
b8b2
ccc0
2c58
f640
321c
d522
511e
1a05
30f1
a7d3
5058
d7a9
ff2a
9581
19ec
aef2
afa7
19e4
3760
5e10
7cbc
34be
334c
6b60
eb7a
37c9
7fea
9c9b
468a
e1d3
6b83
ae92
03f9
13ef
1fce
0034
209e
8915
e7d5
0398
819c
18fa
7602
862d
4c73
019f
1937
9b06
7c6a
0913
5f1d
d15a
69a7
86b9
4257
a331
2d2d
0b8d
f73b
5e20
1294
25bb
17af
40df
3a12
39bc
5bcf
7659
921a
c789
1b2a
1f5a
ad12
2c36
9473
a5e1
dc0f
9679
deff
8b0d
5fad
ffc2
7fc2
aca0
18ff
899f
a49d
24b2
ed47
9550
0a41
d97a
c3c3
9b6e
4bf5
aec2
0552
3ea9
ac07
200d
3f5e
953d
5856
127b
784c
31db
f713
9078
b890
37ad
7eb7
02b0
8524
5c5c
370b
da6b
5a5a
a9f3
c63b
a07a
a614
00c8
bfd6
de2f
bb8b
0bae
1d66
01c0
4c3c
6bf6
1007
8eb7
ceb2
72c3
18c9
5775
b8ce
1b6e
0e8d
0836
d456
d435
4a17
399b
8436
bd11
fc3a
55b2
5109
d856
9441
7a97
8d5c
ded4
3cec
d8a2
c21c
65fd
8210
c914
7598
415a
06a5
3fcb
74ea
0598
caaa
6c57
3a92
2119
69cc
a2d6
c25d
5cc1
df59
98f0
39f8
6edb
20e0
cba7
048d
1be7
9cc5
aa05
5407
9251
95b6
b8f4
31ae
88a5
796b
fb29
2043
f837
c9c5
8744
3d00
71c9
a7e1
0637
1fc4
d4fb
5756
c20a
58ad
b1cb
3862
4897
3159
bf28
7a6d
5faa
d7ae
5284
5a44
744a
ab65
fa60
26e2
17c7
ce00
6389
60e8
bde9
3171
a520
5bf8
07a1
dacb
95d9
5f89
3439
f01b
b8a0
3dff
13a3
9e59
af1f
0e04
4a28
9410
084f
4105
1642
547a
6b15
9f32
ba07
6f61
2d30
6d53
e5cf
102c
4bbb
9a28
5076
73db
38fd
13ba
ea7b
dbac
10eb
b67f
6c02
14a7
141d
ec59
a8ca
73a9
b73b
d778
3855
508f
365e
4a96
5eca
f92f
bc4c
d07b
de3c
c175
2495
22af
63da
f425
1e7b
be6b
0c5f
509a
111d
cff0
0093
4ab5
0c2e
0565
addc
4546
2d0c
c8f0
6723
5a00
866b
840b
91ce
920a
2660
c527
2be0
bf37
5251
5832
afd4
d8bc
1b27
785a
de1f
5b82
f5e0
9a8c
b873
0918
4043
f8f5
9bc2
8573
7993
7af0
1772
b091
e786
d9cd
bef7
b2b0
643e
14dd
90ac
20d7
05b9
c679
48d0
fc5a
8f78
1242
497c
f676
46f1
729a
4c19
a166
4969
fd3b
bb41
9796
379e
dc7d
2935
4783
c3e5
e7cf
ae3f
1ebd
f0fd
1590
a448
8ce2
cab0
b633
86b0
f924
fe29
63ff
6efe
631f
8b3a
431e
46d2
9f06
ba33
72ab
adb3
c44f
f009
bc84
4fa7
62b8
dd5a
b442
c783
1d33
c315
554f
0b94
b39c
7080
d3bb
4dc2
3c76
02ee
1f9f
5d2a
474b
e549
cf1e
e6a3
9de1
0ced
cdf8
b4b3
04e8
009d
e184
f054
44c4
ae3e
3760
b884
9223
c44a
1192
d5e1
9a90
08a9
fba8
88d3
3959
05b7
7ea0
1671
8ee2
7e02
b0f9
85e1
4890
7afd
e26c
4c32
31de
0c7e
e5cf
e257
c9ee
b843
b292
0a3c
fc86
c1b0
f0a6
73c5
75d6
48db
46cb
c4fc
fb25
c766
dfce
6c98
5516
12c8
dc7a
230d
564b
a15b
5c96
9748
0ca1
9b75
3986
fa29
2c50
509d
2185
3cff
ce2f
b61e
6d2e
46d6
4dda
64fe
21e1
725a
2c08
6c8d
4154
a229
3ff6
9c6b
f3d8
4946
9c6b
4cee
34ee
ef07
fe39
2ddb
468c
fdcb
a97b
98b9
10dc
b549
a913
e124
2685
3649
9c79
9147
1b85
e9f6
d396
5f5a
7656
92a7
1b3d
83c3
c44c
b5f8
8b97
d364
e0c1
342b
0aec
4335
8363
84f0
5c0e
8834
d3d4
8fcd
71ed
a211
8cd2
f7eb
2412
7195
7f47
2985
2c24
ed26
d658
e798
d2e1
eb8d
7764
1a5b
bac3
910e
33e5
e3d3
0882
f150
8042
b1b2
672d
8436
ac41
2425
d1e3
a60d
4c0f
591e
ece9
cde2
9b34
08ab
64fd
d695
4063
d8f3
33a5
7982
6e8a
775e
a39e
afb1
cfc7
c975
574a
4093
5d9a
289e
bf79
441b
2d79
3276
7e9f
4b8c
181f
1b74
94e8
7d09
2383
838b
6605
448e
6c8a
1599
5ee1
1aa7
6ce5
28fa
66e9
d06f
684d
fd96
1c0e
2896
3ed0
d3e1
838c
fb64
b784
fe3f
c00b
626f
6cec
0613
372f
6b5d
e9df
30e0
8e40
f216
6546
7fd4
3595
7fee
d3c1
25b2
5eaf
8432
0d6e
6ebb
09e8
24ca
5ffc
b0b9
cb7d
9da5
9e0a
2667
cbd5
5b2f
17f1
1da7
1590
9db1
5b87
21ec
cbf1
5ece
4bf5
405c
5c2f
97ad
fa60
f8c8
be70
d407
3259
1b96
3d45
3b82
a957
1863
5374
5776
dac3
aca9
4dba
deed
e647
8ac8
1e79
bbcf
d023
e854
32a2
827f
de0f
cca1
8e34
dfd2
3a51
172f
8b5a
421f
5553
1dd5
fb1c
2c16
2df7
e097
a2c2
87c7
0e77
c94f
e702
da8c
69c9
a17f
de41
dfaf
bc32
c2a0
4cc6
0643
afc6
e592
1c3d
f761
1d50
0aba
1813
b8a4
3280
1f58
b884
40da
911e
2756
ee65
5134
2084
470a
32bd
9d8a
7952
6838
3402
1fff
151d
cf6d
a326
2490
e73e
1545
15d4
45a6
197b
36a1
0cce
df0a
f438
3d81
2915
0184
09f7
9070
4340
e84b
f618
15f2
7c77
877c
de79
1223
3812
089e
a22b
8c19
c7ca
95b7
9b60
bd6c
5092
d817
4181
33ff
5008
5cb3
4404
125c
eead
3c97
f511
6fa0
68f8
9787
27e5
a918
9527
c9f9
3bfb
0394
4ab1
9316
d913
7e8a
30ab
6e13
790a
5a34
d86d
bdfa
cff8
6a3d
5331
f172
7687
a946
64b3
deb4
0a01
e71b
e90e
b5b8
6b91
bb8a
6161
871c
507e
3460
b13d
a500
3606
fb4a
9110
1191
55b4
e560
6614
f17f
48cd
d387
6968
abf5
3e70
71a0
acdb
1da1
d244
37d4
ffab
5460
dacb
c273
6bcf
6fe8
04da
8175
089c
b1ce
e580
76f2
a10d
a9c2
183d
4424
c3c2
09ba
f850
6b18
9b4d
34e8
9bf9
4cbe
5621
0280
6277
8322
0896
517f
9940
06f3
e318
40b7
1e67
1fde
de3a
2396
e30c
1934
8232
12ad
19b7
737a
92ed
c0e9
07cc
2b3d
56d4
d9be
ca4f
d686
f343
527d
95e0
c3bc
0e4f
eba4
269f
7634
b6b5
f007
5484
b9ee
d139
f552
cd22
885a
8d0d
bc34
0cba
3ca9
9ff6
7e32
00a7
f636
da31
ddf4
3245
2d35
554b
8bbe
99b5
3eca
4d85
a7fe
7952
8f9a
7cdc
734c
266e
68d5
0fcb
b7d5
47fd
fd6b
62d5
61fb
ab25
4795
4a44
bca3
9560
3496
dd99
753f
cd5b
a6d0
51cb
69e6
b347
2798
3056
591b
716f
d2c7
c9e3
f066
303a
1d37
3656
b9e0
93de
82bb
51e9
4c00
38fd
2be0
36aa
b326
97fe
8d8b
0e79
7cee
1d12
c888
c902
5015
0561
83e3
c117
cea4
8818
3b8a
c541
c534
91fc
70ef
58a1
9f72
e49d
813f
0445
6e5e
d0f4
75b9
cafa
950c
c79f
ef76
313a
40a3
8e35
0345
74a7
1f79
816f
6920
e4ad
69d5
269d
a964
ee8b
5832
caeb
e39f
9d42
f602
954b
506a
32bf
ef80
b4ea
12ce
127e
72da
11df
eff3
4e37
9fe8
cfa2
04c5
35c0
4f11
5263
6bd8
fa47
8735
9ead
94c6
1af5
54d2
f9a9
c72c
cb17
ea94
536d
3e44
ccbc
5c9a
62ac
42c2
d0bc
8781
4ce3
1986
928b
7781
e612
9101
34c5
d119
bac9
fa9c
ef08
1605
eacf
bfd5
2944
96db
d5e9
eea9
001b
ab02
8c01
6f0b
1ff4
2a2a
be26
9dc3
0da0
cf42
7742
016f
f2e8
783a
5944
7c34
01dc
e05d
ee9f
9ffe
005c
dacf
db62
88a7
7cf1
fd4a
2b69
35de
9f93
d0fc
2bbf
2e83
e363
236b
d9cd
11b1
e5f6
0e7e
ae91
ee9a
349d
6385
b7a0
d94d
e5d6
e456
1074
ed1d
9657
ca9a
d3a0
9f68
2834
ad82
3c59
3e18
f560
381b
b60a
fc51
031e
9988
ae64
bef8
a184
40f5
7695
58ac
16b6
24e9
3457
e730
3e1c
91f3
42c5
e812
6535
c35c
47e0
caaf
1f38
75c9
8978
36f2
0c06
b220
b469
9a7e
78c1
6397
663c
d32d
ce0a
74ef
267c
324e
5e74
19ba
49a9
52ce
7ee7
c2bd
c4d1
81da
6d69
b7cf
d396
e724
e929
939f
b3d6
8fa7
db81
92cc
ef62
b241
afc0
adb7
4178
68b7
2482
ac62
8cbc
cfa9
988d
c601
af7e
f327
625c
ebfa
8522
dbf5
0110
306c
5e71
7c1a
3b64
e734
d27c
3f29
f8a2
6aec
e156
b703
f5bd
a37a
2484
e0ac
49f2
2334
c8dd
b6e8
cb4a
1707
aa09
7729
e91b
228b
b82d
fd80
9bea
7757
f9f0
8dba
8c09
9739
e0a5
f5f0
63cd
86aa
b139
be11
bf52
5eef
a93f
bac8
46d9
fc51
d56f
6530
f667
ae61
29c8
2c1d
c28e
7214
06f0
a727
d39f
fdf8
8cb1
d810
5340
0c05
68a9
38eb
49db
1cb9
fabb
2c16
ca23
1d07
4e7e
0f2e
8580
ce97
049f
36b4
d49b
2b9b
4db1
cec3
f9c8
8e7b
1c3b
ac49
4960
afed
2c5a
c8d6
16df
78fa
3494
2299
398f
8926
410e
fce6
f07d
0189
37ec
5a15
27b2
7240
474e
bf2c
a907
bfe2
c4d1
9332
6513
2479
9cd2
ed83
5d84
bb21
1a14
e6bd
6268
46ca
405e
b047
53c9
9b07
d6d4
d0d1
b0c2
bce8
3ceb
a686
6651
6b5e
7abe
897f
0e54
bf6e
13f8
1fd8
7950
233f
b42e
510f
1f9a
0486
f612
b804
242e
d228
bcd9
9c2e
792d
0808
63d1
630b
5f8c
2299
6651
da6c
fb27
e5e1
1841
fb18
982d
56dd
5d38
d7cf
f1ed
f8b6
2f0c
b08b
2605
0a98
60ea
a46b
2f7f
8e16
a3c7
bc45
b3d2
4b78
a81b
da09
05fb
a152
5e85
86bf
ab83
43ae
0594
4a00
d1f6
0f98
2245
c483
182d
23f6
8efd
860d
249e
3155
bf8d
9938
6b6c
b247
60f0
398f
5cb3
884d
2eef
902d
7b17
41f3
d868
c1db
13a7
a963
8b64
a833
435d
28a2
d591
2da8
58ff
35d0
fa0b
a1aa
ba02
8d75
b259
6cc1
58c3
7cd8
a104
b78b
28ee
1198
2528
f782
210c
47a7
c45a
437e
2f5d
1d32
3633
3fd3
1b15
25d1
64b2
8f23
a284
09a9
4dc6
e4fa
3d90
cdb8
a003
c658
d334
2b91
269b
db9f
6455
0ca8
33a0
187b
1941
f081
f936
2e3e
e9e3
2a1e
46f8
2781
5b54
0352
41a2
1ccc
138d
fd3c
83b8
902f
0c93
dd95
4849
dd42
45d3
48ad
6d96
270a
02da
4b16
963d
3f61
bbdc
1b35
cb87
555d
f7e9
7414
9b16
1f4b
902e
54b4
9556
382b
1f39
7773
5087
10d8
0703
8f3a
c4cb
3123
c5e7
c379
2730
ced5
9bcb
5f9a
94e4
8b12
12d7
c9db
4802
f9ff
9ef8
9f9f
2c3c
e18a
8694
78dc
dba4
8a20
9f7b
8435
440e
3c27
c410
cb5e
8cef
fccf
f623
b03b
7079
881c
cd06
8168
4797
9034
7142
8ea3
7499
38de
1ddb
1b18
848f
e094
4d67
6dae
9217
18a1
7853
8848
ca94
608e
87ed
67f7
df6c
976a
100a
bb5e
d66b
1372
ca87
f940
bd16
aa30
121b
5efb
e119
9fa6
7d69
8381
7c59
a092
0ea4
164a
dd07
a085
a4ba
dd32
dd6d
46a0
e2f2
ef0f
20bb
5052
e657
bf68
7ca7
dd3f
267d
34b5
56c0
88d9
904d
7664
a51e
0c84
0725
08d4
eb30
a4f2
2fee
76bf
7f7f
1d09
d5a0
320f
4ac0
6d7f
c171
b351
85e3
ccbc
1a74
a66c
9240
d4dd
6061
0e72
fb5e
8d90
a762
919e
b289
615f
6b9b
3fe8
9656
d565
6b8f
3078
5f7d
a7de
792e
5c4b
5810
a6b3
00b5
