4b6f
d5e0
33fd
72c0
0f18
b7b4
2c81
83dc
2a6c
f1d1
600b
550d
8616
5f3d
404b
29a5
2d86
ec86
cabb
0c3a
1753
1018
4bc0
f703
64f1
c624
c8e7
8409
da6e
f439
7e86
739d
e2e9
0a31
6dc8
6a19
0bfc
84a5
9b4c
8622
a94c
4a9c
42a7
fec0
1909
d57c
7c64
3d9d
c72f
60be
eae3
3530
4cca
6cce
d1c2
8fc2
8f7b
b3c0
d9af
447d
c898
9968
8996
2683
8923
d4c5
49cb
b95e
58ed
2cc5
5292
b1af
2dff
e87a
3d93
33f6
e48c
ab00
acb4
15dd
d99f
8256
ca54
1dc9
00b1
359a
dad5
19b8
ea63
1b1f
b7dc
08ed
30b5
7982
228c
de5f
1c59
9840
aa17
8445
71ce
8b4c
de29
f824
e611
79e5
939a
90c8
b275
a006
eccc
8f56
3540
eb91
e344
0b82
77f1
65e3
eb8b
98be
2030
a070
bb67
0397
4c2b
7894
a9ba
737c
d5e1
bddc
c981
2169
b2d3
3981
2326
e97f
f1dd
00f6
d296
46f7
256a
b261
cfb2
53fb
bdda
168d
fe27
e684
720b
5364
300c
4a6d
3f23
e4e3
a608
18d3
cc27
7c44
72f3
316f
f54e
9c08
c281
c620
02ac
71e6
746c
5b22
5a60
54c1
7670
abcf
f03a
5d0d
2952
6273
7d2d
6062
51d8
7509
5353
4358
da64
00d9
d7be
1b1c
ce43
a119
45e2
5e20
6b6c
d74c
b346
c14c
907f
c7ba
5325
18a6
b706
26b0
0959
b86d
eb2f
3432
e704
b63b
9144
6ac1
da65
9614
2448
ec33
20fe
a13c
b739
c527
0a33
bf46
6d96
e88d
ba6f
e065
98c4
4205
d0ec
6ef7
a9ea
f2f3
76fb
8ba6
f9f8
d5ad
147f
f624
ebc3
99ca
1c51
51d3
b9d5
f0bf
8a4a
a9b5
06d3
18a7
36ac
f297
72d3
c67e
51bf
2cbb
7d6f
89d4
0855
0a4b
ade0
8753
d882
d0e0
6b1f
b776
36bd
531d
d665
b780
15c6
44ea
32cd
b87e
510d
3ea7
5491
e5da
b5ca
949d
e27d
0637
7f7d
a245
c9d2
116b
f039
8995
581c
b4e7
1a59
df18
6d50
590c
b5f7
c77b
7812
efb9
d976
cccf
cded
3bdf
14e3
5a82
2008
9d5d
725d
53bb
c161
03a8
0543
0522
a111
25d6
6cec
a8a9
08f5
6088
7064
65b2
caf1
b8b4
ea8d
fa3e
ec4d
f3bf
4e2c
fd91
a8f7
4610
d3cd
9500
0a0c
38b0
8403
f955
1500
3177
9e3a
fe6d
f231
c0ed
e234
66d9
2754
385f
c313
822e
5590
e2bc
9ea8
8bd7
389a
d589
67a1
f438
0601
b568
1087
a2d3
220d
7fac
efec
aba2
1831
864f
29b2
a9e8
625f
0342
3378
1f83
c37b
a1a2
c1f2
58c7
569c
064f
47e7
75da
a4a5
31d0
5efa
3af3
4660
4089
670f
c03b
2eda
9bec
13a9
95e7
9c10
b1ce
e007
f21f
0ac9
ae9a
f4a5
4d98
3945
5367
4b53
186c
b609
9103
8dcc
c88e
ee7d
9a58
0062
4495
6146
2206
a9bf
081f
f377
c929
4d36
d286
1bf0
8034
489e
3ba8
5467
0dd5
c5b4
1aff
0e81
2ead
c6d9
2f53
6294
eba7
5edd
bbd3
6442
a441
a9d9
7702
43f7
20b5
9794
ae5a
f53f
43d4
9efa
361d
3da3
c42f
6e40
e2d1
fd8f
6306
a7a1
567c
c987
3570
440d
6a84
7cfa
4a65
0f4f
eae9
1919
ef99
7e64
f239
4ba6
16ef
d2e3
3c4d
a6e8
c002
5ac9
d023
c662
370b
2554
451d
704d
5597
6130
231a
8f9a
8c46
9537
f280
b051
6892
9ed7
71cd
430c
8ebb
013a
4627
72c3
3b76
022d
af5d
42fa
ef86
016b
c482
506f
d60e
cae7
0291
4f66
0a24
26c4
c5ab
49e6
ae24
9e0b
d25a
d3d2
d065
7edc
bcef
5aa3
94fd
4881
fc98
766e
055a
a5dd
7088
9ecb
870d
3991
d843
d2fb
618a
2847
4ab7
4607
ee50
a2f5
c45d
504b
0d8c
a0bb
04c9
4ced
89c5
9b31
9c2b
c45c
3f51
da6e
3f0c
1637
da02
d955
22fd
5912
6762
8e98
087a
9679
a65e
55b2
f60a
ef9c
34c7
b753
4a7b
92d4
9f5e
b69e
f8d0
34b5
410a
66d5
9201
0a7d
e830
4ab1
8453
3915
88d8
5b1f
d6ee
78ca
f66f
2cc3
fb0e
1b8f
d9c0
3f1e
dd0f
0f32
91b8
0153
4c9f
a4e0
6d0d
a20e
87a7
ea38
3bcd
c394
17b8
f60c
e8ee
c4ec
47ee
339f
ee4f
19a8
440e
a775
2dea
8271
7ecc
2d84
f841
920d
684c
ed0e
0467
d234
47ee
58af
e052
7b77
e5d5
e12c
b4f3
9bd7
4cdb
2543
2035
b189
d77c
3326
5d69
4588
0cd3
db61
3adb
9a41
d7fe
b555
af36
a697
05e9
d58d
2fc5
a34e
0004
4243
c68d
a67c
318b
9227
f36c
f322
ec93
e3f8
fb3e
f330
1af2
f3e9
b57f
b9a7
211e
5f53
5fce
6276
92d5
e424
86c0
7345
efb9
695f
9e23
c9d1
96b5
724e
d7ed
04a2
ac8b
2ad5
c513
62c6
f44c
bc74
7e62
702f
c3bc
3ae0
2b20
29f5
5cff
2442
31ba
69be
60e7
a9dd
3939
b5ed
6ed3
e2a5
8612
3d8d
5292
b20d
c83d
b5f0
e944
90ae
8b91
a507
7cd5
bf7c
dbb7
c470
26e8
62f4
7bc9
8ae9
375a
301f
a895
2cd5
904b
5dc4
196b
e468
e059
b6e3
d50e
fcec
068b
05d3
948a
5907
d3e2
8829
d039
9a09
bfe6
8e38
5a21
0240
bdbb
f7cc
9594
d146
32f3
ce20
8c47
fbfc
1653
f7c4
2b04
a0c4
21f6
df28
87bb
e2a4
c4b3
8cda
106f
0129
e4fe
af8e
d92e
0b10
9808
9668
5b83
c92b
d8ff
c57d
518a
5481
e585
b013
fe0f
6623
e2c8
e393
fd1e
017d
45ca
93ba
4ff5
536c
b9a5
1f2a
63e9
d2d7
8fed
1ba6
17b8
3561
28fa
fc91
da43
edd5
897c
110b
5852
8f40
b699
854e
f6ed
c194
52cc
be55
b582
6588
d088
7cbd
31a5
7d1c
648b
7f11
d58a
910b
35b7
aebd
f6a4
adc5
933b
98aa
15b4
8fc7
d510
1f76
7a59
c2b4
1978
3129
e28b
9af5
b611
9596
8bca
affb
a046
0f00
a535
c051
1362
ecde
f4ea
c5be
cecd
b2ea
5603
c484
aaab
8e50
2520
7fa1
68a8
bd5e
0be6
34a5
1357
42b2
4a61
2290
b51c
8f45
f5bd
e2a2
63c9
4b42
2353
8c81
801c
f0ff
20e0
47ae
2747
fe75
4efb
fe5e
a45b
95aa
8422
ba9d
1634
8753
6e0a
ac61
e95c
9794
d616
6e78
28f8
b2e4
1773
29b2
8005
e80a
1f0a
020a
6893
3d5d
80ba
9f6e
5a1c
144b
9e82
b550
eeb5
9548
48bd
10ad
ea9c
9df3
ff28
296c
531a
2770
33d5
4649
870c
baa1
d400
c412
85f0
0a45
b103
d40f
5ed5
b2f0
e383
9f10
790a
f498
4d74
c09b
f1bc
f2ff
7918
3fc3
ab0a
1530
1b79
495e
bfbb
33f0
5154
bf8a
92b7
038a
ac66
f375
8cec
35b4
0cb1
b012
e8f6
ba8e
ca8e
d245
5266
c8f6
aec3
ce91
e0cc
7c1a
b1af
9c54
d70b
c616
b026
4066
fdbb
3a4e
2f56
99ff
17eb
c548
d662
2342
17cc
623e
0050
fdfc
c076
8b77
7c56
3c66
b0aa
923a
31c7
e40b
d64d
0279
0f0e
a651
2f66
caf8
cd0a
e3cc
1d0a
5fa6
6c0f
a7eb
bd87
6d4a
b4c3
9601
e25c
da6f
fa83
7649
a2e6
7223
4b10
23b0
e2dd
e336
30ec
80a0
ae49
b0bc
46a5
4467
5341
d643
c28f
cd47
73d5
f49d
54e1
aa9e
6a47
acb7
0496
a8f3
9ec8
4970
7d3c
6fc9
a8ae
6ef8
b96d
0189
52f5
6732
c05e
8423
137d
6e88
2ea2
6899
91ec
c2ce
fb4f
9d35
135e
ee38
3185
752d
1b19
60d6
6bef
4891
b262
5d1a
3ebf
2d05
37f3
9928
56ef
cdd7
b9a8
36eb
694a
8726
4671
dc14
8d82
2571
dbb7
bfd5
0bd7
a2d2
61dd
ded5
27ed
19ba
ef32
8e5e
5e88
119e
660b
eba6
7852
ee6f
8d3b
c0ee
7566
1dcb
40b1
41c9
1f06
15d0
1287
4645
8fa3
e50d
1476
e8ab
92c1
a8cf
46d5
9a28
ac63
789d
0dcc
6d73
a349
4e1c
a175
fe44
c113
ca3b
efd0
77bd
e483
3220
c856
cda9
d284
037f
f7b5
b47e
6a42
6509
6ffc
d9bf
7275
4de0
93ba
4424
f382
7a0e
5aaa
297c
2aba
44bf
0fc3
9856
fa50
ad03
2b33
4b92
1f9c
0b42
5136
49da
1987
bff7
eed1
a1c6
98b6
bea0
615b
25d0
cc2d
5891
2ca2
4507
6229
4b89
09a8
bd21
8e90
545a
b202
e6d1
6056
a5cb
24fd
68d9
8998
eb36
e5d0
341b
fb09
292c
b9a6
4dbc
57bd
19bf
2a4a
7685
cf57
4f64
b7c5
f740
19bc
3cca
250a
95f6
fe19
e3f6
18ee
099e
bdae
674d
3ddf
961e
b427
c50d
d805
0567
1558
602a
a9fb
b42b
e6cf
17fc
6ac8
3d2a
167e
2586
9da7
460f
7fd2
7e44
c9f5
016f
af28
25f2
6a73
6557
8b74
8b32
63c1
b0fa
1254
1a4b
3f5c
283d
c584
88fe
2384
383f
11a7
7f28
d4f5
0328
f502
575e
a9fd
a5a9
38cc
5067
da34
4128
5cbc
f99d
4570
31cc
1bfb
5a7e
3027
7a78
8dd5
dedc
d8c3
a708
da37
3aa6
db7e
878e
06a9
7d2d
603a
fc0a
9bd2
bbf2
a1a6
12a6
1bb0
2e01
78d3
52f9
850a
f885
841e
fddc
29a2
8f01
544b
6a57
4b2a
6412
5216
c34d
06da
fbff
7418
fb6c
b09e
a6a2
09d0
3123
d4a6
3fbf
8812
db54
3c8d
a5c8
7138
78fa
561e
b051
8b04
2b9f
75f1
cbcf
691f
a142
6c43
0387
7fcb
e2fc
0992
966c
024e
6cb6
2f44
87e9
fd30
b0db
a23d
6623
542e
ebb8
eb38
9b81
e8ea
9f84
cc83
df5c
5e1a
c30d
3047
cded
6668
01d1
a952
f728
7ec6
78e5
8219
8f28
50d3
b470
4453
88bc
4132
8e27
298c
f26c
d2cc
83f1
d6e5
cd54
7d12
9dc7
4bfa
5f0c
1803
dbe6
8ba1
1334
a34f
4db1
7ef0
d526
bc22
6b43
d51d
add5
50f3
dd4c
d012
c411
7e88
bbcc
f99e
d83e
2695
8ab4
a773
b9dd
df33
0865
063b
a0e4
0901
f655
cab7
08ae
6614
7f5b
7188
a7b2
3c5b
3b25
a822
cf37
6a0d
4d82
1909
5d97
428f
0216
4f8a
0a34
e1d9
2ca5
0501
7373
d03e
66b7
a970
229d
48b0
c6c1
5a13
2e41
f650
e564
f8ec
9c9d
59a2
4341
ec13
f632
8779
a55c
8cf8
1cc4
1044
b79d
42b9
6631
59ca
3e35
ee23
9002
88c1
951b
53cc
f0db
06cf
5f5f
a91f
0581
9ad0
1200
bc0a
05e8
d648
9fe4
45f6
6efe
41a0
0bc4
9367
1b60
fa08
6af4
20b8
cdb9
41ca
5773
f77e
f409
b75c
3b33
b529
bc31
c772
2175
afff
c480
a64a
c0a7
1d62
7afe
4aaf
8555
47f2
7639
0474
3c28
7340
8e9d
741b
df23
5d96
3d02
714c
afcb
5b63
52a2
7888
ad37
b043
93ca
4c77
974b
70cf
412e
ec77
cb0c
9db0
0d2b
05aa
a349
be89
7478
94eb
237c
0138
f395
ae44
c952
d81b
d267
d71f
585d
de63
fe73
8262
4de5
2731
0586
b81e
097c
aa9c
1711
8140
bb80
9a9d
5c08
73db
bb74
7da8
0351
1620
c317
fc5b
16b4
ad6a
4f33
42cb
5c24
aba9
19ee
267b
a39a
c02b
d4a9
aa73
2fed
ecd8
2e7e
f168
13fb
c600
aa3c
ce32
ee18
cc2d
83cb
4af7
ef57
aabf
4e16
6d79
d1e9
3676
e4b8
6852
500d
97ee
15a3
5b15
29d6
38eb
a6fa
d2e4
55a8
d045
d9f1
c01e
72e8
f768
53a1
7025
3cee
a59b
593d
0d6a
06ec
a8db
b8ab
5706
95c2
3a78
bd7a
6151
9e41
a0dd
c7e9
2594
6b04
09ad
d480
ad32
1712
17d8
8715
17f8
3e2f
9ba9
9a44
a2f1
6fad
aedf
93f4
0085
d14c
9923
8471
2fbe
0313
6868
f5ad
2694
ca9f
63d5
337d
9ede
7cdb
c7fd
d708
ffe9
1cb2
9385
a7c5
98a1
c6d1
0fc9
2690
96fc
353d
a9b1
dc0f
0389
d9de
6d2d
b003
2faf
8788
ee93
1801
3aeb
4bcb
eccf
da3d
280a
7d5b
da62
35e1
ac88
a499
4a02
59fd
070b
e5b5
e7c1
e2af
3503
397c
8100
795b
0af9
f51e
ede3
330d
738e
6fbe
5a7a
57fb
4009
59f9
2b93
4ed0
da7c
7948
3f1a
259f
8f94
51bc
0664
29a9
c17a
2658
91b6
c642
36b1
87e9
0075
cd8f
da08
b2a1
1250
2224
8fee
97b1
1a6c
9355
13d6
681f
c891
6ee1
0645
bb1d
ad79
44c8
2984
65c9
35fa
78af
ea6c
aeb0
20c5
c51e
af45
6d07
1663
3712
5284
99c8
6308
911d
cf36
7eda
4e3c
5589
6171
8383
e26f
d31c
ef9e
a8aa
7cac
f2e2
1381
38ef
204d
ee42
8cd6
0c21
7f44
51d2
acc8
1a19
0412
7e99
e4e0
42fc
a5c2
439b
c42a
5e5d
6847
4e87
7c33
1887
39fc
6329
aa55
3c7e
527b
b1a0
e8b1
eb02
007b
e9ba
493c
080b
9476
c3a2
48be
9f53
e457
22be
a3cd
495a
4bbf
744c
8043
6fd4
4ae9
9594
0dd7
6c58
4d04
3936
9ff0
cd8a
2e5b
6775
59b9
a950
8691
2932
5d03
5812
7a37
f164
e285
a8c7
f62a
f1d6
f105
38ff
5e2e
6001
4cd6
dafe
7652
6720
59b5
6f7b
3115
37bd
5261
a9ae
2c50
83b3
ff96
4de1
ec62
843f
8302
ce90
dd79
372c
d8eb
e215
61cd
ac6f
4d25
69b2
ca93
e7a2
3cd5
f7fa
92e6
f3bf
0f0f
98dc
8bff
48e0
45e8
f2f7
0260
14c5
1125
a3f3
ee9e
a0c4
1a20
2edc
3584
c948
e006
6717
edf8
3c20
53fb
bb20
8598
8250
9b4f
1fbb
1935
cef3
19a7
6fc2
f4f3
2edb
6240
2010
3eb9
0280
9bea
6a9c
5bd4
4431
c7f1
8459
e160
4b88
401b
ac5e
54fa
c62c
8a09
b6f3
b5e9
d314
9b17
fe02
da26
0fe2
de2f
e542
e9c1
b5c7
4c30
43e2
94c3
e958
0754
1355
2372
0011
d10b
e57a
0ee1
9546
91b3
e095
4c03
60af
a6c0
911b
1124
73fd
a545
5506
6d3f
8803
39dd
471f
2d63
2da9
ce2a
4791
445b
924d
48b3
1e97
87be
fac8
ff0d
5546
1398
9277
74be
e343
a402
6120
3a18
caa1
cf5a
2120
28e1
77b0
a1fc
3c07
9d22
07e7
2458
2bd2
1277
faab
b5f3
053c
3643
27bf
68a0
a2f1
fc32
f6f0
adfe
03c1
a3e9
a355
1027
26ef
b080
f668
a290
8e36
cc3e
83ea
dbdc
dd04
d547
16b0
a0e1
2139
0a75
34c2
8adf
4367
d8cb
dc27
2432
240b
4673
d9f2
9edb
63be
c237
321f
df61
1d8f
f8bf
1fcc
aad6
ac0f
f60b
83c2
d87c
1744
2cae
754f
7e1d
c70c
1213
6d64
57ae
4232
1184
5d8c
aa08
2d12
4d4d
2669
7c4f
e06f
17c1
e334
caa2
6035
896d
03bd
29df
38be
f01b
c159
a69c
a4b6
cffc
e534
08f9
44da
24c7
fd17
b336
34ea
cab3
e82b
9884
bb30
87e3
4281
9f48
bb7b
3d20
87ad
b8be
b83d
70e7
b22e
80c0
cd55
178c
ca39
1632
6176
0785
1f09
2667
4280
567b
1ada
7d31
ec6b
c0f6
9dfd
0049
3341
d90c
30c3
3bdf
c008
2fbe
cc71
02e0
91d6
fe32
95f9
1483
cec0
45b8
2715
958f
2ebc
80cf
c7d4
911a
fa58
4b0a
0ed9
2cb9
5529
0223
3606
87b4
c95d
6c7d
058a
e82c
0ce5
51c0
be0a
58fe
d1f0
0bcf
38c9
3fed
8009
6ee4
9445
f326
d594
0c4f
8be1
1bcf
f17e
20b2
7f02
970a
5fe4
595a
8f4a
82c3
1bb5
c1e9
c8c9
a504
b461
6244
24a9
a171
6a8a
834b
7469
dbe0
ea09
b9f6
e6fd
3daf
7095
afa7
b7d6
dcda
9d33
c2a1
3abd
7ec3
f84f
306a
eaa0
b825
6016
ac24
bd88
5265
74dd
386f
b23a
7bcd
b890
b600
9603
153f
20e7
7a04
7fd8
b382
b4bb
0e64
61ea
fa11
c312
6193
8b6a
b05c
e70f
c1ba
11a7
ccd1
15c6
d29a
a5ae
d01c
6a91
5d48
1aaf
6540
e7a0
b073
5b8c
c367
31c7
ddeb
a743
9eef
3609
7e24
1c5a
9cff
b9a4
e0f5
1c3b
c9b9
a97f
80c6
51f7
64dc
0be9
f2be
4bb0
7ac9
e59d
5097
d8af
96ec
073d
b286
ee67
e935
47da
5a92
8cf4
fd5d
1a07
0e8c
04df
f8ee
cd98
84e6
357d
491f
9da9
0deb
3f8b
1e78
069c
d937
cbce
51c2
04fc
b669
c081
7fde
2cdf
ba93
83f4
d35d
c9d2
2f4c
df17
a822
eb45
99a4
0b1b
af37
3119
b596
541c
0681
4288
f762
60ef
973f
5654
fd51
5393
59b4
d368
932f
f78f
6d17
7a31
fe99
03f7
ba02
d2b3
79ce
efbf
d838
5fc8
34bc
7cbb
e45d
0573
ed5f
288b
bc8d
0722
da5c
cb39
bf00
931c
e1f9
11d8
d7b5
e31b
7f26
7973
ae10
20b7
8cb0
25b5
d91a
de3c
ebf4
1954
1fbe
a553
a4b7
7dae
afa7
0f46
2278
3c34
bc58
0886
ae9c
7613
f833
1118
267b
4449
b51f
a87f
5fde
c545
7f3d
c9f6
3fb1
7fc4
8f67
c042
b9b8
50b4
aa29
141a
85c5
13fd
dc2a
f2aa
feca
7274
dfc5
5919
9396
283d
924b
1136
6330
83bb
0677
ee93
a4ac
fc8a
90c3
99b7
7140
360e
82d9
aac9
c915
7fd4
8078
4678
88f0
ba60
d063
8011
b56f
0d8f
08ab
4145
f52d
e419
e7b6
4ba7
ade9
65e2
c69a
7f2a
a7ea
c9ef
48a1
c852
5c6b
f04d
4747
7b39
c1aa
c9b9
3a63
6243
6516
e65b
f85d
d1aa
c51e
beca
151f
da4b
87b0
3498
2998
f5e9
e678
7b61
ef34
44a4
efa4
4aab
ab89
42ae
b16f
fd3f
258b
3c93
56bc
5a51
53da
de50
4f3f
e29e
7df4
87d9
a194
a57d
cdee
659c
d711
e872
bd12
50ca
5e18
e3e3
5366
e1df
2762
d656
352a
55d6
51e3
1f07
09e5
b939
2354
fab2
8695
6342
07fe
df41
b057
4a14
9aee
4a0a
1370
8a54
5d5b
3ff9
dd8d
daa6
1fb6
68ef
ec05
37e3
faf6
347a
a553
61b4
a5b9
9b40
8666
3cae
c98c
6bb1
bafe
6b41
058f
414b
8005
daa3
8e39
fb80
45f4
80c2
a69a
961d
9c2e
4079
c614
015c
2e34
fc8f
c209
c59e
8e17
3357
f307
e38a
de2d
a7a3
d9c5
fcf0
64f0
b4ac
e029
b757
49ef
23a8
8352
443d
3bfe
b214
bd08
3bf7
ac0c
3d56
5404
bf86
48a5
cbf5
ba09
5a76
de3f
41fa
cea5
6fe0
625f
05c1
0f9c
035e
d4b6
33eb
48df
e1b5
7b58
389a
dbe5
d053
8d58
7452
30e0
af15
9983
af73
8bc3
6488
c5b7
837f
19b9
7ea5
b48a
8c04
8bad
6ee7
0867
e656
8276
6b2d
520f
3783
f6bf
b1d2
0309
a03c
d8f6
a1ea
5d0e
bdd2
3ef6
c4ac
29da
3ff4
ea50
5494
3b4a
2a78
c9ef
bb77
2bbc
a8fe
8e65
554f
773b
c98e
663b
c614
0573
d1d2
26b2
99a2
fb3d
56ee
24ca
2d4a
b39e
3066
2fdf
1efb
7aab
7cea
6063
0207
c6da
9a7e
3e63
7715
8e99
a84e
1600
e03b
605e
37c0
4d6e
7df1
56e5
d637
0a83
712a
079e
41ef
ee4e
aea0
da8b
ea2a
f29c
61cb
046c
ce7d
9791
dbc6
4afa
fd4b
92bf
19d9
82b3
1c4d
dd07
8a89
5ac9
08eb
ee49
ad66
592d
e00e
3a84
31a7
410d
747a
59cd
4a11
5ab8
5bce
33c0
3576
1fcf
f9ed
db86
5ac1
d00d
0feb
0570
7f0f
9856
ae42
fe5d
0ab2
7d24
5cc7
4001
5df5
7514
54b9
7fde
5064
278f
1594
b6e9
8b9b
0fa6
be7e
3df7
981c
6cde
b5d0
9be6
67b0
879c
7983
1dd6
b460
e3f8
9f7e
bd99
17bc
489c
5b33
d31c
b2c0
7818
515b
e645
7cc2
9afa
8731
1a9b
a950
753c
109e
722c
a643
bca6
1890
499c
44a2
2d32
ed90
e051
0dcc
09b5
fdad
4f3d
8c7b
fd80
7e15
4e47
c16d
4632
67ce
5d89
fcb3
b6be
6b6b
f89b
e6ab
5276
f22c
abb0
9b04
62eb
114b
26c4
635e
5ad1
9045
0baa
9333
b4b5
b91e
1a4e
08c8
d357
0385
f2f4
8519
3398
6875
b89a
7303
e06f
5a9d
8109
7733
d5f0
38c7
2275
52ff
d2b4
6015
944d
8141
541b
eb1d
f59f
e2b1
95d7
a490
5a91
3a0b
9197
59b0
575a
db2c
d9f5
ee54
53bf
2a42
ff62
7bdc
5e66
1c81
6478
5d47
cfc8
ec99
d1e9
ecca
1375
0a3f
28f6
6ad0
5ae0
1e88
51c8
0801
31a6
5f40
2a32
6d79
eac4
3063
d6f5
be57
32a3
8154
b3d8
73e2
aeef
37a4
8d86
b106
90cf
7c26
2a92
b145
cf03
94ba
a477
845e
9c88
da5e
57be
a2f0
e7fe
497c
3adf
3cee
0c08
5656
db7f
7d21
afeb
7ea6
9f8d
8d24
4832
7dce
a087
6d3e
b0cb
92b7
3d09
594e
15a8
1926
ba99
c2d0
38d3
c49a
b979
3b84
e430
3231
45a7
599b
3d74
e28f
9a1c
0dde
2e83
e922
773f
6c54
7063
a215
058a
4105
1959
a3f9
cba7
0ca5
5ede
dfc6
1c99
0ec8
701f
873b
fba7
29e2
e0ec
0732
896a
987a
f094
a843
8dcb
53cf
5d86
a6b6
c068
ce66
c838
49b0
48bf
f1fe
7ec7
93ad
64d3
a469
b899
7fb4
4fed
4a85
40e2
d60b
0d75
cbf7
2307
db01
4a92
b76e
7ea5
5ca3
337e
3a70
65c9
32d0
fb51
12fb
4c3b
7c93
c9d2
e4f9
07e1
5259
e01a
6622
fb7e
567e
78c5
df12
f775
d806
6ade
f84b
babb
6221
e34e
0587
85b0
d352
e015
2d23
cf3d
2986
bd71
04ad
173e
0b9b
e75e
69be
fb22
4145
37fc
b5e9
ac86
120e
3754
09a1
df40
1f78
a7ec
80bf
4b85
a0d0
f495
abf2
569f
2fa3
d6c2
7c0a
539a
1562
f74a
b3b3
389f
f4e9
0cb4
55dc
9269
a470
d173
1799
feb0
34c5
56fa
68bf
22c3
992f
fd63
9723
9d54
3ff4
6361
58a7
b151
c6d7
83f3
7b60
bbf9
1d53
184d
a4b7
565c
8f81
40e3
49a5
af07
b701
1fb1
3e53
5bdd
6cb8
1312
f3bd
dd8d
ec55
2dda
4dd2
7969
fd9e
3f3c
a788
0ff4
e50a
efeb
3082
c121
8c6f
5ab2
1955
9828
0b3c
67ea
3b68
0621
28db
9fe1
66c1
422e
a363
015f
116b
a692
00e0
3cf8
5c9f
b8a8
966f
9f6c
9279
47bd
d618
c0a4
008c
e473
ae99
a94b
93de
1aa7
a975
18b3
3e01
b242
54c4
8b01
349e
97da
4ee1
7c75
5987
325c
6005
9701
2f37
12db
1fff
ef27
a821
a27e
1844
7754
96e7
38d5
a1ce
cbb3
d96d
fc40
ef2d
b011
6a36
8b93
133c
2e9e
c478
afae
8ee9
07ec
56bd
4244
d7c7
6664
23a9
ef94
4844
184c
919d
feae
d9d4
89a9
abc8
a289
ec42
f785
bd40
9b50
fb14
d231
76e9
1c9b
7f48
af94
4f0e
631b
d92e
16ad
dab9
7ca3
7f55
b731
036a
874c
393d
040c
d121
6537
8f8e
fe37
b8c1
6828
d5b7
2032
7535
14fd
c2de
a5ba
605b
711d
e2a0
475a
365d
6933
ba1f
7dde
d299
c0a1
69bd
7247
2899
b593
2c0b
41ac
b24c
74ec
e6d5
d01c
3d79
b06b
a33d
80d0
fdfc
2d56
8183
be79
22ba
fec0
ba81
e196
254e
7fae
f6e3
155a
cfc4
9321
dff2
d908
39a4
c7c2
5fcb
0ada
c994
7277
8d9e
7daf
ecd3
999c
f6c6
dd28
e67e
67b9
2184
5d49
b5f5
5ad1
09be
4056
06d9
e0e7
4e97
cc12
06ad
4b16
2ea8
7a7c
c2c4
3c56
0fd5
3169
8912
dddf
6e27
13b3
4829
0578
2b4e
be31
c3d6
9070
d783
bfa0
8820
326c
0edb
e207
9942
798e
598e
f458
18c8
1620
7b85
e265
7906
d5cc
8047
e4d6
de8d
3e7b
f156
2d62
0353
5ae6
4a35
f747
ebcc
a35a
6eec
6f2c
1d1e
b8a0
fddb
c645
54c8
9392
87f8
8cba
14f4
d11b
e0ad
0ac3
be99
9db6
e36b
a0f6
494c
7e70
109b
77ff
c6f1
1303
7bff
9cd7
d173
cd9f
d976
f50c
fbad
73e4
66d7
9549
938c
7fa8
020b
4d68
7678
4a0d
56bb
474f
7c4b
46fc
d3a7
2442
5f68
3568
084a
6730
8f41
ccb2
4c42
492a
bdef
b3d6
63b3
cecc
94d8
bcb0
89ba
6d03
f7a6
4b36
4f6e
014b
f6fa
d818
1cc3
eb3b
0283
2c6c
ba71
792f
2ba0
3153
91a6
0dea
4201
cab2
1a68
2c26
6a8b
88be
3adf
8d9b
4cfc
0564
05a9
880d
2df3
bb53
3ba3
d50c
5cd7
cca6
99c8
6f04
15a4
942b
bb8b
ded1
3bad
b2ca
62a3
cba6
1f24
acd4
dcb1
b8a2
4baf
939e
3b0d
9cd8
1613
b148
fab6
4cf7
7b86
e690
95f0
ad51
d2fa
b1dc
ba6c
bbb7
c447
2c33
dc13
6d41
7e77
370a
b75e
dc2a
429c
f267
5b53
e329
0c46
bcd1
ba52
5d71
ecd5
092b
c720
bd34
4019
c1da
707c
bfd5
f11d
e4a6
e450
e6d8
f817
cc69
fa4e
5d26
607f
89d5
3e11
f870
fb4f
9a33
b70d
7a38
4189
7aa2
20f2
2611
d202
5aab
2733
8b15
ae9f
c013
05d4
1e05
da11
e75a
385b
800e
1b8c
eab6
b30f
b1e6
9f2b
7019
0e6e
ae29
1780
64c2
0ef9
cc93
3abb
57a2
234a
a72b
dd95
f90b
4b41
0007
8ebc
77b8
52e4
516e
994e
bb5c
cab7
8163
8dca
d7fd
be01
92a7
6008
f601
f09b
8c14
99ca
7bd5
8232
a20f
8a6e
d2f7
7e4a
3dc4
7b91
c3e0
c735
b054
136a
59db
1b4d
be7d
ab41
2993
f98d
289a
fecb
f779
a35d
8e79
e9a9
8c41
2358
6a61
c0a1
a85f
a352
df64
8e30
3c5b
f1c1
4391
19d7
0c6c
b75d
6415
ccda
80e7
d3f6
f2f2
d0e3
caa9
08ed
54a0
72ec
b6bf
a556
b89f
701a
6092
c19a
af52
db24
f5ab
4c62
e06c
9c52
c155
53fc
f3b5
770a
a04a
2e0c
c242
d41d
081c
b02b
c650
aec1
4156
e0e4
39f8
2913
faeb
7a39
a653
9160
a6e8
301c
f2c5
c956
8629
817b
0f71
a7c0
ceb3
9e2d
93e6
2d0f
6505
e275
a53b
d922
e170
a5de
e493
0e73
d260
b828
af9d
8c4f
5c97
1af6
9605
20fc
3743
fc6e
a0c2
5836
1545
6740
b555
3fe2
e590
d476
6224
80e5
da15
dcf3
2472
2ae0
6419
c34f
4db8
a169
d4cc
3183
c440
1a30
1aac
7dcf
1307
053e
4891
5ded
0a2a
8c12
0370
c875
c8c7
13fb
f832
bb58
b291
8491
10ab
6839
3ff3
032a
ecb9
9e3b
1d36
8770
6c7a
0e1b
a5da
87c4
dd51
2303
2aa8
4ab2
c82f
58a5
61b7
2656
f582
a9f7
7dee
b324
acd3
560f
124a
11fd
9c2a
977b
f8ad
91f1
06fe
672c
18e3
3f68
bc08
54bd
e87d
9c58
cd9d
e52b
a849
95b2
1b4a
caee
85a0
16cf
9152
2961
bddc
7397
0788
dbdc
e589
65f4
0088
697f
8a6e
1e47
5d96
d980
736d
ab1e
ccc2
b87d
8cd3
3a0d
9fdf
7649
5a85
0281
9208
c160
6852
930f
c3d7
3ccb
daae
e9ef
fe7f
46d0
b108
def1
5c73
a1ef
428c
0df4
1877
deed
d59a
1c8a
7020
2f32
91d8
add1
6f2d
5db5
54ab
d12e
4153
75e6
92e8
2a4b
a01a
866e
a15d
761f
3713
95a4
5d0c
cfb5
4489
6518
3522
d6e7
067a
ccb0
7285
c766
85bf
61a2
81c6
200e
2213
efc1
de83
466c
6769
217f
bd3b
2cf4
f885
450b
0ae3
5668
335e
0cfe
7c7d
eb48
b522
6056
f197
183e
c563
7d4a
2682
1e4e
fb9b
b97f
c82f
0139
ebc9
b175
112a
f388
5950
f042
5450
ffe0
e47c
d262
a445
0efe
56ce
86fd
f3b7
d0c0
d1ba
9721
ed06
70c4
2011
2ad3
b9bd
b6ec
4d97
6a7e
92ac
c96d
8bc6
b3b7
5eb4
94f3
5d66
3041
33a0
4cc4
56bc
c6c3
6e54
2a0e
79b6
64ed
ee1f
70d2
7b94
9b68
9479
621f
f2bd
941d
493b
8ce4
912b
4375
7857
bed3
fe0d
a7e9
bdf3
4b69
3242
68ea
75d8
ff46
dbf5
8ebb
c265
5eec
b1d6
fba2
28a1
4cdd
9c6f
3b79
d077
1efe
539c
4ab8
1a40
89b7
50af
ed48
eec0
cd8b
cda4
7ef6
40f6
c215
ff50
fb7f
6e57
c06e
ad7a
8d0b
7272
0a0c
e941
7ce5
7068
1464
6881
ee79
43df
ebb9
99ea
b7db
48d8
ef29
40a3
1861
9ea0
3e34
b876
b216
7c6e
cb2c
1480
fc16
1995
8145
67c8
3214
a409
767b
f3ec
f71c
b045
85ea
8967
f6ef
1679
45c0
154c
7b81
2f23
0669
da10
2db1
efc2
f771
e903
85ca
2906
5cf4
ab3a
138e
76c1
cf00
94b9
e5df
30b2
fb1c
45ef
08ff
42da
b0f6
6de4
9904
1423
fa39
a3a5
ca89
6692
4934
617b
02ca
b69b
9e22
3ca2
de13
f471
a5bc
63c9
cb47
ce74
ba77
bdca
240e
779c
2b4e
7980
46b8
1992
026f
64ff
6ef5
f89d
3b0c
96c3
6bf9
eebd
881e
0825
1aa1
ad88
0b3e
c465
07a6
a7ce
0c22
ec58
7234
e3bd
4176
2d61
c500
fa98
4949
f34b
e14f
5c8e
e7e0
9456
5598
6997
0951
88e3
c217
703c
a138
e59c
ca1c
b200
5635
9b53
a244
47d0
0fc2
760d
459b
1c3f
01e7
88bc
5be1
4c8f
5703
7c32
79c5
5397
212c
c7da
aa86
4ef0
1773
790f
1307
97d1
37c1
4954
bd26
b263
9969
0993
dd91
f972
8934
61d2
9f4c
2c1c
3c7e
8773
9e25
d2ff
1376
4cc9
0fe7
e8fc
7f2c
7183
88e0
b81e
22bb
7e4c
6842
b4e8
4754
a5ea
6383
a681
3c01
6610
6bf5
c13d
0e2a
d194
157c
47aa
0b82
f072
2dc4
eb92
336e
1b98
9bcd
18af
6287
02af
627c
cdf5
e976
d09a
a390
faeb
d360
b4c3
3da2
233b
a038
bdad
01c3
2488
e89e
d50c
17fa
d9bb
040a
0da3
63ea
b32d
a07d
8110
f44d
ab1c
a1cf
9e58
ae78
0bba
1db3
557a
b42b
ca0a
4eec
f96e
af6a
76ac
10d2
271e
0e3b
2506
2c57
3aa5
d027
24f2
986e
2d2d
bb53
ad04
3859
143c
fad8
f803
7a65
bc09
cd37
d373
3a69
28fe
499f
51d5
644d
b069
f4fc
6530
a964
5dee
0647
cafa
3005
fc93
f3f5
5e7b
59fa
faf9
1fad
2544
b4e1
f0ec
1977
2cb8
9fd0
fd95
420a
c906
03de
ca16
bbb6
13d5
8c36
43a0
3106
44a2
5d4c
281c
0e45
9b27
b565
7aee
c7bd
5f78
67b8
1416
9d71
87bd
233c
0fe6
c6b6
d619
cfac
cefa
6666
92ca
72cb
d40f
bddc
0ddd
579a
ea12
441b
6323
3bea
ed9b
0c05
8448
b22c
bcc4
6025
131c
d643
3045
ec2d
09d9
ce96
2c60
c994
43de
199b
1c94
eadd
cc2b
ca56
d0b4
40d2
ee9d
b209
4884
df9b
9b88
50eb
db64
e879
bd4d
7a72
6a70
d216
d667
1907
39fb
ca4e
a0f8
8dbc
a455
1096
3890
48ab
3f99
1176
aa5e
9b4f
5af5
3d6c
e748
cba6
a962
c41c
60b2
859a
2535
c44e
1aed
2b35
4c5f
88f3
78f6
20b7
8f66
70b2
5694
a15d
d366
225f
c0ee
0891
2e5a
778c
f5b1
73cb
fb31
82ec
c803
7707
5cde
5c2f
685d
3326
d57a
0cf2
c9e3
042d
1bfc
cc9e
ea3d
1595
aa27
b6d3
3300
58c0
bd04
2c7e
afaa
d7b1
8866
c8e0
57eb
08a6
3ae6
8f61
f43e
5450
9cbb
f64d
6b81
dd11
7645
2543
51f5
10ba
9697
97d7
b5dd
9a2a
8f7c
20e7
a4bd
6b25
06fe
fbe7
7d12
906f
71c1
535b
5a2c
8c5b
cf1c
ed8d
0649
10b5
8875
8e2f
5b41
fb46
6d4b
becd
e986
e47b
55ba
ad79
e509
a6d8
7b81
5c11
4da8
4e31
b221
eb60
c54b
d844
7d9c
c251
46e1
303f
96ad
0d8f
b6e9
6681
4288
7ad2
9bb4
5255
10b7
d281
132f
7f08
6aec
9c41
cb4f
a84d
b3f3
b65d
b4ca
5494
ce11
9a8b
b716
e6f7
e397
5171
a5ed
50d9
6644
c881
d16a
18cd
6179
305f
91b2
cd9c
dc05
6927
8bae
a6f0
3ca7
4d74
5669
5079
d45e
4a4a
a565
a966
ad49
23c3
47dd
ae86
d774
90f0
9510
f505
edd0
05a5
3332
f2cc
a69a
ba28
26a4
6026
6333
537b
4a65
2d18
dd11
f777
53b4
387a
23cc
62c0
7fff
22d0
ef00
063c
26ee
212c
0a94
c712
cda5
ee4d
ff1d
32ed
562e
ca2d
bce0
2159
a3de
65b8
2471
0315
648a
48de
d944
af1f
933a
6748
993b
ec1e
e771
610e
9af5
d5e7
f37f
9582
3d4d
78ea
7371
39e1
ccc9
062d
23f8
eb52
bc3a
0f6b
3603
43cd
674e
ada3
cdf6
91f3
cad9
3a68
a9ef
a0a5
ee45
a2de
5655
9c3d
4c4c
5030
2425
d66f
b883
0476
40e4
198a
256a
596a
1117
7187
8f10
930d
a052
0d96
ba5a
da5a
7b98
4357
5308
a7f5
d827
e858
a0ba
9ada
ab09
6312
d92b
8725
0107
c5c6
89b6
e97e
3fbf
7275
9ea1
194b
eaec
3378
0a3d
7730
2bf9
1478
f1ce
7d3b
1e9e
aacd
7fb8
ea76
36ef
4ede
3a3a
6ea9
5929
2e09
3c73
cb33
4244
d0b6
4e87
b1b9
97fe
c666
7b54
3912
5592
91f0
fd0a
dbb1
27c4
01b3
3c63
2bd6
416b
6dda
6aa0
7c3a
9a88
4a04
a292
e89e
fe28
8022
0689
0ec3
2be4
dace
cf77
415d
90ef
3966
7c6d
09da
2b89
0b5d
d5f8
a364
d192
d941
c180
6a7c
4725
beda
8e22
1b66
51e8
d0ee
ea93
bdc1
42a2
408c
cc12
602a
af8b
1cde
0f6e
e620
9d47
7d6c
890e
8216
b2f5
5e24
2ce8
6896
6ac5
e31a
3692
2895
808d
dbd7
f7ca
9b76
b876
16ee
9d44
6fcb
ea17
8477
ca76
1a09
719a
56f9
dcff
3125
4385
3568
e0d8
3efd
928b
6f1a
458e
04c9
b171
1f4e
686b
d38f
8ebf
3411
6b05
8732
e305
c0e4
c4df
f888
ee59
ec4e
c819
552a
b0e8
7011
574a
e951
ba58
fce2
dc3d
03a8
d440
61a9
98b5
0627
c5c3
9216
62ed
2aba
9eb6
8a29
a64f
e82c
70b2
96c6
f0c0
5d22
7c76
07eb
cc61
c413
7bb0
f0c8
b53b
0385
89b6
1d02
f004
ade3
9095
18f1
88a4
95af
82ae
c8f6
8174
9ff2
1fab
59e2
6c80
cdbd
955f
ed4f
424e
eb21
d013
949d
adad
3fdd
9c98
952e
5f66
35d6
b4db
728c
be75
0680
44a9
0d09
1eb5
c60f
26f2
ef72
2398
2680
42f8
e743
8cf4
c863
4e4b
b526
cd15
efe5
29ef
3a07
e01f
d153
9f04
d94f
8129
6f41
cbde
ec9d
3a65
c3c0
e707
cdb8
f2df
b059
a00f
d18e
0362
9e4a
d69b
0e7e
d42f
9b58
70ca
7296
bea8
7df1
8642
a504
79d6
27e1
6a84
dc86
3862
594b
271f
11ca
cc27
a20d
6071
9e4e
78c0
bdd4
65fb
6c9d
1f49
defb
63a1
ba1b
e2aa
7775
e83c
e7a4
85e6
fd57
27ef
3fb5
3bc1
5d3b
a022
39d5
8f7d
d57c
56ab
51a5
ac2b
1971
f308
8ae3
2cc8
53f9
65dd
742a
e7b1
c428
338a
3c85
e94a
cf80
f5e4
d117
6023
5c01
024e
79a4
a663
43fd
61c9
c53c
4eae
eb80
fd45
f952
9216
6769
15d1
2217
1b91
cb93
ba9e
cbfc
b70c
258c
99e4
0190
5463
0bc4
8c17
4a33
65b5
40b6
8313
790e
6dae
5c3d
2bc5
21a0
ab88
0b40
b944
ddf9
1b2a
c08f
d091
5f2b
8f89
6cdf
bb7b
58e0
cc84
5e6e
ac4e
e032
3b2b
2017
ab8c
370c
b3c2
2948
b8ef
bc3f
c981
318a
0a88
55b4
a165
cc08
fb6f
498d
8c5a
04d4
b580
6b5c
f01a
829d
c7cb
0dca
ab94
cda1
3703
2e66
08a4
9e94
a192
9a0c
09b6
34a0
92f4
b800
8c4a
4ec5
ac6c
583e
f624
d1b7
801f
f049
6d22
ed29
7338
f7c2
5938
2449
478f
2e7b
e7a9
17b0
8cb0
eda2
bdeb
2bf8
f2d3
9855
5748
aac8
c1e9
0479
71c2
44da
1bb1
5324
7721
1661
ea81
e573
57f5
6919
998a
02a4
68b2
b2c1
8a40
de6e
e7f0
867c
00b2
936d
cb3c
0d59
cd22
bd02
69af
d1d7
48ed
3b88
1320
efd3
6154
21d0
3534
dd75
33ff
a993
191d
926e
4ec2
13e8
c003
75b2
8c87
9797
24bc
4db3
a031
b4af
9bd9
2bef
62d2
a3bb
bf3e
f267
a303
f7be
5413
e5f8
590f
8e3f
d6f9
867a
d327
b9dd
8e1b
2bac
041f
d04a
1a0b
2cd1
576d
0342
394d
805d
767f
a723
af8e
71dc
4afc
f3bb
19bb
d6e0
27ac
4f28
2344
b888
766c
55b6
e6d3
e8f8
ae4c
1d96
e645
531a
3c83
0ad3
cb30
03b5
f86d
6a96
f955
0123
5102
d1d1
cc2e
9b07
2d42
c537
c826
1435
df45
d78a
3a85
308b
7fb4
1d63
7af5
d4bc
085c
ece0
bad2
4667
abdd
91a5
1fcc
50f9
7903
3419
ba40
040b
17c1
dbdc
a766
47da
a024
fb89
4c09
cf73
deb8
c6cd
fbfd
d229
232e
a145
7085
126d
25da
4a6c
0c28
e439
50a9
86cf
16cf
42da
4881
f701
727e
d9ab
0f96
6fc8
25f1
44ae
546a
eeab
48a5
d487
af8e
0cba
a177
74d3
7500
d3a8
cf00
6628
0f69
9edb
96e9
eadf
2562
bd5c
08c5
c779
23d5
25c2
ebe4
a37c
9598
8576
ba85
7887
1759
0cbc
87ca
5c28
dc98
57a5
414e
4057
607c
071d
4842
d71e
39e9
79ec
633c
5463
2481
2071
b66b
3687
3c84
d797
1914
ab75
080a
8cac
81eb
2157
277a
f35d
0fd7
70b1
6359
4e2d
d205
00e6
2282
2cec
aa42
a21d
57f5
5eac
4745
d853
4234
5e10
9e8e
6405
e801
a6f5
e460
e852
fc76
d279
75c4
4c23
40a6
a86a
c6b3
3387
d623
f871
beca
ec7a
c3f5
dac0
6b4a
3b65
b3a1
72ab
5e4a
eedd
df0b
69ef
7081
0989
e2c3
7f58
b7ba
07f7
793b
a0a7
6b06
b35d
a218
7f0f
168e
2742
9a47
4871
7e93
f308
52a2
74a2
1d4c
6f9c
87e6
8e92
074d
5792
3779
f32d
1c14
2649
7c9e
a4f8
198e
e2cd
5510
62b3
7fdb
8f55
ec62
4b99
1f91
b4ed
00a7
70e6
fe11
9c0a
4800
1eaa
f6fe
1af0
39d4
affe
67db
3c64
f8df
65ca
c78f
34be
16d8
0680
06f1
9cfe
b665
d9b9
0aa5
57ad
7a0e
e6ee
a2d1
1249
96c1
c6ad
d328
4492
4565
286e
dd1c
ff1e
e157
ced1
2027
3982
a999
9bd7
a2f1
1129
cc57
a520
5c8d
1434
cc0c
6394
bb30
79db
6680
8e9c
7144
179c
843a
7e64
aeeb
c6fc
61c7
5ba4
0de7
08bb
83a8
ed3e
920f
2d5d
312f
3898
ecca
737c
4809
4c62
2b32
54ed
d3e3
8acb
2072
e712
883c
b170
3530
3a2e
6723
1b8f
ea4e
6ade
2db8
bc38
d6b2
ee55
1da2
2d20
1c7b
f45d
4c73
3e07
442b
0d3e
d7f7
1425
dd15
a39f
d363
1ad1
dc6b
62f3
7138
e882
231c
3df6
72ad
f5d6
e78f
d75f
b127
08ed
6cc8
5f71
d72b
b802
4826
4038
3caf
07c6
0f64
791e
4a9c
f8d4
7f9e
376f
0b2a
3ec1
71aa
d54a
ea1f
b3a7
8fad
aa7f
9304
1e40
df49
4656
dcc0
d0ef
8668
e543
a7c3
8d82
91f1
7729
71d9
5e66
d8c4
b973
302a
057e
84c4
189e
030b
5cb6
0d51
2cf1
de87
cd04
9245
39b5
8a57
6551
1eae
2339
c431
dee4
4922
3b62
5d62
5331
7e9f
a9d9
b1c5
c123
78b1
fc41
eae4
2235
e8dd
0df3
46b3
1bce
7bb2
08d9
816c
9d47
bcb7
b1ec
d38f
5677
159e
5344
2e92
8ba0
2f98
02a4
4b43
8aff
8d94
91fa
c743
b305
5c26
4cc1
8675
e6a0
63f3
3cee
663c
88e5
56f2
cb86
2dc5
3a49
2331
a7d9
e220
c2ce
3750
ceb0
a91d
0023
7f29
6a46
f733
666f
24b2
e9a8
31aa
43f2
d973
1032
b776
d17e
4f2a
cc6b
0570
0da3
562d
8328
7101
8877
11c3
3c1f
146b
e0d1
d038
28b4
4897
3de5
548f
05b8
8514
aef9
30dd
24da
a5c4
050e
2f70
8fb4
38c5
777c
8e5c
bb7f
9663
a685
8b3f
3558
67d6
bb3d
9bcf
e24c
3b33
441b
22fe
17db
8c62
5bc6
f6fe
8fb5
27b3
3c0a
769b
0fd9
9ae6
70a3
288a
f0de
0c3f
bc2f
2a99
53cd
13e8
445a
a12b
41d9
8057
1ae3
9f16
55f6
7691
bdb5
aa0a
3bcf
813c
da59
a76c
b192
d576
a364
ee8f
b53a
20d8
d03f
63fa
0615
456d
bed0
3c4f
6596
5584
cb18
c54c
b946
a414
acad
9bd4
b8ae
e1dd
1dc3
9d03
7acc
ce7c
9505
8115
e022
cbe3
937d
e4ff
6938
1eea
ebd2
3def
0843
8f77
e0a4
764f
8537
172e
90b2
bd97
5c51
d5de
2a2a
c207
8545
ed2a
e5fa
4493
d811
a7d6
5acd
ba23
470a
996d
d2cd
3f16
c6dd
b5bc
7fcf
9111
4b35
3382
c2b3
6821
d866
bdc3
51a7
f45b
fef4
ded4
52d2
62a1
a8bb
4f4b
dfae
51bd
d016
8e0e
3887
704a
580a
4d11
e96c
3813
e290
47f2
69b7
9700
0809
8dbb
09c8
e6e0
0c78
b090
84c3
2d7f
6feb
17f6
8973
37e7
f73a
1c92
a600
359e
b51b
f25e
415d
8e39
2594
a6ac
6c74
6086
72a0
206c
cbbe
a79a
b773
4a28
3137
1d8c
f8f8
62a4
14d5
4aa5
f342
9c58
efc7
4695
1823
edfa
8b07
4899
9a9a
155c
4df7
0643
91b0
cb66
6b8a
c33f
5c5f
cab8
04c9
3975
6a64
6717
5c2f
ce02
ae84
eab2
bea7
82d9
0e8f
ed2b
40f6
1803
0c67
dd2c
d4ef
3ce8
8a3f
ba9b
471e
ecca
ae3c
1707
fd2c
2171
46a9
462f
a8cb
177b
ed68
6614
8efc
5cd8
0fa7
8d1b
8cf3
c827
5a58
e125
2030
69a4
a880
872c
e775
14ae
6a93
9f55
2741
d2db
b5ea
4056
d88a
bc02
b9f6
2fbb
a045
68db
8bf9
5b99
8740
f341
3d7b
4eb9
91ff
599f
1ad7
dc13
7d48
d980
10ed
451d
d69b
13e7
5450
52f6
84f5
b02a
ddf5
90bd
8670
1d08
2e3a
184b
1dce
134b
7547
2c1c
c122
827f
9237
90bf
fc0f
07e7
7895
fdaa
393e
7789
d814
0d9e
516b
70d3
622f
d350
2b46
83bc
c80b
15b5
1e11
1a5f
d0c8
b818
a433
35d8
9ca2
89dd
e0ce
4f0d
8df6
d3b8
809d
a439
e7ac
7732
e5ef
2832
df56
00e8
5734
5928
f41f
9db3
d609
6d70
62b4
8f6d
6ec1
a9d0
29fe
9e36
b79a
d8cd
e39e
0b3a
5d85
cb23
2319
9170
4819
3fb0
135f
0842
aa0b
997e
3cb8
5ec3
bdaf
6653
55d6
b797
c2c4
b23d
e8df
428f
d605
826a
933c
1a21
f91a
a2e2
fef8
e8ed
5c85
2b21
59c2
710f
4503
4d28
3951
d7b1
19ed
e95e
40fe
216d
1590
27c2
08f1
9fb7
e865
c457
a4e9
1041
7fd7
d682
ed57
342f
d8fe
5676
abdb
7178
eac6
9c75
3c0a
1824
6299
0f89
52b6
afef
78d6
ead4
6652
ab3f
1b15
af42
eecb
0b8a
bc39
9a4d
988f
21ce
8cc1
36ea
a913
5ea8
1393
3e3c
04c2
ac56
b795
6984
e312
52be
a785
e648
af85
f9f5
bf03
6254
9bd2
9303
4781
6869
60ea
80c9
f998
6d4d
16fa
8eb9
103b
e59d
9518
6534
8a08
ffc8
48ed
421e
2733
477f
df3a
d8fa
9e7d
f32b
7849
57aa
882b
80bd
8781
1934
5b0f
a25f
5cef
030c
633e
cbf8
4861
a527
7697
e9f5
7bc5
b0f5
54e5
c22d
8976
913c
fea3
aa39
6e52
4412
fd42
c32e
dcc9
9f2e
d441
f49c
6fa8
f9b8
e237
881f
f146
7deb
e64d
2145
98db
31e6
32bb
3435
22c1
da60
0f53
5301
5852
495d
b5eb
77f1
80cb
04b0
b6f2
62a9
e135
d4c0
9565
886d
565c
529e
9109
a4bf
3b9e
e3a1
cc80
57e3
be28
95e8
1edf
793e
7dfc
9b29
63d1
010d
4f8a
83ed
b4d4
b241
624c
c0c2
0942
bb3e
f587
d7ca
5f2c
9afd
1be2
d255
1d99
fa2b
0fa1
8eac
b11f
f4d2
5145
d28a
e47f
30a8
7a86
8772
4f04
f86e
cc96
0f0f
ba85
60d5
c375
441c
6576
72f7
21e1
9450
2371
861e
c3d1
2e40
a4c7
292f
3d09
353c
9aff
0fdf
1ce2
94bc
4863
e2d1
4f87
5aa6
6151
17cc
4a36
2628
c634
feee
2485
b0d2
f92e
7be0
a3d2
ca0c
1418
316a
8a13
4e17
9093
3623
16f8
b4de
90c8
9f1b
b4dd
94a3
4573
5547
97db
1382
c617
4308
399b
1951
f303
9716
8e4e
e926
e304
7509
6b25
927d
01e2
d1d8
27bf
9d70
6cbc
0d52
1643
5793
0e4a
b4f2
008d
dbc9
a346
d658
3b5c
7501
a73d
3764
3ce0
a229
5636
d317
ba3a
a74b
65d0
1c68
8f91
3bf6
e424
bc75
5eff
f899
6a4e
d67d
f39e
ddb2
0f21
aaf7
efac
8320
80be
d0ee
ddfd
7a47
dad3
d215
b3c8
5011
b435
dcfc
06c4
8da7
a4eb
baf1
94e9
b7ad
e712
13ca
99e9
978c
d567
209b
fcc4
f392
f8f9
0450
78d0
976e
2e84
2650
bb54
c150
59b3
c412
7106
8a04
01f2
dbe8
6a72
3441
578f
8f91
3d93
15e9
6a17
318b
91a6
9241
62f4
82e9
a636
1869
85ea
aeaa
648c
4975
191d
3bbf
55e7
c475
157c
7309
7114
2627
2076
f427
7c20
3c7d
51e6
3690
1f69
d9d5
ca72
aa28
69dd
948d
8472
480b
2b22
8b84
8bd8
64c7
115a
fb5a
af47
d079
8b46
bb22
e172
0ec8
51e8
5dd1
a6a3
f8d0
e820
50fa
4ccf
e442
d812
8dc0
3575
a68d
3598
c6a0
cecd
3ba4
c9d1
0200
ce7f
1a66
9ab7
7220
545b
5d1f
6e0b
4d06
1802
2372
6def
4817
d322
3fa8
eb44
ff5d
2d5b
c460
f29d
b438
deb9
ab18
722e
b480
52a7
0b4b
9017
59c0
15c1
6b42
22a4
051d
f1ad
4988
7f61
5ee1
b978
7515
dd21
1236
d878
1eab
191a
0bb1
8609
4393
0cf2
abe6
2968
f739
fc90
927d
5e2f
4cca
5055
287d
1fed
c78f
96b9
0318
7089
4570
4498
e459
21e8
1c0d
4a32
9672
e3b3
cdbe
8cbe
9b50
d99c
dbbb
622b
f5b6
5b8b
586e
d24f
3f87
35c3
e923
fe50
1678
ac96
c089
6d9a
bd18
1315
a065
67a1
1128
0b44
0040
98fa
806c
b5f1
4602
d37a
8ea3
f57b
7981
48d5
b703
2de7
4245
6a56
feb9
28f1
854b
d86d
6cad
5bd5
f235
b3bc
7d69
b550
47a6
fc28
5d68
2837
f78a
0240
af9a
5c59
bf13
3bb7
61c3
ee41
11f8
9818
b796
a418
faa7
600d
0d53
e79f
e4d3
bac4
5016
e068
2491
d3e7
c430
b080
81f0
f935
8404
0439
6bc1
aa4a
161f
5673
3927
3849
6caf
524e
a10f
604f
d1f9
36ec
76f1
8751
c0aa
ff09
a3d4
c240
d96f
1cd7
3e2b
e3df
7717
0fc1
22f4
6c9f
aeca
069e
01eb
c043
4179
01af
b1cf
b116
1786
0342
a855
fdbc
a4be
8d32
c64f
8505
7b77
4698
5067
9749
cf1f
0868
78a1
53b7
ba0e
a2d0
cdca
3711
5e17
8e09
9d3a
94e3
a960
15eb
df16
16a4
9e21
0f16
6485
c061
788e
c5e4
029a
e304
0ecd
89be
aa6b
3483
a9eb
8de1
8fbd
b39a
1a7d
31b6
1bb1
8fd1
3a95
ffba
6417
f806
3d9b
1fb7
36f2
4d94
f2f6
8842
5f5d
050f
03e8
a107
ed1a
efbf
3e0d
1364
957d
553d
d6fb
6a33
374d
b359
927e
aa93
0371
6b21
6d8a
7e67
e248
08cd
b655
a52a
97bc
c924
aa18
9877
c68b
5aea
ffae
c8e8
58f0
3459
2f05
006c
afe9
1699
37eb
3c84
244b
beaa
69fd
804c
56ee
fb4d
9fa0
2a7f
37f5
f752
fd31
1ad6
ac92
5cdf
e89c
4fe2
8231
45c8
814c
c5c3
fd01
f2c8
ef1d
37fa
0428
4d02
3650
337f
939c
2ca1
b574
8d14
42ca
ae5f
5178
36dc
0f08
5598
716c
d9b8
d57a
44ff
0ab0
c24b
038a
5ccd
6566
53d3
0f24
b529
c5c7
2cb1
ea49
f7de
e3dd
946a
a505
9ac0
f199
43bd
250f
0f81
397d
088d
3ae1
19d1
391b
8f00
951e
796e
bbbe
62d3
5ee6
76ef
74b5
dc11
98e5
f741
f8d8
b054
96c7
8b61
69af
e20a
eb5d
7c11
e201
0072
45eb
2f72
367f
c0fe
2576
3c8b
aee6
4541
1b86
0486
8146
1953
f390
c0a3
dfd6
0c40
a8c0
7adf
b22d
1424
48b4
98ca
74a5
6a1f
70b6
855d
4eec
09df
402a
2a33
12c6
3565
1fa9
efb0
437f
5c9e
42ce
bb6d
326d
9d76
6545
5c13
9694
b6ce
6076
8186
3b1f
ab94
16e9
de4a
731a
c685
2a59
9c8f
e674
7eb7
f203
1140
1d0e
e25e
8fb1
9992
a002
ae42
e833
ac81
74ca
dc0d
06e4
1693
532f
4efb
9940
644d
4da5
de7d
c6b6
8944
6fb8
012c
e3a2
f718
988a
9674
6884
ba28
1823
8dd6
e7c2
d152
3d34
61a0
0510
18b4
b46e
d6a0
a310
e7de
da92
46c6
46b6
ed32
d60b
0586
c84f
d692
112a
9faa
361c
27af
2b67
06db
43ae
ae33
f36d
ff16
08d9
a8bf
1419
a486
f921
2782
3771
1713
f172
c333
e12e
6bd2
dbf6
6a52
3d2b
3eae
6d56
93fb
4f76
d3ec
b4f2
73de
a3dc
3145
ee58
92e3
c877
8743
5cf6
c222
4b53
c51f
abc4
68ff
27d1
82b2
e71a
9ef9
7656
6ebb
8835
4e18
7343
b80e
0cce
bafd
c53a
593b
4afe
eda7
0f47
6376
208f
04e3
c105
06c2
72f6
f2b0
7cdb
f765
e74a
ecaa
0af7
c0da
0724
e062
c2d2
22dd
e624
1904
f80e
c5fa
63b7
e444
54a2
7529
c54c
d8ab
4a00
8acf
5c67
23c1
4726
1fac
846f
2b7f
d888
754f
7265
91eb
1ab5
8886
f29e
f471
3b45
ed20
977c
33cf
462e
7e0a
e77d
4ca9
edce
16ec
b4b5
6a85
cd92
96cb
1afd
1f37
9492
4efb
c2e9
a5ae
b7b6
5d0c
ef16
8bab
e556
39cb
e154
8b6e
9e74
affc
6f00
6de5
9fe9
b6fd
0c96
bd5c
1253
fa1c
0819
66b0
d4bc
076c
a02c
c830
ee51
4ea5
0a62
4351
efa4
d208
0bc0
70f8
38e7
3442
e471
29f9
643f
4750
737f
848b
dca6
9711
5de3
e492
f7d1
c0db
f838
b1dc
ef9f
3ab3
81c4
0331
582a
71bf
6c7c
0f94
b464
ba46
060f
de3d
3e67
3f46
7a89
377a
470e
96d3
436d
ff07
ebf4
eaa0
bd6e
1f9d
bf6f
fd3e
6b03
77af
e0c5
31f7
0c85
377e
59ef
832d
ae9b
516d
28d0
db5c
d97e
f7b0
642b
af8c
ab05
d25b
ce7a
035a
42ee
42e1
9500
4cca
f5ce
ff1e
eed8
ea2b
92c1
b8ef
80f1
09f3
8e30
ea78
e0c6
4667
054b
7004
d390
673c
7c5e
a859
3907
e515
beef
82a1
3af3
d562
5819
bd27
6eb4
d7c6
b1ed
90fa
9a54
2c67
8331
14e4
b931
7ee5
7f76
d12b
c937
ac05
181f
796e
2bc6
5c99
ba5a
ee5e
e1c0
8795
361f
6fdf
b48d
83ec
fb97
2d88
3d25
92bc
b45a
38e3
cd42
f98c
5413
4a07
ec30
228b
0d00
5de5
aeec
5360
12d7
c2bb
b126
bbc6
1aec
1436
6772
0cc5
e515
3874
d94c
442c
ca4d
0a83
4728
d5d2
c800
0176
1486
48fc
e3a2
050a
2d24
95e3
2bde
44d0
337c
9294
6295
7f96
1cfa
a38b
195b
b1f5
cd19
b849
3e60
5198
4102
d45b
d641
d594
8352
d5e2
ff9f
d770
e89b
dadb
4513
8899
0699
e805
3e2e
8f24
4896
a7b1
0dd8
100e
95b0
50c4
2019
c5e7
f8cf
4723
a160
8553
b28e
1d3d
759a
2e70
52f0
cd87
3e9b
688e
5014
d1f7
1eef
3b7a
fda1
bf0a
dc96
cc87
7c1a
1d15
8d7a
6eb3
9c52
c23d
580f
d5c0
09c5
4269
4e95
7ece
6f6c
7875
eb04
d951
1c1c
f875
68d1
7f9a
8715
a77c
27d0
dd9a
b893
1874
6747
4791
5eee
a2a1
b446
024a
d6a6
292c
0551
6a71
23df
d136
e91a
d4e1
124f
d2b1
54c5
7c4e
be20
a4be
c2a3
c89f
32d1
be09
2353
f5f9
6f75
0b25
bd51
1053
1955
b2af
b4e8
b666
0159
e9bf
66ad
60c1
c178
587b
6ba7
580a
4841
8d4c
2e09
abe4
3677
45b7
c187
679f
c86a
16d9
aa75
5048
e3b0
735c
62c5
35b9
d3f4
223d
dba2
0883
85a2
e818
0b07
29ba
2d4d
7c0a
0db0
ca90
b70b
2754
ad6c
45e4
c29e
e800
d1b7
32fd
87aa
a528
9f87
fb71
c444
2f3d
7b4b
0d6b
a245
1b63
249c
e0ec
4c5a
f147
10a0
d6e8
a95c
37ae
2e20
3fb3
b511
1847
cc53
5b75
12b0
e012
7505
b467
1f69
e916
8d14
d4f5
ba12
abc5
54b0
af8f
220a
7f12
c153
2d5b
5a52
3ac3
fe18
5c51
b4aa
6294
f374
28cd
1b5f
8dac
7c24
125e
579d
f8f7
e805
fd71
9b05
5d56
184c
ac85
90ef
03eb
ac01
73e0
8592
0186
bdd4
8b99
df36
eb5e
c748
749b
ecfc
f647
ebe7
60dc
e41b
f597
01f1
4b8e
c15e
5995
597c
dd54
36b5
ed03
81cb
d743
1108
9560
d4ef
e428
e0d6
5482
5036
002f
cc1f
b363
7394
f168
6d11
8b8d
7764
cdfb
4f4c
daae
efae
bf6f
a4ef
d4df
d5f1
b892
c245
a9c6
cd8e
648d
6a5f
8845
828f
1ede
9083
ff7f
7d88
65c8
153d
be5f
2d86
80bb
c2c4
270b
87ac
cc4d
e127
633c
1004
ebfd
fbbe
0f03
3a45
302c
fb5c
aeca
cd0b
0144
b1b3
2f99
1917
1aa5
5aef
1c54
edcd
2f97
5eb6
4a59
10e1
27c5
f07e
7394
79b2
f8d1
fb56
bcec
db8c
fc79
b222
f002
0abd
f42d
30ab
5252
0b86
5925
a7d6
90dc
729b
c04f
4b2c
0db4
8fa7
cd63
8f21
7023
5735
4a63
d384
b47a
8d29
3a5d
4e13
916a
9c9c
4d87
e6a7
1cad
0ffb
7370
d13c
dcfc
4446
ac20
c76d
31e2
1620
a47c
b2c8
db44
fd71
c50b
3935
275d
1c36
2b62
8e9d
75aa
411d
cfea
7587
7ce5
9e11
cd29
b573
1a79
e9e8
c4b1
9693
2973
dd11
e851
ac0a
96f2
6fa7
19c9
1258
c8dc
8edc
8839
5c48
d377
24e2
0b68
ff2d
3e9b
7e38
ead8
f5d1
c39e
a5f9
a675
8418
47e6
a42d
e11a
6131
f38a
fe2d
6a5c
b4b8
a62b
19bd
eaa7
2228
7279
2b0e
9bb8
bf8a
877d
ba51
a90a
b13b
5c24
38b3
87f3
43a4
c553
5717
55be
aee4
e4e4
18db
8435
cf52
05cb
3669
52f1
c39d
6978
7a97
4a69
0414
6687
ff8a
c713
a824
b3d8
680b
3c84
2c05
bca7
7e34
21a5
cbf9
d6c7
54cd
2c06
398c
0a29
add4
4704
dec7
5151
2ca0
a107
7029
90ef
a3d4
4d00
c7c3
653a
c72a
80ed
dfd2
a3ff
b6c7
0f11
e887
aac3
6bb4
722b
45b5
9c2a
4850
fd2a
c9bb
708d
c4eb
d520
d779
b862
8c08
4584
499f
f52a
3501
4098
2521
093b
6dea
4f65
5e4c
21e5
550e
fb14
dabc
042d
c5b2
8892
7ddc
2872
b231
6f71
73e0
f3d9
4f56
ab6b
ab0b
0cdd
062d
89e8
ef9b
2752
b277
3545
931e
16ef
1b1a
6504
b739
f6f4
14e2
1540
0146
8a26
3ce5
fbf0
8999
ad4f
6eee
6fe6
22b4
e78b
39a9
ad3f
47a2
0da7
41e0
7116
22fe
4bd7
e05d
becf
84b7
915d
cc47
ba98
a0a0
5bb1
35b2
6c94
7142
3898
9251
91af
b00b
14ec
b668
a815
b5a9
8a0f
b55e
a6bf
edb2
a94c
b983
637d
874a
d7f9
f4c1
35d6
e8b4
e9d0
5950
d657
7377
1b62
2422
0c2a
57d1
de76
039f
a665
6821
7e83
fe1b
f822
26aa
a626
adac
b0b2
11a1
0b14
4303
e9c1
437a
6483
0c45
c41b
f65f
8c76
406d
1d46
35fd
0b6c
2c45
a019
a583
5711
5589
2cab
49c9
7cc3
7f2c
8a8d
8aa1
3487
eda0
7a4a
4246
81ba
c86c
414a
e589
39c8
3524
de54
f846
04f5
d2ec
fcaa
4498
05a2
f26c
4abd
491e
0a4c
76b7
d2f0
4120
809a
24b7
317d
7c8e
75a6
6238
bd85
51e3
a44a
6594
5a4c
97e1
f939
169b
1743
4341
4268
1cf3
88c3
b330
5fd0
4c5e
aeef
c3a5
09a4
4799
dcb2
34d3
1391
1cc1
f320
b76c
5fa6
d884
5626
e73e
3c86
246f
1e17
31f2
39c6
476c
d6ff
1994
7387
b65a
d3e6
f445
9fd4
93a1
68de
8212
a6d3
f44e
65ab
00ea
12a8
647c
1fd8
faf7
153f
2882
a3bd
c29c
6d2d
1f76
427c
c70d
0ea9
ca23
f8e2
22bf
61bd
e389
6bf3
b9d5
2fd7
bc61
fd2d
b8e3
2e80
7cf8
4d0b
f3e1
4652
145f
0803
f0b8
9b6a
fd7b
df6b
b438
694c
8210
ab96
258b
ed96
d69e
7f40
4f9a
7d6f
d00e
a259
2b09
b99d
b2e7
9cc5
f3c1
f3d3
b63d
3d70
6755
7fa8
7117
ffa4
95ef
1cc3
22ac
04b3
d0f9
0b87
5ad6
0492
2400
853b
37ae
4937
4609
71d5
d9fb
14aa
e568
5b09
2605
f0f5
8b84
9e90
b826
5ca8
55e0
140b
be09
2ff0
bf42
a03f
d3c6
54ec
a338
bc51
9ba0
bce6
6598
888c
d692
ff3c
5ba5
f6e6
c262
bfe7
d496
a49a
5833
c412
bf89
241f
e544
e74e
b96e
2943
2038
e36d
be6a
069c
4364
9af3
fa05
c0b3
12ae
4459
2b1c
1dc1
86e5
e6c1
95d6
11e7
6ea5
6f73
ce89
be9a
185c
c2a5
4e27
bd49
7c9e
47fb
1563
d1bb
2003
a3e8
39da
8365
1c6b
4197
f7e7
911f
6347
8a53
908d
2ec1
c37f
40d7
3018
5832
e4ef
4c12
8f51
d9d7
c7a9
995d
166b
9604
cdde
3b58
90f4
0d48
2628
6897
1c86
f26d
2fee
0155
0986
0170
42bf
8b6d
478e
60ff
233b
799c
a990
1b30
e7ca
15c4
29f8
f1ca
1469
04f1
abb8
c6e1
80b3
5fa2
70ec
8fdc
1386
d573
220c
1299
0ad4
2397
d323
29d1
324b
1fb3
7a30
4061
8c0d
68e2
2ca3
0fd7
cb4e
a8af
58a5
8a9e
7176
d333
1a29
efb9
8922
cb9f
aa85
b28c
1184
8dc1
61b6
0376
ec0c
aa17
1145
b0e8
07fc
6be1
3189
a960
96e3
be6b
1195
c30c
a7fd
5f30
202f
db6e
e622
3cd3
1aa7
21fa
49c8
aedb
1c7a
ed71
ed9d
342f
c270
c528
b13b
a64e
ce87
e696
3c9c
34e4
08a2
a2b7
1bf9
9131
43cb
d45d
2a3b
1098
72d2
4ddb
93ef
511e
9a9e
a1b2
59f3
ad90
d3ae
5c2b
2ff3
8d12
f96d
55d4
49bd
6d1d
423d
0f33
0cb6
53a8
a94a
ab42
51bd
7e53
ae8c
9aec
658c
3439
8fbb
5e66
d9b7
890e
3b3a
f438
f388
6607
b218
b5d7
5c19
3d04
5223
b531
1a91
07e2
f25b
f62a
d673
02bb
5dee
90a8
af60
1f7f
4e85
39b2
fb30
19a0
466d
767d
3bfd
741b
9571
e332
4cdf
bc2c
6d66
2e23
c2f1
caf2
bfe5
7c23
39ba
2e47
9b0c
7ee3
dbc0
c748
24ef
142f
940f
5f52
2443
445e
cc99
1e56
eaed
24a4
c88a
5402
b1f3
8383
35b7
f029
dd04
2681
4ea3
03a4
179b
f374
9177
2d30
9096
0d61
2bd7
4ac8
fd63
1199
01d0
d83a
c3c9
70ab
e741
ed6b
62c4
ad22
4223
4a19
4c3d
0d68
00fe
9a81
5d61
8cb2
e192
8cd2
5f69
7fd6
9873
28f7
de33
ef77
f63f
e0ca
98b2
04df
202a
6408
4e82
7b6a
d5d9
d202
b367
ec1a
2430
1cc0
c391
0982
3e31
aa49
763d
b1f0
1a11
08ac
49e1
6e45
8cd7
dd9b
5f8a
c6b1
96f5
1c9e
b081
8980
23e3
251d
f40e
38ca
98a8
f314
5b45
e435
2cfb
fd1f
117c
f778
34f5
e424
9092
b9e9
e363
9ec1
a86f
4784
e69f
8bb3
0511
2871
a105
ffe8
0147
5070
f5af
0b60
4f89
e9df
4e0b
6ec9
3e81
cf3c
3f69
5051
e741
4836
587b
1934
4619
aab2
f788
1048
f748
7e48
8a66
a872
3db1
72b2
c216
3e73
52e6
dfcc
d962
4378
b452
c946
aeeb
cd14
db74
faee
793a
338f
5d86
0caa
3c33
ce32
02d0
5dba
405a
ce20
6cda
e7cd
10d1
1ff7
2f87
22e4
dcc5
4965
b8ea
bf00
ac3e
8a1f
84a7
3f20
1664
a2c4
12da
93b3
6379
332d
abc6
aa17
1147
cd34
26b8
afba
06de
aa90
5c0d
1f10
eca6
aae5
0c68
34f7
50c2
5cd1
063b
ce58
3c2c
dd00
8bf0
ee53
4be7
2fba
ea84
b33f
c02d
18b7
fb4a
93a1
de18
902e
ed3e
c0a6
2336
709e
e75d
537e
100d
d438
70f8
5365
0112
17fe
7f5e
d4b6
7a34
4524
e68f
1c8f
8295
1844
7211
a754
3b90
7147
551f
e4db
d27c
2637
f6f4
88de
14a6
a5be
ca06
232e
8836
477e
4007
1d74
2e4a
14f8
1780
5549
9c15
4cf8
e8be
aee6
9e7c
236c
be43
b285
1cfb
b442
57e8
47e2
2d62
3e36
a84f
813e
91ab
c79e
253d
201e
cde4
f658
05a7
e153
46a9
f801
a8cf
109d
e537
e18b
a265
1e2a
a1fd
d368
e15f
f38c
768e
a162
0e62
8f11
f596
fdd6
f5c7
56a4
cd52
5e32
2e3d
9145
1eda
d253
5355
066f
cbfe
6614
8505
df18
f55a
b1a4
be0d
7f8f
1380
d508
8034
d75c
5d9e
2dbb
7496
74e7
9a68
5e86
c710
98b5
7b09
c55e
f8be
9bc8
5e17
c0e5
2012
b90c
1458
9781
60e2
4c74
9c9f
5626
797f
b09d
855a
2d6e
fca6
426a
2485
b940
fcac
7c68
6371
56f8
efc7
7957
7a5e
b8bf
c7d7
cb43
f165
14aa
4af2
6eca
d366
b180
479b
4231
b4db
7f9a
6fdc
6fde
3cf9
9589
52d8
b5fb
2e34
4b1c
07ce
0e5e
6207
430b
ddb2
8f25
aee5
0197
f849
18ee
0d2d
eaea
c531
46d8
85dd
3eca
7caf
2654
3392
86fc
cc1b
2758
9589
c297
8072
b018
8a8a
f867
6098
5a4b
5b09
46bf
47c6
8223
181f
669d
eaf7
0884
9b1c
4e5f
25c2
ce23
29d9
9305
4113
944c
48de
684c
6e51
821f
6768
9b53
3295
7dc4
6858
8e01
1b93
7f77
5a57
3f2d
2162
63a5
eb3f
cbb2
c678
34ee
af1c
783f
cca6
326a
5372
5dc6
1048
b985
1da4
ea46
32dd
b1a0
e9d6
aa1b
c6b9
b7bc
77bd
67dd
286f
4548
16e9
1f34
a572
fd9c
8552
160f
9f85
233f
92aa
0b5e
3d12
25ba
6b20
760d
8144
d94e
11b7
9c29
2990
66dd
90a4
5816
d58e
99b1
0482
0065
37b6
7519
0bd4
f56f
9cea
91fb
ecfa
b328
66dc
a081
8bfb
641d
32be
7787
4174
063c
051d
a189
df57
75ad
865a
c0ef
ac60
aad8
348c
f4a1
169b
20ed
3228
30b1
3408
d67d
ee8e
f14b
3913
9683
8b4f
d1b3
6da7
adbb
ec5f
f696
3f0e
469d
8ed7
ba02
7acd
7977
9293
2627
fec7
8c5e
404b
b0bc
9cbe
11be
afb4
21b4
8a24
1f20
b8f8
0114
7d06
0724
4a4c
6d36
7126
463c
9cda
1c59
a9d8
4a1c
4c2b
b5bb
6560
89ac
894a
ae9d
6c96
27a2
e00a
492c
1203
4666
b57a
03bf
b152
6c52
4ad4
19b5
1446
a35c
c8bc
8c6a
37c6
b7da
a89e
894f
a58b
0277
a719
e708
171f
0793
6cfa
fdbe
b21f
18d9
9747
0d8d
d2dc
a608
c296
ec59
7784
222d
9b23
5596
546d
68f1
afbb
0578
2647
017a
9a90
0181
3d2a
cee2
c768
fc42
c86a
6f7f
db21
6a09
4753
7c27
1c9a
3d79
8fe7
91a7
4eb4
e37d
0b1b
4cf3
46d5
bcec
71c9
220f
93cc
85b6
3bb4
e92e
a712
dd91
0717
cab6
c1ea
fa67
a907
9ba3
2153
574a
b489
c153
df9c
8e05
3624
a4d7
03ea
a30b
3205
82c6
c145
c0a9
6d67
23b9
38b6
0312
6013
ba80
ec52
866c
4d27
c4fd
8777
76ef
86c5
5fa0
cc04
dac1
b914
74fe
6647
ab61
26cf
2345
e075
674a
ecf1
939d
adc7
1fca
7a2a
1ba3
2349
7769
9d5c
1269
3015
cabf
8127
b528
a855
4f42
281a
0560
d319
9eea
6b30
4ec7
dee6
cd2f
f958
836a
45a2
e55e
2d18
96ee
c656
30da
adf6
a484
3ac3
96bf
0272
8ec2
6bf4
dc9b
507c
5f1e
c153
99da
470f
d382
524f
38ae
a084
993c
0db0
3e49
5843
8784
5e48
ec45
3bc0
2f33
4e5e
e3a2
c51e
b1a4
ad1b
cb2e
d3d0
0fa8
0e3e
737e
43f7
ec78
26a1
d1b5
af8f
5961
9808
6b13
d9cd
a78e
ee34
47ab
b9fe
1663
98a9
81db
6486
8a36
5ab8
8068
16a5
f069
024f
8da3
9577
6098
6780
931e
a9c6
5561
0ce1
6c2d
0ce5
2eef
3e21
e64e
3c22
c19c
56e4
d908
24ad
afe7
96c5
1377
e9b4
a11f
bbcc
e82b
a977
29ed
d203
535d
b063
b933
751e
4fca
7dc8
9720
385c
1e33
bf34
4d59
9cdc
bb2b
20cb
4116
c9fd
fd4a
bfb4
085b
8399
9a47
3a0a
5b69
6b9d
591d
23b0
a34f
f27d
bae4
3968
add1
8345
d8fa
2c05
4502
71ae
6af8
3500
e84c
8855
da31
d559
2abc
5343
b546
8315
4d55
4481
43f8
372f
e768
5a98
a406
04c1
461a
416a
93d8
6f8d
ee95
d4e9
e445
e030
0ad4
220d
553e
175f
2760
b517
ae37
fed5
fd21
b4e0
80fd
3836
41de
4197
732f
f6a6
2e5e
acc2
26e1
8a45
5888
16ce
8e3e
6b1d
eb71
d482
8a35
3e30
1658
55d8
4a90
9e30
d242
df23
8725
09c4
8f58
c453
b4ca
5e6f
de62
3979
b5c7
6c6d
d1ac
2ee1
bb9a
1fc0
42dc
b6d8
d61a
f341
3959
1ab9
ca3a
8564
7383
220d
2ed2
e1db
d8a0
3bf1
bf98
32f9
69b8
f5fa
0780
457b
054e
95d6
e636
960a
934b
b1db
54e1
0c1f
ab80
1f65
b341
8faa
f99c
ebde
ba7e
100a
870e
b6cb
ad5b
3ee6
a6fb
3565
5ce7
d89e
fb60
abcc
c144
12ba
fe2e
a036
1d7d
4dbf
d931
81cc
87d4
f2ab
ef7f
e116
e113
a09a
4fa1
3dba
d34a
0762
5d16
42fe
cf5a
c477
7665
60de
409e
4ae3
1ee0
5e3d
0146
baa2
b2da
ec74
0edd
eb05
46fc
d4f6
1e76
0dec
51cd
2e65
9978
3118
4ef9
3bbd
5aa6
94d4
496e
232a
9559
7085
6ec8
7588
91d8
b9a4
22bd
e81b
9e94
2251
c89b
4dac
5097
f23a
e79e
5f49
432e
f55b
4931
5b93
6739
14ec
95fa
f23c
3188
bd9a
31ce
d036
f81f
aea1
245e
44c0
7a57
bd68
551d
b55f
337b
67d6
1a49
de9c
a7ea
75e9
d3f5
b6a5
8c75
163f
c9cc
6b06
e3f3
5001
6ece
eb72
b3d0
48af
2c02
b49d
0fd1
5c67
3371
9a74
efd4
ee7e
ca34
4679
cdca
d480
b55c
abda
7775
d8d9
831d
19c0
44e3
e1b6
c62b
33f1
fc19
2c45
2e00
0482
34fa
7e70
4caf
ee56
5246
f1f5
f54c
39e0
7f6d
22a6
2a8e
3bff
a03d
a9f9
9617
3e1f
aff3
cd94
a6b4
b8a4
6bbd
b33d
1b65
6660
fa78
5490
cf91
c9ae
b6d9
2f8c
8a1c
4ee0
d1e2
01bd
97ed
08d7
c10b
30f1
1ad4
8a10
36bf
0d15
8bbb
44dd
3c90
875e
f591
e909
954e
a8ed
405f
e1b9
7eb0
ab1b
7695
410c
e224
b9ea
7ccf
9560
b563
9858
3986
6b85
1eec
b2e3
9c37
4848
5bf5
72bc
15fd
f941
0344
2f72
a392
d608
a8f4
aef4
400f
c9be
44c9
3411
64f4
20a6
d874
ef65
8ea4
0fd5
f0d8
03d5
746c
de7d
2bf0
acad
e3ec
33ab
8226
6be7
42ad
8140
d427
74c6
6ac7
31f2
b8b7
0eb5
bbdd
6e8a
cd0d
f8b7
8c7a
e7bd
cbd6
abd0
a6b4
017e
2c54
b2b4
3ca8
2956
f200
a1bd
280d
436a
a77d
3898
8ed8
3566
ab77
1da7
c9dc
3040
084a
dc87
b14e
f592
a609
6f3a
9b6c
62bb
a30c
4b55
60c0
3ed5
1d4f
8c30
b4dc
c58d
b702
118e
e9fb
8ce8
9ea9
fa04
ebf8
66ea
41e4
0d43
52f6
58c5
2fc3
1d40
128e
46cf
a092
ba90
f002
1d92
28d6
5c65
dd00
0930
867e
b181
6631
09b4
ca4b
82c2
c8b7
af5f
593e
d0bd
135f
4fa3
cb87
e7c4
dc13
7c41
cdbc
b9bc
ae8c
69ef
1e2c
5217
69c1
b3e1
745e
4a73
66ea
5dfb
cd4d
6827
23d8
94bc
f0ec
2de2
826c
97db
fd5a
1afc
29f8
f9d1
6ece
6cc0
9bf9
fc12
52f9
041f
b6c5
b327
8026
68d5
5419
e442
e118
b72f
c63d
d8f7
ed45
5b8c
a5ed
d0d6
5936
3e0a
c377
44ac
05a2
b013
7be7
c403
e9d6
a021
25e3
1b9a
4f62
79dd
84d4
2846
4c52
48fc
f2c8
40ae
e301
7142
fcc8
c079
d78a
c76e
eca4
29ff
15a9
ef9a
b8ed
4045
898a
c4fc
c4ee
2ac1
a9ba
87ce
398b
5b54
fa87
65e4
87ec
5cf9
73e6
6429
53ad
4f4e
1d81
1f41
2a65
2b9e
efb1
82b9
a73c
1c84
9d7f
3e15
c736
66a0
cc8f
9473
7a43
a10e
56c9
3784
024e
61e7
486f
fcf4
d967
6c01
3bb6
baab
7be0
e0f2
9467
1857
8fb5
ad51
873d
0dfa
c252
d94a
2ded
e4d1
54e1
e12b
0e4e
c0f1
f292
0d3a
9ece
dec8
a71f
30a9
fc57
08fe
b191
217f
00b3
fe50
fde9
c1c4
7f36
4a87
d37a
db3c
af96
f4c3
a4e8
2def
c4d3
2f02
0b4d
700a
dc07
cfa5
9186
3d1c
1fae
9c19
7ebf
790a
c009
f8a9
97c2
6613
9c37
075c
7eff
b945
fd2b
3679
76ee
44df
961b
93a8
e3c4
dcbf
f8d6
1fd9
413b
e4cd
62ca
acf9
6422
97b2
809b
bcbe
8579
b72c
0ac5
ff10
5d21
0fb1
c18e
011c
1735
8d86
ab14
b11c
da78
ad2e
8394
cf1d
0094
e0e2
6ee8
f0a8
137a
a8fa
392d
f3e5
795f
f51d
0f01
df12
ea39
ad45
997a
3064
e76d
ef7a
fc61
a977
12a1
10bd
24cf
ba25
3660
565b
90ec
eeb4
6a41
9bcb
ff44
b97f
2e4b
a498
7c0c
8a44
ab35
a725
cc14
95c8
c644
5048
8c95
9289
c2db
bb25
6dd0
cb24
6911
9414
ccfe
669d
17c9
f9ff
3190
7746
e5b0
b052
9861
47cb
05ca
545a
6547
3589
f79e
7ac1
8509
5ff6
f7f6
eebe
7943
e976
dc31
d854
c655
0759
3a07
885f
b467
83c1
1426
0417
65e9
e876
1f54
9f83
791b
2f8c
b94d
eade
31c8
199f
d2d2
12b4
1ac4
714f
79f5
7929
9689
865f
a34f
ed40
f497
2ee2
9a29
12f9
8192
3648
732e
5398
69d2
3c92
7e8b
0dfd
2f7c
dc21
56e3
fe44
57fa
2651
b2b0
28d6
af0b
e4fb
6ad5
1afe
627c
7f09
a259
b049
526a
daa0
5c4c
4995
b355
bc36
cfc9
dc81
00e6
973e
5a77
bd9f
6f34
119c
b106
86ba
7f1e
b0da
2352
1382
344f
4abc
1b34
0a36
3b84
df90
0b40
d4e5
c2af
f920
6df7
7107
0095
cf7a
b1a1
2744
1d3a
525f
bdaa
b87b
e27d
e0cb
9d9a
7a52
e10e
73c9
c101
5ae6
a91f
c097
ff67
1391
d8b9
062e
4386
edec
843a
26bd
8006
ac01
5655
f876
bcf8
adc2
86f8
47b8
823d
adb6
64ee
6687
09ac
226a
8451
6c33
8e73
35c6
ae1a
5ddb
f6ef
c782
9eac
cf08
9866
baea
c622
799c
32f2
61a1
252a
b514
c072
7710
7a33
9735
4b64
e98c
ae0e
9a43
97ef
7c51
84a2
a8c1
2107
d304
58de
33ac
1a7d
9b41
8243
ab9d
6ef4
eeaf
d805
4e7c
97ec
e415
40c3
2a02
f89b
f81f
6529
32ed
ae88
deef
db2a
3f15
b884
7b1e
ead3
6b21
5566
c9ca
6493
a1d6
4e9d
dc67
d46a
a72d
8cb0
db5a
0ed7
3000
0477
f22a
e64c
81fa
8a61
c014
eaa5
207f
f2fc
c8bf
af15
6a5d
4905
cd0e
effc
40f8
2361
92dd
11a3
5d29
7c1e
7231
3b7a
dda0
651f
cb40
f1a4
6391
ef0a
0664
fe40
2b85
770d
f6e7
8093
2ff7
191f
8884
5b0f
6270
50f8
8cc8
8f92
1644
ea51
ec49
37a6
9421
c9f3
26e1
3f77
b889
04d7
9dec
57fd
6122
0a62
dd17
d192
3e5d
bd28
b65c
01de
70d5
c50e
c781
5ede
cf02
1df0
07e3
6cc8
0b4d
1070
cbec
9010
91e5
70d5
f0d2
b12c
8fce
3634
4785
f0ad
51ae
1899
3793
7b31
281a
cd36
da72
1427
680f
ccd4
b2d9
70bc
6da5
d67e
4c4b
7d85
698c
7621
02f1
938a
592b
2d96
26a1
0e0d
a382
3454
811c
51c6
a00d
b0a1
7c2a
0627
86fd
06f5
a3ee
32b9
1ba2
8f70
836d
6ac0
64da
73df
5194
befb
ca60
7b30
7d75
2f0b
2178
0317
7595
85fb
f045
ac50
4f37
ae2d
ae4a
1702
9110
76b8
01bf
357d
6be4
b625
3c4e
3c33
9813
d1ab
82a4
e2fb
a0c6
f1ae
baaf
ec77
77e6
d0f3
0a48
8b4b
9ccb
65bf
d5f2
9291
139f
dfdf
33de
15dd
f8cc
811b
a770
29f4
26af
db36
525f
85c4
9868
7a56
4927
9786
5ae2
caf1
f2df
78aa
00f8
d8fc
a97f
3ea7
a07c
3799
6c3f
d592
04a9
3ca9
4b7d
b51e
031e
9ecf
55e6
debd
0911
3bc3
d7db
78ef
ed77
ccec
362c
a2f8
8d4a
e50a
dfbe
9495
650f
3226
3737
8522
bc53
400a
76c4
61ba
b785
de32
09ac
f674
cdb3
802d
7343
5301
e7c9
cf53
c469
283d
48ba
acc6
e76d
be5b
e33d
ec5c
d7bb
75d1
5b4b
7f9b
f3a5
64de
5fd3
cfc1
4b85
3dad
4a91
f09a
71b5
2172
7344
cbee
8c33
98d0
96fb
b6a9
1a66
42a0
86b8
3d76
34fc
0208
ecb7
2edc
f3d9
5646
8721
c4ff
305c
8eb8
7143
4725
a4cf
ea5d
2acc
c712
5284
d592
5ff5
74f4
ec38
08be
ca6e
d398
444b
b2c3
d3d4
e10c
e0f4
2821
75c0
4f9c
9c3c
d134
fa6b
6d27
0505
7199
938f
0a8c
89d2
530d
e8fb
b7f4
e6d0
44fc
b1a3
4ff4
d776
f091
6409
576f
604b
0ca6
f311
0d74
5294
97af
1b21
b1ee
064b
cb80
0111
a91c
43f1
1547
b94b
fe0e
06b5
2b76
d490
cd7f
a684
d25c
d025
815b
dee0
70eb
dad7
c596
bccb
4aa0
ec4d
7978
6e55
76e5
71ac
ea1a
85eb
86b6
1c61
0185
eac9
788d
9077
9afc
dd20
432d
6d12
7ffa
97c9
3993
1945
1e8c
72aa
bd43
7e6d
1cd2
9380
3821
2f8f
6e31
a00a
f55a
ce5c
1f71
f3d8
f020
283e
ad3c
015e
8229
d1a6
6037
fd5b
72db
0321
7bd8
02a3
c6f7
f315
c0c0
77b5
959f
4598
a91d
9da5
c5e4
e1d9
ccb1
b87f
8156
e823
e211
3970
d927
60c4
6051
f443
a404
8443
26f6
3935
37d4
a4db
f994
2202
1210
3519
17f7
a45a
b798
a35e
2bf7
1e28
e982
9038
9116
e19a
e160
e3b8
eeec
d1e5
1171
5c92
a7ab
71ba
5510
3a7c
ea7b
0ecf
3035
c6ed
3ff8
c8ea
d38c
da7c
39b4
4dcd
a986
dd54
1098
4f63
e17a
a823
0008
ac17
bb3d
65df
b2fa
1e94
c521
6401
68b9
6a80
c2aa
88a3
e9a5
982b
8d9b
4ad9
e317
3e2e
118e
35fc
4d8f
59ba
bbc4
56dd
ddfc
80e9
d67c
fa32
5fa5
0a58
75a5
7bae
4532
a796
d2f1
e62b
8b79
31d3
29c5
4070
3bec
5e84
b0e2
f798
37b6
ce16
dbc2
c247
5572
4a7c
0c91
575d
1202
2123
58f2
a962
5a48
e793
cc5e
76fa
ea23
386e
1580
b152
5078
befa
f524
4e6b
0df1
b3b6
8e5a
4bd6
c7e0
95f1
61e4
ef0c
8cac
b79b
5e10
38c7
378f
6f73
7122
e8a3
c654
e36f
69ac
9587
c482
0307
c312
0460
1742
6122
d03a
1dab
d668
73c7
980b
2f10
eb3f
999d
758c
dc56
a221
1a6e
f5e5
0cd0
0397
a2d2
8225
e3d6
f6ef
ae6c
234e
9f3c
4c23
c8f0
9dd4
f1be
51a6
6a57
14a7
7373
1dad
ec28
211b
e71d
4b91
0d2b
f7af
cbf5
7408
02b8
71ec
eb36
958f
dc44
06f4
b3ba
2235
f7bc
abca
7d44
ae7b
6014
19c9
1e00
223c
a0ea
4222
7257
5a90
7ecb
484a
8e71
cb37
3a03
c320
7025
2e66
1178
3273
b68c
7ca4
6bbe
a4da
62f7
5dc4
be96
402e
8a4a
4f73
1909
d90b
e7e5
0b53
e194
2668
f370
e094
e243
0080
bcff
99be
9a0c
2142
2d36
05a0
c15f
a579
a6da
a59f
0f4e
a6e0
5744
62bf
6f32
472b
06b2
7e99
65af
f66f
3790
3296
c672
4549
0bde
db92
0459
b975
e262
8932
25f0
1655
6d77
cc02
c0da
4202
d7e2
fa10
8fa7
6edd
0030
c3b4
de4f
feb4
cf09
265c
6fa5
647a
cc4e
065b
9a6c
1861
6464
c9b4
b6ee
b0fc
6943
1913
5ad1
b62b
6837
4a2d
1857
eb30
034e
43e2
5e05
eea2
2e0a
ec63
07a1
d3e2
495c
072c
bd1f
fac1
c8b3
5b40
d4e1
d743
f637
1cda
ed85
b9cf
6b5a
e118
02da
230b
6863
301d
f803
a49c
77bb
ad81
b82e
ebe4
02e3
8147
f3ed
7753
8219
b362
32c3
fdb1
b5da
1ec0
0b59
ffce
c703
f93f
c953
23e5
be18
5262
d97f
da69
22ce
8bdd
0c87
5f49
5f50
e257
6156
41e7
3dec
da21
00cf
9790
0cb8
1c58
6d4e
cc5e
f218
9b14
ebbd
12d7
b85a
62d0
eb4c
f333
bb77
6b12
a469
2f11
02a2
c5fd
d1df
4ea6
86d0
d8f4
8978
b7b7
7856
0685
b0e8
518e
2fb3
70b6
53da
0820
f1db
ffb4
e84a
6a7f
dfd9
b493
c1b3
ae36
e860
40e6
fb99
2942
f02b
f323
701b
f7d7
86c1
15c8
b9b1
21dc
1abc
e9a1
2b43
b01c
9c21
ed81
3de0
b331
9422
11ae
cdf3
f6eb
e127
bf78
6f4c
054f
34eb
b0f3
20a5
7b9d
0ad6
ea28
0951
d4f2
fa18
731b
2575
09ce
00d8
378a
de51
6b79
9312
5b62
e0fe
a464
7b7c
4c9b
ba53
3bc7
f98a
8bc3
e63c
6cdd
a827
86db
4bbc
064a
00b6
8fab
ba57
b9ce
cc8c
e350
20d3
8210
ea79
4d0a
f8a4
fa7a
4998
105d
8ff7
4f1a
0f6a
a3c8
d419
02c6
3c32
cdd1
8f42
a062
30b2
3d68
3169
082b
9430
2bd2
d04c
888a
4f5a
36fe
4c19
2214
aafd
790d
789e
cf96
5fe6
33d2
dde2
4b2a
c96a
aa57
b952
b480
ef84
ff1f
7aa0
2982
5ffd
6b8d
72b6
2e65
c504
49c9
38f2
9f5a
9845
669d
ea84
5681
5ae9
e66c
b774
f03a
d3dc
3723
31f0
3d86
4608
851c
f14a
de87
9d3a
27f8
6863
bbd4
0c8e
466a
b151
831e
b23a
7ed7
2035
2f66
ebbb
64fe
e625
c9b6
bb70
c80d
cd9d
3602
b4b0
848a
a5c7
5ca8
7318
c2a6
1ca1
f230
6b8f
30d2
852a
0262
a1e5
4730
fd51
ab28
ad92
4c6b
1745
428f
f09e
c64f
2467
ce4f
5ac0
3f91
346b
0e09
cab6
b60c
7756
9f85
b4d6
9211
377b
b9f1
0f90
23d4
9be1
42ed
3c24
fa81
77cd
26be
8c54
66fa
52d0
ab91
750e
593d
ab13
c851
ffaf
66a8
3d8c
b4e6
7093
54cc
e6e7
82db
8fed
bd90
b855
3551
1b76
35a4
8a7b
a5b2
0093
d293
bdcf
ceb1
2913
093b
de79
d834
59a6
d315
8c27
890d
a143
c509
2f6a
01cc
2fe3
03f9
cd20
ddba
b7df
8213
5db7
cc25
634e
a13c
af77
82d1
797d
8fad
7c36
2b68
2e1d
8e46
c1fd
427a
85d7
501b
6784
27be
9fb6
8916
e11f
7d5f
642d
b7d3
9890
ab09
10fb
3185
0d54
35aa
c369
8cf6
cc96
d38d
7cf3
b71b
24ba
13cb
0567
4c63
74e1
7f56
5fe4
6368
c4eb
6161
1573
4d01
8017
6465
8e91
1c89
5e49
7d01
52ef
a591
5b7c
d987
d6b2
198c
134d
329a
b2c2
b1bb
a5db
4b97
7829
fdcd
1a4b
9d82
afab
6f28
9952
6f68
a46c
f21d
4f4a
240c
9f4b
db41
7b64
c9ca
282d
4fce
ab7a
7025
cff5
1248
ff14
92a2
1d70
129b
13f6
29fc
6efd
7ac8
0faa
810d
bf08
7ba7
5acb
545e
0c9e
2d6d
fdcd
c026
3499
1cae
4245
0e1c
09e9
6d59
f6cf
bf6e
51b5
b639
a42e
91d4
64f0
b852
c5d8
492b
4296
2570
f322
3330
8705
eed3
13ef
cc42
9689
c2ce
28e2
531d
a37f
0999
ac9f
911c
e4d8
1d06
a642
5849
f4e7
c92d
b2e0
57f7
cc2b
0aaf
b215
ecfd
32d2
c64c
3d45
f264
111d
01b2
1770
4a2c
5b0c
193a
a3ee
902c
baec
c7b8
2300
b12d
cf06
98eb
58e7
24a1
4b19
8205
bb74
24ed
05bc
3a5a
72e8
a7f5
5f68
a352
3a72
35f4
eca3
266e
c40a
150f
9e20
553c
8441
b604
ece1
8120
5035
4190
fd93
7ccb
1a50
260c
3d5c
b345
33f1
679a
590c
1ef8
bed4
7a31
86ed
f429
05a2
1c8d
a992
3455
0871
e61d
9ae9
dcca
9747
50b1
4dd0
5e56
cce8
4263
0fcd
f80c
7a76
6071
1c97
e5f0
7d0f
f294
6f96
5279
0443
d911
6f5d
21ba
01bf
265c
9ff0
30ed
a2f4
7694
3e20
0f94
8acd
d2a8
651e
8543
2ec3
2771
832f
d23d
9c3d
5263
3cb6
2bd9
b746
2ccf
e943
bdcd
0f87
6e5d
ba69
c5ac
bf4d
9771
51c1
c9bc
ac76
0505
b08d
5f63
eeb9
dbb3
c214
eaf5
a047
7bba
eac4
c863
0bc2
a619
a7bb
b797
1362
5341
f0ff
8ead
0a49
7228
60d2
be6d
0460
3c43
c25a
30dc
b4ab
2541
0447
23ce
e466
b4c2
4520
dc60
594e
057e
048e
d133
e8f8
da52
b805
679c
af56
a650
ce56
ec5b
c538
8e01
82b7
1ed8
0e50
b0f4
a55a
70a3
343d
bc19
68b2
1991
8ffc
7b30
27c3
7653
dccc
8276
95fa
b081
efc0
0026
b709
4b95
095b
94e6
2ac4
2ff5
e803
9b38
4b23
d92e
0242
caba
e02d
a4ac
be5d
4e9e
8aca
5a26
627b
e397
630d
3fe0
1f45
34d7
fc24
30b9
0e35
0ae3
7dae
278d
e9eb
8f21
97ca
49ad
7046
2278
7335
7b25
1782
6032
397f
ac33
f491
8ee5
1c2e
2a24
a565
2114
bd82
4db0
c0a4
e03a
b8fb
c0f8
07e8
b1ed
23fe
99f6
0948
3654
841f
7da3
d257
fb5e
d462
35ca
b836
006c
fc0b
3aad
f2d6
6876
687c
e554
b91e
3552
5bac
cfb5
e35b
c41c
f97c
a9cd
f42b
2c29
126e
33e4
8ca6
209f
5749
ed9f
0b9d
597b
bf13
b831
ff58
d402
9d5d
1004
4610
f320
c9ab
7777
b0e3
2440
c10e
f7e3
d7c4
7b22
7fdd
7e77
cff8
70ce
d065
94b3
72bf
e1b1
aed1
fe83
e99d
2e44
b64e
fee2
947e
234d
013f
73cd
5811
3745
7815
2a8f
0161
23b7
4581
c5e1
bec0
74f7
075f
b8e1
b010
0aaa
a02b
c379
13bf
57ba
887c
4877
bc4c
4c12
6139
e0d9
fb3b
4394
fc58
98c5
e3aa
4087
0c77
dee5
59a7
fa70
14b0
0bd4
5316
b95c
6bd3
77b9
8bc8
a069
a35b
f628
06d6
a613
324c
c660
fa5c
acdd
5777
6207
a144
948d
8eb4
b861
6a32
35c8
59d6
31f4
3e51
bf5f
2f2f
a4a6
7bb0
3409
20b9
d7f2
6162
0bb2
80ef
662a
2129
7fc2
c38e
8b22
8de3
58ba
d31e
73f0
3bf1
2359
62d8
9860
9d60
b061
0d43
85ec
3c08
382e
9afa
1a75
1c59
0e55
8496
3da0
b1f5
0911
9589
7e3a
1aa2
23f2
1324
7d79
d9f1
92cf
e39b
d5fd
58d4
42a0
f2df
bf9c
f56a
90f3
aaaf
6ed2
076e
9ece
0374
4b95
216c
267f
132c
31f8
76d6
8ae1
1367
71ec
a571
6e35
5058
32cf
9af7
c3d1
fd91
d9ef
d32f
42ec
eeee
7ba3
5ee8
9687
1f7f
6018
a3b1
e4f4
8a00
0ffc
2491
0615
165e
a1c7
9481
2a15
3ad4
cfdf
8695
7101
f6e3
b694
f782
d648
6558
4b6b
0df0
f1f7
e1bd
8bdd
4d68
a286
be7d
f59f
c7b7
f965
a155
b9df
a990
a0f2
8eaa
5ddc
2fe3
c24c
49a3
8421
a7e3
54a8
82e4
daaa
800c
e440
ca07
895d
faf1
cd92
9f39
1dc4
b72a
4d55
c6ca
363d
09b5
9ea1
4026
04e9
c3da
2017
0184
be39
7e1d
17e1
7979
6c6d
c2f0
1684
8907
8c50
8932
ec7b
bc77
8696
3b2d
b0f8
2bce
e68a
5900
5dad
e3fd
e0e9
f71b
9743
0807
3177
db4b
440b
759f
d1a8
51dd
1841
268b
4c70
4303
8399
65fd
1a4c
8cb4
1933
2d06
4201
5841
23d9
3f33
70e1
3199
820d
ab36
e764
b855
97db
5856
31c5
0518
5b54
0d4d
3882
86d0
a8b0
36ec
fd17
36ea
c821
f6d2
92e4
b9e7
1376
ef69
b4bd
ba1a
bb9e
63d1
bf2b
77cb
14c8
579e
44af
40a2
5bf5
b2e9
4796
8442
67a6
f429
9432
c03f
b34e
27e9
30cd
094c
4286
1f11
d936
5e37
ad57
3007
e2fc
123e
39a9
7740
b184
7f3d
431e
3bb5
7b71
7103
ab2b
320f
8e54
2bc0
5e5f
1604
d894
5bc5
fcae
1f0d
31c2
385a
d7d7
939b
d95a
7df8
9005
b697
f858
4659
5980
1b0e
3273
fa7a
6b56
2bae
efb6
04da
c21f
bb63
b123
a825
e926
099c
8695
9a87
b3c7
3d47
c15f
ecce
30d5
02f9
d250
3ebf
0cb6
e1a4
319a
5884
f9d2
1393
81d7
3533
d513
cd3d
2fd4
51ab
68c6
69a6
87ed
1019
fe5d
cce6
03ea
dd50
ef67
29d0
5498
2c49
3858
a1f3
9044
eea7
ca0f
b44b
535e
186e
d872
7c30
8822
dfdb
ce58
47c1
e413
0374
10ae
a6f4
a55c
c64d
fb87
3aa0
9a6d
8ffe
c212
111a
533c
8a28
7339
b7e2
6576
df9b
13c5
339f
cdfe
3e6c
51e7
c586
16ca
b22b
7e63
aaa1
7129
26af
b7ee
9327
9c14
70be
7867
df18
9417
f9cd
cf4b
83cb
ab0c
e238
c926
02a8
15bd
4756
860d
2271
7fd2
85f8
e294
0263
ac51
0811
6e9d
628c
dd07
9294
4591
7dfa
5c51
defc
c800
8249
f123
3828
3977
d9f8
08d2
dcf9
7706
6d9b
e7f9
8cb9
2cb6
d28e
31ba
5ec9
5112
fda2
258f
b449
1bb8
4f9d
d5a1
6da5
08d6
136f
a970
541e
014d
c27c
bc79
9f5a
d432
65f3
8e93
b8d8
efd5
f03e
dc7b
e8b2
4c58
99fd
e35f
28f1
7488
a6f0
7352
8fba
4cf9
2072
9fea
bdfc
9b21
d74a
f404
a5c6
cbfb
bbc0
45ef
466d
581a
2717
7f0c
719d
d690
5ea7
f263
8e8f
5997
fb1c
7510
6870
6498
1f33
22d3
d084
6a4a
ff43
68aa
9705
22ec
8d54
dbe8
d0c3
93ea
0bed
c99d
ea30
d961
b373
7a05
7909
aab9
2377
dde0
839b
3131
aba7
5b82
635d
4972
b0ff
c09a
90cc
b2d6
67dd
20df
2db1
2db9
e6f6
3cad
4a02
b217
7e60
67cc
ffb3
f402
1847
4a72
5b76
707a
b527
c6ad
f724
9ffe
70b2
7b57
6790
4a51
89f5
4c42
07e1
e26e
efe5
08b7
4358
3f59
470e
b694
d40b
af51
946b
5a0f
d431
28f1
3e4d
708b
e783
6c63
8791
80cc
a03e
04c8
ed4d
2f8b
fca1
40c0
741d
f7d0
1748
fc43
34f6
7b70
b58d
aa4b
a22e
4d1f
e4e1
f1da
39da
a1b2
ab56
2825
4f09
e4f9
2366
5942
9948
f770
10f4
c69f
b8d8
4d5c
9ca6
8f44
74b3
07c4
3c37
d354
c9fa
ad9c
d009
03fe
0ed8
8540
e283
b4bc
110b
408b
8617
1faf
a043
82e2
ce0e
356e
6942
bd6e
0c18
d9f5
8955
07b3
2136
466d
f981
6f33
9dab
1b74
76a9
b1ac
f5f5
3381
624e
38ec
a3bc
33aa
29b7
d9a9
d598
0a4b
5b70
aa38
3b75
3cfe
4592
7b74
dfc9
20cb
79ed
e558
cc17
0453
8ac4
b560
bce3
0be2
5e67
0824
ef82
e94a
9fda
6954
d67b
13a9
32f9
f9de
8174
c016
fa65
4015
e235
440d
d5df
a45e
e584
ec4c
fcbf
f197
5ddc
1441
db59
fa0a
41f0
3283
66dd
5fb6
1617
da37
ccf5
28d2
3f82
c5dc
e0e0
0b6b
bbb1
953f
53a8
035a
57b0
9092
ea14
46ce
9cf4
f9cc
9cbe
fbe6
fb3c
8942
5e52
6338
c34f
4f8c
50d7
bf2d
0835
f780
f954
21ce
8085
6cf2
f79a
1dbb
0ef0
f869
3247
de31
2180
2597
5b1a
d7c9
2363
94a3
42f3
9004
5ddc
09c8
4efb
fe8f
9b3c
87de
0d12
2968
7144
2fa5
b327
21fd
0293
5cfe
3410
d1ab
4505
0062
0de6
24e5
9920
9d05
7ffd
708c
93d1
358e
af9d
b7d7
d1b7
23d0
ea01
eae1
af90
3a12
0932
2870
e636
ba72
1d51
0110
66c1
b91d
5f24
0eec
2da8
48e0
80a8
1c42
3587
e6f7
9ca8
e7b5
bd4c
d15f
ee7b
6cc7
a66c
5ae3
f51e
9699
139e
1e19
5629
ea8e
81fa
4e1e
140c
8665
73ce
5d04
9ec3
5af5
bf23
2f0f
b155
d576
90a7
2951
6229
b8ce
2bfb
b52f
ed00
9803
3e76
59e1
89c9
30b2
884c
e977
9ad9
d077
1635
0309
255d
e21d
0490
2302
e5bf
b22d
06d9
0f35
46bd
a82f
d8ab
e606
d4ca
9b52
bbd3
81fd
5525
ebb4
6158
4999
5f0c
f76b
9628
e106
11e0
6dc2
154c
9329
728d
7230
fd0a
bdbd
b6ae
1b2f
f4e9
0399
0539
018f
6be0
f39f
7228
0b13
1439
3b71
c4f5
c204
8402
2880
3eb6
063e
7d81
20c7
e50d
be3e
ae09
23bc
e1a3
5582
aea6
3041
afde
a1d5
996b
7952
9e8a
0893
b6f3
3d86
f3fb
1588
26ba
eae1
7ae4
1c61
d6c4
17d2
c93f
34d8
4a9c
922c
55ee
769f
835b
4f65
38f7
68d9
1437
d187
1ceb
9633
87f4
ec4e
7af0
b166
2d52
10ee
274f
8e06
a506
16fe
1a29
cb31
2427
b25c
fc8c
36ea
417f
923d
855b
3f5e
30e0
8159
2376
e7e6
5a5a
a296
573f
8f2b
53fd
13c2
c92e
e7f9
4311
a69c
d146
9c59
11da
4565
3300
2926
9bc8
095d
6a9f
b068
7a20
9daf
aabb
45f0
3d1a
da97
9618
6dfe
8f53
a0c4
e068
d5eb
4c75
a4c7
b332
da9c
eb7d
8574
fc9b
39e8
3966
3263
2164
5953
184f
f76d
8f38
f060
509e
ab78
3620
0c20
6c22
2e88
740b
fee9
9bd8
ad25
52b7
2005
6859
72e3
430b
880d
baf7
202f
99f4
9c45
2c82
4e39
d164
abba
e9ba
0666
df44
9cd2
cfe3
b527
b46a
0089
9c1f
e24e
fa37
afdc
a525
36bc
cc2d
a973
d704
774b
8072
fab4
2a6f
fd82
ead7
3195
e10e
a53d
81a5
4d58
7d58
e19c
4ce3
b7bb
2efa
446e
deee
244a
d50f
3554
d34a
c0fe
8ff7
2ccb
aced
5b3f
0ec2
65f0
8731
03e4
fced
8b3a
713e
eb29
f099
ff82
bb23
74c6
d607
90f4
2954
5669
68dc
d529
b561
3676
1319
2a56
3dd5
b5ad
667d
ca14
080c
18e0
a765
f53c
5916
c1e8
f188
5722
82fe
7b50
2f03
714a
2ee9
d584
7c54
d8b9
a7df
16f8
7b1f
6a5e
e511
0b5b
0357
a416
ecf1
ce83
197b
0755
9a13
49db
e421
4583
1826
c30d
008b
79db
6b51
d3c0
cc86
736d
b337
d91c
3960
ad8c
106d
9a38
9485
e73f
53a6
70f8
7263
836d
a386
cb0c
0d2b
f7bc
d358
785a
33ef
3df7
2d67
692a
4a32
3c04
a35e
002d
7843
d75c
a125
da26
d8fd
9975
c9d5
6530
61ee
cd13
2a63
3f1e
c457
42fe
6167
e935
03cf
a7f1
58b3
9b5a
5cc0
e0fd
d5ec
bb6e
df86
4c70
7c5c
e22d
c869
4424
39e9
96f4
dcc2
8478
3f84
f657
b13f
f07f
e927
f843
a1c9
dad9
27e9
85c6
7f54
7dec
3d8c
c90a
db0f
05ec
d54a
54ec
d60a
1f8a
5aea
55d8
10b5
4bc0
c3f0
0e42
f5a2
463d
6632
e860
6e7c
3832
8d0e
0348
2c31
e5fb
41ca
380b
6ffc
4540
f389
bb91
d6ea
d507
bb6a
b661
0668
1719
5b38
8e63
bdba
f6d9
7290
c94e
5a93
d0a3
40d9
75ad
ced9
7a6b
beae
40ec
06c9
2b5a
b02c
164c
0383
a7cf
a2cd
ce76
eaa7
2b89
cd14
9507
2f65
2355
5e47
9f83
e578
a6aa
9de3
9264
e1bc
9ba3
90ce
4c82
2334
911b
6e2f
33ca
7dc8
8378
3180
3e1d
cbdb
5bcb
218e
6826
5681
0afb
39f5
b8ef
10b3
deee
fae4
d905
f1ad
cb96
e92c
0ec2
50e9
0900
e57c
6963
cfa2
cc84
b693
b4c8
a6ff
3787
e79f
b353
c247
5428
f1bb
1845
9224
6b3d
1c58
d427
c733
6cac
46f7
6018
1d80
6d81
1203
d018
90b4
aef1
979e
344b
1996
cf1c
1a87
3a48
6cd0
83a6
2d5f
e06e
1898
992e
e966
2531
08f7
fe3b
79c5
b4aa
c496
2c1e
b079
4cb2
d8a1
e927
0b70
2be3
151f
b2e5
4e18
cd4a
5ada
3d4d
499b
9c9c
471b
4d41
2d69
9347
d5b5
0c26
7dc9
8d38
997f
ea4b
6c11
f53d
8ced
c175
04a1
560f
f9cf
f7a6
3e9b
a4a5
508e
2679
6df1
75aa
cb2c
ab91
f067
4cfa
682c
6828
199c
f2ee
96d2
8d15
ee80
59ef
8e19
6e03
622a
5075
80c0
5ee9
06fb
5f87
86d2
dc27
2134
0543
980e
75ff
fa11
971b
3572
4dda
c7e0
c9bf
1c64
31de
51da
f4d1
0eac
f246
66ab
b2be
c8a3
2c46
b3c5
195a
1d71
f356
a16f
cb3a
ab37
afbf
00dc
5781
d344
048b
4741
b374
1349
b203
2154
6e2f
9200
1bf9
631d
10e8
032c
169e
8d0e
6816
396e
10a4
70ae
bf80
8ddf
2e33
d854
d1d4
2d5b
8dae
5e05
65d0
d336
294a
ad73
d1b8
d769
281a
0f0f
7229
2ca2
8a2e
25d9
23c8
ff72
55c3
7d8b
308c
92bd
748c
cc85
f801
31a4
2386
f92b
34a3
c439
2eff
cdb9
a9e1
e812
6280
4a21
c2b0
ce3b
b6bf
3642
4c2d
86fa
b041
1324
b413
b0c0
a1d3
44bd
ae6f
8b5b
d622
1780
014b
3a75
ec77
303c
826a
df90
1321
b558
75e1
943e
ddf1
e32a
9883
91c9
b9c7
861b
3ed0
09e7
ac39
e118
080a
6178
35e4
9c0d
ada6
b246
3602
2577
9389
3003
b6e2
1317
ffd1
c7ef
7b97
1426
b25d
e447
cc54
5615
b69d
1552
e95f
d92b
7e06
48fa
10c4
b91e
b865
db96
b77b
1b9b
12c7
ba05
196f
5f1e
0cf0
a3ae
623b
c9a1
504e
cde0
9040
da2f
88dd
1c3a
bc17
00aa
4f91
d12e
fe2b
30be
643a
bf60
4856
7b77
f35a
fbc6
5b47
1e4f
1351
c1bf
e8cd
6be0
8d07
6f28
8543
9cd9
a69a
72ca
dd71
928b
65ea
4760
82ff
cc65
dc09
d4ae
16f7
cca0
5bc8
7aaa
3e15
c8c2
a1c3
f730
6bb0
a717
f47b
37c8
47c0
bc5a
74b2
431b
4866
b562
ec67
389d
5db4
9800
c05e
1ef4
bfcd
e630
ea66
719a
2c66
5979
b611
401b
42bc
ded0
c783
496d
9836
e60c
8d04
bebb
d6ce
9ae1
f5c8
6a23
a92f
28f0
963a
c3f8
db55
4ebf
836c
b0d7
274e
781a
1939
4110
ab3d
af5b
368e
e37c
1529
3d47
a32b
601c
d00e
2d25
fd72
f242
4e1c
86c7
1956
cc12
c82e
36a6
ebad
005f
6dd9
818c
f9af
50bf
8a6c
da22
0eb3
38f6
9d98
2d62
faa3
e5e3
bb47
9785
2a3e
82ea
782c
c869
139a
92ca
6138
c8d9
9507
8e55
3671
2a40
281b
93fb
c435
20e1
86c0
86ca
9700
fe6f
6284
4755
da59
f01d
4259
11eb
6c61
5af9
f587
dd0d
13ca
31a7
1cc5
a52c
230e
d976
aeec
dd79
bd93
1505
61ed
34c1
ca7c
9b8f
8a6f
f7d8
035d
3889
1dfc
8d3c
76d7
7024
291f
c8e6
eb71
80ac
70cd
ed98
26f0
a583
dce6
ff0c
4732
078f
0a7d
32ef
6efb
6663
a4c7
f96a
5b64
8953
8ff3
6d16
ca07
4693
83bc
0c63
5c3d
4644
ccee
4c21
bdfb
5a61
97f1
7d50
948b
735f
eae1
09b8
7747
ebb7
4b9b
02cd
9da7
e567
4800
e9a5
7870
3c8c
3a4c
b6af
33e1
bf26
a2ae
0bed
70af
d208
ca52
84e6
d071
617f
9a62
3c3e
ebf6
29f9
b264
a8a1
19cb
562a
4b16
64eb
28de
ebf3
4d98
c542
7448
ae12
b2ab
1cee
8a1e
0f06
402f
bd03
5fa9
69e7
3ba4
930b
e4a0
e2dc
3382
f573
69de
b3d7
87d2
7f4a
fe34
c5f9
3055
5419
0f8e
0dce
d269
d8d9
ca73
a972
5350
12a1
d999
70d6
8ebe
7f2a
bb3f
a217
21e4
c367
12a7
399f
23b0
481b
010c
b595
046e
a874
51a6
4845
8e01
bb33
5f2c
2da9
d0f5
c831
9fe2
6851
a501
8823
e130
64c2
c1ee
12ee
6ca1
0e58
611e
dcde
b4fd
957b
25b7
632e
2c2b
da97
b6c2
9f6a
b4d8
8dcc
41cc
4fd7
b3fc
b5cb
8a5d
50ea
89f1
f59c
2fc3
77c3
fd9b
fa17
d6f3
f32b
3843
2d43
d1bb
8921
5c21
9b02
31f5
5d4f
a1be
ad4c
b932
c5ed
6e66
8a20
2999
3b2e
f36e
8ed5
fda3
9b54
9e78
a490
e001
3052
8d37
ec0c
56ff
8ac6
54f3
decd
7dcd
16a7
2a79
f66d
4a10
baa6
170e
0969
0790
8602
2acc
3079
37a8
60af
5054
f7a6
5af3
dfec
0d71
cfdd
8b1c
0791
e19b
7385
68c3
7c4b
77ca
da92
6b64
08c1
b9fa
1560
e278
24d5
845f
f030
db32
7f43
4a89
1164
1525
8821
e1b3
fc51
5dda
d7f0
9d6f
26cc
5d09
d2d6
d93f
afe5
15f2
35c0
efb4
763f
af9c
c8f7
b6ac
e451
bcbe
7758
2908
2170
d04c
cc78
caf6
ac44
2afc
2297
1738
3edf
32ed
5496
0b97
1e14
1a17
f378
d3d6
6c7d
1b30
8b1e
82ee
8909
3a50
68d6
afa1
2481
8c15
5940
350c
5660
e123
8da2
718c
0adf
8232
4d73
8fee
a8fe
8a47
7649
22ea
d065
467a
da78
6c80
78c2
9b92
05ff
f148
2cf4
a055
0c96
cebb
618b
8eef
dbab
c833
1141
940d
436b
b766
8c91
baae
6c9f
59da
e90d
1174
81c2
a1b9
50c7
40e7
46bc
6ae2
43f1
69d3
ecd3
0172
58ec
f39e
e9cc
e54e
f5d5
0319
5d88
073c
a509
1134
3050
fa71
d2c2
5e09
f0ca
5a96
016e
ef2c
23e8
d7af
fa6d
5191
264e
fbce
1f5b
6325
252b
37ff
9346
8cdb
22d7
c23a
cbde
70d4
fba3
2472
af2e
3f10
fb14
6805
cba5
6547
6026
0aab
18fb
50d2
cfbc
ed95
5c4c
6c05
5514
0c79
16d4
09bc
a9fb
91d0
fc06
e04c
99f5
e81f
16ca
b865
c621
9ecd
9306
dfe5
bb03
46d7
ba0c
7ecb
d64f
d01e
0154
17c3
6afa
7d88
fc09
605d
4bce
a315
b9fd
6a9f
e4e4
2ab9
46d6
acd6
e593
5700
eca3
f3b3
3b95
df57
f295
438f
2e44
60bc
980d
8987
ed2c
e50b
e8fc
fe7d
5934
5775
31d6
4edf
d49d
0d80
cd89
aee4
63d9
c38f
2cde
c988
720d
f3c6
7d1f
7a46
9867
53ec
6e86
8236
7735
6cce
04e4
9182
8731
40ac
a60b
5149
823c
55c5
b43d
b318
909e
e322
a815
c5c3
5a34
43b5
8b3f
67e4
ef3d
9e60
3cb7
b14f
17ee
bc00
f967
a2c4
b3e6
8710
833d
f856
89b8
23c5
aba0
5a51
e8f2
1295
b4b5
e9c2
3740
37ef
7b3f
4479
f074
b01c
fc8f
ed7c
10d4
1465
1bfb
6b96
5701
8859
2395
7c09
2bde
9ca2
5ee5
a396
5f2e
44e1
e9ce
4101
18a9
4fa0
749b
4331
0599
a037
42ff
8ceb
9291
c960
ae47
0454
1b03
1771
ba47
380f
c167
eca7
feb6
3c62
4689
f3c2
fb4b
753f
6fa9
9ac0
1e1a
150b
09f0
306d
88b5
a3c8
80bb
13fd
2116
3e91
6c3a
3aa8
c803
ea51
72c9
bb28
136b
c4ee
6ee9
c02d
e18a
1b24
b402
5303
c144
0e90
eb72
ad1c
b7e8
1440
b7bd
5c44
cb01
0d9c
be48
2890
dea5
98c7
edbd
b384
3861
ac21
0920
0284
6349
fe47
0969
9389
14da
cd2a
bb7e
5cdd
14ed
b3c0
68e0
164d
0e50
1531
7ea4
4143
83b8
33d7
6426
d94d
0090
f25d
f078
cd24
5fea
17fa
df20
0416
4c71
9fbc
28d8
f5e5
0611
78de
51df
acc9
dd05
4867
beb3
c5c9
b0b5
18b0
2383
58bc
0313
b217
7038
34bd
0324
09f0
c86c
f80e
d72b
9553
84f4
8b46
ab00
e386
eb56
1617
70ee
fbb7
110e
9ff2
a48a
9f42
e23b
e27d
31d5
c869
5542
c60c
ced8
9240
1497
c3e5
561b
948b
a666
411c
2d69
f51f
ba50
4ba4
9bc2
7ee0
39c1
32cc
998d
96a6
25be
5b7b
6e8b
06b3
8dae
8d02
f8d4
c18a
8ba3
9c15
c86c
e631
86bb
02fb
0de1
2835
6cc9
b520
24b2
d35f
9678
7b56
ba67
ca9a
c8f9
9a30
17c3
6eb5
1979
a72f
cbaf
6ced
f06e
f9e7
c6ab
51d1
65dc
6f93
56f0
1577
18c2
4682
6e90
53a5
063b
22ef
0dcd
1b9c
d53a
dca8
8738
8eb5
b396
9d3a
3fb6
edf4
992b
706d
bffa
374c
41d9
21f2
afd4
0ece
64f9
345d
1307
627c
8b29
61ef
3f55
b24d
957a
381c
61d0
0421
ec34
d61d
a106
101a
9c92
dbda
8897
706a
ce94
efc2
4690
a5f2
8330
efc3
1245
e042
0d82
89a4
fbe6
3783
207f
112a
ac20
5577
6873
e2cf
bcb9
3797
2fd7
b7d0
5472
5c65
2fe7
de63
a196
2a75
a613
5eef
ad66
fe0b
b471
8f4a
3e25
da6a
7fc9
ad8e
e1f8
2fc7
a7c1
2682
aca5
f07d
4cef
0cc0
caa4
6945
1d2e
64d0
a134
54ee
da87
861d
a73d
3fbd
15b3
ae32
2f86
1bda
7bb1
7ed5
a1ed
97b1
f4d6
3332
5d02
93ad
aad9
7d9a
df98
1d8a
7267
414d
8cdf
052c
0d1b
e6ec
f99e
fff9
2500
8883
a8f6
7595
2e1e
c533
65cb
4157
f7ea
261a
cf09
93db
3d6c
cd1f
d460
8812
3a85
a616
2b77
fed2
ad5e
d517
5641
bc31
e877
e460
fb5f
29ad
3cac
ceca
c766
a320
c7f1
c1a5
e9dd
5e10
25b3
83a0
5f1a
0a84
9684
267b
0791
9dbe
ce45
c762
ac52
22d2
f38b
2a14
8d8f
5abb
56bf
eb23
f575
3f92
4494
2c93
0328
fbbd
1870
c1c0
1975
144c
7868
07f9
4047
e915
d45e
bd83
e276
96c8
a0ce
7073
e3d2
aab5
6fb2
19f9
c74e
1688
47e3
c825
b9f6
1974
bfad
d7d7
2a5c
bac3
b876
fc8f
6d13
a9f9
206e
0ca6
57ad
2335
0bd6
639a
fb7c
543a
d696
2998
28e5
c078
25fd
ead0
f912
631a
3353
321c
931c
708b
274c
3ce7
0b0a
7132
fa36
b7ae
c312
3a4b
0c8e
1541
fb12
fbb2
46ee
3808
eb60
e795
019b
45e9
c420
698e
4944
11e1
7d22
1279
d381
726d
9712
0a41
ce48
3803
3922
52a3
148d
97ea
6b6f
0d0d
2b36
9338
2c5e
abcb
4762
7c1d
0d56
2b3a
59fc
7392
bc6d
48ac
8854
f76a
e7cb
cc5d
38a6
8c65
226a
71c5
d7e5
bc44
3ee3
75c8
9a80
ed10
bfaa
230d
d32f
36d1
21de
d37e
75af
ed42
7d9f
3935
710a
3c8d
d9a9
89c5
70bf
a3e2
b41e
10c1
187b
9992
77d9
cc35
0a46
e182
c29e
383c
856c
08d3
dd1a
5d5b
52a3
a2d9
05ff
5de5
75d2
f71e
730a
8fcd
b664
5c93
59ad
ce38
53c7
6f88
3a99
3b6a
1137
d3bc
f36b
4770
5624
2953
4215
6de8
dd53
e43e
62cd
d6bc
e9bc
96fb
3f4f
bb10
0705
3f0b
fcea
2aeb
e190
94d3
801d
6f16
9929
a380
8c14
8cd6
8c55
f1d9
a2fa
3880
4ff2
99ab
14e4
739c
4f67
e5be
7083
d1f2
f040
d10c
f6d7
0048
5094
2df5
0313
437a
a3f8
5f2c
8851
f50a
e5fb
4a9a
eb29
3762
1292
4738
4dc6
15d3
9846
fa01
dee6
4184
6cff
7c0b
ce7d
a789
d3fe
6634
eb5b
58d4
8a55
91f7
1a94
6487
393f
6554
b2b4
8caf
ea85
65dc
f870
d65e
7700
e886
48f9
2f89
79f6
3983
68d6
c842
5d0c
fede
0d40
441b
0daa
9878
ebfe
8f6f
f6f1
229a
52db
bf63
9b86
89a6
6f73
9982
01fc
465e
d6c3
f0fb
6f78
9d96
6688
b10c
14b5
3d3d
e909
9380
d9f0
447d
b096
47ab
8f49
43cd
195a
c3bf
0c2f
f446
bfc6
9f73
d51d
a9b8
3fac
1383
5d64
3345
1ca8
b176
7d27
cc7d
64c2
94e5
22fd
daf7
6752
182a
0664
7e9e
2809
6c3a
0339
5d5b
c0b2
4c40
9900
5a04
3f17
c6c9
d923
f035
e518
d331
1649
439f
3961
8187
a1fa
ce70
5255
cee3
0f20
131b
827d
0d37
f790
09a2
f40d
82a1
4eb2
9749
a685
e9ae
ecf6
3925
2c7e
bd77
45bb
a9e8
4a6f
4a0a
c225
f034
dbd1
2008
39bc
fd14
5552
78a6
ae28
7bd6
b60f
20ff
8771
a4bf
ccc4
215d
ce7c
647f
8a70
7bf7
5125
f2fa
e002
8c11
626b
5431
d225
4248
187d
e248
f630
1e11
a7ca
5b50
ad15
09f9
1822
b7e4
77af
b2d7
5103
3fd9
e3a0
a478
16d0
d2c5
2a8d
c0a0
3c18
a4d2
36b6
027f
099a
e017
f5b0
b932
55b8
b55c
2141
25f5
4290
e8fa
73b0
5cd5
023c
73d7
d365
4a21
8361
e311
9fde
7079
2cd4
2384
d5b7
5807
fbe9
f6e3
31bb
aae5
152c
debf
cd7e
0943
61f7
d643
436f
47bf
0a41
57c0
65c9
fdfe
80cb
faa1
09c3
4f8c
f2ca
b8e8
f149
88bd
bd64
4aaf
5c89
4c43
0880
d02f
2a79
d8b7
6065
ac1c
57d7
8989
a308
dab4
6449
e516
2c73
3ab6
c6f6
590e
0b20
b0bf
6023
24dd
87f2
5d65
9a3e
b7b2
4884
a2ca
0e0f
b32b
7354
e921
e5b7
1c6b
fe58
d958
c739
bf1a
2fb9
1da3
5e7b
7e3e
917e
0a09
94bc
b079
91c8
1823
9f99
e268
082c
9ad4
3ab6
1108
b803
331c
4249
f3d0
24e8
3936
a76c
1f9f
112b
4041
01b2
7434
7c72
1a91
9055
e008
c08f
830f
fc93
20be
a60d
8fa9
ba7b
8773
473e
fa90
dc63
9478
0c64
5872
f425
3fbc
0b25
2179
f393
50f4
d61f
d6e0
7e6a
a6dc
7362
119d
accd
fccf
362b
db85
1765
a7c5
c082
38f8
164a
ecdf
0252
8274
30ef
b927
c09a
ba02
78e3
cc4e
6a9a
1008
e56a
8afa
ab02
3eca
12be
f887
f600
843f
3d9f
2836
7d34
f458
34bc
8c9b
e243
0967
7f4f
6bbb
2a46
64b5
b6ed
8445
0364
cb4e
2f0d
b5e8
6c2b
2249
43f0
0913
3807
57f1
6a59
39e5
6f17
7210
a5f1
5110
c5b3
7340
db0f
2c8a
ea16
1307
2cdc
92ee
7f3c
33c7
052d
26fc
2341
ec34
6067
54e3
03ac
b154
4aa5
7e32
ba3c
6c5d
bda5
88af
7f1b
ebc1
63fb
4037
33c5
f497
8013
c86f
154f
228a
8d7a
a360
f939
0691
f4ac
ee36
1cf3
a062
3dae
5ac7
b6ec
b303
3c2d
0234
d7e4
ec58
1d6f
803f
00db
03dc
738e
380d
3dad
1992
a43a
d026
d8d7
c16d
c464
45cb
4f7a
61cd
aed4
909e
8bc2
de52
9ebe
a32c
a023
270a
c8ec
1198
995d
fb73
c17b
5573
edd1
9ceb
693e
e0a9
94fb
c8eb
d5ba
cdfd
7d0e
2e65
62ca
f3a5
4ba9
efcb
b1fc
9a4c
340c
7da5
f5fd
4499
8087
243a
05ce
139e
c9a5
0268
d582
e6c4
f951
d9f6
6a75
f6ec
f8c2
6cea
7181
d60a
4462
efda
eba9
9431
084e
d30f
645a
5505
8c15
0ea2
59d6
51a3
98bf
4c2b
f466
9fb9
1d93
ffd2
98d8
ac05
d2d1
2a57
2a7b
de25
7c11
50ef
d2dc
6332
f6f1
5a9b
8053
6f4a
a609
e305
d533
8bd1
4105
098e
ad30
41b2
11cd
cf17
3f2f
1c7c
e829
5a24
b037
7cc1
7c7c
19c9
66e2
698c
881e
808a
6764
0552
d24d
758b
ad69
76d5
b9c4
3bd5
f3aa
5817
7b03
3b86
022a
b9a8
a87b
eaaf
b850
c985
3671
fae8
3bd3
feaf
419f
4484
d408
b675
c1a9
7444
1b7d
c2d2
e8ce
739f
34af
fa43
db98
1184
811a
c509
8504
7711
30ab
ea14
631c
a83c
96f7
7216
19ba
fcc3
2d05
bbbb
4bbc
28ee
5a0d
806b
79cd
9989
a7a7
4692
f09c
1eec
2c15
2b30
e704
2088
a45a
f7ae
5565
f42e
afaf
fdac
c8ab
e057
6ff1
313e
5af4
215f
0f8b
792c
f399
0040
b11c
61be
0233
f4f9
05d7
d6c7
3e7c
f495
c9be
7a4e
f7d2
4cbb
22c4
7c44
f7a9
f0ae
6db3
ee29
049f
6856
a212
7ed3
a93a
e82b
5e4b
37a9
5d96
bf65
7c01
7166
9e14
780a
10a2
5eb2
a44c
84ba
01df
ab80
c3df
addb
3273
eabf
e82e
28b6
5f48
9e43
a5ca
597e
9ce8
7e6f
7fc4
6c47
2ad5
ecad
5576
718b
8523
232c
1f55
d8f3
697f
695f
11bc
1d4b
f6db
fcf4
b618
9fd5
59c9
e0f5
f23b
25e2
939f
bf1a
4c20
de66
d754
6658
e0c3
b1b8
473b
1176
a279
2734
55b0
dbbf
d813
f2a1
e960
d0e2
70c4
6bed
a7fb
1fa7
34c7
38a3
6480
07a3
590b
0a49
d828
7c09
f08d
e14f
e95f
5a44
24ae
d274
ad59
c121
152f
9104
31e6
0d22
a8e3
f05a
4808
0839
6a53
a840
6bd1
b4f9
684b
df67
b6d0
4c01
cf60
0709
83a5
a8ea
b64a
d375
eb06
1970
c0c4
889d
d7ce
5cc7
77a8
3473
9b3c
2a00
1527
1f78
97cb
1ebb
68f8
6dbf
bc7c
7c18
664c
1f85
a5aa
77e4
c63f
54d5
d813
c391
b294
f1c8
fc5d
76aa
312c
e213
bdd6
115e
8eca
c497
3969
6c88
85a6
a814
293b
65e8
aefd
c239
9d1f
1a16
4fe7
0d87
fa77
cd7d
6cb3
0a40
19ca
262f
90f5
a72e
02f8
ca42
5df1
1743
d025
9a12
347a
9cfd
5e6a
305b
be71
bf0a
130e
fde3
07f6
c802
02ab
cbd9
3c75
9b44
1a4f
82de
679e
cd57
0db9
357e
00b5
9228
bd04
1b15
069e
e729
b52e
608c
ef79
f393
854b
3360
ea8f
3fbe
dd95
e80e
2575
2623
baa3
c7b9
e691
a5ac
74ae
df34
dfa6
a11c
907e
83eb
9239
0b67
3837
1ab0
7796
b6f7
64bd
f141
2c4f
1f56
124f
6e53
604d
1750
851e
53f1
ac8c
907c
4af1
eb85
3a73
c6f0
fd40
28ff
9a54
1684
28a2
4728
782b
a8a8
fa25
8df0
dae7
3e22
263d
3715
07bc
2cc7
d61a
bc70
bac8
5997
b93d
db99
328a
37d3
fa06
67ce
8c86
d50e
6ce1
c6e2
e463
079a
bbec
a467
c4b4
0aed
f325
f14d
d6d1
fea9
752c
14f6
df9d
d48e
f06b
b7fe
fe47
6429
63f5
e4ed
071a
36e7
21b5
416f
519f
ce05
362d
9bf1
8449
f812
2951
a78f
b885
2f05
bded
0346
aea7
2130
90a8
c68c
4279
299d
a5c3
9d5e
a9c4
4897
d40a
d4b5
40be
5ec0
edec
002e
cd2e
d5fb
7db8
a5b6
d473
272d
f49b
50d2
bad2
6d59
88b1
da7d
2ce9
2cf1
c6fb
9a74
e5d6
601a
832f
74a2
8f0e
5ae9
b668
8b04
0d6d
6048
c294
1011
97d2
7c83
ca4d
b91d
d09f
4fd3
f807
558f
d288
0614
7d3e
23b2
0ccc
1417
4acb
610a
d8bd
ae78
4e15
a293
47e9
6ad1
64ac
9592
5fdf
2746
2a0c
d56c
5111
ff2f
acdb
587d
56b3
ad55
75e5
e7e6
df80
29dc
4dca
bab1
985d
67e0
efe1
339f
f82f
f278
2d8b
3f8b
f7ba
5c95
b272
9487
1681
e397
7e23
565b
9788
4dbf
4a30
ddae
5216
dcdd
28ab
bb8f
7e0e
dc13
2565
2ac5
4df6
fb61
a1c5
e48c
0dee
e563
af5a
cc6c
68d8
7656
a5e5
62a9
e54a
9f78
99cf
12ad
cdc7
88ec
6825
b238
129d
39d3
1f69
7152
4de8
9d89
a161
ef86
4c8d
09e5
a212
22a3
3002
177e
94e5
c79e
bb9c
82cf
0772
f1ad
7f78
ca95
4e1a
22ed
d1bf
ef97
e48b
b9b8
9a22
dee4
e8ff
6beb
2e51
88c2
555d
0099
78e8
7b8a
8661
76d4
8d9f
bb4d
532e
29c5
2a67
8a23
e390
504f
1174
1587
2012
2b30
dbf6
b635
7740
1981
af68
3b68
c1d3
2731
3fcc
1fe6
32ef
9c93
d7ce
5fff
5385
aa80
f0f5
0e2f
923d
fdaa
ecdc
7eb4
be43
7b44
4402
1a7b
1636
f573
7d74
bd0c
7a4a
e3e9
c72d
f652
2f28
1538
819b
ff51
bd89
d2a5
1684
d95d
3f05
2fd1
0288
52b5
ac13
96b5
8333
1ac2
4407
9448
8d23
80fd
7452
2cb9
c881
b7c3
0190
ab54
ba57
4c44
f340
379e
c6bb
45cd
8db8
f5d9
71fa
76e5
0767
5ecd
49b8
5e8e
68d4
5ad8
d3f5
b995
5700
a0ad
223d
4c4c
a517
417b
0cba
9d96
8ace
627e
fffe
eea7
5ca8
5bd4
dfe8
79d8
e692
a1ba
6618
d034
d1af
9835
5881
d8a4
dad2
adb4
7f0d
c63d
0143
f271
9fca
2787
fd49
125a
e003
61f5
d209
e575
dd58
1d73
f225
561c
8d75
60a8
800f
b1f3
5494
5cb7
168f
d731
af64
b06d
a577
271f
23a7
cdb3
1324
8343
e701
d7a1
2573
8a07
f300
22e8
e421
8bad
adbe
ade5
50e2
c6b2
3cfb
d1b2
7f2e
fb25
f34a
1c34
00da
83b9
1382
b0a9
143e
2bc1
52ef
489f
c1e3
8cf5
7116
30f2
ea5e
7027
61db
1eb0
2983
e186
f43b
d47c
6c28
7143
6648
fb54
823e
6520
bc4c
9591
42c0
eb73
d53a
7199
71e1
3c96
5a02
c515
950b
0fb8
9671
dbf1
e1fb
6793
5633
1eeb
2955
6965
5908
9bce
1b81
8b04
cc52
7438
64c4
b11b
dd4b
423e
51b3
2d84
bfb7
9b7d
3328
98d5
e224
311d
f07d
eca1
95e2
2c4f
4116
cbff
236c
10a0
a249
e46d
0a63
008b
909b
677d
e1b1
e901
6721
3fc7
6e4f
6cf7
096f
7cd8
2b3b
a54d
b858
b748
db2f
546b
ccaa
d278
d921
c393
1c53
f345
8161
b147
634e
ed12
e9b6
fd0b
dba2
ccee
4e43
ad6a
06cb
72dc
e80a
2cba
f8dd
d6c3
7ec1
f22f
87a5
3b34
517c
facc
4c92
0f31
d3a5
8df5
36ef
9f91
4029
f03a
173a
2781
2157
52c1
8750
2416
3551
effc
8e96
b840
2efc
87fa
4223
051a
53fa
4257
e99e
6553
ac2c
124b
253b
c169
7215
99b7
6c19
7eed
5f76
df73
f619
a0b1
eb1d
6385
4f1e
5513
09e0
2285
8a43
36a6
67cc
a3c7
7b59
f48f
63d3
ac59
b8a1
01c1
915a
d713
9dc1
ae30
b1b6
34a3
32b3
9dd8
784c
dc96
d69f
fc2c
fca1
50f4
9f48
7d87
b52a
f0c2
288a
2fea
83ca
f88a
07aa
c5da
d166
a640
cde0
a5f5
b598
8caa
1404
881b
a9a0
1108
1707
329e
8504
409b
6d50
8e19
d6b6
265c
cfa3
3d21
95ef
bee8
adab
3410
c865
3d40
6e09
a4cd
0254
5d01
3a6f
1daf
a87f
8722
8c57
fcdc
d457
4530
5b57
8418
eb60
85f4
00df
7a56
0dbc
21c3
3741
be2a
2226
9643
df75
bcf6
4479
55d2
9470
8f28
a16c
3540
4255
0179
6ab0
e089
bc9e
533f
b024
d245
7950
4c53
6462
1b0b
0896
0aa7
0a37
4a82
ebe0
08c6
6a3e
1254
0658
7a32
8ba9
21b1
849e
93fe
92a8
431b
5bec
6a4f
239e
45f6
1f96
af2d
f72c
746b
db4a
31b2
525a
1bfc
06a2
0399
ec54
771c
7e10
d982
950c
d0c5
3f9a
e4b2
cdfd
31ba
0b31
eb9d
59d0
0082
5940
daf9
814e
73f0
4922
788b
85ca
f47d
f6bd
6fa7
ceb7
3ee3
9e2b
76cb
df96
0548
2e90
c240
9e97
09a8
6437
898d
2959
f24d
eea3
34c7
f151
7be6
74fa
1eef
de4f
754e
d45d
fa06
b4cd
6d24
651b
b6be
d9d3
cbab
0d37
0307
f910
e5b0
94e3
1640
aab5
2ff2
d898
31d5
de0c
1a3f
4f77
511d
dfe6
8407
742f
dae5
66b2
c93c
6aae
da67
c70e
361b
45ab
fe4c
017b
e301
44c8
5cfd
ecf4
ec4f
2865
7e25
55e8
1e05
598f
b256
19b2
40a2
530f
89d3
84d8
4f24
dcb3
fc42
479d
00c6
de25
2c2e
7a9f
5515
3aca
c99e
a472
a679
6920
dab8
845d
d97d
1d32
138f
f63b
dc22
7c5f
43d8
5978
0010
991b
79ce
07d2
e847
215f
f3c5
8493
2d24
e899
280c
0f18
9a76
dae3
29b1
9737
a1ed
0eb6
da9c
8e91
163e
7102
9c31
ad12
82bc
7240
a428
3f8a
6176
0ec8
0ab6
715b
8d29
88cb
b542
8e9b
bcfc
78a1
60ee
5f92
6032
c2c8
9716
bb6a
226f
6392
1bb8
2e69
079f
6271
c41e
946b
0762
68f9
3a7f
8727
cf50
3db6
2b2c
735c
aa3a
8c16
70c7
1c52
153c
05c2
76e0
5cae
25b1
dc59
5d29
9dd0
0e9d
872e
a142
ca55
011a
d4d8
8b70
6711
cf21
ee54
eeef
c471
0664
c01f
cb92
406c
7eb3
c8c5
d8bd
ea6d
0e8f
5dfc
08d5
a812
b8d0
0473
2d00
576e
c358
7786
e427
d94f
4d63
f083
2000
d384
762a
49e1
7109
1a15
b8bc
77d1
b83b
3f28
67f4
03bc
6273
6557
00fd
9631
2c92
70da
1115
e679
816f
f815
f8d8
0d34
0d00
b299
2fc5
59a4
edf1
6d9b
8265
c446
f2fb
2e44
ca3e
ea81
a188
11fc
74b9
193a
6900
be2f
450b
4819
f50a
6d8d
9c53
0c51
6808
89d6
4129
febc
b6da
e0da
5e41
fd4a
3c50
9d07
3790
5de1
6e0b
3510
852b
07a5
695f
5675
8b3b
ac30
93c9
729c
e58c
6e31
44dc
df50
e4e7
adf8
5bcd
f272
b8c3
40de
b6ed
d0cf
0451
0a03
1c18
ace6
e2fa
c93a
64f0
d9f0
ce9a
d868
edaf
b671
0fd9
c805
468b
1fce
3808
1f78
5cb6
97c0
f48f
3a59
3d78
175b
d5a0
038b
2579
aae8
f7dd
ec92
31ea
a0ef
2725
6296
8647
ffa0
2234
0a9f
7338
6047
d8c5
72e8
1767
a14f
c02f
a51a
0432
be75
d2e2
22a5
1ffd
7d76
f6ce
fbc4
3562
2da8
9f5a
06e5
53c4
8ad1
bc45
a952
0210
5acb
281f
4628
65e3
3af6
3cdb
f6ed
2a10
1617
6981
44d2
baec
95b6
c6a6
be6b
2eb9
0b75
4682
1d3d
8d88
b860
3343
3813
aa4a
d337
8886
6153
7779
a548
6987
c783
28f8
8346
9c5a
67b2
3aae
8d48
