e492
ce4b
bf95
4011
5251
69ae
f8d8
8dac
eb63
8f3f
475f
47cd
4896
bd6c
2061
be5a
655a
b954
7c09
7be6
5eee
ace6
ed6c
c883
7db3
2517
14cc
9689
f8dd
16fa
5c93
99f4
6b99
a16c
9a77
400e
eac9
048b
87c9
500a
d2ef
af4d
2695
0ad4
05f5
9516
4ca7
8193
1d2d
8fe6
c916
7433
bd2b
d0ab
51dc
3f9c
3064
5f28
5b78
3eaa
afa3
8d26
0fe3
c547
4042
803f
cf31
89fa
d3b1
c893
5b46
770d
60e2
4d1f
ed8e
accd
6769
6a49
d0f7
9ccc
a1a0
9697
26d8
2750
49e4
9bc4
4d0a
26ba
1478
25cb
5122
ead3
4e3c
373c
8a9c
eb4a
bbbd
c38d
2adc
f460
ba4c
4c28
9f74
89b9
0173
ba4f
72a9
3a94
0a3c
445d
dd2b
4abe
cc89
3909
3f52
f718
bd71
532e
98cd
86e1
0bdf
e5c3
e315
eeca
de82
0ce0
59e3
6639
6345
4d95
8a61
e4f9
3a21
ddb6
f893
3395
1adc
3bf1
b469
8227
e9a5
6464
19b9
7457
e06b
0f78
5f76
ba08
5efc
64a3
17ec
5c60
9ab2
96e7
1eb5
3813
c982
3760
6a14
4d41
46b6
ea5b
3942
7ed8
fa52
5888
1253
5d92
9099
06c2
9099
f651
48c5
f73e
a5a9
639a
8492
069e
77c4
e85f
b879
f518
7b80
0683
bc6c
1e83
461d
f3ba
91f6
e26b
ef72
7025
f104
af98
246b
aca9
81ed
500b
8b74
2a43
8810
48ea
2b40
327c
c1eb
74c1
ff30
4831
7792
69e4
2ef8
aaee
e1bd
9bfd
647f
8fec
1dbc
8d04
95c5
1741
b3a3
fc52
f870
3c14
d778
28ed
fbb8
d9ab
3105
980c
b3f2
ffba
7dd9
5e37
a5c2
7d58
38e8
9912
ad69
1a6b
ef8d
6efc
8ceb
ddcf
cd79
12c0
2af9
5b43
5c20
f2a7
d07a
3b24
8c02
43b8
b10f
5ad7
4e22
f3ff
3e82
6b03
6273
fca6
9ed3
5400
281a
a1f3
14cb
6340
d880
f117
fc3d
bff9
1264
a8ed
3add
a32f
988a
056a
275b
850e
851d
725c
a5c7
1b9f
a161
38e9
5e6a
533f
0f75
d684
62c1
53b1
95a3
d2a4
d3b5
2d52
c5c1
ddd9
507e
d731
9385
80e9
f8ba
3b56
8b3c
fe82
ff49
e308
e89e
1143
f880
7708
db22
ae33
7c6b
c3dc
654a
622d
f95f
21f2
e9cb
c1b3
4622
db42
2ff3
3cb9
434e
d854
189b
04d9
a871
d721
5165
daad
98c7
9d1b
a3bd
92bc
022c
2e6f
26c2
b0be
26b1
cae3
0b32
d6f8
6924
01f5
25dc
302b
00cb
09a0
1f66
db03
d8d4
ece4
80d4
2544
a229
c89d
ef89
3d73
74a2
6fef
be7b
42d2
dda1
a86d
5515
8f38
cb95
9cde
180f
d271
02ad
3640
7b0d
1fa6
50a7
4bc9
462b
8e32
2947
299f
484f
6f61
abc8
5af9
1488
850d
78c9
f5e5
16aa
7efc
23f6
fb94
3774
994f
0c34
1e4d
e277
f0ed
8e3e
ba9a
d9ee
fb29
c143
88df
c94c
fa02
abcb
09f5
6166
279f
ab0b
ace4
e071
3f29
75a5
6b0f
ae2a
9611
a828
aa9e
a48c
5932
b2a7
ec61
a8f3
0623
f963
aa64
7836
5860
7d88
7ace
d30f
2aec
8f58
432f
f92d
53a3
2e42
b105
e572
a363
f46e
408a
3d02
882c
bd82
e53c
eb4b
a5f1
d4f4
e803
d024
84bd
b83d
b0bc
b3fa
5054
4aae
b2ff
dec7
f86b
c784
42ed
df55
3db5
870b
01c2
25ea
e26a
c15a
6cb6
dc25
ada2
2e13
7b36
af18
87ad
b66e
df58
05f1
53ca
56dd
58dc
f7d4
0bf7
2dac
c19d
6634
54ab
4a0e
b990
d5c8
b8b1
74e5
d41d
2483
42cc
7d73
6f7a
54d2
1ede
c8e0
b611
1ddf
a6c4
9aec
1bf8
718d
cbef
350e
2aaa
08c5
66db
91f0
0b84
cbc8
6f2e
fa5d
c908
8974
488e
8bee
809f
5007
2337
9068
0af1
2641
6b36
5465
e26a
1eb3
f95b
3ce5
60f2
aa4e
1735
ee62
c46b
b7cc
3e16
f4a2
d8a8
8483
f735
5299
b748
0d92
6b87
92e0
e243
b62a
ec8d
1a27
6dd5
c255
d07a
6e43
f8f4
c442
ae45
3127
2124
fec0
94b5
a12b
1eae
a253
45b6
9b0f
4661
a12b
59c2
008c
78da
4c0d
5a71
85f9
da2f
de47
e00c
21d8
0227
9fe2
c175
614d
2dd9
25ed
d8d6
3b9a
fcf2
9be4
d745
3d89
21e2
bbcc
8bb9
550a
4904
5fa2
9412
dde3
47e7
44be
31c0
991b
dfd7
1b88
3367
98e8
2e0c
88f0
7151
6b1d
5d0e
6243
da9c
7a91
0437
bae2
e837
b743
4723
77a5
d01a
88aa
661c
6dbd
a34a
2356
bf4e
0a4a
3847
d4f4
da63
c9a1
b023
23c1
a994
43f4
5f14
0209
dad4
95e1
e883
a095
8b90
13bd
01f3
23a8
a6e6
df1b
2f17
5ed2
1adf
adaf
c7af
df23
9388
5fb1
5535
d5ea
80ee
0572
fb62
9b01
97e1
2f1b
2ad2
8262
df16
97d8
ff25
80b1
7e3a
d73f
e3de
a749
6792
d8f6
b324
6e8e
7c06
cf6d
3f62
4e80
02c7
bb58
8328
a9bb
5b27
56af
1dbe
f6a2
89f9
cd2a
a553
2c89
3467
a012
1093
955e
bc5c
e5e9
5bfd
666b
5798
7cfb
a903
21cd
f4b4
c274
1a94
8eab
d807
2698
17cf
1276
976b
2d1d
0476
7799
3dc9
bd75
cc5b
ce9c
0549
1361
7c0b
0914
2a14
9b61
eefb
511c
b39c
78e3
4ee4
e292
6064
50d4
bef3
e98a
feb4
789b
248a
6703
1c1e
5871
03d5
4de3
28a2
3e79
4ef5
c089
0847
7012
aec3
e359
a74b
3c86
b7f8
646e
ac4d
0a89
2aae
7b09
9cad
4a86
f5cc
9b44
e09a
1e3d
f17b
15a7
caf5
14de
57e6
a150
38b9
fbb4
45c5
bf9c
7d9d
4d94
2250
03ac
00f7
daaf
62c2
a586
7154
d00c
33ff
3155
fbb2
1bdc
a44e
2b1d
1dbf
d62a
3484
4f51
f383
8e6b
5fe1
2a71
72b4
8970
dcf7
3f50
b07c
95a7
cea9
ec85
c61b
1c81
8b92
b591
ab7c
5826
3986
c632
301e
7092
1770
07a6
b402
fd44
f943
312f
3e37
d0c6
8615
1f9d
b6d5
422d
dcc9
f14f
de7a
c6b3
4f6e
5f43
ec71
186d
90a9
1ca8
cfce
dd11
5def
7666
204f
ee52
20c6
852a
33a2
e163
a705
6e82
9364
5bfb
eacb
1705
3f2c
32fd
2d9a
2dfb
2734
ae76
1253
fd3b
1075
3628
566c
b660
5a8f
d173
1dbe
2c72
1bf2
1708
77af
f1fc
e3b9
817c
ea4a
32c9
5d95
eef9
f58b
9635
b280
6dcd
38dd
b6fc
188c
7c45
1f1d
7781
24db
d6ee
a5d2
bde2
d27c
67f8
8a5e
052d
450e
7913
7e66
3fb7
7a37
c404
6fe5
6e57
99a4
49ab
536c
edb3
6fde
ecff
9f15
857c
03e0
b768
dacf
0276
0d5e
a5c0
dec1
3281
d90d
25c0
57bf
72fb
9210
450a
aca2
6171
2c6a
9a2d
7c6f
a463
7ea4
3471
c7ca
8784
8403
3ab0
1f77
82bd
e8ba
4990
e895
f274
a361
4c98
8e5c
67ec
52ec
7ae3
da40
8c3f
1e96
714b
8d31
3ae9
fb0f
3408
698c
c620
4885
9fe6
24bd
1516
29ef
cb17
8075
9cb7
082e
77c3
9b2c
c713
278a
f550
7f84
75fa
9184
90d6
a3c3
9dff
b88b
1300
7763
a322
d9a3
a5c3
a4e4
d6c2
7e77
2185
3090
88b4
4ff1
cbfd
cece
9e69
9f24
ca97
42b5
4c31
8717
e263
7a1c
66d0
422d
4923
bb01
b129
a090
c47b
3976
cc34
24b0
16ec
bf64
3714
248d
0421
eca8
ea8a
8f6b
a3b8
946b
b7db
37c0
2aee
d472
97ee
af64
d5d2
2791
8e29
ee73
8d8a
fbbf
ee91
8fd4
daf4
f068
8249
5e29
0235
728c
7230
1f8b
a7e6
b639
58ac
030d
0e0e
c972
259e
1954
895e
fc38
7ebf
2636
eec9
4d13
4144
7601
25fa
2504
bf77
0477
0c96
6dac
2768
cf2f
1c02
d9ee
b0a3
9482
d664
5328
1281
89b5
bbef
5324
5623
8b6a
a062
0cc9
6e4e
46d9
0284
623d
f3eb
7b87
d12f
710f
ab8c
56a1
8247
c3ef
1c7f
eaf9
d048
1530
874a
cfb9
2a00
140b
5831
b7c6
15c2
9ec5
ac48
1801
c98e
ea40
36f7
1216
9ee4
a7fc
4f1c
27ef
c109
c5d7
86b4
9102
a114
0cb2
0ba8
ce10
5ff9
1738
236e
09d7
882c
fbf2
ea33
72d8
b4e7
1dc8
b46a
14ff
3fcc
ad0c
0f7f
9d8f
a285
dc45
2e6a
f95f
32c8
97fd
5407
f62f
d30d
7e8d
5f76
0e52
9121
cb43
105c
09c0
3f59
4fdc
5bb5
623f
6b5c
e389
1f7a
5ba8
3f78
d1af
80ea
50e2
51a8
fa25
b783
4ba0
855a
dba5
713a
cc87
a1df
de81
25fa
4357
505a
1265
2d32
9491
b9a1
97d7
f547
01f9
c688
306f
a2e0
7ed2
92d4
784c
d20c
ccdf
7184
5ea1
404d
9514
65b9
9cec
f1dc
e9e2
1f38
295d
79e6
5955
89f1
2b99
ad9f
7aee
db41
6458
2545
61fd
3b0a
b1bd
f98a
9ebf
28e9
fa56
e316
6b9b
edb5
2a1c
9eb9
c412
1188
2102
8724
dd12
1c69
a54d
007e
05de
c908
ab2e
af2a
e032
313b
e36b
6a7d
e84a
7594
afec
1f71
8551
28d8
47c9
f2ba
8335
6f95
d449
314b
8d0e
3299
9454
4be9
8789
c601
a7eb
798a
6fd0
d848
d815
ae0b
b53d
4842
93dc
f55f
fc76
49c4
8c86
399c
c257
56fb
0b44
896f
39c4
2dd9
79df
3483
be16
9945
c252
b87d
f13f
d13f
9807
a96c
0882
27c0
8730
c577
e12d
695f
84b9
fbf4
9dad
f48b
9809
7c2f
03a7
c3a2
15bf
2a16
c74a
84ab
9d05
af1f
1947
c607
7758
2ad7
4342
cc70
d098
a82a
7ee0
630f
8e26
90cb
7d02
94f0
f8a8
8081
8768
1e94
b89e
78b8
eaaa
d52e
7aa4
317e
6162
eb7c
dd9b
2286
cf54
2b67
10f5
1e39
b9d5
e740
4151
3fb6
8ca2
da7d
0146
f8d6
0b67
00c9
fd25
14f3
5a18
db30
ed6f
0687
94d4
f73b
83a4
6901
6d54
5b95
93b8
0992
dd64
5130
d067
db71
1d7f
90b2
ef2b
f297
716d
7dc2
e539
9c45
8818
c090
7653
33b1
0844
ddcc
b41d
a8d7
56e8
5a3b
758e
ebdb
56e3
a45c
c7e3
9600
170f
c863
f069
f21e
1fb7
9de8
2354
108b
219e
ca03
a511
4e9f
28cb
3f82
6643
1fba
e906
8e3e
a36b
2beb
c3e7
fa79
c5ae
c432
7231
47a6
38be
4c8c
9bb8
c04d
c949
cbf6
7d02
82e0
f930
2062
2e4c
4a57
58f0
0566
f300
435d
942d
b7cf
a410
034f
efba
dab1
30bf
9f99
5953
679a
9d7e
1bc9
35ab
9e4e
afa9
ef53
d609
a3b2
f026
a8fb
dc24
5294
0bed
2cf0
2d95
8781
51c1
044f
85f4
4915
5564
63db
012a
2f39
1720
b63c
b573
4de9
eb26
1244
8d29
43e1
9d33
d812
c5e5
dfba
eb23
d633
4fbe
f712
731f
1267
1836
da66
c611
d7ff
a608
0ca7
088a
d06c
11bc
3e8b
5925
4ec7
8a2b
96fd
e251
b636
73b0
2bce
0657
59b8
0082
7fd2
321d
eed3
67fc
5695
40b1
9b43
d8a5
52cc
3798
5f5b
67ec
d0ea
af92
1930
e2c1
866e
c756
a67a
6dc4
35a3
2ca3
16dd
47af
8487
3947
db5b
cd95
0d17
9c58
930f
5206
1c63
ec31
96f0
ce20
6bad
d6ac
0980
fa58
6613
6af4
1f42
1d18
6833
1302
0775
030a
522a
8478
857d
2041
0826
e47a
1136
9d96
6168
3206
b873
bb7a
0afc
c310
5bac
f712
ccf2
f82b
47a6
5b99
6c96
68ce
9adc
ad21
0fa5
32c4
06b4
96df
709d
c2ae
69fb
39e3
41c5
09aa
79d3
62f4
d35b
6ee3
376e
a32c
44a6
4ea8
b64c
19e5
0504
766c
ffcd
c86c
e82d
aca1
9303
d1dd
7864
53b2
9351
ee4b
887e
4bd4
d443
29e8
6a23
595d
0f8a
2c41
894b
5f49
8f48
5ca3
9570
094d
c8c5
3ec6
16b8
82bb
f034
c827
e208
afeb
9a76
9b79
916f
4e3a
4c29
82d1
2f73
8e60
3374
ce14
110b
c35f
6ea5
c28d
4e86
dfa2
1491
55b9
8509
9a64
7aaa
d5b7
1940
56b0
4e04
c9c0
bb5b
9bff
9d89
37b2
10b6
cd3f
cf8c
e806
2951
106f
8731
c09b
db2f
0862
5b3f
7d9c
88d8
d23b
f912
c533
bd86
a08b
2776
41a7
1397
dddc
ba3f
bef0
4991
dc99
32d7
ed81
e71b
c57b
91a1
8a17
b225
bfa3
c85e
366f
5a8f
7894
24cf
ed7f
89bd
1d66
5d04
cf2c
7142
1631
1cf4
cfc6
f681
6788
5a2c
6502
bd5b
7451
95eb
cc17
2287
8e14
e34f
85cb
6da6
a1ca
bfb9
71c9
cea1
bd29
cadf
71e1
619a
91ab
1f28
8bfc
c766
fad2
4c4a
f83a
ec75
77dd
f9a4
4a18
b68e
2630
8340
ddfa
8b76
4ae1
5c95
ff85
2057
9154
1b0f
7599
08de
c466
a8c0
c91b
f2de
639f
d73e
d887
1a40
ba1f
294f
bc57
8466
02c5
bc26
2de5
f394
294c
7510
0323
391a
5173
d560
001d
8a7b
e0bb
ae7c
af6b
65ac
f679
2910
05bf
502a
f7af
4f12
3eaa
ec09
53ef
fcb6
062b
29c3
de8f
852a
9cb7
0533
eec8
6560
33b7
285b
1892
d7ac
6090
f45b
21a0
db77
00eb
3898
5480
e35c
461a
da13
6388
aad5
74cb
77e4
da05
cafc
2e5f
e535
cee0
4b6a
b18f
be61
96d0
a253
381e
1996
dc9c
38d3
5c06
28be
b7bb
8c91
df04
a0b9
e434
9324
9903
017a
a89e
9654
7427
009a
67f0
0556
d22f
4197
5710
8e7e
6e60
a8a4
b7f6
7771
edf2
69eb
c98f
b7fb
cc63
5c14
4582
c5b4
49d7
351b
6037
b4b9
65a3
7f95
9d20
553d
740b
6780
812f
408b
3845
4b80
5a67
f7e6
ca5c
ee18
685e
6d4a
7492
7b53
cc5d
0efb
e28d
9abb
5b08
a27a
60a6
f4bc
4359
ef47
348c
8871
d0a5
2dd2
0686
6154
ccea
7c7d
bacc
ecb3
d3fa
b400
032e
345d
63fa
432c
a9e4
9e9c
27e4
d3a5
b7a2
1c98
8131
4560
b264
6411
9782
2951
8650
14bf
7981
a9b2
b6cc
ff4c
7660
425a
265f
d127
4d2c
29ff
e158
2670
3c4a
4dbb
8bb9
a8c1
fb0e
bf54
df0b
1476
6044
fc77
3bbb
d41c
2d7f
295a
0c53
3650
affe
72e2
b4b2
d523
879a
05d1
d1fc
044a
db2b
2e6e
29d1
b635
cca0
15aa
e8b4
f0a5
90e5
b6d1
4b5e
e299
e105
5b55
d288
caa7
b3e2
19c5
0815
404e
70d5
d393
1676
779b
18e2
9719
2ad5
0e19
efd6
7c31
fb71
e2d5
213a
d09d
acc6
a0e6
809f
b3b4
ca6d
afee
5523
5ae5
7de8
cc38
0f6a
8ec2
d7cb
baad
4002
b512
bb6a
374f
25ce
a7c5
c531
3691
34a4
85e8
09a6
45b3
074b
59d3
5017
2e30
4a83
7d13
d1e0
ab75
9c6a
bd6d
1993
66a1
0ccc
9a16
8f5f
eada
6b40
7244
cf14
7d2a
9a41
d68e
8b18
010e
d87f
3c94
f148
416e
b903
1d47
4449
0ea5
c0e4
b97e
8c8a
3820
bcf2
95b5
a29f
a26b
37d0
83f6
f46b
4a15
6ec9
755f
c021
c381
e1f6
9455
b442
42bc
5bcf
51cc
425f
669e
e1af
6a88
5739
d881
2a21
7e62
f751
e128
217f
6cd3
7df5
fbd0
674c
810f
c508
1018
42ba
497d
5421
4477
6dd3
e0c7
a997
4190
de57
6569
0cd4
18b6
9d63
a57c
00fb
d3b5
cd60
85b4
68ab
950a
8ddb
9484
c16a
d076
1c7c
8403
5a42
2e87
cd87
2ceb
6a43
9be9
036f
124c
29df
e99a
a636
9c21
21f9
b86a
c433
e9d3
ea8a
5ef9
fbbd
cec0
c916
1ee4
345f
bbad
12c8
fae0
8189
1af2
c042
ddb0
6b79
5a67
2af0
2e19
d4a0
9a38
5f8d
dcff
4067
362c
8e7c
4d9f
ce6f
f5a7
b5fd
89f2
f10d
280b
b20b
97c0
69a1
e180
4611
fcd9
6551
e0fd
1c13
ff35
1f19
760a
5c85
4b22
56f9
93e6
1192
d982
93b0
e20e
947e
241c
61f6
6079
42ba
2dd7
04d9
2bb1
a9c0
c4ad
0dbe
07ec
819b
1b26
e365
cf3b
0296
66bb
82fe
5869
ff16
e3e6
4927
c123
5d02
f2ad
9306
6210
12f4
ddf5
3b62
5898
34bd
c56c
b19c
d4f1
36ac
7ebc
62b0
9900
3ca6
f08b
d80f
2998
aded
5e5b
59b3
0fdd
1483
10e4
b718
8220
ed50
6e31
d582
ddf9
77dc
6f97
96ee
8a5f
98da
0cb2
e8e2
9085
6594
8ca8
2af2
9eee
79f1
9a7c
ee81
bec3
aa28
ce8c
7448
6e77
d2bc
638b
9597
7487
1922
21ba
b244
69f4
94ce
19e5
bd3f
0bee
1b2e
f675
575a
dd06
d139
8b03
29cf
7576
bd11
cdf1
082e
afbd
d40e
084e
425b
b65c
c6d5
f8ad
7444
7496
b319
909f
f90a
abb4
c0ce
f65a
45d9
a1a9
b273
e6c2
2afc
0054
eea3
561c
a788
2800
5739
6278
628c
e40f
5b00
ec6b
cdef
508a
36bd
7f85
2d94
a85e
73f4
d85d
50b9
154e
c61c
23d6
1a31
7b35
20b0
6c4a
b4ea
7d83
cd53
b7e6
51e3
a10e
e15a
e448
a3f7
9140
fc9e
d474
2168
8cd3
2d20
e477
8e36
8636
a82c
c16c
2f86
0b37
e913
eced
e188
8c09
61b6
abe7
c0e7
319b
fa9f
5c97
049f
9274
05ad
685c
03f4
2817
81b8
d972
fcf6
9502
022a
f251
efdd
0226
c5d6
1d2b
5d7d
395c
95b1
e45d
7b1e
9f41
3bfa
0976
1166
bbaf
e15d
c7ee
c6a6
cf76
92ab
02d8
3f9e
8173
d1f6
6cca
bd1f
bf9e
2a6e
c1b7
99a1
957d
fad6
b02f
5a0a
b65f
bc90
a401
efe6
c448
bda8
2941
060b
e23d
ff47
022c
39ff
0872
583f
fab5
592b
048e
e742
b139
a2fa
8c69
f697
06b2
d802
ed6c
0de8
7f21
0fb8
775a
d5d1
6957
4e32
49a4
531b
bc3d
6058
3fca
0b20
20b9
e810
56be
bade
7718
ae5f
1afc
0f8c
7e90
3cdb
96e9
c529
7704
b69f
86a6
a57e
f424
9952
a124
f975
d573
fb5c
aa5b
5c20
ec9d
27d2
0296
4710
9cfd
88fb
f05a
de78
6fa4
2b16
71f6
daeb
e9ef
9712
33d4
8c96
bc9f
4188
aa4a
93ca
3bc0
6cc1
67ad
fbbf
6697
4dce
9012
893e
4750
876e
dca9
d9af
2dd1
8555
ce3b
cb00
2bcc
457a
cb65
ac56
b8c2
5663
73dc
ccac
a879
9693
29ee
d24c
a0e8
ef11
be49
21e8
b374
8040
7a2a
a7ae
42c8
2200
2b00
4a6e
fef1
9d67
99f0
0074
d152
e252
2006
0eff
c0aa
0315
7432
173e
cd7d
4f4c
9ba2
40ed
91d4
a3e9
ca26
2c9f
998c
ac97
efb2
cf9e
4f2a
8328
7112
eca4
8653
1854
4d83
b612
8a31
f77a
029e
1cb9
05a1
fd27
9eb5
acf8
fd2b
0aa5
12e7
c729
450e
aacf
2045
6390
86e1
79ae
e947
065b
6c2b
8841
d445
7a30
5b50
f81c
a9c9
fcbd
0ff9
8fe4
855b
8590
94c5
91c0
6507
972d
ab78
b07a
f0e4
b090
df71
c658
51b3
55bd
5cb6
022d
c098
fe1c
6902
822a
39b7
36d4
c1c2
83b9
8594
b5a3
149b
dd1c
6380
8a4a
80e6
df7a
d497
14d3
7f54
ef1f
6c7c
d701
2213
712d
4e83
04de
c798
41bb
6da8
cb64
5790
bf60
ecf4
4baa
b99d
8643
4033
4577
2f57
ade3
dd38
3ca9
f2eb
a91b
def9
d794
2a54
bb3d
1b9a
c40a
70e9
3547
55c4
b2fc
2e55
a62a
1301
70df
0769
b99c
cb12
9163
7dfc
ae3c
014f
69ac
d2c4
9043
2e7f
f885
6fc7
3491
d8b7
7025
08e6
b786
1c54
bbf3
af8b
c6e5
320d
072f
6efc
3315
4beb
bfc7
7a29
22e2
adfb
c3ca
40e4
7e01
106a
cf5f
5340
52b8
b81d
3718
8e0d
7fd4
b805
30dd
8dec
748f
6301
767a
e039
9506
045d
8a77
dc58
5880
76da
694e
2ce6
4c23
4b13
29b4
fb36
41b4
020b
dbf8
3ba0
f13b
ceb6
6ab7
554d
9110
ee29
aef6
8434
6bb5
4279
b95e
1387
d8f1
2522
46c9
d571
436b
c1b0
4634
09c5
2233
5fc3
b138
1514
5604
2107
7070
8f47
f877
c78d
f7ff
8272
6699
ece5
72de
9b92
2ca1
d604
e003
2fc5
27af
4823
4385
0100
1a63
0756
461a
385d
037f
6d4f
5684
4285
36a3
6d3d
0775
4ab0
2527
104b
588d
11e9
309e
39dd
95e0
315b
a9e6
c55d
1920
6fae
26af
a0fa
6e8d
61b1
a9d3
94ae
6a4c
5424
c95d
87ac
2c39
a7eb
4eb9
9f5b
a510
e9b3
0a08
aad4
441b
0de5
474c
526d
a491
516d
79b1
d21e
55bd
22eb
ec2b
38ef
dc4f
972b
e8f4
327f
dafd
5e5b
5521
5391
17f0
6ba0
4694
d024
85b6
8b4b
3142
62d9
7dff
eef6
22d9
b30c
ac5a
b627
a7a7
0e53
7531
acf0
a474
7ac6
c8fd
b67d
0d75
c4fa
d929
4a01
581f
678d
df52
6fe9
04dc
f139
72f2
b3f6
291d
78f2
43f7
2d3c
64c1
6541
5b91
2578
0262
c64a
7287
6fde
d9e4
d906
bff6
3fc5
5776
cf07
f9bb
058c
e1b8
17cb
41f1
9843
fd57
be97
ba6d
df45
6b34
6924
1678
399f
dda0
4f48
202d
ac1e
94d4
f5c2
265f
4cfe
5ac5
7bf0
70a4
5457
c205
959b
c774
cf14
794d
aad3
e0a1
ebd0
84c9
cf80
ad8b
2ba0
1432
7adf
9c14
1bcf
e78c
7d30
80a0
7985
ad5b
0602
6a37
72d8
6ffb
2afd
7534
489e
6aa7
ffa7
8d14
4bb0
f0e4
685b
432a
15c6
c6ef
dcb7
ec92
50b4
1bc0
63e2
cdbc
5da4
ff5e
76f4
4cc7
68d8
dac0
32f8
deb3
eae0
6629
8f32
5061
846a
5962
4d49
6196
99ab
dc26
6e64
81f4
b403
122a
c6ce
edcc
d1da
2e09
fb91
c3b9
e813
3818
8bf3
2fbe
8277
85be
b9d9
9aed
d75b
378f
ac79
2ee5
f44b
ff5d
76d2
fd57
4ca2
39c3
35fb
4b3f
c2ae
a475
3733
9126
8554
0de9
faa1
2942
7755
9d8f
8ea4
ff8a
fe24
2b94
23eb
9e2b
0516
fad2
2644
0c93
d0dd
5b9a
059c
f7e4
2930
82d6
11f3
9fc2
f255
119c
3c1d
7507
6683
89aa
75de
a664
b493
3956
23a4
99ee
1eb5
4d91
d8b4
b0a8
637e
5d70
11c0
c724
334b
f972
9a97
c41e
9300
20ec
6eb8
e4dc
56ba
eec9
26ce
7ecd
7029
e079
ae2b
63d2
0c3d
8867
3e63
64a9
a7f5
ba57
2206
d2c2
3c1a
a07f
3ed6
de77
5661
59d0
4703
1a1c
a95e
beaa
f8fd
8a9e
5129
6bde
01dc
9639
90eb
3fec
9448
b1b4
1337
f950
92f1
899f
533d
0f11
596b
467d
2348
04b6
c5ba
e599
fab9
6316
314c
7438
81ce
734f
bf34
e434
bc25
6cbb
c979
6461
f2a2
3dd5
4204
57c2
3e4d
4c36
1aaa
e96e
02f8
c270
a4dc
911d
17f0
848f
f55f
7dc8
7009
3dde
8058
c73f
936a
d5d3
b3a4
9426
408a
d557
74ca
1eb9
b39e
fbd3
bc6d
1651
0831
52a1
4e66
867b
f783
d8ef
a99e
e9db
c1d4
f4fc
fcdf
85bf
5754
1b58
721e
578d
8bad
4f5e
6293
1756
f0ac
5017
2bc3
aab2
3ab6
4638
b0f0
f0ea
b2f6
e092
9ef6
cc47
dfb2
f3f9
d7e1
7b3e
4883
c036
4875
e2fb
8109
0cd9
06bc
8b93
fa7f
50e5
2b66
757d
c520
9777
96a1
ac6a
4412
bbf8
b1ef
9474
cb58
6dae
12af
d9ee
55f9
e763
5b92
7cef
daa5
a6df
3859
78c8
1b30
d322
b841
8c53
768c
a90b
d14b
ddea
600a
e3a6
e803
143f
7705
6f33
9f27
8261
3534
58be
b99f
58f6
2951
b8c9
658d
cca5
823d
3738
a425
f443
d992
dbd5
8ae8
6616
9d52
51fc
1cbb
3a54
2abb
6c83
fc8c
faf9
fa0c
e0f7
4a18
e51c
95c3
93ff
bb78
9179
247e
b247
b77c
f8a4
b8ed
303d
5027
8c66
10cd
9c53
6cea
e6b8
85ae
27e5
d69f
3acf
ddf9
bb60
9c1d
d253
424e
e9fc
65cf
2114
d4b1
d319
15c8
5dd3
fa3d
6e77
2273
cce9
b000
a6dc
b948
9cc9
77d8
5e0c
d53c
222e
f75e
b51c
1549
143d
ce5d
77cd
7fd0
ba2d
f178
56f3
e9dc
994c
c1ff
58c4
58cf
d919
8649
e8a1
ce4a
3113
87d2
1235
5aa8
14cd
364a
a548
da74
c9b5
7910
02dd
97b7
f117
be46
dc8c
66f8
a46c
7e2a
4ba3
9985
a214
5512
2b5e
5cd3
7d8f
163b
7f9c
5584
0be9
5a03
f497
2177
5e4e
0523
1434
ea9e
bf09
d705
518b
19b3
8ac7
1e36
760a
b9bd
1a32
7326
4e7e
49b2
bbff
265c
c753
2edd
03d9
9937
34c1
d353
6c43
75bd
b5b8
b6a4
e051
a1d3
b38f
da85
fe0d
997c
d443
5452
6e3e
bfb9
dc41
1e3e
3b72
d25d
d0c2
fc23
bd24
1a39
9f0d
1a2f
f7b0
5207
04ff
5184
f779
8a8c
fcac
fab1
d8e5
f613
6fa7
7421
eb47
c084
9535
47cb
605b
6786
8106
ae30
d7cb
4f5f
55d6
ce0c
45e5
c77c
4701
6783
3351
a060
ed50
a7c6
d065
f5cc
eccb
b02f
e1ff
e407
55da
45c4
c8f3
f55f
8e12
fb54
0a08
6338
1b9d
7c30
b30d
0ae4
d182
4444
2502
258a
10ed
98a7
a266
f54d
2f34
e49d
c005
0f1a
fa6e
8f16
d17d
ae9f
7168
8193
d118
036b
5fb5
ce10
6ed0
a82e
2659
adc4
3fbf
1341
143f
bff8
3b88
5215
dea4
16f5
9318
6c04
3aae
7683
9756
915c
7e26
2cde
acbd
289a
54b5
5c35
c636
29cf
9bde
8a33
fcf3
2616
e2f7
9457
19f6
8c98
ea72
64c1
b15b
d15d
1fc0
34f3
b25e
ffcd
ef73
8820
bc83
db29
eae2
9dfe
70e4
03db
6804
7680
66c0
b96a
cb0d
f4e1
5419
96d2
93e5
9b18
b63f
a0e2
f892
e49b
9a6c
534a
f564
e0aa
6164
444b
cade
4493
ac59
64f0
09cf
25b1
77aa
f696
7c5e
8d18
9ed5
8472
83f6
9811
38dd
001b
a1a3
25ca
a05b
8e2f
3310
f81e
c065
5b88
9cca
9c81
4352
4330
8f46
73af
11ce
87c8
f6e2
8cde
dc44
0f7b
c4d2
91c4
120a
b4d1
0555
7851
232d
acb2
ba62
1517
8f82
d155
a079
98b5
5c0d
fd3c
683e
c300
8352
085d
31d9
cc14
4a38
93a5
45d6
03f7
57d8
ceb4
e28e
63cc
2246
e86c
b723
dadf
5009
dfee
0582
b262
f7d3
6d58
2af4
5772
28f2
8785
08a0
013f
784d
8104
b4ba
b24c
90f8
305d
4bdb
04dc
8b2e
0e59
48e0
48f7
0cf0
a92a
5ab7
9432
c9fc
5d1b
f50a
1ac4
6848
5133
63cd
a8a1
803e
1455
c475
8d0c
1221
df79
d949
44a4
2bd4
490f
3c80
e80f
d9a9
96e0
bbd9
978f
d069
14c5
975e
4c47
23a5
f288
3447
d0e5
9446
0cd8
2fbf
861b
b258
aa43
6c9e
659c
5936
9e89
a06b
99e5
5e26
7338
5b56
f5eb
3ff1
5589
cdb9
14b4
d933
dfb1
8234
2704
c08b
95fd
d530
67fe
2d28
efb5
fc9d
261a
5ad0
c1e2
08c0
eff0
fc7f
d885
ea29
ae71
016f
3546
3d8c
068e
eeb2
79d0
b8d2
470c
7ced
245c
cb9e
13ec
acf2
add7
52c9
89ea
060b
2a47
0f88
efe5
7509
033a
c0a8
3e66
e52d
30b3
a63f
7c96
e2f8
ce3b
8475
7691
d108
b8ca
952d
7c7d
57cc
41e3
63d0
644b
1462
d5f9
fad4
4e0c
f2c6
8e99
940f
e60d
90f1
5062
657a
664e
391f
d1d8
cd90
b6ad
b32f
e802
77b4
609f
3078
ff42
6196
435b
e571
6fc2
78ed
aeb6
c671
0379
5995
f819
d9b9
3f09
f533
a12e
64d8
5181
ee74
497a
290d
bd6d
640f
eb75
d804
2782
8358
d61c
9bcd
642f
3e65
cea3
c129
b5ca
b211
b054
6b66
c1f9
ce5a
5d81
3915
17df
c080
9217
96b6
275e
ad9d
bc34
e25b
7774
fcce
2c24
69ab
0248
0470
0dc0
4ed3
488d
b540
5ba8
59c8
eadd
95b0
610d
535c
7eb5
c052
b7ff
9fce
c880
ca4d
f60d
eb56
428d
859b
9633
7f65
c2f3
5515
3115
c12a
7508
fd7f
608b
5d31
4d8d
4627
6f06
d1f2
f233
b13d
8d7a
37fb
98e6
be9f
bbd2
e788
821f
5a1d
f3dc
f166
4911
d7b7
68c0
5225
1703
c562
3c3c
40b4
d93f
4c3f
ee58
a3b9
8846
d2b7
1a18
8b98
bf86
3a68
ee9e
5ba9
7bf4
770f
394d
cb88
9e56
4c8d
3d61
a72d
dfbf
d039
e767
f457
d75d
bf75
7731
414b
996f
9779
0fc2
0a3d
c71d
abd4
9667
0e66
b0ac
28ec
c4fd
e6ed
8209
c867
2c51
7af7
a024
b126
b551
1d75
9204
c96e
1011
6434
c578
3f70
76bc
ee49
2faf
6129
c9e7
7646
d430
928f
4942
323a
929c
640e
ac4c
5577
482e
f385
7fc1
3493
b8e4
a06d
e8ac
fc35
1c9e
16e7
14ec
f6dd
e98f
e0b6
476e
99fc
5c11
f318
1ded
9d34
12f8
9dbc
73f8
d417
4c00
fc03
7d56
03ef
5adb
9f34
31aa
76e9
18e2
e5b0
de92
e512
cb20
4acc
ccc7
e3bd
301e
0e85
ef23
2d9f
0246
b0cd
4a20
9886
5fcc
cdb9
8d33
e42c
e233
3e9b
9283
e579
cb4d
1f7c
0984
a5f3
455e
5223
1e14
2bfb
f6ef
8cb9
6b72
11d4
f5e9
88f6
725a
f038
4f9b
8b81
6abf
7bcf
5162
0108
b006
6ba0
61a3
ed06
e62a
9208
9aeb
c1f3
ebdb
e46e
0831
0ff0
c37c
b833
a5c5
d559
b5bc
c279
9e41
14a2
0977
15b1
0eaf
0a40
9c29
dae1
3625
5885
7b30
6544
89e3
a59c
15a0
e1c5
e656
4dd9
151f
221f
a640
14e4
502b
a495
9261
7e5f
9600
c77f
8f33
006a
f9dc
2e97
1610
53bb
12af
feee
a79e
1966
5a87
ce61
55ff
7c0e
d0d7
6000
ec03
3949
f094
bd32
1eb1
b1b0
70a0
69ee
6d4a
b16d
74bc
4176
79e3
e7ce
52d5
17d9
ad1d
b6aa
f3db
a81f
9961
c00b
ee7c
1e8e
4ded
13db
54a5
1054
466e
44a9
456a
fb29
0bcf
0ffb
b492
6c6c
228d
4e8c
b637
ad4b
af63
8d2e
7dc9
3110
a27c
95a0
5604
942f
6d29
8440
7d3a
546e
f15c
9258
3a60
0387
5702
98a8
d6be
ed74
40ed
cb37
c3c8
05f9
a6bd
b6f5
28cc
0f3f
adf1
809d
cdc6
e05a
6a05
76ec
ecfb
096f
de4d
91f8
44fb
d117
1f8b
9693
9d77
81dc
90f0
2e15
8914
789e
eee2
85e3
f375
3f25
b249
81e8
2331
8f43
05ad
0f8d
e50c
4d59
23ca
6c68
6f9d
8964
7fe0
47f7
b561
6a76
ce60
3d0c
bf40
6c80
74d4
85cc
d6d3
799f
2a52
1df1
f3a6
d92c
6c4d
2f24
665c
eaf5
9c4d
97be
449b
5a3d
ef76
a898
fc90
54d4
9ce5
de77
6c3c
e608
6491
1b23
d924
4dc4
1dd2
4114
2211
8730
0d17
3081
992c
4909
c412
85ac
5abd
4c87
35a7
9865
c9c2
4f3c
c32c
e104
9d94
8871
758d
65fa
be82
aa24
8c0c
e98f
7aa7
3ac9
21e4
f13d
18c0
59cb
e195
1f6b
2ca1
e60d
0e8e
a313
d252
7101
f893
dea0
1851
5c5f
5119
deb9
e36e
7e85
84a6
89c2
7782
9b91
bdc9
bd82
8970
5d2e
f911
822e
4121
3798
b445
54e0
8c4b
dab8
484f
6324
2829
6bd6
3576
c039
7032
f19f
3d04
53ab
d759
777a
31da
ba57
8c27
d8a1
1791
77cf
aea8
c8ac
6287
2fde
e5d2
9a0a
43ab
fb97
e353
6f8b
c0fe
8ad6
a25a
290e
fa22
2bdf
fead
1609
c255
f599
1d54
b0dc
03a9
da08
02b2
f0f9
2014
e149
0c1d
8b73
8ec4
3d7d
5bdd
83d0
7441
0d65
04ed
6a46
d35a
100f
e888
ad5d
5444
9ac5
594e
ec24
db71
db73
c214
73d1
6fba
d0c1
6f54
452a
dc01
83e8
178f
5df3
03a5
21c0
93b0
e702
a6b2
f156
9b2a
2de0
d418
144a
89bc
0074
0942
6916
ad2a
e97e
f5e9
df77
a36d
fe55
038b
160a
894d
c493
9d79
d07b
8a36
1c7f
9a98
46bc
efa7
384f
299a
f0ae
f556
6bf2
198c
a810
7e37
4764
009e
a4bf
99ee
5060
6828
5d95
fade
4a60
e9ea
cc45
868f
a885
2c02
6902
ee76
bba9
efa0
7a94
6c4e
482a
10ab
16c6
fb60
42e0
2d68
7f6f
427a
db17
d0b3
8df3
244e
3a14
1024
ee82
0447
9be0
0dae
5986
ea52
766e
8ba0
65a2
676f
7083
2bb8
aa87
9e96
2075
2d08
0b3b
ae20
1b7c
5c72
a683
0885
e4b0
99da
8901
6a1f
47ed
5403
4f79
e605
9ac6
b1b9
754a
57d1
1fff
fe3b
ae63
93a1
ba0a
e2f1
b63f
88a0
ad7c
22c1
d9f6
a257
52d1
41e8
b75b
713e
dba9
bfa1
c084
5cfa
b54d
979e
5c81
4aad
f460
302b
25e2
f2bd
ad96
0da6
76d3
0d5b
b73b
7ce4
d3be
bcf5
1045
7d5a
6bef
3880
2d07
d023
1110
367b
e41c
c9a3
8ffd
e853
16d3
d755
38da
5ba2
027a
5643
6764
1464
ca61
3ede
17c1
dfa3
682b
3295
f6ad
74c7
1c5e
5b47
291d
eaae
bc4d
580e
8dd8
dc1d
2440
43ad
c417
2ca5
316f
0460
fd51
3d13
d31e
2186
d5fa
7d45
b394
6c99
7b1e
78c8
8d2f
285c
4108
e768
0ed9
79aa
1301
73fe
7e8f
37c2
16cf
4e22
c632
a687
dae0
40dc
1d0e
02ed
a998
a419
a4c3
e1e6
6a25
f4c8
59dc
417e
7f0f
6483
6426
5ac4
af7f
bf74
ce23
1ad8
81ed
bde6
ce34
6701
11a9
752e
2f77
4979
aa9a
a660
a488
c182
16da
21a2
89e1
b3ae
485c
8969
6bdd
3680
2a0b
ac65
d29f
ba8e
5dc2
f7f3
a232
386e
c1c6
8a04
05e0
2f7c
fb47
8e3e
5510
5e3f
e2e1
5491
ccf5
b32d
d8f1
20ff
abd7
4624
9ae3
e142
6fa0
442c
1c8c
8d0c
3458
6fb4
8287
6f1e
0b04
7ae7
c49c
7536
6afd
2fd3
b787
a05d
6880
b72c
a7e3
af23
d189
550e
e0c1
5982
ed72
30ef
4818
6fdf
c696
46a5
c866
5381
7e09
6311
211e
f79f
00bb
2555
9114
8aa5
9cce
7799
4c9a
057f
c187
7ff4
45cc
ac4b
5a74
0a1b
161b
4b6d
bfe3
0503
2c29
4911
84af
7863
e4e8
4682
5855
f3b0
fb05
a4db
094a
38dd
52fa
1599
dd64
d511
6ec6
396c
0d82
21fd
b748
5a72
45df
bf3f
4328
9ddb
fb11
648e
6813
39b8
f88b
f224
e991
37c4
6312
03fa
b2c2
b5e8
9f62
e211
68e8
4d4c
eb75
9b0b
bc5e
4552
4a79
7292
40a0
76da
f118
a7ad
044d
280b
78de
2e17
0a1a
d328
f800
fb18
b57e
32a0
1b81
e9f3
5a1a
b823
604f
9d80
6fa3
5f77
332a
a1e0
d474
7754
a273
d534
a10d
bae1
de16
0d21
7f83
1afa
8b62
662f
3aee
528c
209b
8c26
11c6
f94e
c9f9
3e38
6b61
0ee8
9ea9
4866
2708
12bd
be9d
c11d
dedc
80a9
a825
5c9b
e0be
ac7f
f76b
cdeb
15b5
838c
b72c
c480
7564
2624
b205
5b71
a34b
88a4
3aba
0c89
42df
4644
0772
9bb9
2bab
6b92
833c
b86e
4c2f
54cd
8dde
ef06
838c
f30a
9e32
a944
42a7
6cdb
3a1b
f56d
ef05
375b
92d8
cfb7
1367
384a
7bdb
a452
70d6
853b
5e8f
d989
5e58
561c
c654
d938
8a53
3b12
13fa
e19a
68e4
cf4f
ec8b
5337
088b
22ee
acf2
9398
35b4
5e7d
4715
12e6
dcea
6b3c
c70a
6665
df79
b879
6836
25e9
2aa6
7108
3e82
745a
b8d6
c23a
9239
22b2
6509
4034
f627
0afe
4426
7e8c
4ec6
d5da
dd62
451e
554e
3357
8dd6
47af
a19b
ab10
0bf3
7b14
a967
3bf9
8d2e
df2a
fa10
0656
7ab2
a182
1004
435f
9ffc
bc39
0874
f66b
1bfc
2114
6bd2
c182
d502
5e2b
c808
e420
cc47
83ea
2225
bdc9
7eaa
21fc
fe3f
dd97
aee5
fc5d
b712
f9e8
151a
cc8b
d957
d5f2
e6c9
eb07
608c
5c74
2ede
2dd8
4070
26fe
bab5
8101
c997
fd15
333a
e98d
8f1b
8f13
61fe
5fea
36ad
d41b
0b5e
9478
80d5
0ad0
561d
a785
4d9f
0d39
964f
3292
fcaa
f4cb
a925
9ddf
712d
354d
dcc6
e34c
c8fa
8335
4b39
3d9c
9a4f
fa0e
3372
dde4
e721
3a4a
fee7
b8ec
0590
04fa
3a4b
8316
dba8
c5a9
02d1
e5ff
2b63
d24e
db14
b427
5506
0f89
b652
d714
302b
b8c2
be58
fa91
88a6
ce40
9716
2d55
f821
9315
7e4b
9a5f
03bd
f1e6
d38a
b095
ad6a
5045
036e
940f
baab
7ab7
73bd
b2f0
2378
3759
d8e5
875c
f03d
292d
fdcd
28a2
606b
8496
ec2b
0632
d079
4a3d
4fdd
d2de
720a
964b
c14e
9703
8f51
0778
954c
e036
6535
42a5
8f01
3062
eff9
a730
c45a
4949
832f
c1f4
b9ea
f784
f4e0
74ff
1c8c
0d86
538a
a868
a381
74ee
6bfe
f92b
0bd6
f306
bba1
6c2b
df8d
7a49
6fec
268d
fe62
a652
db27
f4f9
8f1d
a9fa
5214
76f9
5722
8461
6bda
1265
2576
cf7b
54a2
0b33
8445
8194
99b2
62e1
362f
07d7
f524
bd4a
bd01
85ba
89af
be9c
0ad7
13b6
cf6f
d805
9582
7898
53f7
9486
c37f
92e9
9133
dccc
b39e
14af
20b9
9143
807e
88f9
715d
d996
181f
9d10
61b8
e115
056b
27ef
0d2b
f5a3
2940
f0df
2983
62f1
7408
7cf0
7c1c
1207
e17f
cd30
b56e
b75f
767a
d82f
1b4f
3d4b
3687
4b39
749f
5e84
0e73
b8d6
db6c
c3fe
556d
1f54
3778
50c2
f047
57d3
88ac
8a00
464e
85f2
e938
c22f
c144
d3a3
4223
7893
bdff
5df7
cd68
4ada
2125
1eeb
8fe3
158d
4cad
84f4
13c5
4b2c
dc31
645a
2de7
6e59
0ecb
22a7
9558
4400
fc07
fbb8
5816
1eb5
af33
8658
6545
6cc4
0b53
545b
659c
ced7
278e
4315
a89b
9480
fdd6
2d3e
feff
190d
219d
b53d
e276
f502
4352
d6af
e0ae
f2fd
e73e
2e99
ea0d
677d
299c
b189
098d
b174
9f09
e806
9c96
ff14
41f7
576d
4abf
cbad
1d97
a39a
401b
8a87
4998
5787
86a3
96f3
ffba
6da8
280e
82af
3e0e
7bed
0b9c
5a39
19f0
1073
89b9
3e1d
f550
0879
e438
4bef
ca06
965f
074f
57c5
dee5
8fc9
8a24
bf68
efe4
87b4
9a90
ed50
488f
4e62
4c54
7bd1
7960
e545
64b2
9bc4
d96d
f803
2e9d
f191
2c1c
fea2
ddfc
90a7
b4e9
993b
a529
2d86
fa4e
5749
6464
487a
fdd9
c44b
29eb
c788
71f5
aa97
8857
41ab
5482
6b7c
665a
68b3
d617
1588
29ec
a7b2
f0d6
544b
5019
a87a
2059
fe24
bcf0
35a7
4d99
6fcc
a02e
7420
761a
7f52
dd62
6d35
f2dc
6cbb
8df1
2466
9c5f
4b98
fe00
46de
d941
0f1b
707a
6c8f
a12e
e80f
0e5b
3267
81a5
821f
4cd4
3ac1
cc68
bcea
98d7
b497
5f58
5432
82f8
1af4
71db
a4d4
e6c1
6ea4
9d52
87a2
bdb6
0806
9101
0690
45f6
105a
92ec
43b4
fe81
d93f
a23c
0bd3
dcfd
860c
3276
bfca
b492
c0ca
6a62
5ecc
7782
f830
2e0d
353b
dbe7
24b3
ff22
a702
1d9a
d0ff
774a
b59e
4adf
a1d7
feb8
0bce
98c4
2e04
96f7
2932
a3eb
500f
8923
6547
c25d
8d16
2360
9b93
5c9f
295f
34d0
9ab1
dd81
34ee
3dc4
81a3
0f28
4bb3
e5db
fc2e
85d9
8a17
a144
e948
1704
0ac5
2f02
8086
10cd
a865
f981
2c71
0712
bc7a
e3bb
2c13
3779
c35e
197b
a845
6fbe
c32a
b1a0
919d
0c4e
940e
4581
a912
e1e5
d832
3057
4649
09f3
996a
7f60
a0c0
dea0
1013
9356
6941
5efc
bff2
885e
524d
5da7
e18f
0a44
1542
6979
fe14
691a
951b
3520
68e3
cdea
fcdf
6bde
ff89
34ba
302d
a4ce
e280
c2b1
c3d3
ff84
48b0
ea9a
12c2
dc3e
f4bf
967e
acf5
e124
2325
0b9d
5dbe
c244
acb8
edac
410c
d0ce
50db
3b9a
2f4e
2b78
42a9
394e
0817
8c86
49e9
09cc
20cf
7140
6ea1
c46b
91ec
81ca
7a74
071a
584e
3143
13cd
3672
3e55
8eac
89c9
bf58
6887
2f02
fb14
2c54
3d12
adda
47bc
cb7e
1550
9584
2fd5
9cb4
5478
07e5
ed68
0b93
4711
3cbc
0928
791c
799e
65c4
d33e
ff5c
1589
2b1b
994a
3e8d
3d6b
c711
4a15
2c65
2b65
552d
4748
bd49
c7d1
7b87
4305
c35d
2f82
0753
c1fc
94c1
aead
d535
ac54
7b1f
5f17
afde
c125
7a96
62b2
a465
ff2d
4467
84e9
e305
f43a
0fb8
7b18
c283
a5cd
fd72
679b
d67e
2c63
b915
f238
d98d
915b
a7cf
e40c
9266
5e42
c4f2
1c62
1fe0
7c5e
c160
6522
2d46
a806
7ca0
2d80
2895
b796
5b4b
e10a
4293
204d
b701
7f4f
2335
c5af
6861
4f3e
ad4c
0521
03b7
a822
35f4
47bd
e29e
ab8d
dfe2
e060
880e
94ae
3bad
0bf4
d510
be0c
3a84
659e
cde1
bf3e
5e71
13fd
4202
a06e
ea45
c499
5432
e960
3879
5f55
27cd
3a00
5289
2c7e
10ef
8cd7
df2f
6410
caa9
3c04
a44e
db07
decf
488d
bbcd
cbb5
00c2
023f
0054
a897
6f9b
568d
89f9
528f
5071
5521
af7c
676d
e753
5ee1
4281
4c01
9afe
416f
e68e
925e
f1c1
12e1
5bb8
66e3
2b2e
2863
2806
1649
92f8
7251
e321
bada
2013
f034
7bc8
cddb
a43d
2b0c
5e65
0a54
63a3
9789
e08e
8c11
8415
693b
4509
4ac5
177b
6816
4369
0345
61d5
76ac
e56e
0a51
f7e6
a6b7
d598
9bb6
a528
e357
65f1
5b22
f808
1767
35a7
d814
dfd4
913b
b71e
fcd5
4dc1
cd00
0a8e
73ef
c99d
ba50
06c0
c8f5
14df
7c85
ba18
9ea5
dc6e
2b5b
bfd8
28fd
8a4b
0bc6
55ee
7827
ed27
2ff8
c9a5
1d00
7cac
b37b
e88a
0ada
3d0e
8516
7fa7
e72e
c4fb
6d36
d532
ad02
b631
a24f
4c07
92ab
3e6d
575a
30d6
2d6a
8f4a
694a
08a5
d090
6a0c
6df4
30b5
1f17
e1a7
7d86
7d12
3e8a
e138
74d8
427d
c05a
d082
a45a
7f0b
3850
bd03
47ef
b71c
474e
732b
44f2
fb03
8c46
8553
3054
0eb9
bab1
9feb
35c1
9da5
8c78
fefd
3064
281c
2f93
728a
842e
5d8f
bf15
ba28
127a
add5
8328
0a36
dd9a
e6e7
fce1
af2a
5210
d15b
5e13
4d03
b1dc
ab40
7c87
cae8
a23b
e888
b323
23d4
f4ba
fc6f
d213
23e1
7fb7
ae6a
47fa
8522
31e8
7762
96d7
a11e
6fdc
bfe3
bee7
1fb7
7647
7454
8821
3c78
3731
6454
3fb2
37a3
d83a
6204
a55b
7640
e6f4
c4c2
e5ba
b417
5f45
60a0
216c
a078
c7c0
455e
2922
5687
c390
3182
b16c
7a79
fd76
68a3
3d5a
30f6
d9fc
67b4
52d0
37b7
019a
b97b
14d2
001b
2695
27d4
d734
52f4
4735
9acf
35cb
e8eb
c26b
ef98
bd47
7cf3
dbc2
b42c
20d2
de25
8c46
410a
29ac
2d87
b475
ee74
9532
81ac
8dce
55bc
b418
1a21
a9fb
adae
2da5
7aaa
4432
13be
7554
62b5
3ffd
0122
2044
dbd5
e179
4369
f226
f89e
dd09
8fca
0063
90ee
1cce
05ac
fd5f
3f15
a673
8a66
6030
5551
6a56
9f06
e358
a7d6
5aab
4eee
b8f4
0b80
7f35
4e56
6c4a
9c0e
c333
07ed
e707
58c5
5448
f07c
4897
e338
af97
995c
fbfb
2c46
76b0
ed2e
133f
c6ff
07b3
ab10
dcf3
16db
b80e
9efc
7c49
8d6f
00bc
42d7
3f7d
bd24
f46a
5b6c
ae57
9cec
8fbe
eaf4
1231
f1aa
8b91
035d
543e
cc72
da6a
6567
472b
0178
bae9
3d42
ba5d
8b3d
ccba
f444
97ea
5326
7cb2
8fa4
d7f5
05ed
10b4
c16d
818c
790a
9333
32b8
07e1
8853
dada
7cf6
f2a2
ce1a
71ac
59c2
6b30
4afc
37cb
9378
1930
9b6f
2ae1
7d30
3454
9d2a
fee6
b12e
cc1d
17fb
a46a
9613
f852
a5db
32cd
9828
aa55
4a3e
b259
1adb
dbd9
8009
d15c
b813
037e
33a6
eecd
7068
c771
3dc0
9dc1
add2
4d00
1163
5342
582e
2a6c
93fb
51ec
7a0c
99c1
bf35
1859
ccfe
6027
6005
bd65
8b63
776c
b225
32ff
dd47
9e36
c903
473d
6f43
0ded
1796
bdc3
103f
30f3
b74c
2a3b
307a
a75b
04e7
fc50
cc98
9167
31af
4c53
2458
ed1f
3cbb
e884
4315
e54e
c9eb
ba88
5c0b
64b3
072c
0326
eb18
77fe
a44b
00c7
9eb4
5fa7
1ea5
c9b6
2f69
578c
4a3b
e133
6fe9
d53c
521b
65d6
92c1
e815
3110
f39a
233c
8b2b
10a2
c6cb
2bfd
75e3
ac83
cdfa
a4da
4579
ce4e
293f
9e17
048e
2a95
3cec
58aa
4780
93c6
26c2
30fd
1ead
1237
b216
a8d4
adb6
2ea8
ef9f
883f
1135
d244
449a
5076
f31c
ff50
bb77
12a6
8a49
edd1
6b84
f306
0d6e
b583
a136
bcb7
461c
d7a5
4f61
19ec
3a89
8385
01e3
4e72
b4ef
33e4
420d
d50a
d7f4
fcc6
566b
1bac
2b1d
dcca
3964
5dea
4c88
218b
659c
03d1
639d
ed0b
0f7f
e267
1f4f
3ab7
8ff6
fa23
18c7
4995
90c8
8fc9
0bf6
fab6
4f4a
e348
678b
ee62
2e83
0815
7030
a82f
048c
3aa9
e0a3
230f
e94d
413d
7cba
9b1a
eee9
f4b7
d321
1ac4
728c
6e66
48f9
f317
d403
b315
b580
2874
1e7a
e826
7214
efab
18d7
3fd2
4629
aa63
02ce
fd89
ea98
0eca
297a
b1fd
f5f4
b250
e080
f2f5
e52f
ee9a
e473
f47f
d0cd
51d0
c156
c5d8
5664
9869
8953
5fe6
c847
e534
40d4
18f0
b3ee
afb8
51cf
3ece
8476
31aa
1f10
dd05
7719
3047
fa55
5896
a863
2073
8139
d4bc
8009
974e
f6f0
9b3e
2391
bd3a
5b04
2b53
4920
5c42
9418
ff01
2327
e8ce
1a3a
e175
8822
104d
e206
7641
8144
e562
3f89
57f9
7018
9c0f
5bf0
61e3
ac2f
3bcb
c90e
289f
23b2
e3c0
7000
7e1f
a057
a73a
6966
d43d
9fac
fd83
99a7
52dc
e3dd
f2c5
48cc
b579
8570
1e35
b6b4
1580
e90d
b39e
4b32
2a8a
3c59
a195
39a7
6227
5cbd
498a
c0a1
1f7a
0bc3
453d
6ac8
ba81
2295
ef20
5d39
2434
9747
79de
9080
bb11
b211
7aad
8482
f730
e228
87c4
df0e
719e
5b3b
f1b5
0a72
8725
d1ff
a270
969d
7dd7
53a4
61c1
3b02
514e
f329
438e
ca53
dc13
c241
e694
507f
38e5
6e80
4678
f65f
5991
d28d
4164
0eba
b108
4192
8acd
2c57
920d
f7d8
ebba
02ca
7bd4
ede3
1d5e
1b01
3e4c
c73b
c204
f428
c06a
8292
ff63
da11
69b4
1ad8
5c5d
03f9
9435
809e
58fc
a216
2079
714a
7228
1e23
fb98
63cd
8c03
a0c2
5b29
d058
3f4e
414d
9952
f951
fe23
2d0e
3772
64a4
debf
1044
9280
2e16
ad4e
82b3
a88b
70c8
3f2e
eebf
59f6
0bd6
5402
2d2c
424f
78ce
422a
e816
726a
5109
2696
6c04
6272
bcf3
f423
0dd1
5e5c
840e
cfa3
fce2
0bb4
2e7d
140c
6945
f8cd
b81e
e0b0
26fb
d98e
6414
d3bc
a143
e75f
f449
8a36
6670
8fa1
2dec
ea73
dbaa
e9d5
eb33
b17e
8deb
2086
1ef5
c0d6
2317
b8a7
1a1a
c5e6
f6a3
d828
a4d7
4d00
138b
903d
c887
2d0f
d600
cbd5
1d35
8672
8919
974c
6b3b
e686
759c
898e
792b
192d
b09f
2b1e
ae2c
1108
d528
06d6
f541
7117
dede
767e
fb83
e030
5931
0c04
1a9e
2b44
4826
d300
3f41
60c7
f973
4e21
40be
8358
503d
cd67
8ba7
17cb
242d
85af
bdd2
17df
8f39
f111
e382
a57b
2400
456a
2a61
76f9
d44e
8f98
46de
b0b0
eb66
6470
09e2
379b
2842
4074
5a30
4f43
9888
3de7
001d
5c8c
8f0e
e8da
9b1a
5d39
46a7
e442
e082
8fd2
cfc0
b7ff
a2cc
9827
63d1
56df
5b44
5e86
f0a6
29d4
4caa
49df
b1ce
60e4
e6ac
a920
3a50
ef94
42af
61eb
b01e
c0fa
8d79
9e7d
4481
a091
fbba
2cc6
3eb4
a051
3947
02f4
792f
b8dd
7f62
4e59
1ce7
be6f
a031
4e65
d734
6d3b
c319
2caa
34fd
0fe8
2d31
78cf
53ea
4d0f
4f85
58e2
eedb
a7fc
047a
dfe6
51bc
241d
0ce4
8eb9
bb09
75f4
3097
1e96
c034
dc3a
3dbf
5e23
1e18
8810
f164
6850
309b
8518
1ca5
268d
b5f5
59ce
b3a7
89af
3bf0
4414
1475
048a
5e92
aa0a
e18c
9b5e
679c
ebcb
8f1e
7de1
43d7
da82
d795
90df
5bb4
7688
e078
0c57
c966
f8e1
c11c
7b98
8d86
06f7
6458
0c2b
1e75
4174
b162
9e3f
6cac
46d2
d5f2
2f46
85b0
dcb2
8be6
4f6b
37a3
24c6
5f91
6e09
cd84
0be8
5b86
0990
429a
6232
69e3
c03a
d3aa
e31f
3f56
94cf
c70d
e2af
1377
89ad
ee0c
8126
dbf0
75dc
7542
6ba3
38ea
6661
d8fd
d8da
e5e6
68fe
ce0d
ba76
1039
eeb2
ad32
f497
9351
7caa
6c1c
993f
5565
4199
a7bc
bc10
dd4e
d6e0
ccde
95f0
7e1f
946e
c56b
a393
3a7b
36d5
27f9
5191
c58a
49e8
002e
8171
e444
8bec
b192
5f8d
a0c7
5a1e
aa55
287a
f478
2c9f
65f2
0e70
5904
5146
0676
482b
f012
8346
63bf
e66d
6300
43c7
31b2
dd34
e62d
2d73
513b
efcc
23ea
bdaa
5463
2726
94ca
137a
154f
1edc
18bb
ecde
c94b
fbfc
39b2
e7f1
3dbc
7b5d
08e9
bfd4
133b
57bd
4787
194c
469c
ed62
6ca4
924c
cb27
aeda
f577
d4c4
29aa
b7ad
2a33
8b67
17b4
aef9
b378
72db
f52f
b37d
b20e
b7c4
312e
3f89
88e8
4f25
8623
4643
3252
9ecc
269f
e455
84e2
4a79
57b6
d425
cbb0
b0ce
d2bd
eb08
612b
eee2
e1fb
6c99
ad7a
4fb1
c14d
3acd
5b0f
40cc
4546
7761
9ad4
f4ba
3215
98f7
49c2
e8e6
2e6e
5a48
512c
551f
58bb
a03a
5a55
779b
f67a
0350
3f82
4a3d
5894
9aed
e4ff
e120
32b8
bee5
1302
468e
810f
3939
a187
66ec
cb8e
38de
3c43
092a
14c6
5308
4e8f
315d
a943
e314
c62a
208c
4df4
b39e
8d80
0c28
0717
4512
73f8
17aa
6383
b493
0a6e
a781
f67f
710e
def0
8587
9328
93ba
f6a0
6e43
96c6
849b
dec6
dd44
0cfa
3e15
1af2
f0a3
841b
5b17
1494
8640
10fb
6f03
b231
c1fe
029d
e3aa
e9e1
f964
c8ac
e4c2
36b5
1c6d
6a85
02b6
b3a2
2fe4
c973
853c
a821
c71c
8a90
13ef
7adf
40a2
c0d2
4660
ae38
d0cc
a0b0
dfc3
6de2
3b4f
c6a3
4548
ed30
7d8b
50c6
d94f
e17f
b2a9
c5d5
b198
525f
017d
93ac
f4ac
987a
3ed6
93d5
0878
421f
4281
91a0
b92f
1992
137d
1db6
cde2
98bf
b38b
9474
461f
e022
7853
26af
2def
0215
f8f8
98aa
f511
ab33
b444
1c41
c5a7
2b42
337b
3453
d344
6add
6fb3
2b29
1123
2347
2de5
d3fa
5750
8bbe
3121
a625
9fc1
9c09
2b1b
cfa4
6bf8
9bf5
647e
1886
14bb
7ef1
5eb2
0456
2eb9
e115
cdfe
bc37
6d9d
bb21
d94b
77ac
c8d9
1f67
ed3c
acaf
1be0
5689
abc7
1c8d
cfc9
7220
0dd7
fbc3
0dce
8e46
704e
4435
da3a
53b5
9afa
9b89
0a54
5e9d
dafc
1a41
4a70
289c
2931
4df2
5d02
dfd1
a90d
b192
9f58
692e
ad67
5d6e
d532
36f0
482f
58bc
cbe7
4dba
8f9c
9377
b839
4884
b8a5
a14f
f7aa
aaff
c567
8e91
12f4
d6ab
401a
2813
eb91
dc34
3f5e
ca03
6a52
6e2b
d8a5
6038
7ac5
95a2
4398
fabf
ca99
05cf
4a3e
5496
aa5c
c004
554d
4ac2
bc4a
303b
2ec6
7634
c477
8295
d74c
0966
5f57
cb61
c372
b161
b459
b71c
c883
e58b
2cd3
aa82
c4ac
8b8c
5e9f
5c6d
d064
b31c
b7e0
c666
0d4a
d693
c3d1
9931
fe65
1324
68ae
67fe
4556
d127
e433
9613
a57e
69f8
372a
cfc6
1482
279e
41e8
f038
36bd
a1b7
d8ca
5548
4b7b
ae6e
f54e
2fa0
e8eb
a886
7a98
e753
bb9c
169a
7f05
62fe
1c6c
0e65
d891
f08a
d0c3
c91a
63e5
521c
53cb
8e3c
5295
1440
6f6d
1bcd
2516
7ef4
7342
e2a9
f535
49b7
9e79
0343
5be8
2bfb
062c
2e2c
6fb3
a59e
c8f8
60f6
65c7
7d66
0526
244b
22c2
9dd7
3fab
7424
0cb0
5ec9
0050
066d
e9e2
3b5b
194d
e066
12c1
9bbb
5221
959f
34a5
0e13
7635
d283
d0fb
fc04
1ad6
e3e6
8833
15c3
6541
8772
687c
18e1
9776
ecd9
f8a3
42e4
98ef
7d73
dfff
5433
ea81
eeea
0aec
f0af
f51b
0966
f1fc
42af
e63a
4695
4088
20c4
3696
0579
cd11
5f44
115e
5dd8
fd35
e473
8bf9
39a8
f9c5
c1ea
f9b1
a6ec
d0b7
9496
3fd0
edb1
1357
1be5
7496
c06a
80b6
38d9
b002
876f
29ca
7e24
f5d8
8f0a
e4e7
2edc
5d01
b61d
8326
80b4
9ef5
2b95
40a5
53e2
5f23
80f9
c54d
cb40
ae29
0934
d9c2
0aba
8e37
7b08
c130
db00
ba29
3e4d
951e
38fd
db62
a2f8
7e73
3d2d
2a18
ef96
0a6a
bf2d
5f82
130f
c9bf
8df9
ac90
826a
9117
326e
ed65
3f60
8930
b5a4
324b
2bf8
75e8
fe1c
8e1f
78c5
fa32
9972
9c9b
8cc1
4520
6d83
9ded
6946
550f
0359
e083
191f
1070
ac70
949b
33a7
2534
9597
6cf6
a744
730e
e515
c2e2
6c5c
832c
6797
35ab
1221
3afd
d7f2
49d6
4b5e
e3f2
8a4e
2cdb
03d5
2840
3072
d574
36dc
499a
9cf7
a2ad
88e5
d75b
322c
a733
0d11
dd5a
fd78
47d4
4936
4570
f52d
41ab
f491
eeed
0c7b
c38d
56c4
0402
204a
4a80
9619
ad3a
6ead
b6c6
f2c2
2792
19fb
19d5
de96
cdee
2f12
87a2
3947
1648
b277
2cb0
6bac
7b73
1aa1
b7ed
e1e9
cbc5
416d
340f
839b
addd
dee1
7e71
ff52
9cd9
9061
2cc0
116e
8f91
1ce8
8fe6
af9b
5e7d
2948
c6ea
81d1
a0b7
a479
80e2
4fbf
3142
2a23
5133
37ef
1a5e
c5fd
7cd4
2eeb
ad38
dbbf
3c65
603f
f416
95dc
920c
4c19
e580
1aaf
6873
a1e9
e90c
04af
3acd
2511
f737
9f6f
a57b
247d
2503
54b2
fb76
da51
f6ab
e62a
3c2d
511e
5b5d
f78a
8a40
a67b
92be
5423
e850
5c50
6143
6f8e
aa16
57d7
08eb
dfc3
383a
9783
5dd2
a370
1128
d647
25ac
e81b
a2ac
d9ca
7bf2
43f7
5476
bdd6
9a8c
ea43
aa88
af98
b471
85a9
c53c
de60
7a55
902c
c912
8e5c
5a5c
9486
a3d0
c45f
4eb5
f541
6a96
80c5
9192
5442
d7dd
8035
2584
b842
e854
22a4
2784
1e1c
fade
b4c2
d426
6bf9
64f0
8107
130d
a557
b7bd
7273
c995
9f4b
a028
b0c7
5d4a
4497
ba39
854c
b99a
04c2
39a8
e1fd
ce5d
703e
fdda
a9b7
0e6f
e2e2
8c60
fc4c
26dc
8ce2
49ba
ec22
3cc3
4ffc
910d
e9fe
95ea
586e
bf1a
7ca5
2d39
5213
e2f5
0134
eb95
8902
08d2
bd70
16d3
3acb
344f
e0fa
01e9
4017
2603
0885
8b3b
1df8
f119
5ba1
3fd1
2e9c
8148
ff9e
60c0
59be
7ba4
6822
4c08
133e
c145
a0d2
25e5
28d3
ae47
0810
14f1
bc65
939e
8de5
a581
33ed
b315
ee87
d14a
acaf
e5db
6a2f
7814
a498
b25a
da9a
b26e
39e5
6c6e
7491
338f
e1a1
3e42
db5e
2df9
f65f
362c
5c01
64c0
318e
a997
82f2
b8ec
7898
63b9
e712
0081
b6ac
ba37
c6f1
1f2f
136d
3bae
93d3
d422
2967
d293
5e06
43aa
e320
56b5
2b03
99e8
9b5b
033a
e7dc
8d82
06a2
e6a6
dd3f
8fe2
3e4c
b4ed
f24c
6e2d
592c
cb86
e3f8
fa27
1bf6
52d3
de54
2e0d
0a62
39d9
6231
b546
d494
46b0
a367
bc03
3850
cccf
ed0a
4923
4f64
dabc
3117
11ed
ba36
b3a2
12b0
1d83
300a
8032
b99b
ca14
5911
68d8
c187
009a
8779
fd89
8ab2
882a
8d55
404c
277d
4343
683a
9515
a575
75f4
1179
2ad4
afff
9fd8
c16a
cf57
5fc1
84ad
0dfc
4958
cccd
aaa7
ba09
0428
b508
a4c8
8441
c9d9
f24d
5336
5b67
e606
076f
1e53
807e
93b5
2995
c950
9217
51b9
5e05
146f
e6d8
6090
9cd3
6777
5503
6233
b909
2a3a
d2b1
a99a
590b
38a7
c981
75d3
f996
67b7
d16f
32e8
89f4
094e
9785
776f
3670
211d
565a
a11a
26e8
6306
5826
dfad
d8fa
a6ed
031b
59b1
c223
a0ed
b46b
21b6
6931
29ac
5a86
4600
75d1
bbd9
35f7
4e06
ff1f
0e57
17cd
d81a
e1a6
7419
bc98
51e0
13e7
f25a
8a32
0a7d
c7bf
d205
6307
950a
5e4b
bcb6
5647
7a76
871f
69aa
5d0e
851c
b6a1
237f
8d24
efa3
545d
304b
e8f8
b840
1363
31bd
f113
fad6
0823
62fc
66d9
77b0
cb3b
acdf
bd97
ac1e
9adc
486b
59e6
4fbb
5182
b155
8c2f
a6ee
7f59
b8d8
da86
8c69
efcd
179c
dfcf
95dd
3a7e
9679
460c
e5dd
954b
e3aa
491d
e2b5
34cf
6c9a
57c2
05f0
aa66
a29e
066e
f5cf
0920
9e8b
1e21
41ef
b2f3
16b5
b33b
485f
d7c6
2111
0683
33b8
d306
9a1c
6f3a
0157
4d57
5fc3
5812
e612
0d7b
28d8
556c
dd5d
b093
8c3c
6432
23bb
fd8d
bf60
c2db
62bb
ddb9
9311
882d
e741
7d7f
75ed
7b32
2c90
e326
6955
9317
ea2f
c9ba
fc7c
bbb9
5d93
ac53
0ceb
180c
e7bc
47a7
11ca
41ba
1cee
4781
c78a
dcb3
3040
e4dd
c1d9
ca9e
ffbe
a717
a32f
08dc
be47
496e
bfa1
8d56
f11c
3e22
1b77
f64f
34bb
f95f
303d
fafe
9df4
979a
86cf
f7f7
1104
eff7
0c2a
ef36
ef2e
d3d1
280c
3ec2
b1e4
97f2
9af9
9293
18ad
ec66
1431
677f
06d5
4e8a
01f0
5f98
ee49
2c7c
a602
ab1c
90fa
59ba
3937
4dbb
3f38
cc4f
c53e
2f99
d0a6
15e5
e0ee
0028
7042
4283
b00f
dd84
1565
72a7
c8e6
eb42
7034
265d
7092
90b4
7bec
ce31
e704
0b41
970b
9a91
2e13
60e5
595c
8a7d
1cb5
89d8
10fb
cdb1
60d7
dafa
4006
c297
21c2
9235
f29b
e881
f2c6
fc78
0742
1b5b
46db
f1d1
39fe
2896
8c42
3aa7
a965
3326
0eaa
a4a9
92f6
d8cb
a841
1a36
ac24
c6ca
39d5
ce0d
2749
7c65
3e57
bb8f
4664
b9e8
f2cb
7e67
e734
b834
244f
6503
0e5d
a68b
5a93
2d2e
6021
d980
a399
c54a
f2c5
bb26
31a9
6257
ad50
2e45
62dd
a379
a212
923e
e012
3be7
753e
a251
991f
ba57
1418
502d
d365
c448
7d5e
cff7
7403
d121
8979
5ae4
3b98
77ff
0fcc
4af3
b776
46e2
b6dc
33c3
136b
deae
557d
3689
66e8
c118
9d0a
9d24
1ba5
0ebb
5c97
0f50
942c
fdd6
9af8
1e44
67f2
8a5a
c05c
1c2e
c221
514f
3080
5977
331d
94b0
9b87
23a0
9403
3521
1c9a
4a18
8b85
b91e
ec04
79b3
a79a
a0e2
f7e6
b7a0
d88d
1bcc
960f
fd01
0fc8
d04f
8392
7eb2
d90b
b402
be83
03b3
6988
279f
f0d5
5334
bd18
d884
b0d6
6bb1
7346
8348
289a
c1f3
79c3
cb0b
3ae2
d9a0
64a9
a5f0
bf4b
06ec
eaf9
29c4
1997
c3da
ef2f
f2e7
5b78
ceff
dd60
762b
291b
f70d
b591
159a
9728
5b62
16e3
b79e
b34f
772b
9d97
879e
f3d6
238b
515a
151d
0e84
062c
aedf
59cb
302d
7f5d
e99f
59a2
a1ed
f33c
9fb3
7a7d
5bae
2767
245a
1653
b32d
4239
b2dd
d4ce
4c49
f2f3
0b8c
96b1
7d29
6f5c
5035
3ba4
46a8
21ab
4de2
99a8
46df
1563
3a7c
7fd5
7f64
d0c3
1506
fbce
eaa8
d6c6
1d30
beb5
bb18
94fd
f9fe
6ca3
dc3a
94a9
a587
d6e1
c1cf
a95c
8102
e5c8
d64c
b338
41ed
e2a7
ed48
69f6
7d84
15cc
d9a5
3332
17b9
b1de
5492
ea11
4279
72b0
6954
90bf
750a
b403
f6d0
41c7
510b
99a9
60df
ae69
25e3
98b4
bf9c
8c6b
1456
e349
5328
0498
7fae
ba2d
08d2
0775
9634
fef8
92da
5d78
4bd5
8f37
5b1f
3dbb
0da7
7410
79d2
e822
8742
0bb8
ce6b
1fa2
cdfb
c888
c46a
5fc0
1bed
7285
c372
3e85
18d8
4dc8
d952
eea1
281b
a611
a7e3
eb4b
d367
22b8
ff56
c35c
f34e
799c
023b
6d6f
cdcd
b995
20d6
dd66
c0b0
2570
a09e
9c6e
353f
0052
a831
181b
520d
254a
234d
23c3
66ca
b673
0dc2
a5fe
c3fb
a2d8
e0b5
0f00
e188
5e3c
c9f9
13dc
f0fe
1727
4f8e
e31d
7c73
98b9
2064
8ae7
cdbc
03ce
3720
145b
0671
6b86
34ce
09dc
6422
4193
d40b
4a4d
3e48
724d
fcad
f47c
550a
0ac0
6bdf
d911
ba24
bf84
f906
c0de
3791
924e
bec8
6644
bec7
0adc
6793
b4f9
ab30
a26b
9ffe
b819
62be
360f
d70a
bd78
9f7b
ff01
72fd
cfe7
d3ff
f6fd
89fe
ded8
9fdc
235d
11cc
be0d
7668
8c15
8800
4649
bed9
5cb5
627a
f823
46bb
dbd4
f687
e2b7
c0bd
0fdd
b8ef
9e30
a8f4
cf5b
b56d
eeec
3119
2136
d5a2
9738
3480
297c
aaf6
21ea
702a
97e5
6e69
40a1
1330
dd10
e6a6
628d
4f7c
35f6
1b34
e072
22ed
44f6
71fa
2406
604c
faed
9db8
31c6
6d2b
a47d
4da9
9d55
5a07
0749
67d0
c1ea
5d3a
b738
5c56
5401
091e
f305
f956
7ba7
1c4c
4caf
f851
f509
09f4
f717
d890
caa8
56bd
a4ee
1f01
6a46
fdb3
c1a3
0e47
3f05
dfb5
9a09
a42a
2161
e97c
047c
c3f8
d41e
bb24
d85c
0298
5f29
6561
e87e
4b96
87e4
a7d7
7ed1
7d5c
14ce
70ee
fa45
c6b4
d092
322b
dd74
e849
7e49
b5ca
d286
1e36
ce63
fe06
9bd4
b990
0117
41f4
075d
8461
810d
044a
aacb
e8e2
fa5b
46a8
d449
28b0
5567
cd7e
74b1
540e
a983
3487
92eb
e3e7
c1df
c78c
51de
c240
f1e2
46e8
fc28
7056
eada
d391
1cc8
091f
36b5
e029
10a7
54d9
62e5
ac71
41a9
9adb
0e5e
749d
8d48
2830
3b94
1572
58fb
71c2
f292
ac73
9a61
a041
b46f
4ed6
68eb
10e7
d5bb
74a0
1c50
5c26
e6c4
b0c8
5765
92ae
36ea
8bd7
a1d0
9c80
73ea
f459
c66a
d3b0
f334
ae9b
82d7
c537
e245
3dfc
8d98
b83b
44ff
eb04
f47f
6836
565f
28ac
f270
db44
beb5
298f
03c7
1c93
f181
1ca6
9d04
9931
6727
3c22
de66
c19d
2a5e
f022
ea0f
1c61
8383
a784
6696
8992
b759
cdd0
9050
99f7
3993
d486
b3df
773b
9b34
bb07
5593
8783
a57a
3fb8
39d2
85d9
7955
ccb0
6f5b
e245
9d83
9fa8
8859
2b13
c519
0eb9
caa5
485e
da86
adda
0dfd
01d2
7507
0c99
1c45
d308
4a38
5f11
6d32
9cc6
f500
dc5c
857c
1bf0
bc14
2924
2850
3780
d224
36c0
4c04
aa95
6c36
81f2
cd1e
0d70
1eed
ca8b
c284
5da4
e951
d90d
b497
8e0e
45f0
9be9
74f9
8407
7f2f
5620
9fc8
2675
5db4
f387
6eb9
b80e
df40
2164
a6f6
6bcb
d7ff
87ef
de5b
42f1
1a68
f9a0
419e
4b00
97a5
3edb
88ad
50a0
97f5
a35e
851e
926e
0167
3772
9bd8
0f70
906d
dec8
5176
c9eb
b85e
e289
9ba3
401c
225d
e1ff
92f1
5d23
7181
977d
0a0d
ff97
423b
8e8c
fa8a
9ecc
c7af
a38f
6156
850a
da50
ac13
ba0d
b634
9016
6d35
f3d2
056a
e66e
bae9
5ca7
a952
d45e
178f
9264
e9f7
1ffc
3630
5271
db5e
7370
21da
c1cf
a984
ddd8
2899
83f8
9859
71c0
4688
5d96
eaaa
b39e
e250
01d9
522b
8b3d
914f
fa6d
410a
6882
a6a8
72d7
70fb
97b1
ac75
a7da
cb4e
5a1c
cc30
ed79
5eca
0be9
1215
b610
45fc
56f2
a8c7
369c
6ac3
8593
84b7
526c
7e91
9404
37cf
abd1
8635
c1cc
4afa
ce2d
5082
deb6
c5ad
9086
b584
9973
5564
2e98
6bc1
2895
5528
61de
84e2
e328
9601
ef71
5300
ca79
7da2
16a2
5453
180d
bb39
716c
6050
4e61
7c82
3525
5e4c
9ea9
56a4
5e81
1627
5dca
5615
f612
f7d4
9ee1
6090
7724
3ee0
eb79
9f0e
965f
525d
ae12
131d
91a2
ed3f
3bdc
877e
685d
aa85
aae0
a4c3
c3af
db6c
8f87
9c12
fb35
1cd9
858e
8694
d936
3278
2fba
4a98
8d93
d3df
71da
3e5c
e2a2
0aa3
4043
ae6f
ef17
cd5c
3de2
958f
a649
0fe5
3feb
a305
285b
c0b5
c85a
06a3
f782
6eb5
cab1
3fa8
7931
1a63
39bb
c63c
c82c
64d0
e710
da45
9286
55c7
fecc
5121
928e
3e1f
868d
4cd1
f4a9
580d
215a
6a16
0cda
0c58
3c42
addf
286e
c117
9746
8b2c
df8e
a2a9
6ca8
5d3e
a516
069c
3f82
becd
eb95
1576
8753
26d0
e67a
2931
6b6e
e0f8
52bd
bffd
24ce
1819
99b0
16d1
2e91
d233
a30a
8509
41dc
8df1
c3ba
96b8
3588
d8ea
6b26
3402
596b
1029
9c4b
0ef6
6c47
a2cd
3cea
145d
82e4
1981
bbe7
0c6b
c060
afee
05a4
d859
d4db
9153
d72f
7973
183c
cd8f
9ed1
5a6c
f912
d209
86c9
2d54
4f76
ff10
d7fc
0c68
b5f1
4995
2e40
a4e9
be84
f52a
3083
1e20
365d
9ed5
f197
b3d0
0476
755a
88bf
1b2b
c1dd
603f
61e2
7fd8
89d3
818b
07cd
eef7
7fd0
eea9
9f24
470e
652e
db09
3cee
b553
fe65
166c
0677
4eeb
46e9
6b3e
5d23
1c5b
c38a
cb12
0433
4df7
6bb8
6b62
ac67
5f1e
134f
864f
1a5f
3dbc
724a
f9ce
4e7b
c54c
7b2d
6110
f59d
1aaf
6f6d
9b79
2d06
0b01
643c
aeac
4509
d859
0f73
138e
75bb
a271
0ba1
57d3
c2e4
3d69
9279
6c76
581f
6699
15eb
3bfb
6010
613b
d0fd
a4b4
c747
d654
296b
e3ac
e568
7588
9fa2
eaaf
2ba3
e2ad
498d
ce02
8fcd
811c
f1db
a509
d704
5bf5
cf61
ab4e
d9de
fcef
196a
c51e
68b1
e62c
f7ea
bfd8
7b08
a24e
bbf0
3543
0ea3
84b1
38c9
a884
e11e
0307
9d3d
6171
1429
c735
99b2
dc11
64a4
9c35
2ee0
e0ab
6460
2eec
355d
3036
c6aa
4bb7
ce3a
1775
ded3
af27
4657
13af
baca
8c43
7ef9
38ea
20fc
30c4
9904
1713
e676
4939
2e76
bd81
9648
c012
e0a9
9110
19d5
dd5a
9020
dcdb
12c1
e565
64c7
4a44
488b
dfe2
ed3b
b4ba
59a5
20fc
7d17
9656
b3b6
abff
ff24
16ee
f797
dbdd
831f
b511
5b5e
70bd
cce8
9005
b081
196b
56e9
2440
b321
4d13
5a65
bd0f
ef07
cb1c
4434
3970
0e24
fc7b
17bc
9fa2
9d05
5dfd
239f
b79c
9711
8ca0
0edd
312d
edfb
eb78
ec81
ba45
6233
7904
fd29
f58c
1da2
7774
b44c
b2fa
154c
368a
9734
cf78
d0e5
df85
33dd
0aae
f233
0f67
bf21
6180
b778
e7f0
b27b
03cc
aa29
b05f
2425
aadd
6bb9
8f84
ddf5
4ccf
c59a
278e
77f1
969e
a0f3
bca0
c693
b06b
5b5f
b52b
a999
1f43
fcc9
fd2c
e25d
55ac
5762
c8e1
60a5
d951
8a03
3b14
b872
ff00
e770
2127
ab0f
6e58
a63c
d797
ce0b
4798
e48f
4e8c
dcfb
fde6
fd39
29d1
0239
a8a3
428d
1261
0855
5259
5cc8
df1d
e9f4
2c39
6aba
8170
f552
90b3
7188
d243
30b9
9a6e
5e18
2d32
e0a8
589a
b4cb
2138
de0e
193e
54b1
e89e
dcc2
9b0e
8f19
026c
335b
9ca2
a698
021c
5425
2627
4433
26ac
2256
3e7b
10cb
91be
e74d
6d08
0b14
56fa
2845
b4cd
458f
69eb
a35e
28b7
951c
0726
3423
0392
1834
1379
107f
d263
5e23
abe5
78f3
bd81
a672
6073
da67
67f2
6c71
9155
6db1
1e8a
7a1e
351e
8b2f
29d9
f0ba
4af1
4ce9
3321
e54f
8814
705a
27a9
67f7
b087
29b8
77fb
6002
704c
92cb
0e3f
2a22
f6e3
23b0
3520
75eb
9360
ff7b
4ef7
3447
315e
fc26
d47d
9cfe
6d5d
b526
306a
9373
a7ae
f04f
f177
cc46
7ce7
9101
d41d
11fe
f8e8
4811
82ea
9785
a1cf
ae83
1c31
81d6
594f
2967
f484
0938
911a
20a9
ad3e
b20c
4df7
45e6
2df9
a911
5a28
96c1
bc4f
cde3
4567
fe38
0e73
6a2e
9704
8ef0
4d52
0687
ce4c
dd62
ebbb
ec6d
02c4
550d
6c2c
9c1f
1f73
764f
bde7
56c7
6d22
2370
494b
b0f9
7a45
be24
79e7
a821
fcc9
c8ce
c38e
9111
d42d
b858
0008
8fba
bbe0
d4f1
b81a
493d
e4d4
2598
6302
252c
678e
147b
8f5d
14e7
e1a4
05ba
9ae0
fc49
ff34
2788
59cf
0128
68f9
ca36
4322
6a9e
fabf
d833
2782
ad54
628b
cbdc
f799
4c9d
c9fd
ade1
f451
594d
4a5d
496d
f6f4
c562
1eb0
57fb
ceaa
830d
0bf2
8100
99f4
65cb
d185
ce9f
c526
72f4
eec9
341d
fd06
5f95
c0bd
08f9
bee6
aafe
bb00
6c35
ce6b
0993
2910
b695
63e9
b753
6dc3
8121
d78f
a7dc
13bd
7a1a
ed76
33db
94ed
c198
d33f
0f4e
afef
2ca4
0631
faf8
f202
5f12
4424
e709
e77a
94ce
1b2f
1bee
b15a
73d9
4bc9
64ff
d51d
1cfa
beeb
7edc
08ac
cdfe
4a26
792c
8fad
5701
77ea
912a
7d4c
54e5
2809
f3f4
1162
cb61
bd75
e9c1
3265
d248
aa55
8c0c
0a12
ded1
62f7
0942
e9b0
f1a5
da56
f146
b079
53c5
b677
0145
2a7e
4934
6c09
8940
d5de
4bd1
ec81
8201
abd0
cbaa
7557
0f59
43e9
2ebf
396d
9efe
91d8
5107
ed84
1182
20dc
d160
0064
25ae
8d85
a188
47e7
1437
9f7d
2709
618e
7f54
23aa
7b6a
0c61
a6e3
d8e8
bdc0
a611
17b2
4e2a
e7ae
396e
167b
2fc3
9df6
c046
b83c
b3ab
2785
b578
6202
a272
46f2
57d6
1cf6
bcc9
2658
d323
27d2
dee6
8959
6585
36b0
723d
0b6b
d21e
a0b2
8bf8
22c0
f4e8
9325
6b5d
0a82
223f
9f94
0e59
22ea
f5c8
35a7
0bef
0a93
2ede
14a8
4e18
7c4c
2bb7
3734
3625
8402
c50e
b63b
07b8
8185
afdf
baa5
a026
046e
1258
ec4d
7f18
40a5
ba60
3147
49d2
4dd2
ec2d
6e57
b3c3
7a63
7cac
56e1
bec0
0072
5bfa
247f
5d96
5988
41f9
207c
864c
6a7b
9323
eb3f
62b8
f3a4
47cc
1b04
7e7c
ddb6
2454
0e97
776f
adb5
255a
2ff4
e15c
05e8
0b31
2522
7fa1
483d
85a5
6ffb
c00b
2f5b
dfc8
5b1b
52b0
f006
9688
5e36
bcd9
8b81
6cc7
deab
15ec
1e0b
4cfb
6529
704a
2c9e
36af
fb74
f2e6
d52e
52c9
9b19
f702
723c
ac59
df24
52aa
bdf6
8384
9992
250a
ba70
0923
7373
ae47
a850
8294
ec28
e2c8
20ed
4d57
3c04
8588
7610
a2df
0954
352c
b967
e277
fc23
eb06
1fe2
8944
1e8b
7bf0
9c3a
443a
bcc2
cce4
4473
ed5b
3fbf
c1f6
9fa6
4028
5f6e
1162
b5a6
e54d
5e04
756e
bc4d
eda1
8493
8900
43dc
decb
117a
dc12
8cc4
c5f0
4d01
160b
50b3
e6c3
8df8
a31e
57d6
cc8e
7e78
2065
ca8c
fd50
08e4
817d
f25e
96bd
711c
a7e9
a651
cabc
484b
42e4
d135
fd20
773a
329a
9169
35ae
9b01
4eb7
4040
1966
d4ae
5cee
3bd7
6b48
6891
3d0f
7eee
06de
1d16
dc5d
8956
15e8
43de
1fd2
66dc
a28d
817f
18a2
46bc
5790
c341
98d5
9d4c
bd6c
feec
a05a
4967
fa18
454a
52a6
4ca6
bbb1
6298
283d
d136
a3b0
ea7a
274e
94f0
9345
4ef1
09a8
e7bd
c5ff
b8be
d969
b446
0bb8
0ad3
ad24
4503
dc77
2a32
4d29
1a30
5d9b
e302
f188
1672
8d19
1289
870d
bb6f
daa4
23c0
7220
36a1
0216
ab80
5cf2
c6c0
1d25
2541
705d
f46f
de13
0a0b
b83f
4cc4
83bf
8397
6ae0
1778
8b42
af69
bbb3
b234
8417
1684
951e
5db3
a8b4
fe82
0b2f
3323
6953
cfe5
507e
be5c
529d
aca4
78b1
21a8
b04e
fa4b
712e
90ee
6572
2655
70a9
0f96
d5a0
6f2b
7bfa
8709
a146
bec0
5926
58ab
0deb
188b
1e84
edae
50b0
8d7f
d593
e1c7
b1c5
ed0a
aae0
0ac9
9796
9323
a09f
31ce
7eec
aa80
133c
eeb0
4dbe
c531
3263
4fc0
aaa3
da41
65c7
2d3f
1a6c
9a16
f3f9
ea39
dd5b
a203
77f7
200a
f4de
762f
4088
487e
330f
e01a
e04f
daa2
d468
4027
6083
740f
5a7c
4c63
096e
76b3
adc6
3e04
526c
0509
16e4
3f38
cae5
638d
2ce7
3561
8b89
fd4b
52a7
1000
fa25
5e85
bd82
d758
dc9c
ef90
0ca5
4f9c
d082
f658
37a8
dd9d
3899
5cdd
4d8d
fe88
f92d
20fa
5b98
2c32
c3e0
4232
e40e
84f4
7e61
76f9
fa69
8ab4
3639
26d5
c629
8b2f
b5ac
3215
8476
6648
8e00
c4bf
96de
dbbd
3812
9adc
2769
472d
3e29
97f3
c25b
a653
cd8c
3e77
afa9
bf5b
ff11
dbb0
11bf
bc23
899f
6cfd
263f
8d8d
c105
c623
caa9
fdc8
b1c3
804f
3c6e
ea95
1260
a11b
75dd
e435
3a1b
b557
29a5
68b0
e947
e38a
46c7
a416
a423
0780
46e6
d2b5
87e0
6709
0ba2
a38a
e8b5
4b7a
f350
1c55
25ad
a729
d98b
a939
d277
7ccb
3699
3e81
90ef
2df3
7242
2356
7ff4
94a9
1e95
513b
0969
93bf
e2dc
ab7e
be58
854a
6aa4
0656
fcf3
b4f1
696f
68bb
5f63
72ca
e492
91d9
ff54
44df
b408
7b9e
caf9
8129
46c1
219a
820f
439b
2f71
e8b2
e057
ec14
af6f
ecf9
c803
028e
348a
2faf
dd45
99a6
5a39
6050
a351
d9bb
20cb
64fa
5bbb
72f0
a86d
0e93
6d8b
2028
2e12
c1e1
83e8
2988
f133
f9ff
5d3a
81fe
7f02
508d
9c5c
da5b
2cab
151a
0051
7dce
4f4b
b72f
61ae
ffb6
e283
e1c2
a659
ed45
fcf1
2723
1cde
168d
aa98
0d75
757b
48ce
cb2a
ff33
daf8
70fe
f38e
ea1f
2957
430b
f759
e746
72c8
2f0b
2850
3392
0957
8fc9
885a
c284
ea43
ebd0
bb27
1285
6b43
1543
b2fa
76b6
5f8d
17a1
b2be
f66d
335e
ac10
c106
2726
4b0a
f5b2
c5da
5f7c
3381
1994
8766
ed60
6c23
2abb
3e1d
2b1c
4468
c347
123d
c7e7
90c3
4722
ec16
d654
d79d
bb60
080b
bced
f2a2
cee5
5afd
1053
c6bf
3ebf
9ec4
7fea
97c2
080d
710a
6ea5
f4e8
1333
5c10
e21b
e654
9cfb
5136
afec
f179
abd3
0f55
ba73
3608
d99b
db9b
71b7
639d
3290
8d18
8b1b
0388
977b
5332
ef9e
de29
8781
b377
75c1
d2ea
5621
7137
e420
8c94
a8cb
cdeb
dda8
15b2
2b51
7e65
6852
4f2f
4daa
bce6
0834
12f8
3b42
5601
5689
3371
78f0
1dff
6e13
052f
50f0
3207
4806
3062
f802
4ccf
b554
f8ae
d617
ee1f
7c7b
8211
e1a5
9df2
3480
348b
fe59
436d
e5cc
5600
fb32
fa7d
d6be
212b
132a
b165
d652
f2ba
7327
9101
eacd
0b63
7d91
6784
6c16
23ad
7702
85b0
2833
6d6a
1516
d2c1
3fc3
5f62
7364
00a9
6425
36e5
644c
38bb
8e93
bca2
ba08
f551
7e2c
d4c5
b145
af95
a91b
4bef
e442
84c1
df1c
27e4
6416
74c3
0ef9
49e1
e73b
4646
6db9
4925
c4af
7db2
6fb5
c627
a014
c9a3
de44
797b
cb68
8185
b8b7
d477
4765
985a
7861
833b
8766
f2b4
f167
ba6a
9fec
95e5
beb3
6919
3957
eb84
8718
2d44
cf91
8c52
636f
6910
f11f
1ed5
ebe7
e5dd
85a4
3f92
769b
7711
0658
f787
b8f5
f4d9
a841
03a8
a49e
5886
3e5a
928a
9f90
0596
b9b0
ade2
5224
7612
c774
16a4
5f97
5580
1a16
1e5f
321e
bf17
2b13
f853
6b28
d3b1
2169
d1a0
8777
7552
25c5
0747
abb3
008f
480d
ae1c
37df
9d51
0bc7
272b
7288
7b8b
8621
d777
b9b2
dd89
1825
c5fa
90aa
08d8
d5a6
d126
e5b0
6cba
ef87
ce63
020a
04ae
2993
10c9
02f3
82f5
0990
aa0f
f350
c621
e6d5
0ae4
3601
3426
61c5
327c
9b8d
7d98
62c7
b1ff
bb8e
f006
4dbc
205d
7c64
d820
74bd
69cb
7219
2987
e608
0783
f891
bf7d
dcca
4359
8eb5
ebd4
11fe
c8dd
e5e1
0bad
6db6
dcd4
2e2b
25be
e7dd
f31a
c16c
efb1
df08
866e
35d5
dd36
6065
dd07
15c3
4f9a
ca8b
d2b6
1436
e20f
17c1
dd44
d79a
c538
21b7
6f46
0428
d1cc
7903
80cb
afca
2cc0
30eb
b012
4c5e
c02a
0a48
5c72
7d4e
0b53
22f1
de81
a619
340d
c47a
8a7b
1e61
5f6b
f9fa
59ea
5661
2e54
95e9
7d4a
ece9
8fb4
7431
704e
41a3
6ffc
ca2a
fc68
df22
a935
0b55
e9b6
925d
55ce
bc82
10b9
7d3d
6285
cf22
a09a
a60b
a894
7dfb
c1ec
66cc
ccf3
aa78
a33c
bf81
98f4
93c1
9323
e024
564b
d34c
5f11
787c
723b
37ba
031b
05e3
bcc7
42dc
3e61
6495
dfb3
217a
b250
85b4
0853
bf81
b3b7
2dea
ba76
2ed2
50ff
6a27
c57e
6973
3d3c
21af
004b
a954
e691
a5c8
cede
978e
2045
bb12
cddc
0b53
fde8
2ad1
31e2
eac4
7daa
9077
d89d
4884
5f9d
bb8d
8ed9
941e
d9a3
fd8b
0244
a234
adec
10ff
e4c6
e4fe
7fd9
ae89
778a
55f7
dc02
6aa5
cbf3
0bdc
24cf
51e9
99f4
2e5c
2350
b619
67d0
4c6c
2125
05c4
e651
4faf
11ec
9846
cf3d
c761
f037
f234
0cd7
6b58
1c7b
9d71
2038
e07b
6192
471a
217a
cd55
ff1a
8e69
26cc
89ec
423f
80b6
6cb6
6ba6
e749
869b
95d6
4125
b4ca
a3f8
d2fa
178e
5d9f
88c5
aa43
b451
b68b
09a6
c786
88e2
bb89
63c4
ce58
5400
15c2
4f32
f3b3
87ed
6e9e
f31a
980b
37c4
e505
4ea4
9c20
b80b
c8bf
c72f
09e0
f788
51ed
5930
3bef
b792
36c6
6a2a
d650
ff50
ed15
3b90
fa56
c909
cb90
35c0
5c60
7e62
ebda
27c0
21a5
a255
a67a
63bb
3e4d
f141
ddfb
48fa
8889
6fa6
09b8
fcce
4434
3ea6
e66d
a61e
36a9
26dc
834a
7613
83cb
4749
e427
5d2a
d815
9150
73ee
3297
49cc
4842
bb62
aa76
9714
b318
afb8
3109
c92e
336a
bceb
2267
2ca1
9036
f7fd
a074
dcf1
9493
d158
9cfb
993c
815b
626c
be69
019f
a4b3
6dcd
5526
5b4f
3c09
93fa
5d51
f29c
921c
1dde
7b02
1e36
6b26
4c82
e9f0
c156
c481
6fc7
1c32
372c
b9a9
ff11
82a0
5392
4462
aa1a
0ef5
f09d
a990
7b02
6d20
59b0
28aa
0381
0e34
0ce1
eb26
4e6c
85f3
d55e
46c0
9a89
0828
5ccb
ede7
18a7
7122
94ca
f553
ad3e
c8fc
e538
c8ca
e6f7
79d0
74d5
f696
87d7
62b2
183a
01f5
0f10
74a7
aa07
8bc3
865c
03ff
5da2
a9c4
8827
0ed6
bd38
35c9
012e
0b3f
3cbd
1218
8c4a
e988
d0ea
b283
7791
9974
5ff0
7a08
af45
0974
bb71
b8a4
51c1
127f
3566
6ca5
a9ba
2268
7670
da15
619f
23b3
51ae
5b42
8c4e
5840
82ce
c04c
d6ec
a0f4
a1bb
7c34
3aca
27f7
5b89
2c34
33cd
04df
50ef
6419
b253
0736
2f50
30a6
83a1
bf92
81c2
0003
3476
247d
b9fe
bc22
146d
24dd
14b3
43e9
b26a
199e
ad62
11fd
d631
c3b6
3fde
5fb1
0f95
0e0d
c88b
325f
919d
6c45
6864
398e
095a
4eb6
fea7
09f6
6696
64f0
4cf6
c3d2
f842
b9f0
b9bb
d46c
938e
a36b
20ec
2919
ab89
bb43
8390
dae4
1e2b
e53d
4728
8c57
02da
ec89
04ba
34c8
6cad
d25c
023d
0c8a
e566
d4f9
66fe
6e3b
5dbb
036e
d837
c70e
004a
15ad
a9a3
d520
43df
38fd
5a25
2139
e230
f823
13de
374a
a6ff
437f
b246
5a11
fb5c
5fa1
ffe5
cb56
8dd2
1511
76e6
3642
b0c2
1160
6b9f
e738
bf07
ddf9
70b6
accb
0232
4a4d
dd4d
1766
f454
5c7b
853e
2f56
a2ce
2ad0
3629
3a10
f6e1
511a
73f2
6e01
5e32
14dc
10a7
2d4e
405a
ef36
3334
681b
edfa
2c35
d6f1
1871
eac4
5b3f
f8b7
086a
a158
40aa
3309
1680
c2f6
d832
44c7
351d
b18d
ff87
2e0b
2fd1
2182
4992
bbbc
606b
7a18
1ad9
7296
159f
0f01
b0c4
8456
2c35
9110
83ae
35a4
8d12
28b8
0986
d66c
9598
8ef9
3011
c63b
4968
c8b9
bf12
de89
e742
3d72
9463
4dd6
0b3f
7428
a7d7
5a16
4341
3689
70e2
8ae5
a88f
614f
4bdb
27f4
c30b
b901
a99b
764c
9490
4f5b
460d
4001
92de
2eff
5f55
19be
a5c4
13bc
7697
16bc
1c10
cf20
a446
fbc8
4d81
bced
70a0
8ed0
87e1
2b60
40f3
908e
dace
7d78
0e7d
7fa9
b441
244e
1a4b
f952
ce6e
23b8
4432
8527
9ad8
166b
89ab
f9f1
dae5
cff4
235e
63b8
976f
79c8
0fe0
df34
8c28
b806
4557
ea32
10af
2a01
9b65
ed2b
4a2c
bc43
18ce
dcc3
668b
d61c
fbcd
3f07
5976
98e1
92a8
e120
ad02
6657
1b47
ff1f
654d
9fd7
8812
7a11
cdca
fac2
e460
c1ab
ce83
de04
13f7
e302
0e64
4868
932e
7026
87f9
0c55
9e41
d63a
d1c7
cccb
42f4
d720
3f38
dd97
4a2d
c104
d6c7
2197
7795
fd83
e406
7501
1c83
ef05
270a
90d3
6f14
181e
e1c1
ae95
5e30
50ec
f21e
c2e4
e92f
9aa5
fa9a
9f7f
0416
7c8c
0790
38c1
651a
b73b
046f
47d2
11dc
fa10
a3bc
8979
c7bd
cda8
05f2
7901
20fb
10bd
b003
0c4f
76cf
6c25
bc70
1e56
0274
7d16
ce9d
c124
886b
7987
1a57
63e8
12ca
ab67
8fcf
b941
c119
06ed
71b3
4600
a773
74bb
c943
1625
81e4
7268
95e5
6083
b7ca
4a49
ceb9
2334
3adf
2d30
8201
1469
8d79
f74a
b8e6
44e5
173a
8907
3533
0a41
a320
b542
4cbf
e0fd
dab6
6de7
a713
031f
a988
4cd8
4123
78cd
b394
ae60
e815
36c2
790b
e93c
6863
9fed
f4d7
f750
b283
34c0
38b9
2f6b
ab31
c27d
aa93
cd2e
f032
7a4d
983d
b9d5
d9b1
9114
855c
f32a
b7ed
fd78
2aeb
889d
a825
2fd4
94de
8ef1
4467
344b
8733
5bbd
8025
2a45
340a
cb9b
2247
90e3
5e3b
ac06
a93a
ba2c
089d
592f
7a95
32e6
a65d
f375
ca49
2616
f68a
729f
832e
6a47
dffb
0e25
95c1
44d6
465c
48ad
7814
6ddc
2133
c7d6
213b
6143
e999
364d
1318
f0a3
b39d
a0c4
7553
50ee
f13d
9605
ce7d
338a
023c
446e
0bbd
ebe7
40b7
248b
c41f
52d8
b8ba
6093
3b1c
ea8c
581b
2371
d267
b9da
0792
22ab
4b38
54b9
97fe
cf63
7af4
5df2
3f77
fe38
3070
ea4c
3b96
d231
0817
edcd
f316
d54b
312b
c5fe
889c
99b2
9983
e49f
56a9
ed4a
9c41
e6f0
fdd5
2f9e
4334
717b
75fb
7cf8
ddbe
7f97
2ac9
84a8
e92f
a165
c062
ea48
acb5
d043
437d
fa1d
c875
a09c
83ce
58d6
3ac6
959b
460c
4029
722f
66be
2d1d
9cee
e646
dbfd
bbed
f037
0026
0fa0
93fb
55e1
d0e9
8dff
e733
43af
5a19
bf5a
0e89
b9d3
af8d
78b6
4e02
b61f
3c9b
5596
beee
7f02
167f
0a22
0eaf
4310
176b
3ed4
d6cb
a799
4ed2
e262
c9ab
2c7c
4f40
3208
af4e
5bad
7652
2daa
c53c
282a
757b
bf48
87f2
90f7
4a45
1098
8af5
94c4
466b
c84b
4525
9101
1f5f
8a4b
664d
850b
4169
05fe
8aec
97b4
eede
93f2
b300
74fc
41e0
7892
a033
9a68
2ac8
5cdd
ce9b
3064
4e08
74d3
1bfb
145e
e06c
7bc0
a190
dbb8
b2fe
dc12
01d9
7156
4cc3
e011
7a1e
a8b3
e6e8
c76f
1d6e
cacd
acaa
5ad4
1727
b648
64d5
504c
c31a
8f47
6fc0
1653
da9b
5a45
8804
f8cd
1410
8ea0
dbaf
a191
a920
1fa2
26a5
4bb0
9404
7b5f
f8ef
5ab6
b47f
3881
f92d
69f5
760c
f959
fc2a
b897
82a5
5283
8435
2a20
6ba8
0328
6c7d
9ff0
2286
9e95
177b
0ea7
80ba
74a5
ff1f
1438
893a
6e6e
e552
2848
a9e2
69c5
56b8
cf25
bd92
e73b
c7ee
0e47
bfa3
2eed
0dea
6034
d607
24fa
86a5
1cec
816d
750e
8983
2067
4fbf
a3b1
3023
0e26
1e44
cf9f
cd97
c5b0
8be8
5036
d591
1e20
e38d
99c9
20d6
8b4b
05f0
6340
59c6
cd2b
c0cb
b892
2bcb
c455
f021
19b0
9b9d
a4bf
036c
c48f
0ac2
b002
3da8
0cf6
01b3
c0bf
e2d6
4a38
56ea
ca58
3eb5
6645
3854
6507
5e97
1347
ccc0
3aac
c07a
b5ce
0260
e734
2ed7
9bff
6a3f
d0e1
a036
0a38
b28e
7bc6
1ac1
2e1e
4162
9ec9
ebe4
6cca
3440
36cf
952e
7cd8
d923
7924
f259
ec01
19fb
6718
1a12
d336
83d7
2cc5
4099
cd49
4ac9
ce47
8583
901b
9586
91d6
1f75
348d
1522
a6f5
0383
7dc3
9dba
af17
7c06
8d47
d28a
eb8c
ce73
b533
e8c7
0288
2850
3fce
1d35
7fb5
a19c
3be4
55df
7a55
960b
6e9c
d800
ce3d
1cb5
d06d
cd31
c530
d00b
07e4
2a75
849c
8541
db8e
e0e0
6b5d
84b9
62b3
97ac
68ed
1655
2f61
929b
be83
23c3
4742
b736
84f5
9c92
b2a4
cdc9
f7af
8001
b04a
9e4c
0d67
f641
16de
7ae5
e5d8
6f45
cd14
df00
9184
46c1
23f0
d573
1499
1098
4e70
e0cf
694f
fa83
ffe3
cac3
3daa
87b6
621d
032b
b44b
12d1
a74b
c5c2
2b34
b25b
848e
10e2
afdc
60b0
8ee7
01e9
bad6
3600
dff6
caea
334b
5a93
29d6
bac5
b25e
68a9
82ab
bfb8
9ff3
e46a
d503
b48b
7813
bf60
592e
0994
ef02
b572
f69a
fd24
efc8
05b2
c2ce
13ed
0c68
9832
d697
58e4
c1dc
6839
758e
ef81
0701
6c4e
b5d2
1623
6fb3
4ad2
faf0
37c1
66c9
101b
750b
5063
6432
6063
9923
7ed2
cf3f
072a
f30b
147c
e5cc
93dd
afc7
5108
e7f2
4d8e
6ea5
d22e
fcc4
deb5
f6f5
2989
ab6d
e0f9
ffb6
8517
6e57
689b
950c
5f1b
d890
a187
af7b
c3a5
aefb
1049
48e6
444a
6cca
fc1a
acf2
77dd
69a0
f687
78ed
61da
1de7
2fda
cfec
892f
07e3
a141
d082
c1de
6883
9955
850f
aedb
9fb8
1200
671a
240e
869f
2edb
7757
891b
4049
9254
0d5c
ef18
650d
b974
48b7
e81d
176c
cfcd
9c94
b823
bfd1
abbf
bcf0
4a99
ae67
a3d8
55d3
d75e
b6c3
1953
f571
ffe7
7968
f91e
3cc5
bc7d
a821
be01
27c9
3a61
f649
fb05
f886
016a
9767
a1a4
69b4
a2d4
565c
3238
810a
fc33
1d46
279c
3c46
813e
6132
94af
c747
8e69
c3d0
d6d2
5de0
e21a
a498
3e1a
2ea2
8f1d
a7c1
4db6
dbd9
bd9c
da26
40ee
9f4b
db7c
ec19
3c1b
8c52
ad06
9cf6
a14f
b128
7a2c
9a5a
1b2f
2225
a7a4
23dd
1388
ad8a
d86a
b3d9
1561
73cd
c21e
dde2
ce45
32be
cc21
5724
50be
c3e5
c5f5
54f5
e5a4
969e
9645
44d9
79a8
19c8
5013
06fe
8018
e6d0
7191
e6aa
ed6e
1a77
2f6f
a56a
958f
8ca8
15e9
3955
4b42
9b28
f0b4
5575
706e
dda3
0161
9d1a
b39e
fc43
c1dd
0808
82d3
97ca
63e9
80de
8d84
47c1
eec5
409b
3de2
375a
608f
7d9c
33bd
046d
b03d
1207
625b
88d3
1afd
6748
acf4
16e5
d579
ff8e
f02b
0abe
4a26
933c
e3f0
e267
715b
877b
c36c
de70
ea22
cf9e
669d
f6e5
38f1
bc9e
8f55
384c
7cba
ddf6
401c
cb1f
3143
8538
3b75
4aee
d930
efd9
d23c
b989
bdad
115d
c5f0
27d2
84bd
2665
eaf0
4aea
4b29
167a
e05a
dbbb
44ef
2db1
f304
f8ea
82f9
e719
1ebd
2bcb
8c98
eb3f
ab32
05fc
3c6a
0bdb
7b15
c468
31b0
08c0
c544
851e
f810
3c26
cbb6
f26f
5aa3
2150
648f
c101
c4ab
9b38
1dfe
ce44
7b68
a5a8
db17
4e53
7291
bd35
ca6c
f1df
1f6f
15d1
b27e
aa72
c8f1
72da
b403
4801
d2f7
1452
2495
fe88
906f
7a2f
30a8
24eb
ca79
a047
e388
089e
5d11
6b47
7ea9
2f95
4bfe
bf43
7327
f71e
466b
4b70
e010
72cc
a2c0
605e
7025
697c
80a1
e084
db9f
5bbd
54b6
8249
6c3d
8ae8
11c7
4f76
183d
632d
2103
2e4e
c3d3
f3d4
1484
fc6d
3bde
567e
9d70
b13c
cfae
e6f1
bba2
d08c
0e3b
4244
8a77
d272
a9f0
2aef
43bd
f9c6
9fbc
0308
6a07
031a
9e36
f2a6
a6d8
46e2
258f
6b8b
ee9a
327a
0a18
ec85
567b
7f55
ba75
0099
6ee9
385f
4835
3b95
5e6c
4846
51a5
92b2
d61d
e56d
b955
0d93
e72f
e102
6c88
b402
8229
4cd1
6ad3
df1f
b069
8eb6
3aee
6475
40df
5184
98fe
ecc4
1667
f303
ccb9
4652
da1b
98b9
bf81
64cf
f77e
d37a
b63f
2520
b723
bbdd
dd9a
fe22
ce15
8a4f
fea7
505b
054c
612b
8def
f731
0cec
a988
4463
6535
f37d
112c
b31a
377c
f1d8
3b29
81ae
3ecf
858a
52a4
1f43
f71e
0563
aeac
0a66
3690
6c88
351f
53ab
4e5d
4326
74b2
bb42
1f8d
c199
98a7
830e
b9bb
3ee7
8806
97c1
779f
65aa
b298
04a6
f0cb
83ec
f439
41c8
bb26
6f8f
87c0
2f7c
13fc
b3c3
9671
612b
a4e5
923c
1008
2083
3319
fc7e
cf6d
18ba
b57c
3c3d
6988
9a4c
5bf6
0bd6
4866
e873
c546
0434
b2cf
d8d7
fe7c
6487
0435
b560
673b
556a
7728
a0f2
5d68
7ee9
9dea
d2a5
1dfc
77a2
91e5
6171
fb27
d59d
c357
f64b
ca7c
f4e2
f7c7
c83f
9282
5449
5ad8
1228
1c08
976d
9b98
72c7
0acb
aece
8871
7766
f1a4
568e
72f7
905d
39bd
2fd0
1354
e7ba
06c1
e679
aa91
a342
fcc0
358a
e70b
5674
147a
945c
1508
fed5
8ad1
442c
0109
5f27
0717
8d2e
eeee
1a4d
4293
4648
a392
d4cb
6677
a598
4f0b
ea3b
78ac
4586
f242
4381
7bda
02ab
1193
0ec2
2c66
8d6f
5487
4224
7223
75ee
9b59
fb2d
13f5
39e1
935b
20a1
b829
f4a6
3dcb
82e5
c892
f622
4fc2
2bfa
7556
39a7
8515
ce73
d84b
743c
57fc
db2e
d403
05a0
3f32
a51a
c7a0
a573
ae15
49f1
aae6
e5af
7c08
fee5
c9c4
0477
cefa
de8b
f224
d7b3
66e6
a7fd
0fa2
cfb4
cb99
7044
51f9
4a5c
1653
8757
f2b3
0338
11c6
3fc1
7adb
53a9
5fba
69b6
40ba
959a
08a4
a03f
602d
2fb4
ecf0
0226
e989
12ec
df41
5bef
cc4f
5970
5c09
b88e
c0a8
b1f8
3e98
bf5f
d230
89a6
2d02
e84e
4740
dc97
6559
09b4
52bd
ad74
4575
41c2
84a9
f27c
07a6
7dfc
6f42
5f64
1924
1bb9
5e3a
7908
6a8d
088b
f9ce
d43e
ecbe
2cba
81ac
0dd7
3a47
853d
0e00
f705
faa5
2502
53b2
18a1
3846
8cbf
6639
66a9
c4bf
c76f
2c39
35c0
e8e8
1541
a2b4
dd84
ef0c
f6ed
5550
2478
973b
ace2
7818
f9b1
67ce
b564
0438
4768
790f
cf37
cd7a
32f0
f9d2
b35a
4f93
fee9
a483
b525
50e6
2ab0
74e1
aa92
64ef
0528
322f
8f70
9d06
a888
84ac
5133
03d9
0c2d
e796
323d
6573
afaa
7bc3
e83e
0431
f022
8bad
2cc9
d135
23b3
1d77
523b
b3cb
c836
051a
378d
409f
a3db
0fe5
2f74
a430
323a
90e1
7e33
9eef
154c
60ae
7ac0
1815
160d
384c
73d5
620f
f07a
6a25
4bba
7773
7735
1001
0e73
4af2
745f
335f
2a22
d2b1
cc6c
2587
2649
53a3
b21c
f7dd
9bff
d691
3d41
4bc8
e950
4b78
0f0c
8eb9
34f4
9b7d
58d4
2f52
8e32
4e80
861d
8874
2a9c
c2ea
8a21
1aa4
d042
3718
d02f
dc22
5f07
99eb
ee0c
420f
b126
ce40
2fd5
4f39
fcf2
3168
f764
5e22
83cc
fd29
aaa1
d20e
f0a8
93ca
6b5f
eb56
71ca
6d9e
a903
b53f
c9b5
5e01
ae9a
b025
6ae6
097c
676f
dcf8
c9a3
66dc
1fb1
549f
6e21
972a
df89
73a3
690f
2622
3349
ffbb
3e94
144b
3feb
6d8a
d86a
00ef
83a7
57db
6d25
0577
ff70
fed8
d06b
d69e
70c7
9e58
c297
3469
94b4
6294
b9e5
3cb8
892e
cbef
0d91
165d
c5c3
9049
0ea9
41f0
f42a
1cbc
766f
e18a
fcf5
bd66
48de
0622
ed6a
9e46
96c2
39d5
abc8
6c5b
756b
7561
58ad
d504
56dd
6bb7
7782
4e6d
ae99
7287
6709
5b33
5fcf
170a
b43c
86b8
f560
834c
2b2f
79ce
13c5
6674
1377
a224
99a0
d948
b7c9
f9c1
7ee6
b272
a060
3cc4
65cc
021a
dbc8
3c49
a668
63b8
f723
25dc
df84
30bb
0e5c
d9ca
92f8
da74
cefe
e763
1eec
f1b7
09da
7372
7fab
3450
cd8c
0c33
16f5
ca68
cd65
7b21
c189
9916
984e
d8d5
3600
13eb
1d99
d4d6
2a37
9580
38d4
86dc
a6c5
c8af
23f9
ef78
ca65
e9b4
fcbb
24a8
2fc7
9dd0
efc9
9d24
0846
09ba
82a3
4667
a233
57db
54d4
2bd6
02e3
648f
3e98
c36d
2d73
708b
f1be
263d
f3a2
314f
9fc4
9dc0
401e
15c3
5c73
81b3
295c
73a4
c310
4c08
738f
eee1
ec75
ef7f
1c53
ddab
4bb1
8250
77f7
2ab9
67b1
86b6
d54d
6370
f7c6
8934
84e8
ecd1
ed9f
76f5
fa44
d093
b1fd
a020
4b24
c080
292c
e683
789e
3771
9192
9d8d
1c80
153a
af74
388f
3e1d
46c4
f4dc
fa0d
c23f
492e
8359
c824
4d3e
8cb2
d0e8
8665
fb2d
c94b
a2c9
452f
c003
95d8
c966
38ff
81c2
a88a
aea0
550c
a486
d871
e7a4
f350
5e99
fb29
fa9c
ce91
e807
ce5a
709f
2c44
9bd9
a4e0
cf46
01a0
f235
818d
9fd9
cf2f
017f
dad0
acae
f159
f52e
8600
454c
19ee
1801
dc41
1552
07b5
9a2d
672a
e1f2
dd4c
7902
81c9
2027
e911
7579
2602
1c19
5e3b
2776
b201
e8d5
6ca7
2dc1
2b86
d3fb
ab86
8120
c1a5
9deb
e91f
9487
c154
98b6
b1de
3492
0c00
3ae1
16db
bb20
00f5
5c10
5a6b
948f
a097
2c60
82e5
5655
e165
f676
e479
d52b
d859
7f0d
9eab
7494
e0d6
9046
74c5
768a
5152
a819
8bde
063f
2f6e
3df5
a54a
d9f5
cfef
8746
266e
d2e8
4995
0507
98d9
280d
4d3d
e516
5418
0e7e
e153
3ea5
5913
4936
8b96
2eb6
ddce
1e28
befd
c52a
9643
58ae
52f0
8b4b
49e4
045a
56cc
a393
5598
31ac
ebb3
4583
840d
3ca6
ec78
36a7
659d
561e
489b
e2c0
44f7
d42b
43fe
0df6
8b04
81c7
0e61
58a3
b5e4
4dfe
35cc
8229
8773
48e9
9d1f
37d6
54ac
c49e
3d95
06e9
0e93
62ed
3072
f7a2
ad5a
24f6
9e35
dfc7
3a7f
913f
e625
b93a
c1ff
5693
6fdb
5950
d3a5
be5c
8666
11e5
c0ae
3535
4461
8084
d06e
f9bd
ccda
3d4c
c5a3
7efd
127e
52c0
c6ff
ad17
4f23
93ad
fe46
74be
20d7
bbda
e28a
ce12
45b8
09e4
67f3
f5f1
8089
defa
7421
bc4c
477d
b831
4eef
1126
1e0e
6d84
81f4
0917
98a3
2a14
82ed
2124
6e42
e191
251a
cd78
1185
5575
f531
eca5
7663
d146
1805
323c
cb6f
e5f4
6e78
07f1
f710
3c88
ecbc
c8f9
1214
1cee
21b7
7ffe
a035
a1bf
249c
4be2
c2aa
6f77
0c90
77d2
1ee3
6019
2854
496d
d398
0c63
ca0e
d627
942f
8cef
1b12
9b08
dda0
46fc
cd3a
7584
d325
5251
9b29
3abd
038b
9659
016d
d479
ae19
6a0f
ee4c
f6b1
68af
f331
4a8c
fc8a
be52
12b3
e86d
f4f1
b686
510a
3899
7503
2dbe
6c6a
8bec
2699
0343
45d8
9ec5
46c6
3a73
7fe4
fa75
c9e2
c0d2
a404
db5d
4b32
ddd9
dad5
156b
494e
eacd
0665
3a4a
bf64
5867
787b
b2a7
0025
0b56
57c1
bb90
7db4
2620
e515
d711
fecb
feb6
6144
3944
0eb4
d958
398c
19d8
784a
f201
6b59
c2a9
9ebb
3660
bf36
b058
f167
7e84
fbf7
ac0d
afd3
9b40
5f2e
3a28
359e
0fba
88d5
c4aa
735a
e311
861e
166a
b7b8
1cdd
51c1
b3ed
51cf
2538
2d0e
c5d3
813c
94e3
172a
78c7
ec69
d2a4
2dec
6916
f280
5091
b371
4b67
69a9
64f5
9bd6
1a3d
2fa7
26e1
f1b3
5d89
61fc
42f8
b0d5
e94c
fb7f
3e47
a21e
daca
54b0
3d06
57ff
6b1c
560f
72c5
5b8c
96be
7bba
08e6
f07c
4518
1090
a257
fb5b
1028
0f15
ab14
29d9
358e
f5bd
035e
203f
9700
a512
95b4
af89
3fe6
7c0a
f7c4
6cf3
90be
1172
73a5
3563
72ae
ff58
f10b
3aa9
63ff
38d3
1431
2579
3638
da13
5412
fa35
c47e
567b
b66c
1d4c
e8c4
a06e
f786
069a
b133
b715
eb58
392a
11f5
f4a1
ff01
d5b4
9dbf
c0a8
f9c4
5ae0
dd30
1888
dcf0
d7cb
dfe0
631f
db08
fad3
b495
5b59
191d
a75a
8b45
9b6f
4be9
bfab
09b4
fea3
e3b0
56b1
1dac
dee1
9d44
a0e0
e817
b387
c0d3
39a7
5bee
2f2c
d0ad
151c
cd56
8692
6ce4
9165
f94c
37a4
79a2
1ae4
8857
5622
2453
d46f
84e1
edda
0f94
e741
de81
6fd1
c6f2
28f0
7c24
03e7
0ded
8620
443f
7847
dc08
b53a
7318
c219
f5e4
68cb
4fb9
4482
ef96
4fce
708b
96e9
158b
0a8a
edf5
a8d3
3942
7dd1
62e3
3b14
cb74
dd6a
7965
2f83
083c
5e8d
d6b7
da9a
9b6e
60b8
fe32
f550
a3ec
b0d2
dff8
005f
22e1
6131
defd
862a
88e6
d82f
319a
ce45
7b37
46af
adf4
9f94
0378
1ca3
6513
f2b9
0162
9a7f
f825
c56c
0087
a2d4
6a5d
a29b
9e53
3c58
1c98
2e79
bbe5
f6ed
501a
9b17
2701
cc96
6508
b7e4
f9ab
2b45
db16
9c05
b0db
644c
e08e
24ea
83ef
60cf
8ab7
0211
d40f
bb73
a13c
645b
c4aa
bcb8
fe0b
a667
25e7
eb1f
a6e8
9302
fb15
ddd1
92d9
bd53
a4c5
2e6a
e4fc
d3da
3afc
4252
6e59
35a0
fc41
2bbe
176c
0269
a34b
3a9b
47a8
415a
9a63
6284
9858
15c5
25d0
2675
4b94
8854
bb06
00c5
b48d
6310
2086
3579
0c0c
8eb4
be4f
d267
2e01
b35f
24f2
7144
5943
ca23
3d63
d3ae
fe19
edf0
0fe7
375a
e501
83f3
7a60
915e
1594
9e38
d6c2
dad1
288a
3a7c
b73f
d458
1b47
037a
d888
9a21
1325
b12e
aef1
713e
125c
658d
af2f
ce39
cfdd
ab6e
bce2
01c1
6f01
120d
627c
4bd7
71ff
76b2
20c7
7a08
e6d5
83e9
8bee
e77b
1a59
41b9
93a7
66c3
b0f0
86d5
ee36
8d38
c71b
3b38
9e4a
03d4
b0fd
c51a
32b6
b2b5
c9e0
a3ac
3959
b82e
a1c7
f92d
1271
cfd6
0166
4bdd
b4d4
ebdf
cc30
1600
6635
23c4
63ff
abe9
afd9
014e
4332
69b7
a061
adc8
016c
c0da
bbaa
4443
65ef
4fb2
6af6
bd29
71c9
7e6f
b77a
7939
2d8e
e319
69fd
0cd3
a2fc
9333
c64c
86af
f127
5c41
e3db
aca4
d8fd
2031
028b
4da5
f2ac
b8dc
3e4c
99e2
41b0
e2f2
8eb5
4bd4
0cfc
c555
11eb
c613
891b
12f3
a0e3
2d53
fe14
595b
871d
69bd
d18e
f358
43ad
1b10
1d53
de2f
bf51
4171
4423
845a
81c3
45fa
0e38
4995
7c6d
f1c4
e5ec
bd6d
ce54
7d7f
bf8d
bb34
d50e
c942
4ebb
7a1e
09f5
13ec
226e
d9c7
7685
060b
c637
e899
b0e0
f088
dcf2
8a26
79c1
c323
6e09
a8c4
0734
5c41
f567
c13b
7345
8be6
eaee
035c
4397
f9fc
36a1
278b
07ae
1cbd
2787
f811
be69
d718
cd51
20d7
b516
ec7e
e8a3
587c
a44e
f21e
1e74
6529
4007
bcbd
b962
3b3d
7b0b
6eda
5a6a
f9e4
26ae
e180
d01e
db8e
bf62
eb0c
bfde
076c
6fe1
6eb2
946f
3630
0797
a71a
b5d3
a1c6
cee2
5575
08ee
73e5
4bde
99d4
b241
4f48
cbe1
78d7
5f25
d408
d8f4
e0cb
0528
4d7e
da16
9497
e9e9
1a92
540f
619a
7a52
d666
a914
a040
7cf6
b217
03a2
d05c
7337
dfe9
3786
acbc
9ea2
cb6b
6785
e370
a780
e49a
5449
d881
4343
94ef
fa7d
f36e
ed3f
faa8
c80c
d051
7df2
be66
0aa1
01af
11d5
dda4
003c
c2d7
73eb
9574
1625
0ab5
77a3
3f51
a278
b18d
32b8
2a9e
b09d
2ace
26b5
c921
e237
7d19
6d88
8a62
546f
f473
9faa
e4c6
8541
94ef
1305
efde
b5aa
75ad
5fe3
1af1
ca8f
5561
6c48
4f34
3716
89ee
3182
8770
aa3b
c6d8
5190
c9fe
f1da
17e9
0351
b954
d1cc
40c1
fc95
2e31
d61f
52fe
4e1b
e063
2d9e
96b9
2ac3
0a52
35ee
2428
41b2
4da5
cf1c
76ca
94d0
66e8
47dc
9e67
c3ce
67f6
8314
9c8c
baba
17b4
765f
064a
439a
a896
9008
01da
b023
3c6c
7a30
fb0e
71f7
21f3
3249
b1ab
5925
9c8e
832a
b4d9
2042
3df1
ba3f
40f4
8692
3119
00df
36dd
b20c
e8fa
40ac
65af
8e97
9663
4e3a
b7ba
33bb
40da
817d
3e15
0006
0678
c486
e515
3ef6
3297
e3e7
3899
1415
f0d5
07d4
55b9
6a4e
87a0
5f6e
9031
1ed5
ffcf
237c
430a
427f
f478
1378
b112
bff2
2765
1209
d1b1
ab01
b095
86f6
b8e6
454f
017b
6a9c
4ef9
6d52
f834
939b
b1be
7f15
0680
3c0e
438e
e3e4
e082
ce0f
fc57
bcd3
856a
e088
c40b
9ca3
3cb9
7c3d
b4e5
dae5
6ffd
b233
98e7
d5f9
70d0
941d
46bb
663c
a941
ff59
28b3
dff2
eb3e
aeee
efcb
62a5
1d3e
1f31
02ab
3762
5b5c
f24a
b8ad
7776
ce14
75dc
4885
2acc
224c
0a1c
8cb6
429d
e917
1cb5
40f1
0ea8
56ff
a5fa
6033
76bd
3ba6
1188
c3b7
dcc5
e46b
91d1
7789
3683
2ac1
b452
5f46
9c0b
12de
8423
394d
9f08
a02d
caa3
7536
9ce9
d85b
b2ad
b830
c4b9
3d50
3ae4
39bd
b1f6
eed3
44ae
6a8a
be39
d2e4
2986
1fe3
a64a
688c
20f5
e969
05f1
d1d3
0729
bced
75a4
f9c1
c7b1
df9e
f19e
e71d
6852
8047
5dbc
ba33
3841
d23a
0270
c951
6415
59d1
8261
587d
0dd3
8950
e66c
1b7c
41ba
237b
6d9f
3dfa
86de
8844
6743
19ee
f18c
56b2
756c
74f0
3184
5942
f57c
fffc
de09
f695
bcc7
d20b
6968
61ee
8a46
500e
b137
e7dd
5f41
125e
245c
869a
5209
f10e
fbe5
5f18
9b56
8174
f7d2
4ed9
1ccc
dfff
4d02
bdb0
236a
7edf
8c6c
62b1
67dc
ea2f
4cf7
5ad4
c04a
07a2
610e
98f9
ac4f
aa0e
fd2f
87dd
431a
645d
9ef5
49c7
b214
6873
0e7b
3916
bce1
9d9e
6eb4
2856
80aa
dbeb
2fe4
2bae
44b9
b827
5d2d
6056
f18f
e2db
01bb
d3d1
9981
8e9c
d9be
f705
35ce
4983
3438
fb00
5ec4
b572
1d09
ce64
3b33
a280
119e
a122
d537
a76c
fd51
4a5f
066a
9f29
b65b
9fea
908f
5662
bf64
5d48
0eb2
5c39
8385
2b1c
451e
1bc5
9bc5
01ac
a7a3
bda0
1ff4
a520
3edf
dff2
158c
a1bb
ce53
dbaa
8cf2
9e34
2a85
79be
b558
eb20
aae3
bcd5
687f
677c
0373
df04
b94e
f502
c3bd
49aa
d41c
893d
c02e
8b12
8d7a
8b07
ce78
529b
5f3e
4436
565a
ecfd
3793
a9ca
d6cb
03d2
7d5d
8560
6126
7e1d
d124
bc1c
54b3
300e
5940
cf5b
c725
cfaa
363e
63b3
7398
15a4
e32b
7ef7
ec78
330d
855c
8640
6c6d
8df0
50e2
a51e
32c3
1fb8
2df2
5e56
dd09
f915
80b4
e5ea
0d0b
c4f6
2521
094d
3579
8a08
2738
fc78
0e4f
baca
ec80
8409
d62f
ecdc
9ee8
345a
9cf7
20f4
6bec
c6f8
d1a2
bcbd
c90b
fa7d
cf75
60ae
85ff
0a19
6b75
db1c
7748
ad58
01bf
dfea
ca6b
7bd3
9a94
6895
9594
96b3
03f9
5c28
f8ea
6322
b6bf
0d94
83df
b3ef
6668
4a3d
9c30
51fd
8475
822f
9d81
b516
8ed5
1b69
ad47
caeb
ebf6
e584
b0b1
bad8
65d5
8615
d2c3
ead2
7bb8
dec3
5822
820a
1cb4
dbe2
99ac
2a1c
fa1b
1d32
93ac
e7d2
9ad5
b5e2
a28c
23fc
5059
0234
89e6
d856
82c3
7784
9f63
123a
bb40
1a44
b2bf
7dcd
ae75
f049
8fe5
18ce
7e0a
8aa9
4c57
286c
d244
e25d
7975
45c7
cc9f
3c9e
b40e
74c4
441d
a776
45ad
92b1
d2b9
980f
7223
8d3b
fc9c
9d11
cf06
ea97
8fc5
a8f7
0928
1b92
3217
301c
a5a9
ba86
4e80
aabd
440e
6e9e
c6da
a3a9
1f11
25a3
bcd8
9379
a119
0a7b
04b4
4494
628a
3016
ae03
10f7
2451
3aa7
3cf8
c597
aa8a
dd3d
1a53
ba73
531d
c955
0abc
de0a
2e91
6496
0656
5a32
ba7d
5e2a
d1f9
16fd
b62f
d635
e1d4
219a
f54f
7d78
58bb
2e95
da89
f65b
9f06
3089
de19
b735
d4cc
2ecd
3fac
fb58
8de6
c367
2db5
ae36
9669
06ed
86f7
9890
bdc0
5392
ff41
02e4
8958
4ebb
4582
6c51
b276
7456
71d4
82b4
77ec
412e
adaa
70cb
c1ef
f492
2c2c
a22a
1481
1a0f
a3a8
2430
3413
7e4b
41b2
d459
bd09
7976
8acd
a37f
6812
5723
eb06
17cb
afe8
3ab8
07df
fbd1
caf6
a81d
d6e8
c980
1507
605d
dcae
603c
577a
2152
bd9d
6652
8b05
596e
a7b9
21c9
cffa
8699
9520
7c9a
84a8
47c8
8e64
ca2f
6822
308f
313e
6956
1695
399b
4648
109b
317c
5efb
039b
b9fc
f213
0e49
ab29
cc50
c0e6
4027
8635
ab7a
c039
feb8
c893
912d
cddb
fe32
b11e
8869
9039
0a62
59cb
307d
51ed
42ed
881f
9a17
b32c
21ef
e5da
a30f
49e4
0046
c91d
7dc5
9cb9
6b69
57da
1f92
2579
54ae
cbd9
a1ab
a380
8dc8
41a2
06c1
b345
84e9
c9e3
d0a4
bafd
9512
273b
f613
b271
5ed8
eb49
952c
4bd9
c8a6
60ed
0b6a
cb53
c0a5
be71
cbb3
e33b
9b09
ea8a
3ce1
7d0f
2311
6693
67f0
fafa
2608
468e
25ea
e05c
85af
bba6
e41c
d3cb
1d81
8585
ef89
60a7
357d
c8b1
b7b5
d322
9baa
0732
cbf9
3ba0
7a27
1db1
91f3
41bc
f9b6
4233
ef00
ab90
a1f5
621c
bbca
f92c
6158
155d
1aaa
f661
1234
92c2
79f6
25af
92cf
532f
a253
4c72
cf36
5a21
0e71
9087
a695
ce8a
3fa6
0cb2
a5b9
f657
8e48
3f6b
b2b2
d972
89db
d5ff
811b
6be4
abb8
c2ae
ed11
5099
a3f8
086d
f22c
3f4f
6bf6
6d81
1d50
be88
19d9
daf0
2ba8
1876
125d
81b9
5a5d
53f9
49ab
4411
25c5
ce94
acaf
1e64
aa09
d8f2
22a3
2bd8
5107
c2ae
7a5d
8966
ac3b
d29d
5101
9531
7ac6
d57c
e798
cbe0
9d0d
175e
7de8
9708
02eb
c548
4f49
c3b8
a4ff
b0f7
3eb9
b66d
956e
fe46
feda
f9b0
1e72
52fc
4d17
dd30
a75f
bf05
b391
5aad
36c8
b3d1
70f3
978b
a902
1db3
1d7d
c602
b369
6a1b
cf81
fd22
68b2
b60c
c59e
333a
751d
6936
9061
473f
d81f
deb7
3815
6249
bcef
46cd
c678
edcc
49a8
2994
6290
3267
b75d
e1cb
08c7
dab7
273a
4b51
37d8
9f47
9f1d
ce95
b1ad
49f4
1b63
e02f
9432
ca8c
f1a2
b7c7
d85b
dfe8
00b6
b5d8
0bd3
5a81
f59f
9815
138f
ab2d
7150
fbfd
93d5
5a2a
9c5b
1894
f9cb
8618
d6aa
56d9
9479
e9bb
e647
10b4
f2c8
7a1b
788d
f0d0
54d9
097b
2177
3d52
0dcd
eb26
4a9d
d3a4
2770
d844
800b
95d7
422c
8a72
dbe4
120f
0b87
d6db
b751
cbd1
6cf8
c8c2
7522
2290
2f28
f5b9
8d75
85a1
9485
c7d2
03e0
689b
1b5c
37eb
04d5
5f23
7c85
139b
6df4
d6e6
fae9
2850
5343
5717
53ba
9098
cab8
bdd5
2fd4
ec84
3012
270c
340e
7d01
7115
1a15
535c
6da9
a802
4927
3c6c
b668
ef5f
3a61
b166
338b
ab09
fb3a
403f
40f9
990a
a5cf
310e
06d7
ee78
cd1d
3401
d44d
797e
8e79
47f8
36dc
3927
d870
976d
a5c4
bc08
a0e2
8763
ee0b
5f22
9b41
f6a2
65ab
cf49
ea4c
b1b4
39a9
dd87
abaa
7784
af0c
f072
2841
5b94
0a0f
a1f8
6b7c
15fb
6054
0e06
8a58
c61e
1d6d
e676
c1b3
0f08
3134
eb8e
338c
dd48
f056
19b6
84de
3dec
70a0
a4e7
3840
d584
7428
a200
5344
fe9c
55d6
7965
9a26
6b00
deec
9ac5
3f5b
c453
1017
f4d2
5c31
27a8
af41
8af5
da25
6c96
c040
80d8
1a92
dbff
8534
a563
e331
fd28
a3c9
a8a5
ba80
7258
b1fd
77a2
1f8c
ab2b
bf69
32d8
4962
2503
6367
b73c
8008
94be
b179
092a
1ce6
74f2
88e9
2ad0
18cb
deb1
7956
cc05
b6e5
6f14
5372
02f0
1d4c
cabe
6f8b
8b47
5d96
397c
5fb8
5738
9a1e
e5a0
f4bf
e4ab
497a
4d81
9f7f
d116
099b
2570
154f
9d4c
6141
e986
044f
1888
c306
e914
ab25
5abc
1482
92db
f507
4daf
27ba
22ab
547e
d733
dad6
2cef
871b
2621
8a99
c424
ea0b
dfd7
1ea8
8f84
d83e
c3f3
e59c
8266
b057
abd5
2d1d
f3cf
9bcb
97ab
9aae
c2a4
50cc
c0dd
8364
c95c
c67c
bad6
cfd0
b9c9
ad93
0f18
1d03
b0e4
45e1
7f48
726e
e5b8
7e8c
86ca
3350
04af
c048
6fb0
b3a3
68ac
1a5d
a1ca
ed45
418b
7d2f
11b6
ffe6
fc00
fa3e
e8dd
1ef6
378d
50ba
01cc
58b2
e427
1934
96b0
0f43
d815
e1c7
f026
eb64
2eff
a955
0677
602c
3fbf
0007
0ab0
ac1c
ca74
92dd
289f
ca89
a28e
3148
f573
d8ec
8454
d74b
c850
55b2
032d
201b
d82f
d2f4
c535
b30e
f463
63f4
1e20
064f
3112
dfca
d95f
597c
6dd8
10b1
7c87
b3b0
c7ec
d76b
3292
d427
e342
1848
0ce4
602a
9b0f
8af2
6f1a
9a26
b9e0
09ca
ff34
cb0d
2a53
8e6c
e777
9fe0
eda7
2e3f
80cf
2405
eaed
c513
772c
abdc
5770
86ab
7def
308f
b76a
c751
b194
901b
e1de
aae8
a8ae
4cc0
2939
2e2f
69d9
dca4
6fdf
f107
d636
4cfc
70a0
a8f0
b69e
d4c5
947c
8fd2
25c7
0bfe
b879
3d16
38e1
9928
6228
d4e3
4901
ae4e
5063
8dbf
53f5
8513
3b86
5e99
0a60
4972
0319
3c76
7c7e
25b2
cd98
0ffa
32d3
ba53
3cd9
da96
fc62
80aa
a52f
5207
ee80
326c
9e4c
b753
6e0f
15a5
6710
9689
e0b3
d02c
80a7
642e
a6be
9e0a
e13e
04ba
051c
0415
8100
49f1
d15f
07f5
ff75
b531
e614
8292
1533
4232
2a8d
81f6
b3cb
4da4
ed82
d45d
e26e
9a15
3486
0d8c
70b2
1b81
2dab
dbb5
a7a4
3b0c
81d5
081e
bc12
190f
97bb
1805
2ac3
9d6a
7bf7
2cff
0212
e2f9
863f
4711
1351
268e
d1d8
2b8a
4a75
fdfa
7588
1881
2fef
5c14
ea92
c1d6
ac28
f5e2
5dc8
d193
c127
fecb
c8d0
6ceb
23a4
a3b7
4191
5886
99cb
21fa
bb3c
9798
7003
2374
0d0f
4f4e
e60d
3152
2fd6
19ba
1852
90bb
605a
80e4
b522
30d4
bf28
b003
c13c
9072
e4af
7832
92da
441c
12af
6e22
ebf8
7f3a
0cad
f218
a4a1
d8f7
4c94
7384
989b
e18d
e288
8d1a
edff
4e1e
e57e
c58f
ea44
3bc2
d6df
adba
6201
f767
806b
822b
8726
cf7d
7ddc
9641
f2b3
e292
4d0c
313e
1225
432f
a47b
4d2d
ec5e
9cc7
d2e9
9acf
1ed8
bfdd
bb29
bd3f
321d
8d55
f5f4
f9f4
2a2a
e986
2afe
5e0e
bec9
1cda
ea58
9be5
b273
15fc
0e8d
7e59
f3a6
fd8e
00ea
aaaf
629d
5770
c2b7
3a0d
da40
5e04
dfe7
de7c
cc87
7566
43f4
5390
90da
360f
88c6
d976
ab88
2fc9
cf9e
a79e
6df6
cab5
ab54
4222
c35e
4544
e013
40fe
3789
a60b
cc91
9825
9c30
1d3e
57a9
29d1
3200
ee8a
8d6f
e1fb
a710
8ed1
5a3d
b70e
8305
f821
aeaf
3487
211b
1cbe
31cb
6bf7
c674
d904
a1ed
ce23
5bc7
8760
ead4
85e7
a46d
3839
4794
9258
22e5
52f6
0fbf
79eb
4517
11f6
01fc
4ee0
db18
527b
d074
4888
13a6
ea3c
aa4f
85de
8080
0aab
5919
04ae
088e
62bb
0e88
586b
66dc
6bdd
29f7
ed94
4798
3264
9b90
3c7d
89d0
39ae
a5d1
4294
7a98
47d7
5a23
7534
8be6
49d1
c95e
54c3
fdce
67e2
f51b
5841
2102
5804
3b00
4d08
37de
daee
3142
0d04
048f
d2d0
d90f
2874
84ea
109b
c5f2
abf7
1a75
6b08
2f6b
493c
79e9
74e5
ac1e
aea0
8047
ab79
6989
944c
db00
cd07
8848
1942
e092
e422
c823
2f33
5c16
348c
c76d
4bb1
4087
2126
3912
c6c2
4583
57d8
af15
836d
26cf
72e6
0c7a
80ab
3af9
af30
9a08
eaa1
c504
2a8f
f05a
dba9
bf45
9111
1bf8
22f1
534c
f9df
f6e4
a49d
277e
9874
ad3e
88c3
b7e2
6a28
36ff
b19f
23e8
7790
02d7
afc3
214b
ec6e
9131
f0a8
68fd
b7b5
8120
9fb6
4b0d
4741
df4d
e347
924d
27ba
c836
6a02
751e
bf4e
2608
105e
81f1
3d39
1cc2
e234
253f
d525
5fb6
2aac
ef14
22de
7919
495d
02f6
1ff7
4a5d
2922
1e9f
b29a
4284
85a8
5e24
6840
97be
e0db
eb50
c5c1
9e90
f5ae
6399
cfd2
2c7a
756d
6ab7
edf9
316e
99b5
8346
f08a
8ac4
3e7b
d35c
70ae
f17e
238e
eb79
83fb
15e0
0d70
3496
be08
2827
29b6
a140
3d75
1a6d
e12a
ad0e
224c
ee5a
2c41
2efd
a164
8c13
b881
b385
1e27
d7b3
0f4f
3d6a
4351
7d74
294a
be35
3a2c
dffb
77dd
2040
a8b7
2869
b033
39f6
a4da
5358
95df
a6ae
beea
5000
8093
0cc3
de39
3090
e75b
3409
141a
46c3
255f
133a
049d
ede7
604e
eaa5
66c1
f686
69b4
1954
34c4
d71e
9101
f6be
3413
657d
986b
fa51
09ad
e368
3712
bbc1
3431
cc0a
140c
ee5f
7f2d
d866
5f9f
90f3
dbed
0502
661c
e174
e364
b269
e5cb
82ea
bb87
e8a2
aad5
9cf7
3322
6a57
4866
ee84
7d2c
7908
611e
8528
889f
3297
faf6
3e48
808c
f79e
3c0e
0308
a998
aac5
a7cc
961e
24ca
4763
462c
eb0c
04d2
6e72
0d19
0c5e
65b5
20cc
6a26
54a1
d7e7
c658
b71c
9c02
d512
84f8
e2dd
cccb
67cc
bdc0
8b23
f2c4
ee20
95af
86e6
5bc9
9fce
b9a0
1dc1
faac
60da
3ffa
e0bb
098e
3be7
2dc2
59d1
1e7a
ab30
c746
e5f0
4293
0bcb
25f8
9762
06f2
2742
50e0
b5a7
b826
4034
f828
0497
2bc4
f529
344d
96ab
6c17
c58b
b8b3
ff2b
a201
e62d
a2c0
7134
8a97
74c0
315c
0c13
a056
183a
b67c
d7d1
4483
4bd0
6f23
26d9
9e0d
ad29
7257
7e81
411b
b6f6
1a8c
53d6
f386
de7e
582b
542a
0d87
5336
8e29
04d0
a9a0
19ae
4af2
cb8f
259b
3dab
3a4f
df77
40a9
a747
7050
bbce
3e49
036d
9140
cde7
bbbb
a482
dec9
151e
9ca6
16c0
d0d1
6e22
0923
9267
66da
4ebb
3dfd
c5bf
f008
da06
3311
ad49
c30d
c0c6
9feb
ab5d
4226
bb52
c92d
7fa9
6003
16c5
17ce
c0c4
cf8d
6493
9f8a
1d24
dc49
bbf7
a028
db2d
d684
e753
442d
c9be
7384
d68d
6bfc
5908
dd30
d3d4
083f
8fd6
583e
18aa
af09
1df5
784a
e158
6271
c8c3
f9ab
4f0f
ba32
639a
8c40
43b6
837e
65b3
821e
7326
3272
2485
42a1
a262
2d1a
f2d3
7433
0f3d
ba06
32f9
919b
e13a
e3a4
bf4e
1e19
f487
b4a5
9264
a0c8
0943
fb8e
ac44
3ef8
ba9d
1104
2624
fca6
480a
5b69
90a9
dfc4
bbc6
18ab
e428
38e7
fae4
c1fa
c3b2
3c02
1edc
5cd1
b453
29b2
6392
13e6
772b
7ab2
9582
7d88
e1c0
2ae1
3b2a
ff93
b751
fe6e
c7c1
e616
5d78
25a8
91d8
35a8
f9cd
396a
4349
1b3b
c342
cc89
acfe
24f9
02e0
175f
74b1
1cc7
9cc0
8cdb
a173
5ad4
8fac
d0fb
9f87
a31d
deaf
0ab4
a601
be63
17d4
e6dd
e0ba
1945
abd9
cf48
03ff
7938
863d
064e
a053
a2a1
a946
2ac7
dd74
97b6
bfb9
f64a
ddeb
99c2
d136
a4e6
cf7b
87be
646c
4d03
1568
1e7d
4413
8d89
8205
64c7
fd92
0e56
1bc4
a0a8
788c
2234
c40d
bca6
0de1
