4b45
3bb1
277e
a1f0
c96b
30cc
7953
dc9d
ddde
954e
2557
24f6
9123
79a9
a376
6ccd
2acb
205b
0cea
e2bf
4c23
7488
dd68
28bb
69a1
1dd4
f22b
4c5e
4047
d01b
9855
ea46
eb8e
30b1
9229
b31c
d30c
91c1
971f
ca77
1571
9b7a
80d5
11b4
15fb
21ec
6205
bf67
d16a
5523
0069
f1fb
1635
49d4
a84a
687e
3943
555b
cbcf
af91
6dcf
0403
1906
21df
dc5c
98f0
fc8f
c19d
c0ca
b851
bead
662e
5bc4
ac18
a7f2
28b7
177a
ad20
fd06
dda9
c97a
f678
9858
a021
a160
8842
8278
be26
8341
ed22
c565
c249
a143
e4d9
ff17
e6a2
858f
f352
4024
d414
fc1e
413b
32db
4da9
8319
990e
c388
ac42
e7df
3fea
d57d
8f93
7990
e1dd
631b
06af
c6d3
5803
96e1
6f67
3f2a
7219
de54
4904
868e
06e6
49f6
2139
8392
52c4
5ee2
792b
8360
f385
9a95
b5b1
5077
2ada
79ad
9e3c
3786
80bf
e968
7fd3
128b
b721
12d0
81f7
5722
784f
2b37
05da
50a8
0d75
cd00
596b
29f3
e2d6
8914
7fa5
39c6
8e3a
f175
03f9
0d3f
8a09
39f8
6b64
dd24
6bba
4cdb
e6fd
a9a2
4f9f
10b5
4e8e
6398
97d7
34ee
409c
6957
c31e
6ee9
788a
2775
dead
9473
7feb
5da9
cd08
65f8
0608
a602
231b
35e8
0bc3
fea5
c359
8bac
6939
db6b
6213
b9d4
0a1d
3284
0dff
beba
c71a
34aa
9ba3
5aca
3762
3b96
21fa
1611
261e
8cdb
c5c1
7bad
8cdf
90f8
dca7
2d88
4648
b5e7
70f8
fe46
84da
23aa
4c14
ea15
2436
be43
6cc4
c9eb
c892
e4a2
2982
535f
58c4
7af5
37bd
651f
a310
13aa
475a
2bb3
72a8
00b9
8590
d423
25ec
c011
98fa
f6f3
764e
5ea9
f7e3
c8ac
7682
cad1
5701
fe0d
1825
9ffe
dfb0
ecae
c2fd
71f0
f11e
5c80
e5c7
bafc
761e
27a3
30fc
c62f
2461
036a
8e89
80c6
a413
58e2
7d7c
015d
5e72
313a
b223
e63d
da21
6cfe
ed2b
4dae
f1ac
2011
d77e
215a
33b3
2982
696e
21ae
e5fa
8d43
b4f6
68d5
79d5
f354
a788
04c2
df96
b8b4
39ed
a58c
f55d
4ee1
7671
0c1b
953b
6279
b675
1292
9d6d
d4db
77df
2f47
7206
f66b
4999
9cad
3e3b
3ed2
5273
4628
507d
1cdf
e7d7
d617
d4c2
e220
d796
14d1
b84a
8ee8
4d88
9c3b
914e
3f45
cef6
1a4c
fb7a
9a01
c2ef
1af1
81a9
2412
4a3d
fc7f
e0b0
b9cf
1272
c181
a4b6
ad0c
5538
5417
239a
e248
5a3d
43e8
1bf5
4018
3d8c
1a55
2326
0424
a8d1
97a0
0730
ff58
2ef4
63b1
0620
f5f9
259e
262c
f9c6
a5cf
3c6a
73c3
13e1
0579
03e8
0d3a
f653
f6de
5fcc
3a49
ae9d
8cd3
946c
6fec
40a0
ebac
bdd5
4d08
da22
f222
0ff5
b9bf
9725
6e41
0cb7
b2a8
d14d
c76b
845b
3fe8
865c
7bc6
fd1d
9392
d6e5
4dc9
735c
f7ae
d8f8
e3ab
0c05
4b8d
3941
84f9
01ee
bc62
2dfe
9e51
f2e4
3a31
445b
f338
9d8e
2380
99bd
0268
0927
17ed
3952
c881
35b2
51bf
7a7c
ccaa
9464
51cb
0827
f479
a5d6
1f7c
7ae6
cf2f
3a83
6aa1
2f2c
c7a6
54e4
a691
524c
9954
4214
8417
a03f
1194
eb1e
5574
4a91
bfb6
fb98
c872
a14d
48ea
7158
5964
70f8
ce87
50b2
2a0a
a164
779c
989a
6ac2
6bce
510d
9e6f
beb9
ef8e
f6a7
c821
c80a
391e
8fdf
8ed7
ac25
2a61
fdc9
b0ff
38c9
44e1
e961
3e1c
1357
b409
ab3b
2486
6e5f
eed7
8c89
7dac
63ac
11e3
6987
17a4
7e0e
04d4
c63b
45c0
7a72
7755
c7e4
0a43
93a1
ed07
3f2e
2705
000e
81be
8961
6c06
6502
9c2f
4256
68e3
f1df
9c3d
4e14
57d9
48e4
f402
c395
04c9
2919
7582
159a
f5e3
9861
3c55
e865
bbc1
2234
7163
ccea
8044
bd88
25c1
a21a
863a
0f34
e114
e0f7
d983
a9f3
e55a
4b6d
827a
4b2b
083a
f007
0080
e96e
50e5
62af
ec91
27be
f6ff
971f
f4a0
2183
f21a
de38
fd32
1cfd
4533
5a71
a652
8944
63c5
3da0
7fb4
5ab9
3373
4024
810c
0294
a443
8ef5
cfc1
fe30
bc91
adbc
0819
2bc0
6949
2d8f
094c
87e1
9081
fd4a
28f5
59f5
831b
0fbc
7cb5
f609
6112
3a13
fd5d
e4fa
5f80
074b
0b90
053c
a481
1151
dd28
ff05
a390
2dd8
145a
7248
b595
440c
fb88
2a2c
6d25
a6b6
4365
52fd
757c
0d1d
e817
291e
f9dc
667a
24ab
bd84
d45b
ed98
4cc4
18b9
9b13
de26
47b1
fc2e
3ed4
d0c3
396f
1620
c84e
5ea6
47fa
3462
0fca
203c
0cf9
3cb4
e6f7
a5c8
cfc5
2b7e
65fe
076a
298a
353e
4bc4
f511
647d
0ab8
4e8d
4179
f210
a6c6
757a
0d31
c833
60bc
8f09
1b25
5e02
cd78
fcd2
c516
1544
cc8d
6856
1f96
b45f
4764
8a36
406d
8170
929e
b943
36eb
93c1
a163
43d6
2ace
c728
fe26
5ae0
8e8b
2ef3
ac38
28b5
af78
8a30
5dcf
a2da
b42c
1842
9882
f6ea
d1a7
182d
29a3
6f28
5aa5
6e04
9c16
5ea9
94d8
bf41
213a
cb71
2b89
2873
15c2
99ba
d0d5
5cc3
a5cb
4d03
d883
b238
2ff3
f100
bf0d
563e
a256
5ff0
67ab
372b
1076
809f
05bb
d5c2
e3c1
4d63
2ac4
886a
d70e
5397
f040
6d44
6bb0
f2dd
75b6
9caa
15db
f77c
13ab
4e8c
f547
ec5a
4ba0
18ca
35a1
f12b
4412
724b
5c09
a642
f3dc
6672
dd34
a4a8
37ec
e36e
8dc5
4ea8
9718
ea41
f6af
ca2e
4170
2254
3b0a
f023
c25a
80ab
ae2d
9eba
1a75
e6e5
8bbe
6d48
7891
8a09
730c
f4ea
9631
bda6
ee47
1096
439a
d936
c5f4
42c7
2269
285c
d2aa
56e1
ad5e
86cb
9387
ad28
bb33
b4c0
c754
8edf
ddef
c2c1
2194
209d
82bc
7abf
64a8
8574
576e
f7f2
6cf1
4009
965f
2539
7ef1
d050
41a7
a979
1d0c
3a39
e0cf
65d2
4a57
b654
d9bd
bf58
01de
38f2
0159
abdb
7be5
a56b
8972
00ab
c325
7181
7616
c35c
cddb
0193
c13b
1c44
9e07
ac77
aefd
6eda
1ff1
87ee
0dcd
8023
fe92
1336
ec07
0446
ca6b
6591
474b
4143
b59d
f07c
7b59
ffc3
4448
4839
aac1
2fc7
5a3c
a2d6
f7a7
64f3
792c
e8d9
9f05
775a
0c81
02cf
5696
a2f7
cce2
1b49
a54f
26c4
53bb
59f6
4034
2ce0
3ee9
1f98
13c3
f939
1636
7b78
5a3a
c78b
700c
dd29
9acc
b297
553f
6f06
f2b8
46b6
032e
72a4
6fad
1e1b
0662
62f9
7a60
2593
034d
cbde
21db
48d7
63cf
3aa0
87f0
b787
1d7a
a6fa
5194
8eab
c2d6
6591
8b67
ece1
e9d3
44b1
b627
e344
923e
0202
ce62
b3d5
640b
0189
d871
aac6
4d25
0740
e277
359a
567f
fa3d
35ca
3e9e
de79
b997
7daa
df13
d61d
c5a9
d110
b164
53ea
5ca0
d8aa
d54e
036a
6c72
d787
dc63
1b63
acc3
3c63
7984
938e
69c0
855b
120d
582b
e483
3870
7ca4
acb6
868c
3475
28f2
a9bd
78ec
57f1
8c56
76d6
a815
40d1
8a84
2204
5a49
7324
7763
f552
1a40
8797
4bab
7f36
50c1
9efe
f59d
f449
591b
0efa
e078
c81e
52d3
6f12
29a1
ce9f
ee61
58f1
9a5a
22e6
fc08
ee7b
f189
ac01
48b8
853f
4ea1
ad3a
0f9a
5831
89ee
2baf
9bcc
2bda
81f7
7173
5da8
ccf5
bcd9
4f13
a6db
bba2
8040
740b
fc43
5a36
7661
21cb
f739
9579
75f2
dda8
5c02
33b5
0f59
26db
66f2
04f1
7847
83d1
c50a
7cf8
d9aa
d17d
458c
6e80
d11e
b116
feeb
9638
c641
d89c
88c4
363d
1b9a
15c4
f94c
1f93
114d
3872
b17c
56e6
666a
728e
a92b
38ed
695d
cf83
81fa
5148
7bb9
c2aa
d359
67fd
510e
b44e
be99
d82d
9bca
bfbd
222a
eafe
7fcb
bbcc
e3e4
2212
7708
197a
19ee
1bc5
2cb7
a2cb
fe4b
bd5c
34e5
d5b0
2d2a
5b29
870d
d197
3693
1e1b
1de9
3e71
c850
2902
111a
98a9
8a44
4442
be72
bcb9
9161
19d0
f620
f90b
5919
f5f5
289c
d74e
da9c
f940
48e1
24db
e0d3
f02f
4c0e
7c5e
ba7e
c60e
efc3
81ea
12eb
27f0
8948
7265
aded
c2c4
138e
b008
b017
7fcc
5874
235b
b5f3
7008
9643
2d09
1161
4059
cdde
d095
ff54
ba17
9a09
df6c
0a90
284e
5d8a
4837
0eeb
0be1
586b
6e8a
fac0
7971
9377
44ac
7a36
d6af
3c38
13b5
f382
38c9
8cfc
a504
0a0e
7861
7988
bb96
3e7c
3064
1e2f
3c09
1e0b
a9be
4a78
8517
d222
53b4
d7b4
5565
42d4
7729
1c57
56c7
5347
f9ea
5035
0193
b65d
6142
5613
0a2e
61d1
0c86
47c4
93ff
912b
0f62
3fba
2a50
db79
2536
43c1
e994
10d9
a93f
afbd
d300
c36f
b165
1ee1
207e
58e8
c327
bc1c
4375
d52b
7c20
88ab
83aa
f68b
78ec
6633
1ca5
5b1e
51ba
116f
9ea3
dc81
2256
7efe
6824
18f2
5ffa
77b2
0d19
3ed5
5488
fcab
2f63
051a
0505
921e
61ec
e3a9
030c
9e4f
77de
105b
a91a
b1c0
cda8
8442
f7be
81ed
20c8
c389
0dea
27bb
be04
1ff5
24d2
bed9
bed8
9576
11bf
b01b
a46e
5704
de7f
6c17
81a2
e57a
87cd
12ac
8c28
7b6a
8a03
c078
ac13
0151
d8b7
c4c9
54e5
8290
8df2
90b9
262a
dc0c
f262
5450
0ad1
d540
13ae
b83c
d87c
395c
d0f7
dde0
6d30
9677
5024
2d15
dbcf
4f06
9c2e
0277
6368
4535
a130
63d3
e08b
eb27
7bca
29bd
39c0
c98f
40f7
e85d
b902
8354
7b74
1881
d696
45a0
6380
1efc
a623
5279
3293
6d78
4974
f172
fd12
5b50
3024
7816
5379
fcfb
8912
78f4
d3f3
416b
2574
34f8
64fd
c78c
5d24
fcf0
8fd8
23c6
b08a
fff6
12da
1097
fb20
e968
5259
64af
e79f
063a
0264
a9b5
381f
e5d3
05ef
1746
09a6
b638
45e6
8cd2
32df
08ec
2799
061b
0795
30d8
0975
9157
9e56
3b7d
3fd1
92ad
81a6
79c3
116a
55fb
557c
f2f7
80af
a544
5954
d78f
f524
5eda
3495
90af
8723
ea5c
05b9
2ca0
1a70
3023
85e5
119b
2610
5ee3
c32d
b7ef
7a7b
704c
2787
aad3
69b9
a2ae
60b7
9000
2e62
ead5
d47f
0c69
2234
2b0e
4140
f3c4
30de
6d42
064e
ca61
7a3e
59f2
ca7d
5f2d
9699
aa11
73a3
25c1
57a6
6169
53ed
892f
bc0e
268f
0459
c92a
9b53
7b77
d4ba
4d03
9b1b
0871
acf6
9905
b968
9727
6dc0
5641
de93
f63e
f3d9
1ef4
a4dd
a4fd
cf09
caeb
0dc3
0f67
0de4
5e05
b717
5c79
4e3e
8385
d529
3d2e
54bc
278c
55c2
6e68
8540
74a6
9815
e051
e02d
9e41
8ba3
901e
3949
713e
2d19
44f3
d8cd
7f79
743e
b294
d40f
9051
6994
d96d
9284
848c
c066
812c
f746
ae28
f46b
c259
5fe3
d2b3
9224
5775
3499
411a
7061
6830
16f0
b8b6
45ce
091d
ec42
477a
9978
6b81
a3f5
3456
03dc
25dc
bc03
f983
bc27
1964
74f7
d468
e3b6
9b46
7c6a
b926
e19d
12bd
2259
8e1a
6411
a730
8f6f
03bc
b426
b022
995e
2c6a
67bd
d5c1
09f8
e42b
f55b
8c8c
4982
6109
175b
30f1
0248
8a5c
66f4
164e
6d3f
25ec
90e1
abde
1ba9
5b68
62ab
27c1
ae5e
108a
abbc
1127
047d
77d7
d81c
7e60
4284
c957
6650
ebcd
3425
6174
63ee
39ea
b546
37bd
6368
7b71
2590
7878
e921
6b6e
57a9
3b95
77fd
e96e
15a6
b625
8dfa
1bf8
36f7
e95e
354f
4dfe
dcbc
ba1f
0c1c
3d0f
1ebd
b83d
79b6
8da9
6939
f95f
b119
08d6
4dae
7542
b85d
563c
6434
8ce4
c0e2
1190
5efa
ba66
47ea
5801
8d6d
1767
5e3a
fb6a
f8ca
70cd
f696
d966
40c1
a2c3
0505
eed8
4c7f
e8c8
dcad
f12c
17c8
041a
e123
43cd
c041
abfa
d7a0
8d5e
917d
21fb
93d8
5966
a1f1
082d
2b1e
b286
afed
e5e6
cba5
36b7
4f49
ef19
835a
065f
d315
ce13
412a
d1c9
cab3
449a
25cb
4176
6eb5
adf9
3578
6352
f95d
515f
0492
9d57
9012
496e
89be
d07b
aada
40ae
8bf2
57b5
52cc
2c8a
f27e
4809
6517
df32
353a
1533
4034
81c8
01bd
03dd
906b
80fe
f3f0
410c
2ba6
c41b
337f
e2a9
8827
59bc
44f7
c19f
34c3
a6ba
360a
ddfe
7b5d
96ec
326e
5ed9
dba3
9755
a435
7e50
6065
7ac7
6273
d893
ac87
ac23
ccfb
e050
b45d
9271
9f18
1d8e
2747
cc19
e2f7
2f9d
3ed6
f23b
fcc8
8d9f
b6d8
c087
de7b
ba9f
6c79
a525
ed26
e997
0262
5403
dbf7
ea40
4e8d
8b5d
9581
38ca
2574
5995
0e84
49af
d071
fd91
4e59
d94a
acd5
d61e
6270
4217
a480
d2b0
828e
6f59
533b
8f9d
f9bf
d403
8146
2483
d17b
7909
f51a
f55c
1ec2
9a7c
289b
5b80
5231
9e3c
526f
ad4c
dc43
b23d
a3fc
a015
64e2
54d1
221f
c0db
e61b
ff58
b105
6e1d
46fc
8d3e
c940
09d8
b3e7
b777
09ca
f7cd
f3f3
3323
cc65
a203
13aa
2118
d055
3bf9
2943
f909
93c7
562e
de89
0515
d986
9558
29d3
a1bb
0577
c333
b74d
0233
fc31
d5e5
7453
9c5c
6ea2
7bcc
be28
a346
e9ab
4b4d
2efc
7299
4bcb
9ab8
1130
2ebf
0aa1
ef84
04df
0795
c084
c604
19e1
1ff4
70f1
d335
68d8
b176
71e4
c21f
ffc2
8fb7
3a9a
5aab
bd7b
c004
61fb
7bd1
eef0
0b8e
0ffd
3021
2555
9cdc
76d6
3328
2c3f
2ad9
813a
61da
5cb9
8533
d89c
a3ce
8983
df3c
593b
75f1
a804
c0d7
b502
5721
3616
4254
ce4b
8e63
0f40
2925
2c3f
8dc6
aa9e
142b
c167
90d0
4374
6317
9a01
d2a1
0102
1aa8
4008
daea
300a
558e
ad06
5b3d
618e
654f
a9fb
834c
7a5f
c4f9
0d41
974d
20fb
78ae
e8c1
d709
ea8c
ed5a
a078
52a4
13d9
063a
686e
e4fa
e2e3
83bb
c7dd
b409
52fe
5d7c
9ae8
2131
8d25
c93d
6c2a
3287
2075
878a
3f7c
6263
2a17
9e28
c51c
6fe8
fc8e
0ee8
7dfd
b35b
4c9e
848c
dc29
0288
7349
c75b
a34e
0cdf
e5a6
e3a9
7054
9e87
9e2a
ba50
3bfc
3c23
1c0e
3621
b0ff
a3fc
974f
b5e9
4d04
a349
21af
ab29
aeef
a2d0
c154
fa75
cc01
3e72
27e1
61a1
65cb
d9d1
737c
647b
73e9
d5b6
eab9
1402
df70
f023
f6ab
f4d3
9405
cab6
98d6
2992
8573
15dc
10ab
764d
b0d2
cf86
d3c8
3fb7
c9d4
0f20
0682
93db
9874
5441
ad11
1db5
ea85
5c0c
bfe6
bd04
a04f
39ed
d3e2
f54b
550d
66e2
882e
7074
6461
2f74
630f
bd41
aa42
29b6
7921
4924
145d
14cf
8538
3d6b
2638
a0a2
f348
bb6f
6af7
5be0
40dd
f67b
7c4f
88d6
9257
e0f9
928e
4adf
b7fd
2a71
7a8d
8a87
2037
2a54
3198
5c5c
3fe9
6465
59c2
116a
7dd6
8a83
5aad
e3a9
5546
225d
542a
3e83
ee36
c6ff
79ad
ab22
6a66
6845
c4c9
298b
ac0a
6f54
218e
2a54
8c33
9f21
1351
045b
079c
3142
a41f
3275
792a
a468
994d
e3ad
cfb8
24a2
50d7
aa24
1d81
020a
edec
087c
7ad1
cf3e
0728
998c
45c0
ad05
f87b
9db8
2323
e93b
14e0
f9a7
be2a
6b6a
b0af
19d7
fab8
e66a
87f5
66a9
7a78
d2bc
2b4f
8e14
6f12
7b78
fc85
8513
6c56
6971
f1e8
2320
affa
c378
5699
4f7a
6a2f
e54f
3df3
789a
2a0d
6665
4a75
3d20
7809
61e6
5a50
9f38
1b27
1ac2
3b81
15d5
aa0a
16ca
d1ec
20a2
7ad6
6f7b
7c38
9584
a20a
d1cd
671d
2038
439d
b86f
6a5e
42dc
44c6
4767
ccd8
3ce5
eb83
3d4b
b570
2f35
4ed8
d295
3718
4331
14e8
f2b7
17ca
f213
695d
787f
5aa6
2dc8
27f8
6d30
6f23
9e7c
dc1f
2e15
eb39
edc6
d574
c028
e980
b223
300a
2f21
dfaf
be63
05a0
db3d
5270
368b
f21d
c8b4
d09d
78a6
4822
469b
bd7e
1c2d
3bc8
09f1
d70f
9e14
a205
8a06
87ec
aa4a
f88c
b51e
a5fd
2cf3
d3ac
5a14
46f0
be26
98f0
0775
2223
0793
3132
a3f0
42b6
93e7
867e
6410
9403
efb1
3f56
ca25
f01a
39a2
bbc3
d66a
66e5
1d60
b56d
c234
b605
319a
5135
21ef
319f
5840
995c
f87d
e485
0541
e64e
b404
188a
e23b
7684
9019
3ff1
f871
cc18
135d
841c
e8ef
c33d
a257
5058
e38a
0feb
1e5f
57d2
70ce
096a
1bee
2ccb
f92f
4227
12ff
4863
da36
2f50
adf5
ff7a
3c00
c5be
f99f
08f1
c295
1037
72b7
f125
9bfa
ddaa
c61a
c4b2
a87c
c1a5
c9cd
0d1b
8d04
a1e7
5d6b
609f
7b25
77ea
46ad
9e53
18e3
7f15
be99
8d10
98d7
4354
da78
25e8
427f
c929
2b79
ec51
30b7
7c48
b0da
9a1b
a27e
5ba9
7197
289b
7202
07d3
4ae8
1879
6bdf
cd84
6609
0e9a
29a9
9929
ccfc
0324
4957
43a6
bd8b
1b53
be06
37cf
73cb
d90e
f220
bf68
c0c4
1773
f413
63eb
92cf
15de
450d
6884
3cae
8da2
26e1
891e
bd0c
81e5
60db
a356
7813
e9a6
df8f
b04c
fc1e
f0d3
c4b0
54f6
00ed
0f58
4552
7a3a
4745
3105
5726
4fd1
2760
909c
ecef
2155
845c
ef50
3f1e
4fad
cf0a
7ebd
07bb
f285
8641
a253
94e6
b0d0
1d50
1483
81ac
7fae
38a0
48e2
573e
dc90
2362
b2e4
e5ea
671d
54ee
464c
1e16
8d03
fa78
4e08
7144
daee
4589
5814
248c
0dc0
a77c
79e7
5146
9728
3bca
6c38
deb5
05ba
3fc8
86b2
dc31
33fe
9bfb
cbbb
e085
3184
92f5
850e
325d
c7c8
0302
7271
9126
4e16
6243
34e6
6836
c83f
37fd
d2fd
2c12
f35f
155f
28d4
bb51
2fad
6aca
4076
b364
3658
a75a
4a36
f9ed
5e00
470a
0d40
da9b
2aac
a3f0
8043
dc44
0d07
10ac
2a4b
2cd5
703d
4696
e8c6
6800
cd7e
861c
9542
aef3
4706
57c0
3056
c9e0
8a8f
c345
2f99
7ffb
58b1
23e8
845d
8462
eed9
62c0
f887
20a3
4769
177b
7a10
b018
a126
86d3
cb71
8915
80c5
3cd1
575a
9a6f
fad1
9d07
66e6
909d
4413
4333
a771
5f59
418b
4ed0
5bde
0160
e4d9
43d5
c6b9
4e12
060a
22e4
9d88
cb9b
9924
53be
780d
0ac9
fc8b
cf8e
397e
2161
e33b
03fc
712c
8738
c1a1
f0a9
235c
001d
d01b
3aa5
d107
e4d0
29be
3606
fed5
6b4b
22fa
55b8
e0c4
eca7
b054
9f26
1ce5
f4eb
aef4
ad12
920a
498b
070d
c7c6
2c3e
dbad
fb6b
0055
c577
2e0d
e3bb
eb15
7d5b
e202
cf5c
ed38
441c
4784
180f
b78a
5df6
61cf
08cf
0f2f
a432
9bd1
7601
d642
c185
303e
ccb8
7ab4
dff5
24d1
ba3c
c68a
91f5
54c0
af8c
2b08
bbaa
1c8f
320f
277c
1dfd
909c
22e4
afd8
ca74
0143
9da1
09d6
5492
30aa
d54e
4a62
daf0
3d47
09c6
b6ec
3628
5acd
8e7d
890b
ba20
0d9c
57e9
8630
241b
283f
76cd
f533
0587
a024
c599
500e
2d51
39ee
fe9e
3d79
745c
41a0
d584
be66
c260
f8f2
caf2
a9cb
75bd
f0da
88c2
87d7
ef3d
a4d1
db8a
70b8
10c5
0d51
5e3f
1ee7
55de
5ae9
cf9f
2d56
e027
a506
7990
73a3
f25f
44bc
3bb7
56c2
b971
ebf4
1923
f7d4
2d71
cf88
d96b
1e9b
a6b1
c110
c7de
f46c
f4ca
6cd5
be73
f4a8
373f
ff96
6807
c9b7
0cf7
0826
f8ed
4eec
9ac4
2c73
c15f
2852
1591
addd
d9e9
a882
69d3
091b
a0fb
eff5
863d
6e5d
1bf0
655d
c78d
2348
e183
c73f
7793
5587
9d2b
d406
bf62
51ed
e432
b65a
3bbc
1103
4600
f9d4
5a1d
c70e
9f88
3e9f
e505
9f15
3303
f91d
773a
b1e0
b554
a7ef
7bf5
a0cc
2134
2d0c
1cd5
49dc
1bbb
2900
a739
c29f
5ae5
a785
ef52
f9ec
535f
42ff
464f
adaf
044b
ca5c
d8b1
6ca5
69a7
fbff
431e
e959
1f33
9e7e
8e2d
2189
1ecc
decd
f327
4ee2
36d4
e4ef
5316
503b
8666
98af
65a5
a803
2e72
3e9c
1d93
3111
13de
f4ec
a78d
d5e6
00fe
1437
9016
6138
0641
4899
0bb2
63c7
1a4a
4e7c
5f1d
073b
8af3
d1fb
d836
82ce
5144
06c7
1029
ad63
ba9d
c5df
f964
b43c
df8c
d425
9db6
40f1
b6ba
8f3c
9efc
648c
f56c
5a59
d50d
f305
1c90
7783
b19d
1e25
b236
cac8
e012
fe5c
dd8b
bcb8
47ed
e821
539f
5195
bcea
4409
03d6
7a3e
6f22
571d
364d
bfb9
1fe4
ff7f
3255
c6b2
a90b
8089
61e8
370f
79a1
5823
5561
7dad
e26b
ae7a
3b0f
fccc
f17e
e4e8
c2e7
7152
57b5
ed6b
6d47
d74e
4d14
73a8
a095
1529
585a
8f5a
da54
7f18
3501
a436
6bf7
8e08
c6e2
ef89
f7f9
d780
9ef7
653c
4aac
9aa8
e484
4c85
3d0d
fc31
4383
92f3
5f0f
a464
f573
7a91
3886
2b5a
ac9a
4d16
5e22
2fff
1aa3
1f00
9f08
9c0c
0a7b
06aa
16d0
0a64
3a5e
bf30
3625
de88
c81e
3deb
eba5
4ec3
2d27
aa5b
62a4
8449
a555
38be
e883
3e9c
7c03
d9da
e539
d06d
53db
025e
bbd2
6f8b
b18c
f6ff
60c4
79dd
289f
dbad
5bf6
ce5d
84a3
2101
2d2e
809b
56a6
45c0
08e8
454c
e0fb
a613
dfb1
3f6e
e717
6356
f738
84c8
3803
164d
1a52
c54b
030b
57ff
3562
ab13
dfb0
090f
c24f
40ae
9b21
bf35
9df3
1c4f
da60
553e
cb31
4d6a
8cbd
e7c4
733a
791b
9176
da1b
f5d7
7b8a
5668
ee52
009d
9fa7
30ca
db32
57b2
bb0b
c198
2c73
9579
3076
2816
228c
c826
c424
c28b
579b
892c
fe92
80b8
f5a6
9128
69df
8fc6
4e27
62d7
17b6
1260
6fd3
5041
6a96
cb28
43c4
7a5e
3a3c
be42
6006
d94d
e9e9
1508
0719
40a1
6608
f2ec
30c2
b98a
bf03
6a49
d721
137f
b826
ccfb
be08
d16f
d6f1
4816
7d44
2511
96e9
e44c
2bf2
f079
f7b7
5bff
5f31
9c79
f37d
6dc9
0b78
18f9
7bbe
be2b
355b
5e7f
d903
ee0e
2a43
6bfb
85d5
4d31
5dc4
3582
bff3
cc6e
5357
8514
de8f
7c8b
6af5
fa13
2611
443b
9004
85df
1240
9c1f
f206
8276
9279
887e
f5ca
845a
da37
c75e
b876
bc30
585b
b11b
c409
520a
1f6f
f1a2
ff3c
2f92
d855
e677
a632
a93b
bfb9
d9fc
7b55
11c5
60bd
5549
20c4
91d1
911c
4f25
7fbd
3dca
fa14
ed21
4b19
b36b
252f
1f4c
16d4
b9ac
4bab
2faa
18dd
aa65
654b
08d8
4d50
d9ae
611e
bc32
0f23
dd3a
ded6
ab0b
30fc
064e
c85d
c202
b5b2
8206
580a
b3fa
f414
ea48
47b8
72d0
d056
6ae8
c20e
1568
1e17
3aa0
a889
167f
2635
4e0c
6aae
fd8d
c710
86c6
979a
12f2
e88f
83d5
eae0
3161
2815
1d08
067a
4dfd
946f
8c91
6ab9
edda
9dbe
47d5
ea0b
65ba
0b2a
4ad2
f8d1
67e1
af25
1abb
58f7
0301
c563
81ea
50ae
4fea
fa61
9616
96a0
f0c8
08b3
b49f
c1f8
c725
52dc
9ffe
d288
7136
72d5
9b22
f195
fac2
3b5d
1f9c
0195
9d80
e3c1
11ca
3705
6ea4
7226
2c3a
24c0
f47b
7ff7
6dbf
81b4
a1f2
e5a6
c716
7214
77d4
41bc
482d
eb5a
809f
66bc
210a
4182
1f78
5360
dbeb
6c4a
fb1e
4a9d
cf43
e261
2638
09c6
be12
50a3
07c7
1c4f
6ab8
81d8
2f73
c8f5
b55b
f020
458a
1059
81f0
3b85
8ce0
1b4b
e008
7ed0
3bf2
c67d
ce5d
1257
a826
3b85
d8c3
efb2
2a36
cdab
33f2
809f
29cd
c79b
9967
109b
fa41
5d7e
f630
59ca
1443
35a4
1f8f
d768
37d0
e627
599a
92d1
c241
4d0a
2d10
e5c6
6de4
5d00
14b2
9602
2a4a
7d7c
1079
abcc
87ee
b9b6
cc7f
7a4a
d007
4c86
6a75
3306
f320
8f3f
d326
ef0b
f173
f449
da57
fd58
e513
b229
cfcc
ad21
c023
c422
9d1c
5991
fc50
2da2
79c4
d2bf
8c62
7736
c98b
29e3
9b61
3f59
5ee9
5b8b
9a97
0f3c
fc32
0b46
3546
c77c
ab9a
5c1c
5e8e
7e86
08e9
b4fd
c848
5265
a330
abf5
5b15
1a58
dca3
3c7b
1162
7bd6
53d9
cf47
aad8
f289
398b
1690
ed26
6921
e6a7
319e
f68b
9181
77c8
5b71
3d35
39c4
15c5
ae4d
7e64
e391
cf5a
ed62
6671
f570
4511
5dbb
57ea
3835
aaed
329a
b2d1
ee33
b141
354e
61f9
cf44
933e
95b9
a605
63a0
7ca3
4b43
da76
6b69
9268
75cc
7641
7d3f
1382
f455
14cb
94f4
2402
6283
b3be
aba3
3803
5e98
d69e
c2fd
b2be
0e80
caec
84eb
1f83
04ef
4339
5a32
1d0c
cc85
12c4
d33f
2cb0
7068
9083
936c
b05f
25d3
8c1d
08a7
813a
2dd8
0395
2935
d0ab
bb90
5bac
b128
7250
019d
9fb4
0371
fb73
ad8f
6659
1fd0
1cc8
4218
022f
371a
6802
8392
b6d3
6846
a698
5316
6bf3
b0d0
f3c3
67c8
b933
13b5
5788
671a
44ac
fb1e
7b9d
e0e1
7184
9684
c6bd
5c01
2c70
47f3
76de
40ae
3ff7
dbab
0c34
0e54
a049
ce3a
ab90
0a36
7803
a78b
3c0d
2319
2329
e1c4
2b44
a2d9
6196
21f7
8343
cf15
0528
a3df
ecf0
6a89
1f2b
f01e
a1fc
8d49
8be3
a5a1
6d1f
3944
c8b0
211c
9df5
5e59
f890
ce6f
aa8c
2ae9
8be8
7932
87e2
f715
551d
0489
e6c0
3309
6e24
58fc
7adf
d41e
c9b6
537b
74fc
3eee
4061
9fb9
47c4
d7ad
a264
6595
c691
daa6
67f4
97e3
cf68
e09e
3641
c886
797b
58c9
1ef0
4f5f
bb2b
c245
3fcb
22a8
4e02
4bbb
1e2b
5a91
6a97
17e4
2b12
841a
e3d1
d6fa
311d
b632
6cab
0748
47e0
c5d2
b17a
8162
cb8b
f90d
40eb
908c
afc3
4d4f
05d1
fea8
a721
e9ea
7905
7c53
d5a0
b084
dbcf
45fa
0527
69f1
08ac
801f
67b8
5386
6c14
22b7
cce1
74da
8178
b79c
6d7d
1e35
bc76
7654
3b3f
7e12
7a77
7c09
e7c9
9fa5
25a5
06e0
b255
b986
47b2
17e2
2717
eb54
ade9
246c
766b
44c0
5e99
df19
4cd8
2551
a01d
4ce3
87e1
b61a
50fd
6984
c280
eaa7
93cc
410c
396e
4d7f
2c1f
3cf9
7948
ffbc
95a7
15a8
20ca
f7ec
f081
4ad0
9271
dd08
86b0
3b52
69db
a5ba
2b31
543d
6e85
4b4d
cf46
231c
1277
22a4
835e
7148
2a4e
c229
97e4
d09b
9c5f
0090
fcb8
a10b
7b0b
6a62
48f1
7114
00d5
a9ff
bdd4
8e49
59e5
e562
40be
2d4f
7c38
1026
d809
165e
8a5c
1324
197b
7e9c
14f9
0295
081a
65d9
048b
e448
3d26
95af
2311
02dc
74da
695b
6fc6
55ec
3639
f729
18df
3089
04f1
0f50
0c15
46c8
a851
d745
5f6f
5bdb
fd9b
83ea
02fa
c7a6
49f8
f46f
c96d
de46
d5bd
3b6d
d386
e1b3
5663
4cd7
fab1
ce2f
5e33
6aae
c27f
e632
e5fc
4c8e
eede
3059
8458
01a6
63df
e717
e4c9
f168
e57e
9298
4e3f
68e2
ab39
e178
fbb5
8dbf
fc45
6c7b
15c6
5183
df34
7e94
d9b8
9cb6
5493
ff6e
9e55
c933
c897
2a88
d5f8
f7d4
7cc1
7df0
b710
546e
51a0
a439
ae38
d8a1
6741
a15a
14b6
0420
342e
557e
108d
0daf
1e09
c08d
80fc
a885
1c27
1a83
b8da
89fd
059d
dbe1
6259
06e0
be12
c0ec
30e3
c04a
6e45
2dd3
c5d1
f826
7208
229c
fbc3
c98f
d812
0d44
9a81
c192
2cf3
b27e
da94
4641
d9d3
b5d9
fa1c
c679
ae1d
bc1c
6c6b
b43d
d991
0cd8
4ec5
7146
2fef
a0e0
f8c3
3293
0ab9
50d2
732c
bf65
2a35
e28b
675b
f5c1
4517
69ee
4460
07e7
780b
067c
b023
30c2
3a79
64af
25c3
6e0e
fc89
02f1
81d1
c0b6
928f
83f2
5e53
7855
e68a
ff86
2992
6f6d
f44e
2da8
0f50
f813
b765
712a
5f67
757b
94af
9365
c9df
95a8
8257
91ca
cc85
645a
6cec
2ab9
3a55
f796
74ee
3c98
c2df
cfe5
e6c6
7415
d4da
2e5a
5b7c
5964
a038
09c2
a10f
a3e8
2af0
86f7
0f63
eccb
9a0a
5e98
8f82
885b
7544
45ed
f8a3
3ced
7e46
a9fd
4a54
97c5
6a4c
4055
9f42
bd0c
07e4
1718
7756
3fc3
aa45
d4d3
b2f3
50e0
85ef
d275
0a70
2b30
95a2
b84b
851a
8794
ef25
e289
c107
585c
d157
d95c
27f9
8b18
17d4
85a6
ded2
169c
9c05
e183
7a6e
e61d
7ae7
1115
9355
9866
cdfc
695f
2ec3
3a8d
e502
e748
1a48
225b
4164
4b05
3cf3
03b5
ab4c
6372
bfb4
8e48
f916
24ea
4cfa
2835
982c
41d1
b810
d358
0e71
ef24
6e13
8630
3ba9
736d
0eb0
13c2
726e
f543
2839
6c85
8576
c52d
3161
9797
eff9
72cc
b0e3
ebbf
9c3c
c60e
ccac
6f20
e759
2664
0386
2a17
3d59
aec8
5b95
fe9e
793e
8786
ab89
9d7d
285f
b0c4
d716
aa3c
dc03
31db
b836
4c8d
7bf5
ef11
18d4
4137
d08b
f2c9
a8d1
7e48
6c65
37f8
a4c2
e5e2
ed57
beb1
91f5
d6bf
97f6
1b0d
9c4f
a1cb
15f3
178d
c608
7da4
cde2
461d
1f8b
6b6f
822b
2edb
62ca
1dde
301a
659a
db51
bce5
31b5
6416
b773
6de6
f3cb
a19d
5d14
0cda
baca
f9d8
ba75
b0c2
f181
d783
8027
0be8
31f5
b0b2
23b9
9e76
c1da
b860
626b
772d
f6c9
242c
fc15
ddb3
82b8
4884
894c
535d
8870
1d0d
186a
c74e
0df4
f6ac
172d
7c97
d62c
96b3
2c70
cecc
baa5
32b4
c3cc
3f05
85a9
2106
9e17
4cb3
f49f
430d
e3d8
c621
6892
dd59
a9c4
a41f
f783
f4c9
b4f4
82ce
a04d
f82a
2af8
2072
2803
f275
b4e3
f215
3d11
6ec0
741b
7d40
0dac
52e0
53b4
d2a3
ebba
cf12
6008
f1dd
ba7b
f14c
499e
9e5a
478b
e283
1ab9
3047
1e59
73ca
376a
2d8c
5a71
3893
acac
894e
09fe
59ab
7126
af57
13d0
3107
56d7
a8e6
f8d6
f909
ac27
a7fc
d8d4
2cd2
089d
17fb
7db4
c3a4
6ba7
1c59
2ae5
7d18
92cf
d0c2
f2b0
9481
9bd0
3e1f
a5c7
1a22
5e4c
035a
c264
f041
0951
7e2c
4333
c773
d265
0542
d042
8af4
d45d
6d5e
6f06
8a3f
43f3
cebe
8df1
2420
32f9
ad2c
efdd
11a7
db9d
8a5d
1f44
4ff9
cb05
d6c1
3742
8d28
a08a
2ea2
c4ca
a864
d371
58d6
2115
0e7e
f3a5
9ece
cb8a
26a6
9c4b
1251
b17f
1343
01a7
9572
1736
b696
1f48
da68
5360
c347
4841
c96b
0a2d
8602
cc3b
9b07
6828
92c8
81fd
36a8
c0b0
7bd5
07ae
71f6
048c
69a1
23b4
c802
f718
bccd
02d3
22e8
3721
e08d
3dba
6dd5
ff81
4302
ffef
da4a
9625
f12b
9b57
fb12
32f3
2c94
3338
ba29
f2a9
0dad
7e81
17af
2f15
556a
38cd
bc8e
4ddf
5e74
5314
1512
8c70
3923
9267
1ea2
ec6d
d9b3
87c7
36f3
f080
2d68
35bd
3eb6
3093
4349
9b6c
49ae
e865
3ec0
b8bf
7621
0cd2
5696
aa4c
70cc
d1ec
2a79
3b2d
14dd
7727
afdc
3873
9d6e
d92d
7aab
b5c9
fd0f
8ec5
cea6
f811
46c2
c8a2
0d01
543b
0d00
d48f
ea0f
7da3
2558
d817
bde0
89c7
95ea
099f
fd61
fae7
5dc2
0848
53b2
111b
b4e6
0b1d
f917
15c3
cc5c
bb6c
9b92
8734
6b23
c9c4
e5e9
63da
cca0
f3f0
d3e7
d2a4
2938
346d
9164
8880
dad6
125e
7446
27d9
3fd5
2dfc
c130
de2d
1d98
5fda
7d21
36da
b8df
5334
38a9
5947
63ff
7069
f945
fbe2
0e0b
d310
f73e
478c
ff2c
48c6
f96e
6fff
52dc
9793
2767
fb1a
f74c
9221
a70d
1763
6443
ddaf
d7f1
45b6
7eb7
565b
f6c7
3a67
73cb
f0e3
51cb
660d
ec1d
9e39
dffe
75e5
b8c2
eaee
44f8
729b
e6ed
2684
f1ed
0c5a
7704
c94c
259e
7582
0fbf
58f1
80bb
bc5c
8c49
1721
c6f0
8437
50e4
01ce
f284
3029
07c6
0346
c39a
9d52
6159
ca10
87e0
fccf
83d5
572f
d88b
49c6
1971
f3e5
8625
bec3
8e0e
1ce8
8a13
29f0
8d62
2b8a
1dae
eb39
2dc1
d70a
8f15
0945
69a5
80ac
5d33
1067
f47f
4610
55bb
ea8b
3fc2
5d6b
990a
ca69
b1d2
e90b
6688
0dab
4ed0
67ef
1ca0
2bab
a9da
6ecd
cb9c
ad77
09ce
ffec
c9bf
57e1
a63a
926e
4afa
0b29
0449
584a
3952
e3bb
3bb6
26a3
c01c
6479
9bf3
d197
1776
bafc
863d
e2cc
bb49
629a
4660
861e
24fa
40a7
2b24
7aa5
dfc8
baef
1772
3d4d
7bf8
8441
d2be
a8ad
b434
c158
0d45
39dc
b7e8
934d
9be5
ae3f
b530
5580
d557
b82b
cf80
6857
797b
af74
90b3
1496
e97f
ce7b
0711
e9ec
1d4c
4996
2f96
1bcf
e987
b305
fedc
84bc
4496
0fed
2538
e06a
453c
b722
a96a
cdf1
ef49
c5ab
e72b
9aa8
120f
a044
c47a
4491
0316
de00
34a4
4b75
6132
da76
0eee
0a62
a6ae
8c5d
444d
65e9
f5e4
bd8a
6801
dfca
6dec
bdfe
6474
e11c
86df
b22f
d0e9
52a8
d11d
d99a
6b00
b001
a663
bf79
5787
20a5
37e6
0284
c2d7
059b
47dc
0e29
64cc
eea8
9873
4ba1
821f
78d4
ec80
3f2d
0958
1fe0
f8dc
153e
42db
158c
f724
0f42
824b
b742
fca5
53ed
070b
b374
67fc
0e6c
647c
540a
c635
7811
d163
a7cc
722a
2428
68f7
019f
4d0a
c4e6
287d
5e22
31fd
eafa
0f28
04ad
9977
c7a5
94b3
9657
c4ec
b10f
9533
9650
4f90
8069
27c4
d8b3
fbd4
42e7
91e7
f399
049a
061b
6694
0207
a7b1
da2f
2963
6039
63a1
a894
9ac6
8117
53ae
8ada
3b1c
88b4
1d38
8788
56b6
d093
1b12
9f09
ab6d
5543
644e
2df7
45e8
d8fc
4bf7
9d82
826b
2db7
f2d0
afd2
4d52
ca49
d01c
8e4c
59a1
0726
8579
2284
33fc
4ece
b592
9fe2
f1be
233a
2960
9bb7
2ea9
d9e0
2248
20de
843e
1ad0
9b3c
a94c
fe45
09c6
6e81
c3c6
986f
5b58
5bca
b4dc
cf9d
c977
e4cc
2e28
66e3
ff25
f49c
ce9a
c931
9a29
c1a5
0a07
2474
d624
865a
b25d
3a12
a3ca
34d5
fa1f
9df9
af10
d959
e27a
fa91
7f42
3922
a53b
34b0
2f6c
7386
0428
93f3
a9dc
ecb8
6fe4
3fd0
11a5
6db1
3334
1118
0ab8
03b8
5f7b
ef40
81aa
0686
800c
439e
41ba
393f
2215
408c
f118
b69e
02e0
de5d
3b36
e1b7
0f55
2e59
aed0
cf58
a00b
e887
a1d3
690d
6673
2d63
d446
6db8
9ac7
bbf9
22e3
efc9
cf14
1806
5b7d
fba4
8570
34a2
557f
c60a
9ed1
b856
8b75
5941
2eec
d1cb
baac
9d63
4ce1
b1df
4f04
f736
9b47
03c1
bf98
4bc8
fdda
2ebf
7724
edde
eae4
67c2
52c2
a208
2b64
56db
42a1
9103
6e5a
03ca
049b
03f4
cbc3
1a16
d469
777d
c9d9
f063
1d7d
6faa
cfa4
894f
61b9
8ad2
d932
3d69
0330
1fcf
4df0
91f4
6d27
a45c
9b34
54be
c40b
9f39
bb64
e71c
5c06
12ac
a1a8
159f
5b8e
b62b
17f4
bdd8
9dd2
4997
8db8
960e
1a66
5d08
317a
e8d1
f68c
b259
ca0a
3386
7602
8e62
fea7
4b0c
d056
3bee
f38e
e06f
5147
618a
ad5f
a45e
4b5a
3e35
b894
92bc
f70a
f18b
ed22
91f9
e3ad
90ab
7480
a713
ca06
2ad3
4566
1f19
4a64
9c08
1edb
679a
16e1
bdeb
c86f
ebae
5c28
3a04
b1c7
58a5
c706
f25c
55bb
0784
625e
ddfe
3490
0258
6556
b31a
2af4
75b3
196c
c98f
73e8
a853
2b1a
d236
d8eb
7e40
2bd9
cb3f
df76
a249
7436
b5ef
2d1e
f739
e6e3
4f66
2994
e338
69b1
4638
3f6f
ec22
90e9
4680
ad42
8e72
83e2
c311
397a
5de1
d529
5eee
c837
bfa2
63a6
d207
0c7d
cee3
8179
c841
0ab3
05a2
2c1f
5440
8944
4663
92fb
cc55
4cb1
e07b
fa12
1d4c
68e8
b2f5
494c
c4c1
dadd
5fe2
f0df
df2a
a323
292c
0c78
7ff7
6568
4ac2
e1be
fe0b
5f1a
8708
6c40
e858
ab0c
9769
722d
63aa
cc80
d692
4494
a22a
872b
c68d
a8f8
8aff
eeff
c885
ed0d
fece
8841
c5f6
fddf
8fa1
a952
7832
57a7
9c96
7512
59bb
7360
134d
76cc
e426
0693
1b48
96e2
b9e0
cd78
b2bc
673e
1663
1d3c
52af
82f1
06ef
1b5f
959e
135c
6754
9b92
0f39
95c0
166d
c178
a413
ae02
5010
37f0
f40c
cfb7
afb4
21de
0a61
5754
fd1f
8090
296b
46c3
c386
2172
2fe2
5832
da14
e330
61ac
b893
f2dc
58f7
2df3
2742
90cc
2a05
7cc0
29b5
696f
c050
03e1
ed05
44ec
84a7
cde0
2902
4600
973f
ba04
1704
240b
3c77
0cc1
e4b2
c58e
21e8
2bef
a15f
cc53
a4e7
fee2
f8f7
ccd2
3512
47e2
6cb9
ba99
e910
0dc1
d950
1ed2
4d98
67aa
1b36
9d2f
fc74
14f0
ab1a
6a14
49f9
c01f
2f2b
2924
cebc
4265
10b1
c59e
80c0
8722
d8ec
ee8f
33be
f646
c85d
bd6d
4b6c
0cd9
83eb
cc27
1cf8
749f
e4fb
cf3e
51c8
2194
56ba
ccb6
5d18
5038
cc79
cfd7
4cad
68fd
46e6
33fc
9e86
ac09
93c4
1dd4
b7db
943e
4e32
58f0
bd31
6dd4
8021
6754
0fa0
2c2e
3698
d7f0
afcb
269a
1939
c415
5aab
a2cb
d5e5
9614
d18c
9b50
8f27
d65e
0d3f
d7dc
6948
1614
8b4c
fdab
e9f0
61b2
c015
f26e
adae
f180
7562
ac05
7538
54dd
eea4
086c
86c0
5214
6c7c
fb76
fb10
c823
3c28
2e79
3e92
8127
8e49
7b44
89fb
fe4f
28dc
c676
caa0
aff3
6488
ade8
9641
4c32
30c6
9047
112c
d344
c310
f242
ff69
c4a8
733e
04bc
b3c4
8ae5
ada8
b58f
4a24
0b97
e5fe
0d8f
a032
472e
e4e5
6e98
554d
e017
361a
cd10
ccf5
bf3f
c060
b903
aeb4
e2a3
0594
17d2
03aa
2cec
2910
f217
43b1
a72e
59d3
cf66
5e62
4c89
0943
87d8
1d1d
2f0e
98c1
c629
1870
67ea
68ab
0b2e
3340
6440
5d67
d063
561d
7281
629e
b082
5e22
9e9c
150a
6460
ee26
a2e2
0933
0b4f
8933
e19e
d180
89e3
1775
1bd0
b4b4
fbe6
65fc
632a
f671
c39f
22ba
ecaf
6999
2a01
ed95
d110
d72a
baa4
d4ba
2b04
3a67
5042
3f2b
1ec8
059a
e314
3a26
c660
62dd
2ef2
f590
ac7e
b607
8254
8de6
060e
d17b
33ef
3c13
9168
6e74
e82d
ce8b
8765
f7ae
0e19
0dfe
9c47
515c
92d5
ff85
1a06
5e40
f053
acc9
3fa3
091a
7651
4a01
839b
fafb
3752
36bf
6199
45d1
c25d
1a1d
fe68
9715
2fc5
2a4a
f524
90e7
799d
fe16
69fb
fb0d
1768
7f0a
95c2
70fc
53eb
2a36
8733
2c3a
7c9c
38c3
75e2
d02c
6618
2d83
7313
7201
5199
3995
ca50
95f5
d537
8604
1618
8544
070d
5a79
74c7
6411
539d
c2ea
d79c
0c7a
6ee2
8514
8834
ddb8
c7fa
e523
0016
23ac
06c6
10c3
499f
b069
141c
04f0
6d17
b882
c3f4
04c9
cc5e
ed2b
4488
9f36
bd0f
c452
906d
2240
7dd1
5d68
0dec
351e
f867
9304
13e6
d846
c491
1903
0ffb
acd7
a7ec
15a3
4df6
8b6b
39b5
72b1
a4ee
4d64
2263
038f
dc26
4c27
bb0d
0e81
248d
78b0
7b85
db75
6800
9a37
c838
fe2f
c133
7aea
620d
4a7e
01c9
36c1
d8a8
defc
6231
1776
2708
bdb1
c582
089b
bc65
73a9
3370
02e4
b2ac
53a9
a1d1
4700
5ef1
6bf4
706b
51af
17ab
b680
9680
0ee9
2c05
7728
a3c4
1df9
666c
fc16
113f
cd41
de16
ffbd
090c
184d
b069
03f0
3ea9
18bd
293e
5e3f
6171
184a
1a42
0e51
23ad
eab0
6ebe
185c
a3db
ae44
3a49
3253
decf
dd3b
2e84
68df
9217
bb12
fcbb
309d
60c8
2b8b
7e34
d63f
2c40
96f1
f618
5ae3
53cc
0753
c604
9393
91cc
dd1d
e4bf
97e5
30aa
4773
4133
2829
5c15
9efd
ca28
3785
8164
67ab
0053
38e5
c87d
0502
5cab
0329
6c30
d85b
0b77
3fb1
21b0
8a72
1424
faf7
c65c
10b1
b5b3
80ef
e7a9
1048
fdbd
b2fd
4927
c595
6e05
6738
9356
9031
08cc
cdd9
b739
07eb
1ff9
65e8
67c7
8959
a86b
840b
3661
07f0
b7f2
01d7
a913
f208
8291
18f8
5c80
65c4
8c43
4d4e
52aa
bcee
7cb0
a93a
9e53
f6dc
2cf6
bcee
a94b
d67d
98a7
6701
3b65
ded8
0981
737b
e740
5132
9e73
5b2d
419c
7117
5f0e
7078
5fe3
5c97
0ec5
e40e
3e4e
840d
8757
7cf2
9428
a0f6
afdf
82e1
6b1d
1825
bcd6
614b
e90b
8566
1f24
6be7
ec47
a767
921a
a445
672d
4ae8
56ae
01d4
9059
bc67
056f
a30d
bd2f
e1b3
dad6
e8bb
f3e0
001a
6208
71af
7d46
713d
be88
9893
0613
6bf7
0cf9
02ae
3d6d
d624
72d6
c27a
74d6
c894
8dca
c1b9
af7b
6c1a
320b
d21e
c4e1
d1d0
85ba
295d
b610
0dd3
b76b
b88a
2b92
8549
f2a8
9afa
afe8
f2b1
1907
98ff
b892
4879
1617
ef45
d573
05a3
2355
62f0
6329
6269
6d29
4ed7
b643
bfc6
3053
4310
561f
1813
cb1f
8c3b
6328
4935
8d10
38fd
7db6
9b6b
ce4f
b848
8fea
ec03
cd7f
04d3
c271
97f0
2481
c24b
d439
2803
c284
7516
205e
399a
a0c5
eaa2
f565
d668
9328
9a37
05dc
42b0
6893
cee5
c7bc
fe43
b6a5
07f5
d317
ad4d
b49e
dd36
e4f3
8b78
4c95
d644
6061
b90e
5d25
3c58
542b
a265
988f
8239
51f7
2c81
b1b1
8be9
8917
cf09
184f
ab87
e91b
5ec0
092d
bc3c
c962
e23e
f9ef
8050
c00f
ff3e
846a
5ea9
5eb8
1960
4b47
44c4
53e0
0970
7fe9
0b6c
f8b8
0606
9ba6
5770
bc8b
3509
a6ae
950a
ddfc
411a
1073
3583
80d2
7c7e
c6eb
7738
8ff5
18b8
38df
0308
dd72
2c3c
fcb4
669a
0b4b
77e9
fdcb
006d
7f97
40c8
74aa
3a40
cdab
a489
47e2
5467
92e1
4f80
5db5
b1d5
72a8
53a3
77a3
82c9
76f2
16cc
a9f9
b948
042a
25d8
4a89
c018
3b03
4ca0
5251
d1a1
7a34
1562
0137
0a15
0412
9359
3867
fd6e
c511
89c8
c456
7110
658c
523f
133d
4dd3
8aa2
c63c
b151
174a
d1e8
85c5
3f6c
1454
4f08
6b5d
ec80
2d4f
d304
f304
63e1
cdd9
b11e
b8e9
b905
3403
9c2b
e056
bed0
f8d9
a5f1
8ef9
d479
b8ff
c62f
6733
8b86
6d64
ca10
7c51
f327
6dd5
5ab5
1dd5
69c4
04c3
3c90
4b33
0838
720f
edb4
7d47
32f1
703f
7cd0
256a
a25e
e725
5b92
7de2
1381
28fe
4d38
7836
497f
4921
408b
4a40
8ade
450d
54e5
d899
0b06
ac30
ba66
01d8
d72b
5f76
7768
38a2
33c5
5d41
2fcb
0311
1c5d
44d8
273f
2cab
0a88
6ae4
3e1e
25d4
b172
57e9
3b61
50b4
a65f
97fb
8272
4782
f228
6aea
6528
7988
eb50
b24c
a24b
2983
6094
9319
9e37
65ca
bf8f
9b3a
e326
03f9
4bb3
5a3c
bf14
88fd
46b3
fb5b
92c4
1009
544d
3bcd
1316
73ac
4ead
47a1
b7be
4f8c
871f
ec23
1d54
306b
e8bd
8662
9bbb
6480
6d2f
1f01
32eb
34e0
c6aa
ba07
d516
af41
5d4d
9c8f
8fe4
8e6e
c8ae
63a0
841e
5fd8
06c6
79cc
fe3f
b238
7b65
348e
fc90
dfa2
a79d
a82c
69eb
af29
14f9
f9c1
11a7
d7a0
4bf2
4e08
1aa7
2144
0a39
3973
e650
78d2
9995
22ac
be4e
1284
99cf
1929
6c78
825a
311e
e9bb
6449
1970
fc6d
f9d6
84f5
d1e7
bb0c
7392
7c58
27f2
0715
b30d
b27c
48c9
7b14
59a6
8fe4
0b04
f0b2
aa8c
e669
b978
ce45
f64e
7ea7
c460
faad
83d7
3b45
8593
752d
7991
a75e
6968
0478
913d
e18c
88bd
2f5d
6329
b88f
0f50
feac
382e
c95d
c1f2
5221
83e9
03ab
72f1
97bd
8b24
641e
f14a
ed20
dae9
793c
3148
9018
6e5f
b272
1623
2dfd
b5b8
f0b6
c47d
efe5
432a
2af4
f0c3
757c
d39a
20d2
eec3
f5e7
b0fd
9b1f
b194
8367
0422
c326
6e23
7d2f
eddd
f2af
7b68
72d5
a8fd
934d
3d46
15c2
b68c
4041
d4b6
9574
7338
04df
f4dd
4c05
d76c
0714
8931
2f7f
3476
e3de
a88b
a626
60ec
a8d6
ae9b
6f09
dd76
39a6
22fc
6e89
357c
9bc6
c1f2
d52d
2c40
dda2
d42e
26f7
120d
0112
7a53
42d3
c1cf
2cb3
1ae7
13b9
e959
b15d
e1cc
b408
8fd1
598c
589f
1df9
8e41
8294
61c4
f4d4
2c03
ba7d
5913
5db9
f3e6
7821
fa51
b366
3519
8942
5823
311c
6db3
684f
5ad4
00a4
be5e
8bb2
594e
4110
e69f
615b
dd09
43a1
b5a9
a89a
564d
3ebe
fdb2
e855
b8f4
d8c1
a988
95a4
d31a
e17c
9aa7
0076
5c37
740b
fd8d
785e
31b0
4b88
4a8d
4041
3d30
ab7c
8ae9
c643
c0f9
f35d
2c24
aca4
c87c
ef70
63f1
17e8
a5ec
3ac0
2e97
3cec
d3f6
b291
2e2d
c2a5
92c6
7bd8
6ab2
b5cb
c803
9b26
b9c2
fc57
17cc
025d
cc75
ef48
7ab5
6ed1
7f50
8f1d
b7b7
32db
695a
75eb
38fe
80f0
2994
5b48
84ed
9351
6443
c1b1
d014
1c99
2987
e27e
02b8
0053
f02b
658b
1e57
97c8
eaa2
cc3b
51c2
dd64
0c07
e83c
be89
5f80
74e3
00be
d3e1
2417
a395
36ce
1f88
ad62
07db
f7e3
bd33
4bce
c874
f140
bbe4
353b
8f4d
5551
02d4
a398
6d96
a774
c8f7
926e
e0db
e71b
2bfb
fe20
2218
bc10
4ca9
f8d4
b8d5
5bdd
5126
a834
eb17
b78c
bedb
4a84
b062
3f71
5520
ac13
4254
815f
1646
6f48
f221
b10f
0873
8ad7
f4c5
de61
7558
1bdc
2684
dbb8
2b1e
8f12
81eb
cc82
a677
5782
92d5
c55d
0887
fb73
a37c
9973
d208
b21d
5373
c08b
faa2
7980
cae7
589e
bfec
6a2c
4c70
d5ea
499e
22da
4452
6002
d2d5
6b10
6a69
994e
53f3
b3d6
7a01
de01
313e
4a09
0abf
a125
fcb6
ad43
ff44
97f5
a57b
2ff8
bdc5
562c
080e
f8b3
d2b7
2d86
23e7
5ce9
a68a
adbf
50fd
a216
41fd
3804
ebda
5f17
c947
11e9
290e
877b
5371
81f6
0ee3
420a
6516
af03
2ea5
6e09
744e
8f24
b202
32f1
402f
1128
5b2d
d5dc
b11d
8835
0124
51c7
c0cf
8949
1351
e513
45e2
f666
3a08
ffa1
e23f
ee5a
35f9
3210
dcb0
a619
c7a8
255b
04e0
4e07
dd11
63e3
6ef4
9bb2
5a33
75e7
1278
72f6
e612
f25a
3d6e
ca5f
f742
76c8
53d7
7d7d
b9c3
ae04
e150
24df
a77a
3267
1680
6452
d358
519f
868c
691f
8d8f
fbb8
f1a4
18d9
8348
57fe
d409
a0a1
967a
038e
e222
3a2a
7684
2356
630a
91c0
e80b
522c
d2bb
aa7f
683a
4e2e
bada
6aab
2358
a2ad
2610
ab26
55b6
96a4
d81f
5fa5
ab7d
0417
e8ea
aae9
360e
d728
ff24
9f4a
7246
2800
947b
b7aa
ac59
87c7
9dcb
17d5
310e
1fe6
337b
a281
f3e5
3f91
dafb
1a77
5bd3
2817
3891
32bd
815a
62f5
4267
198f
7b89
589d
0e4b
4e7c
48e0
3167
e22d
f30b
7e63
0ca0
1cd0
2a2e
0b81
5d5d
77a9
d07a
e3d8
d1a1
668f
4d78
0c5a
14a2
9a45
4d8c
aa12
91b2
d4cb
6661
b859
5b46
60e4
d512
abc3
5227
aa6d
14be
f3b5
0d3f
736e
178b
459e
f74f
d870
ea9c
438a
bd83
29f4
ab0e
4bd8
1102
d135
4579
5b1e
27cd
7992
b0c5
1a92
a718
c703
ad6c
e24b
4471
42f0
72be
30e0
0637
5271
d878
f7c6
90d0
95db
b791
7b6a
1121
3493
a3c3
ec4d
206b
ecfe
3dfd
a090
2213
2827
6776
ef6b
5158
f47d
339c
16f5
d64c
170f
6ba0
1f08
b207
d47d
6d6c
100d
4b86
08cf
668d
d0b9
9239
952b
7d4b
89e5
1c50
f351
7e63
8f34
14b8
a167
8779
41d4
d87d
8ded
ccf9
196b
6f9e
a568
7c55
9797
288e
2287
5904
5c32
d492
5dca
6544
7022
ba62
b6a9
f6c4
9fc1
9076
84dc
6659
9ac7
c987
ce18
926c
a038
39fe
e8fe
26b7
38b8
5cac
15f7
c6f3
422b
03cb
685f
2c01
6b85
a831
50cb
cad8
554d
7051
0e15
ae70
4c9d
deca
67e7
d8f3
5322
3782
1036
ecca
836a
276e
ee1a
ece7
6125
220f
c972
385f
ed41
c129
71c3
bef2
e2d4
d351
4a4e
d557
a510
460f
9b95
1390
db20
90b0
b24b
9bcf
0c5b
ccea
0691
e413
9619
9f5e
3b95
51fa
2b99
2a92
c3cd
3216
f920
c133
41e9
911f
c6e3
e22c
3880
669e
ac3a
6205
f950
9eaf
d6bc
6c93
f323
c1c4
6f01
98a0
8e78
2295
7c5d
cb9c
70b8
4dd2
d45f
9841
f44a
618d
a19a
5174
e824
03d7
628e
bd54
6921
de19
de38
6228
a1dc
3fe4
d3e2
d816
944b
5681
fdc4
5195
6f3d
88d6
7c2e
8b5e
c170
7670
1530
a678
c982
14a3
a231
0b67
9d72
44da
9a8f
9b5a
5fc5
2bed
3458
8f2f
44c7
75a2
18d5
12eb
7603
3394
c997
6a5d
9952
5cdc
8281
bc31
46e5
8d9a
713f
fdb7
e69d
3c80
79f9
3605
0263
89f4
0b28
8470
0f86
bd33
34d3
a54d
ccf6
f15e
ad1c
736f
9c12
7706
2731
c34a
d942
477a
7078
2eb6
f68e
db0d
3949
2945
372a
c4ee
bb73
7910
8168
8066
203e
e623
6a82
4b0d
7898
4b5f
524a
4e99
e4fc
f699
fe68
e3b2
7427
7961
4665
6b40
19bc
1d07
c089
d69d
918b
8270
9e62
db32
bc9e
d99c
8363
03c3
c2db
fdb1
0bfd
e2ff
7e9f
cf34
01b2
46ca
0344
af2a
3089
2a29
75ab
b03d
5bf8
b9f5
88a3
db2b
eaa1
cc7e
bc20
7254
01f1
8631
2178
97cb
ae91
a9a4
dd8e
e089
fecf
6f63
9c1d
edc0
bbed
bb3e
5fc7
eb2c
7378
89cf
75eb
1514
60bd
fa24
c123
4468
f1bb
ac22
eafe
22d7
ef67
69c4
f8f3
cdbf
6e18
9b41
2e47
900d
c373
fe68
b4f2
1609
1b51
2de6
4651
1231
0b53
1305
43a0
5b4c
9ea6
65eb
b58c
2139
cf5a
8a0b
83cb
496e
2797
21b4
b722
17f2
4bbc
692d
2fa1
864b
9047
e38c
0a9c
f7ad
4179
7336
4acf
9def
4382
8541
dec1
821f
fe57
47d5
bae2
de1f
eb54
d8c7
90f9
73bb
23de
22fb
4869
4c46
aaea
e4fa
c525
9d48
f775
85ef
a117
bc15
659c
5959
0117
ddd0
16bd
b1d8
3596
a5bf
00ac
e485
3294
3c9e
3344
c114
19df
b3dd
c459
e399
5a53
676b
f233
7a2e
28c1
a3de
755a
1944
ebaf
8174
0520
42b7
2dc1
edd5
5d3a
29a6
ba61
08dd
f96b
0e8b
35ee
b876
627c
64ad
fd0a
cd23
cb3b
b37a
51b2
3b04
7597
0366
f425
44db
615d
b415
fc4e
fe6d
8a24
634e
6a3d
77d8
f220
d2c0
0015
71fd
fff2
ca33
d9a7
c429
fed8
7557
5cad
0f89
f3d1
c819
7dfb
0f07
0db9
0703
2af3
fb4b
9dd0
0011
cc77
0341
aacb
0441
4c92
d8e6
4b16
fa91
06bf
de6d
61e4
3d24
b3a3
69a3
2288
61fc
46c4
a4e6
cb7a
46f8
eb35
a636
6358
f730
4b1c
09e8
7119
27ec
12d1
6371
2ce7
d2bd
24f4
6b50
3eec
b307
c800
7a32
197b
0517
6518
6da1
948f
ba1d
9232
058f
32d1
e0b0
f057
2e58
ef71
348f
3004
b473
e272
e7ba
0719
94cd
a0fd
6493
f6da
9305
74e0
9758
7722
6723
01e8
1acf
0de9
99f8
e142
fa9d
cc03
16fb
f2e3
26ff
6edc
ab2a
e0b3
8163
2c1c
d05b
79d0
084f
dba6
6136
2643
dde9
9106
3853
2626
9735
2be7
e4a1
c383
f314
0974
b519
2038
ac89
0f0c
75e8
d9b1
068a
0a87
d0e3
3992
00d7
1511
5319
8879
dadb
6f1a
a6a0
3dd5
5222
4b30
181f
eaab
5bfe
6bdb
c60d
5a8d
575d
29d3
02e8
7007
948e
fedb
81a1
2757
aa4f
82b2
fcfc
d5cf
7cbd
8615
c24f
e87b
861c
f7b7
4e76
6bcf
12e8
4ef2
3b79
fd0b
5919
7d31
ddad
e16a
8c63
d27e
0937
2b97
84e5
3f68
4347
968a
b629
7570
82b4
e0bc
927b
150e
8768
27c4
30c1
0047
0f7f
c7ee
a3e6
607e
3b92
64aa
bc3d
ac5b
396b
4f85
2727
2a0b
853f
f007
7f7b
7d44
2c78
5097
1ed5
95d5
6891
17af
b188
04df
028f
f306
b077
888d
3e67
c9fc
5410
1c23
3a4c
c06d
1491
a458
a2ae
865f
c8b8
b619
6459
ac0b
5696
2294
ebf6
69fb
8269
11f2
cd54
32d6
1f22
5ee6
c186
ccb0
2364
d306
db5b
5dc1
47a5
57f3
69c7
4dc4
e516
7c11
3adc
993c
dfcb
a739
71d4
54bc
9f1e
fb43
fe53
c494
c776
8f70
7ef2
e03b
b417
53b6
0a0a
ddbd
12ec
342f
c90e
4836
a46f
4d29
daa9
150b
1da1
2453
11cf
0eb8
2f91
72ee
7ecd
29f2
1f71
5203
d5fd
bb61
6132
7c62
322b
e5ff
c510
e6d9
4f93
96a3
d602
8fe1
c2d1
f445
ed59
04d8
4f23
b65b
d341
b7c6
8cb3
2174
3165
a79a
0167
776b
35de
6b60
a661
c18c
fa3a
b7b8
73a1
8cf8
bae2
3078
89bb
89d0
88c4
978d
9d7a
b7b6
786d
6b33
8b2b
d703
9a52
795f
a6e7
aaed
9c8e
5492
fd7b
2ee3
5fee
9e22
a4df
9794
65b5
e802
3d27
b80c
f63a
09df
030e
9cdb
aa8c
652a
bdc8
aeed
143e
8d5f
9f33
3731
f7f7
3e9a
fd1f
397d
058d
0e35
4895
3e3d
ea6e
2b74
04d3
6c98
1538
890b
12b6
f737
c459
1a08
a493
ff51
c23c
18f1
9ff6
16c9
4110
51cf
537a
6801
6554
d6ec
adf6
a8bc
b124
ce79
0d42
4548
96b6
f8f9
e2b9
2100
2dff
2e29
d412
f120
017f
7b44
c96e
29e5
5c98
a26f
d024
765e
1589
52f2
2343
bf54
34c3
7338
5cb3
a732
fab7
39d7
bb8c
857e
9fb1
bad8
50d9
fcdb
9216
41d5
cc8a
c113
e120
954b
5eba
a7bb
960f
cb96
6a9b
ad9f
4294
ac65
4202
3de6
0114
583e
461e
e726
5907
94dd
fe88
9ff5
9027
8e0e
9432
ccc4
dbf9
4c90
481b
f3b5
ae2c
8223
d3fd
abf7
df2c
48a1
7aa2
9d62
fbcd
0983
7c72
0133
f942
eb9d
e33d
dc64
752c
3e89
3987
cace
893a
5375
2926
8a8d
8881
cc6c
fd2d
61f6
002b
3f8b
1b2f
02c9
15e5
2ea7
c0d8
5f45
9ddf
ce5b
96fd
f861
b726
10ff
2ad2
3146
e8f9
2cd8
26c5
4e04
a00a
4519
640e
3319
8fe0
495c
177b
be1a
3bc6
7c6e
eeea
ef35
a9e3
f253
0f96
733a
8254
f495
145e
e2fd
fd28
f89f
0bcb
5f39
6118
def6
1f9a
ac60
37cc
7837
681f
7abb
df28
f495
cecc
f60b
2bba
76b1
2de2
57ec
778e
7465
71d5
2057
17e4
237b
65b8
230f
78f9
1b0d
846a
5963
ebe1
9137
e801
5307
cc7c
b684
626d
d06a
8239
b9a1
649e
37bd
28bc
3cd8
7ace
f8b8
d746
2528
8042
a720
938e
2f22
5535
6552
42e1
2cb5
607d
28a9
8965
42c0
efcb
021f
bcae
d24e
648c
0b17
aff9
b2f0
b369
537c
833c
639c
159e
e6c2
907f
0c9f
9560
2796
7ff6
6bad
04b1
0d44
59e6
9cf3
472f
2ac3
1a0b
7aea
3f94
e9b1
e09c
d092
990d
a9b4
2231
b380
9012
eb0f
6ce9
25e7
64be
988b
95c1
2129
8f96
9906
5372
8501
86fb
726f
be1a
5431
8913
4856
de3a
06d5
80a5
dd39
86d7
c40b
a4e5
694a
7f47
e1ee
b0d1
283c
00db
4d8c
1b97
dcc4
2e7c
18b0
c914
79f4
ea5c
bc13
54ec
7469
5637
01f5
7b3a
2a92
21ff
ca1d
0455
4428
6dba
3eaf
19f5
b8e6
aef7
6642
2782
d425
d02b
9248
fe3e
4bb6
7cce
b0b4
0c91
3e2d
0f54
d6b7
c90a
d3e1
4ff0
8e61
4bf6
deca
28a3
7975
d1cf
f73d
bad0
9e7e
383b
3d61
ac98
778e
26fc
e383
2d6c
e196
7baa
e6dc
a009
c557
6d50
9b31
af98
4c4d
ae36
42d5
c24c
7cc0
c439
c0ef
5080
a75e
e843
590a
f5bc
51dc
49b0
962b
7724
a66b
9346
3b56
f99f
f9ec
dfcd
d60b
ddca
aac3
941b
fd03
f6da
11c0
72a3
0436
b734
c9c6
70a9
222c
d7bb
45f9
304a
a2d7
04df
7130
61eb
84ca
4866
2a93
d212
8cd1
9f48
ae9e
104d
eef6
8762
786b
45a9
080a
cd13
1ce1
f937
b58a
6062
4226
0ca2
e281
2996
86f0
6fa0
958a
cabf
3dbb
2ff8
b3f9
0f55
3809
94ff
c03c
44d5
45f7
0670
04f4
a98e
4be2
bd1e
74ed
a410
57df
09de
f62b
2181
f394
bfd6
aec3
f366
2a66
b2be
1b41
d44c
02e9
73a5
bcf5
eee4
4264
8896
bc6e
7f77
92cc
bb75
d3c6
a9b6
bae0
e703
a420
b252
7034
7bb9
8ce2
115e
48df
ae2a
9c69
e3f3
3e13
c350
00e8
7cca
f0ed
64bf
3022
674e
263c
e87a
f7c1
dbfc
5827
74bd
48d7
f19e
d693
4701
8e4b
4c3b
f12e
5bf7
acea
ea02
9629
3806
5541
ac71
6eb7
69c7
606f
2532
c599
ae60
f6bc
1f39
d74b
e990
470b
4b55
d4d0
ba6a
5f1a
3459
6b33
4875
9dd1
c33a
8756
dbe0
c5cc
c221
34a7
0434
c08e
9a30
c47b
6987
5d3f
e25c
d1a5
cf63
c6df
cb52
6314
4c9b
e2c9
400e
3edb
ca43
86de
3e38
0238
bda1
c179
20be
24e8
6022
a0ac
edec
a42a
a403
84c1
5fc6
aa88
f1a0
ea18
7b37
501a
9df3
ab58
1c53
bc02
879e
258c
0e74
b703
6fd5
bf1c
be24
0985
d5e6
aa3a
101c
0414
ad26
ef65
bd50
f187
18b7
8caf
768b
987f
ceab
d9bb
558c
abb2
fd74
27a5
76b3
4152
777f
fdf6
69ae
00e9
91a9
2d2a
27ed
c8bc
1052
4e18
d382
1476
d27c
e0b4
336a
ae8d
81ab
cd88
488b
a220
d83d
53fb
af4d
6e10
4376
7afb
7836
26ec
a132
36a4
804b
a8b3
9bbf
431a
45ad
aa8a
d22e
7ef9
c48e
d62d
37fa
da44
417e
2fbb
9eb2
d74f
ae77
109f
2360
2dd9
a4d2
f8cc
84e5
8e97
4307
a186
13f3
510a
b8c9
0846
0cdc
f374
512a
ee1f
d37e
2036
82a3
cbb6
8e6e
7b90
4fa1
141f
4754
cad8
9a8b
f41c
6a2c
5c82
1111
3f66
e3ac
916f
9fb2
a7d1
2186
d17b
da74
355b
84da
5971
d377
e82b
2dd0
16fe
a46d
ea07
f9e1
02fe
14dd
f8f9
8a74
cf55
c241
dc5b
453f
f47f
895f
eae3
8658
7da6
aa11
26ce
3898
926d
d8e7
7ceb
d624
ca2e
7874
9679
5f4a
e2a4
998d
3808
1419
51d1
a36d
7143
8122
856e
544e
085d
f55b
2807
2e8a
af06
ca67
e642
aa07
38b8
2d37
4599
45af
af0e
f76b
8318
d675
4af0
35c7
96f6
1687
05b0
65a4
fa1b
2fb4
b00a
0bd9
d739
49a7
70c2
ee93
8e71
7c3f
8039
2bfe
1337
2ab1
6924
2e35
ac79
8412
3645
82c7
37e8
80be
2bd7
1875
8505
c11f
0f2e
1660
7b22
f23c
dde7
23e9
67a9
4f3e
2cce
704d
2502
8375
ffc2
d4b8
b1ca
d337
e54a
3b71
2cf4
5451
af29
63b7
7751
cef8
bba6
9d9a
9ef3
fc36
fb6c
98f3
1cfa
2aa0
166d
514c
f3db
391c
ec98
8bff
e801
c2bb
8b3b
5269
18b0
0df6
b813
58c7
a84c
777f
34e7
728f
89d7
42e2
8e1e
019e
4132
b171
a333
7ac6
5dc3
5297
ab25
3403
1076
deda
8196
8713
c16b
7cf8
ce7c
bad9
4ac9
362a
02c1
79f3
bdd6
dddc
5e2b
28b8
a48f
7c10
2ce2
0ba0
fa23
a0d1
b713
85b6
6cd9
8bd0
a8a0
c2f6
1122
acac
5715
90d1
7a3a
0d5f
be85
76ca
49d8
2887
9707
02fc
ed19
94b6
46c6
3137
8fc2
d31a
9a26
8d0c
fb1e
137c
a1ec
6deb
ddd8
ee0e
985b
cd33
baa9
778e
735d
445a
ca48
b023
4e3c
b993
005f
e06e
b6bd
edc8
16fb
27a3
9313
e79a
7fd5
1c62
20d6
85ea
291b
7f96
d380
b8f4
61f2
59d7
b492
ceaa
365c
306b
ac11
8f09
6748
7d25
9e11
17e0
7dc4
08ab
3be2
5b0f
76bc
aadf
dfda
a2e4
2d61
5ed8
8321
b10e
e1ec
3087
3e59
01f4
6760
45f9
0ca0
5462
8749
ed03
1c59
810f
3bc2
b2b9
96df
cb44
3460
e393
441d
0409
b571
fe29
b35e
c244
b878
7ea3
92e0
5d7f
ae91
ab70
4738
fc82
5384
7cf3
6893
6dcd
4f72
34b4
df24
5395
8ad6
9633
f720
0f34
3872
2828
55ce
8d82
bcb0
0742
0d31
e18f
350d
6647
5213
f235
f811
6b90
f381
2b3b
0da3
15f1
5fe2
fd84
2e34
f58a
5fbc
eabe
dde6
ccd1
6a59
9746
7e7e
1cff
95b1
c157
709d
c5a8
efc5
7a86
5a13
6468
abe9
3aac
e796
1397
7b6d
b827
6e53
d3cc
efc1
4fec
900c
f97c
76f3
900b
96c1
0d93
7893
c8de
b913
539c
6cbf
e969
1448
a83b
615a
3f7d
d5d8
6a70
ff66
6f81
0aeb
9326
2b07
c4d1
8fc9
91b8
3064
702c
c3ba
25f3
1681
1f61
07fc
6ccc
0908
5e64
82e0
fe56
fe3a
9cc6
6b44
62eb
d6f4
f39a
9d37
76ac
c335
dcb6
b2d0
b2e8
d68a
bf87
c9f4
9679
bad9
96aa
a297
a35a
eb7c
ecb4
be94
e1c9
4ea0
d061
1227
64d8
9bc4
90c8
1f98
ad15
0a85
e0ed
8057
5d2d
e3aa
2b1c
51e5
c714
874b
4dc9
e0ba
9434
ddf5
bbd5
4d85
0626
9eb7
f534
a8c5
7d66
6178
897f
e176
7f90
ffdb
c46a
1e03
4d2d
6459
0b75
e5c4
40fe
a57a
f42c
f6c2
c134
b4e2
da85
0e03
b34b
4922
f3c8
1060
d5ad
1763
336a
157a
0dfe
546f
263b
7f11
a2e7
347e
f2e5
0f19
0055
e529
71fb
7ffd
f68a
9a63
278e
eaef
4fd6
f28b
456c
a17a
a83d
84a2
bf59
6317
6651
f0b9
dad5
d9cd
e6e6
6567
92cc
f146
6fe8
27d0
4e43
7706
f8cf
58d4
409b
8c92
6064
be05
c9fe
5164
cc16
9d8c
79a6
ef8a
0865
f8b7
825a
12b4
1050
d2d4
c5a5
4468
1188
ecc5
7478
557f
c530
113d
7882
d2f3
9c01
2aa8
d9f9
ed1d
cd9e
07c1
5d94
25ee
161c
ff03
e44c
ba91
67c7
8149
d977
2c27
7383
58c1
7cfd
f393
4b35
07f5
1b56
6db0
e511
e69e
efc6
9f8c
59a6
f87d
f170
03a3
7de8
859a
b1c6
9707
f598
5f2d
292d
9291
8440
e855
2b53
f4df
6a55
a712
9679
43c8
6078
018e
fd2d
1bde
6cc2
4b89
7631
ca89
1277
76a1
6392
faf9
60aa
30a6
2579
fbe4
f6ac
e064
5795
7713
0466
9267
1579
25cb
3653
e967
e855
1f3f
cd59
11ed
241e
2acb
c55d
3e1a
14d3
73b6
e364
5753
765d
03ef
496d
2a60
83a7
1d9b
99d9
0b4d
b948
d635
7f64
15cc
25d0
9abb
f971
6acf
6679
b213
90e5
50df
b4c4
657d
5745
ee9f
4e42
3175
85f7
0e04
8f3f
27fc
3ac8
26a8
2edb
c487
6be0
7580
ac40
390e
dce8
8999
1cad
7299
1888
d3c2
7f53
242e
87a0
5553
d81f
ee20
d407
12d0
b793
caa9
8ec6
3ebf
21c7
258e
a268
57e4
49ab
a211
9e4f
1a8b
99b4
a7bc
0661
a858
663e
369e
9930
0787
9024
19cd
2025
759c
dc64
4e71
c7b0
47b6
6de4
a798
11b2
6293
295d
225f
de37
0414
d20d
0dad
f78c
8811
e9b8
e1eb
2c7d
da15
afec
7939
b385
5833
94dd
b63c
72f2
4f69
c9da
e5c0
d03e
10f5
f9d8
66c1
d50d
5925
7720
d76e
319d
935b
2772
b82d
540d
e7f8
7c82
6640
29f9
3915
2b24
7288
20dd
fd52
c01b
d040
4b2b
7914
ec37
b028
f3a6
7549
24b1
e644
b483
d1d4
e312
76bb
0b50
120f
9e2f
d664
0f71
815d
3fde
e5d8
575e
b4a8
1227
d687
f86b
73d3
b899
d6a0
a7b0
5cca
9b27
cd9f
05fa
700c
32ff
56a4
6029
5986
e316
5365
533f
34d6
7272
ef1e
f183
92f7
f2a2
fbb8
bd29
e665
538f
6cb2
7322
6844
f3df
5552
4439
2dc5
a89b
ebe5
23d5
4b7e
0b4a
1815
2174
9a79
e8c7
7e8d
d7d8
76b0
29d1
f829
ede7
1231
1e18
ee75
0f13
6519
307c
fe1d
0f8e
46de
9dda
4c2f
8802
7062
34c2
3788
9a93
bc3a
0acd
5abe
acf4
2e4c
0780
2ab9
e7d1
5d6c
e210
5325
dcb4
9a14
22f8
085a
ed57
bc32
787f
17ed
e95d
cccb
3e66
1839
ce77
3751
0938
a3e8
8994
d9d9
5073
4778
6dae
0106
7a7d
dc35
9cd3
87e9
9502
e1cc
2fdf
7f84
2089
fc16
dd68
f780
54e0
b6a9
00b6
47da
b858
d91e
3f5b
33b4
66f1
fed5
116a
3f90
7797
3c3f
cf35
cb47
5fa5
0a75
f421
bbe2
11e0
2ac3
ef12
0490
be2d
66f5
c301
e8fd
0f07
a397
e391
75ed
dfab
c941
6247
8730
b893
a797
aadd
2b35
82e9
5110
a9b5
df39
1634
8835
8b69
be6c
fe1a
aa56
4534
f0d9
9175
16a3
fe8e
06fa
d7a0
1676
0943
7a2d
f754
e896
51ff
0437
b740
e8a2
733d
dd1e
a677
e929
3f25
6c0d
0af0
7268
73d2
d9a3
de63
386d
9e95
10f2
e7ff
ffa8
7df6
73ec
abbf
573f
dfea
6e16
c407
9068
8743
1d8d
80c5
5066
6307
bdf2
d5a0
71fc
d9fe
4dc4
fbb9
32ba
fcd7
558d
78d5
16fc
9261
b658
ead4
130e
f7b0
d3a8
2199
a9ed
c13c
996d
d484
9967
f989
21d7
44e7
b76d
9071
a338
d7bd
4f67
eb91
1f7a
c85a
b238
165f
037a
997c
1954
a188
5540
574a
49a1
8f1e
97b0
c00c
8002
8449
1847
b3a8
5f27
b90f
9768
a588
0c76
b099
5b4d
77be
3029
d479
1209
9b67
8747
8f02
4b78
d9d6
0b30
3a3a
5c8e
dbcd
3e1b
9dfe
b64e
3ea0
d777
a3bf
a1cb
094d
a408
174f
687e
7d7b
a689
9542
605f
704e
7282
1cfb
4dfd
a478
66a5
e7db
1ff6
cb2f
35e7
b26a
ccfa
f385
a106
994e
7871
ad2e
b43a
9f69
790f
1e47
2d7b
c3a1
9099
f49a
4419
ab7e
b3c2
852d
f33a
77f8
9a11
b60a
4d0b
d326
b5aa
4d74
e849
1be9
5c11
c540
af0a
92ec
f82f
c382
7895
77eb
b5cc
a074
bb94
f801
f837
dcf2
53fb
0505
8d64
236f
1828
a3d8
2484
c009
611b
3434
bdc2
a5f6
430d
af74
8a1e
231e
6f23
a0f9
d220
d610
1b09
b27f
f41d
174c
bbfb
5ae7
3370
89ab
c05b
c717
b993
9069
056d
2593
8158
b6f1
373b
dcf9
68aa
07ed
725c
7ca9
9d33
9c60
1ce7
6b2d
a39c
cfb8
2df2
6e15
071b
d08f
0af0
c832
c425
f2ac
5dd8
189e
e9d9
1574
c049
c9cb
e2ab
a033
899e
f9d6
098d
4b0c
4b97
bd55
ae8a
44c9
b15e
1e02
83e1
e201
e606
73e0
2476
684b
73e7
d1a1
08e9
a0ce
f30d
2f64
96b9
04b7
b11a
9e1e
b635
cab2
1199
e2b5
685c
4af4
0627
8927
80b3
d4c7
2173
9dab
b989
e8f2
b4d2
a312
e15a
7b6f
6d6d
5716
8d63
8bbc
09b0
800d
0f44
5a9c
c5b0
9983
5dc0
4751
dc5f
cab8
89ed
0acc
7f16
1704
c3d5
5a4b
8005
c3ea
3d68
1363
2255
8bc8
6fa5
6fe5
c975
1cb4
33e6
e47c
8593
46a0
30ab
1141
b00a
27a9
4fda
7b6d
1d6c
5669
c36a
cc93
e46b
9fda
d0a4
d0eb
0077
4a6a
6151
382a
ec59
42e9
d155
e538
15c9
173f
dc08
b1ec
4b6b
9869
6bd0
da74
09c0
7023
6416
770a
f2c8
6fee
a8de
6365
accd
3418
e678
fdd0
3901
52e7
f168
68cf
1291
a1ec
3999
c515
dbb8
a7c0
5a0c
4feb
19ea
7fe5
18ae
cc66
c329
0965
a024
e901
732c
7628
d5ba
8b97
6d56
8bd3
6ea1
f0a7
fa56
4f7b
4033
9ace
7021
7e17
f8f5
fc31
08d8
fb8b
d49d
e40f
a87a
05d2
ce34
e027
aaf8
fa30
1f9d
85d4
00a1
ce7d
b484
0030
4f29
d1e1
6247
d6b5
27d0
9a79
d7cf
7ad2
accc
afdc
23df
c931
a71c
1864
292c
ac42
6819
e188
c6f9
209d
68a6
7c40
4a06
0d57
c3b3
38a9
4c96
61e5
4724
b3e4
4a3d
139d
d5d7
8913
3cf6
8c3c
706a
40ed
459a
5f14
5989
9752
51f9
0592
732c
4a39
71c1
39ac
870d
ed65
b9a8
53e1
f02f
a450
b774
a93d
ce44
2295
75f2
d312
f63c
8d29
0ebd
44fd
a661
6eaa
69c7
8cc9
3a38
a45e
b596
9885
1823
2a2b
5c67
0a9f
f3ad
517c
6a8b
8352
1f9f
f9f2
2590
c35f
2b77
1a73
1e3c
345b
59b4
03e1
5b93
aae2
8311
95a2
5f11
f174
0090
697f
ea5e
2ec3
634a
20e3
eca3
82b3
cd8b
0f05
14cf
52af
4d2e
8f95
84e4
ecc4
0eae
148f
7723
0541
b7c8
8e4f
50c6
1cb8
eaa4
fe32
b92f
94df
ee61
fe31
7bb1
54e5
dc76
0a64
66de
8736
3749
478b
677a
40bb
a798
7cc4
d69d
c779
f478
d645
ee6b
c34c
3859
d470
e7a1
e9d2
d993
f3ed
5f94
d215
e083
0329
9808
3421
7e23
3927
ca3f
af74
461f
24b2
fb41
2a18
8ce0
f164
3a76
f3cc
7738
1cc6
0a97
8fb0
33f4
d61f
d209
3549
829f
41e0
cc92
6f9d
4fe5
b50b
b156
eae4
dbc0
1c65
951b
16a4
5633
80c5
e691
f32f
3e8f
c4f6
42d4
9cff
4a2b
4b47
38a5
dc17
0809
2dc2
01ec
7c3d
d731
804a
8b63
e27f
9c8d
631a
f041
e7ae
2135
15a8
ff22
8b14
f724
d916
ad60
9f49
39b1
698d
0d87
5ee4
0fc6
fd58
f5b7
82ce
5cf9
d88e
fffe
a849
f494
1f52
ce76
addb
2be6
2922
c8f4
59e8
9387
200f
aa1f
f7e6
1d6a
945d
b3cd
d8fd
2e15
8a1f
9ee1
2d67
f3a2
4aa7
550b
00c9
8cbd
1a5a
a522
6b90
7c1b
bb08
12c9
98c4
8eca
1538
506c
580b
0f95
15dd
d7a7
b882
1af3
88d2
cf7d
294d
fd38
1fce
4978
5a2a
64b1
84e4
f876
41aa
2a76
a914
112e
5e8b
7658
af05
65ba
a13e
6628
5aa6
4b04
2243
b4d4
4d46
a076
35c3
19bc
eb19
5e0f
4491
3d80
8b8f
4233
8f16
5b68
5f73
b512
eb35
c62e
767c
78a6
d0eb
6201
ac45
d36d
7e78
350b
7a5b
b4bb
08b6
078e
c11f
e2c8
bd7b
109f
4a20
ab19
1936
4af2
a820
3d46
d85f
bd91
28c2
f73a
aebc
869d
5442
5184
f807
4c71
87f4
f609
010e
4c01
50a6
1b8c
a290
8401
dcf6
c4e8
03f1
5ab1
3485
92c4
27bb
ab17
3fa5
f2dc
a42b
c47f
a811
d43a
fbc3
6585
f615
787c
9c3f
2155
0cd0
b6bd
6d17
1e5a
7e0e
fb28
fade
fb79
71d2
6315
60b5
169e
3a9f
8752
8428
2619
6749
4e6a
1c53
682c
648d
a678
8771
d260
dae0
2a93
de09
c839
b99b
0506
683a
d771
1bc7
90bd
a980
2885
1326
33e7
0460
aa73
f06c
e0d2
83e5
f793
45b4
1389
71fe
d040
aa55
660f
00e6
9bf6
76b0
9044
6a54
3f45
29a9
2f73
5aee
0d13
2c54
7473
cb2c
61a1
5c09
b6d8
bdd5
8b8a
1b44
597f
b9d8
a2bb
9bd7
64b6
8409
dc9a
cb45
6495
4294
1bb1
14ce
0c61
2b62
89ee
b183
a211
40d3
7d0a
5ab1
d974
770e
41bf
760b
0f24
b72b
c1b0
ec84
868f
185f
a917
3f20
c8d4
7b64
760f
f139
0519
1e63
dd02
d945
97b3
8a66
7562
9821
fc80
29b3
bfca
7e68
1d9f
18e4
622c
2018
c5c9
aa32
73c5
7725
66f4
ad6c
507c
9d9b
ec3f
0ae4
ed38
b02f
99d0
2063
8d4c
f0ff
ba97
0a5d
c2a7
ed94
4429
3cd6
e7c9
257c
ce66
f471
d173
9c7f
32d2
6542
f857
af09
3884
991b
a071
9459
38ca
94b6
9565
d7e0
d970
20a2
a03f
e84c
a833
352d
773b
8bcb
eec8
5c12
827a
dc18
8233
f197
afdb
e726
3ad3
990b
c3ea
f940
42b2
ae03
e324
5a0c
9f76
f3ff
dccd
aafa
d36e
92b5
bf11
de13
158e
44a0
7d6b
5e3e
0ae2
9a6f
d691
a497
f9c8
0163
a62d
2111
8633
0f83
ba7e
9f20
7609
8bda
7adf
ab95
5051
b57d
7e02
c476
cb35
ebc0
5bcc
832d
2471
6178
ac1f
1ec3
3922
57b9
4b1b
cb44
9ea0
91c9
d220
d09d
9491
5b7f
5b5a
7cbc
c76e
6c7c
7709
1ff6
ad20
e3e5
1baf
5ade
846b
851d
0dfa
7bc2
7e41
4917
36ba
e11d
1a35
5a1e
0935
761d
5d64
3c5b
8092
ec8f
16d7
1a5b
6090
7964
2638
c06f
82fb
a25d
98c6
2f65
e141
84d6
881a
70cc
8953
94ef
d7f1
69c1
9d1f
510f
21da
329b
0d7c
df47
6857
46b3
98ac
4985
a323
bf32
d0f2
4a25
2dd6
a167
6ea1
a3db
5394
c41e
d7b0
bbe7
afd9
0311
d157
1d53
667f
c18a
278c
babe
d9aa
1200
95e9
fccb
226e
a5dd
86b4
7922
7fea
433b
0e70
b132
635b
2688
123b
348b
f519
f342
8b79
7355
eed3
a100
63ad
92bd
7e9c
385b
29fe
da78
f237
16c1
573d
77cc
f4b7
8bb4
fbb1
b109
2dc0
089e
51b6
ffed
49cc
63d4
c3a5
87ab
e93a
0629
2579
db48
4edf
5b60
0af8
5c2a
77b2
b980
3d59
afec
dd56
6bf8
13dd
2230
42d1
01cc
3cbd
bf78
aa36
8197
30cd
b387
79e7
a784
b6a4
c50e
d3b6
6168
49d8
1446
c9ab
d50f
7e4f
879d
1d7d
c3a4
ce8c
43c9
0e22
56ba
4954
8bcd
a8f7
d5c0
2c3f
8c9f
31ed
f949
7c11
6322
1f77
ddf4
ff13
ee09
a0ea
f4fb
efaa
43c3
26ef
3d19
b53b
486d
5f9b
728a
3e16
5669
4baa
e4a9
33d6
72d0
2c77
f905
41e6
11e1
8a56
53aa
dd84
68b3
6143
901c
a62f
f336
0e45
c4b4
74d8
6c90
e068
6b3a
278b
dd5a
0116
1877
ac3c
f6ba
f65f
f91c
78fb
d36e
24e2
f67f
3e05
6c7e
47b1
1be1
94ed
aab6
3ee0
7c1e
3758
0fa3
d9bf
c99b
1da6
3e74
adab
2d6c
d8f8
57bd
47a6
f237
d785
1860
4ad1
d3d3
0f5f
a29e
8d1c
6b12
0be8
cdb8
e9db
ac46
9278
e260
a239
fa3b
bc0e
0912
aa7a
10e5
1f7b
9881
4a92
31ae
a6e5
43ea
732c
84fd
a97c
06f4
af75
a316
bd3e
7251
53c5
a559
1f91
baf3
15ba
c5ec
7d98
3fdc
e89c
1a5d
e128
408d
4aa4
e713
64f5
ce46
afc3
0130
fcef
7fb5
9cee
f21a
b413
67a2
e258
5124
9139
1ce0
30ea
6c91
0005
3df2
7382
7839
de03
033d
ba01
a8a6
777a
de20
4ca5
f2ce
aa27
942c
1100
e81f
b3df
f34d
0439
94d3
f91a
563d
2f5c
62c5
f53a
8eb9
3c3f
a94c
d212
60a5
0e2e
329f
b585
0850
9f0d
2c70
ea64
f254
fb1f
1161
865a
ba7e
0067
894a
d6d2
7b56
a694
6b37
7d9f
8645
64ae
57a0
d1bd
9826
a354
dd9d
1ff9
1f81
55f6
3070
e1b4
df93
e478
805a
9ddb
4526
1bc7
cc7e
5761
a2a7
6e4f
4283
99d0
8897
bc87
f58c
69c7
5002
3fec
91e7
bd4a
0c7b
3af6
8fd6
1042
f615
6142
a8ca
d277
9ff0
d432
61a0
b1bd
f030
5e45
ffd8
3cfa
24ea
d8f2
0c78
b9d7
5072
0d92
e271
5568
fa1c
c48f
f248
302b
ae37
972e
3d66
3821
a707
e500
7d7f
cf7e
7c62
0e1a
f008
287c
72ca
3077
574d
1cb5
35e0
232d
9bbd
6610
51d4
189d
b8a6
cf87
ea59
bcea
f477
2a22
ff76
5cf4
020e
d42c
3152
8fef
dbba
4b31
1fc1
eff4
ac2b
4a77
75c2
9180
db66
32f4
8203
11d3
d2b2
3975
0fe6
7918
4c8f
426f
0678
700d
db86
b453
9df2
8e9d
d413
3391
1c52
6de5
b79a
8c6f
e071
3138
76f1
f428
b093
e26e
8525
7f9f
46c8
ab7a
343c
ba80
1d38
77ef
a9cb
5baf
b7e4
8023
31bf
61fa
7653
4125
1481
5e24
7ac0
0bb0
6283
75a0
a2b6
e88c
fe68
747e
f3ae
42a0
bde8
dd03
3962
bc19
7a98
df53
2800
2dc5
a790
92ce
1b62
8786
a33a
afd2
27c9
123b
97ef
d129
d6c4
8cb2
c483
a15c
cf31
9b47
2b91
d171
0d58
a2e6
3dc6
f211
27d0
60ae
750a
2764
07c9
1c7c
22be
1b17
29ee
0202
f6ad
5803
3311
20ec
d5a0
4cc9
e516
92c4
a467
69ed
1779
eb26
0e27
5582
eb50
88ef
5033
80d0
4395
0bfb
d3cf
281c
cca2
dbf3
a1bf
c22e
7373
e7fa
05f4
aa95
6d31
e43e
0ceb
4bd0
b87a
26c9
510d
ecb6
8fd6
2f9a
e31a
3e79
4a78
430e
696a
e129
a996
f87c
8d01
ae33
66e0
1562
3685
0c6a
d33e
937d
491a
c1ac
15b5
4e31
37f6
f953
9c05
98ba
cc3e
15ec
b007
3ef9
7119
98db
02e1
31a7
7150
cf57
8bf1
8b96
4d0f
ba6b
9d6a
ede1
5549
1cf7
cfde
f1a0
f0f2
30bf
5afb
cd5f
3a43
bd34
3d63
db04
d7d4
ef38
a988
9ebf
51ae
328e
97ce
9b69
6371
64cd
5204
b40c
8cc8
b0a1
789f
4d16
f176
989c
d949
e1bf
1fb1
28d2
b678
0d57
c10e
7fd2
d07f
8ad6
31bc
94a7
894d
8ab7
8c75
5aca
a152
7552
34fb
b342
1dae
9fe1
b77f
1273
dbd1
1087
086f
344e
d9f5
7c32
b2bf
4756
7a00
36ea
489a
81c6
629b
b634
4249
e168
d6f0
7293
981f
028b
bc83
a3dc
b157
09d6
39a9
dfcf
4e30
eeae
1c01
2bf2
f099
f62c
9631
1a61
c5cb
c559
2f13
0040
6390
60ac
16e4
6a74
338a
631a
65cd
ed64
1f5a
5e02
b935
0b94
1d45
8593
82e0
45b9
e19c
a0cc
17c9
ab84
544d
0a90
23e6
a1b0
7437
7be0
9ceb
0cbe
8f21
0389
8af9
023c
0680
fe15
ede6
33c6
cfc8
0559
d11b
7a7c
56c8
b45b
1015
9970
d5fa
fccd
476e
6eae
e837
bedc
56d8
ed39
682f
84b2
eb67
9ecf
0eac
babb
e7bd
82b8
60f4
09be
3705
fbbd
d986
fba1
e8a8
edcd
00ab
0cfc
3a2e
f00e
54f7
b39b
3e88
982e
135e
c1b2
e94e
eebd
6930
09c4
41e9
703e
33e8
400b
1898
89b7
ca43
fad4
fdc5
a680
481f
c614
3f00
b27f
0db4
de9f
1cac
79c4
a64e
909b
7353
b987
7563
60d2
a671
9e1a
8476
93a3
40b2
5892
d14e
01a4
6d89
bc87
3a49
ae15
7ed0
ebee
aa0e
0f20
53ad
73d2
6e90
ab1d
5112
f026
48ba
6222
073f
ef57
9c87
4046
bc3c
7794
019e
b3f1
0991
5e91
a353
4201
7077
d51c
76b3
1263
06d6
4f9c
b005
36b2
4fee
7d8e
3504
edd8
e8fc
421b
d0e7
c1ab
9aa6
5aa4
d71d
00e1
730a
aebf
d431
b542
a031
62ce
8e5e
98d9
03f9
2419
a11e
87aa
45ed
6093
4567
fea6
abe4
5e17
a1a7
d950
04ad
1629
9c43
d64c
e390
470a
8d83
ed47
d52b
4b95
1157
3916
df9d
36a4
0d37
b354
e3de
7cc7
0d16
d8c9
62ea
1783
c40d
f155
7ab8
1b60
98dd
7a60
3e29
e0b8
a221
1b14
54c5
b454
21fb
ca55
ab83
f644
5d1e
3052
fc8f
4df7
3e03
160d
f1f2
5123
2f11
5366
5fdc
18c1
9cbb
753c
d4a0
eec5
fa38
a06d
0bfe
a4b6
2550
ee71
8f63
4d88
4cad
f278
611b
6002
7484
129f
d7b7
aac1
2423
3fd5
e73f
deca
d31b
29d4
e620
aee2
b479
12d5
af74
660e
9187
b814
c16f
eb44
4f58
10d1
d937
3408
62b1
a2ba
f1a1
0300
aebd
c6d0
070c
26af
121d
dec2
1156
83cf
bfc1
20c2
6323
eb06
23df
6e7c
a1c1
da3f
b081
b0de
caa0
d15c
6bb2
26d9
98b0
d787
0f3b
8efb
5912
2867
0d13
45d1
5b3c
8753
1f4b
9d5f
1732
4cb3
77aa
1178
bdcc
24d3
71f7
0847
8db9
915e
952d
0464
6440
ec41
4a10
fa6e
1b4e
a905
197e
b9c5
0b2e
0ae2
93e8
e990
9ceb
279e
f194
eca3
0ca9
21ea
2035
744d
f5fd
10d5
195b
9da5
36a6
2b07
a523
aa49
820a
84c0
d396
bdaf
08ac
c6fa
3777
ff72
eb34
9c75
4475
80e0
a9f8
6af7
2035
2367
7948
fb5d
f8df
f182
0d59
4c9a
6287
af7f
34d2
1f0c
f690
4104
582e
8080
d158
26ed
f855
2d3d
03c9
7df7
1ac0
0b5b
5b65
67d6
0227
59c6
e6b7
bb23
e62e
d457
af25
5f23
1052
edcc
ea95
565a
efe4
6a0d
fc3a
34a5
3ea4
e8d7
e520
6d8a
64fd
77f2
c854
ff00
4e98
75dc
b766
8942
ea5d
aaaf
ead9
4967
5d21
1116
9ec1
25c8
209d
edad
1e3f
e797
bf65
991a
c783
e6c5
b720
1f12
1b31
9a44
bbe9
7aff
9638
feab
dadf
94d0
9286
b6a6
d364
91e3
55fd
262c
ecb8
8aa7
b337
9e29
40e5
af6b
2281
b1e4
6b9d
417d
0e1d
3e02
b08f
dca0
49a6
7ef9
f833
32a7
fb46
ce14
3e96
247d
8e76
8303
a9f7
5a4e
9281
2c5b
5e73
5eec
c5df
e4e6
b0fd
bf8c
ceb7
d1f7
d941
028e
8dc6
8779
6ec1
feec
acd0
0715
f2d6
2bd1
4939
5d58
5425
5ad7
310d
a8b2
d353
d65b
a474
ffe3
7462
60c6
e374
49d1
37ae
2c3a
0a88
bedd
08b4
ffad
a876
1233
37da
efdb
0c8a
f37a
ed4f
2205
1434
07d9
0118
3772
6edd
f1e1
15e1
0d5d
2068
5f26
5090
3102
9d2c
ba65
fbb5
f4d8
6ecf
c374
94d3
aa79
0240
e70e
c552
96f5
524c
67ee
96ec
a92a
66c7
a4ef
4f6f
596b
1e03
5939
ec9c
fa67
2c3d
3b1f
82d2
77f5
6b07
4c41
d7c5
6ffd
01d3
db80
f238
d3cb
0923
4dfc
cf0e
23f4
f368
5f79
6da3
cd60
6b68
9b97
3962
2e3c
a617
3fd6
aa50
7cd4
fc00
94e6
4c97
1d85
5057
1cf5
5bb3
ec4c
e173
220e
9eb1
4a43
e84e
7c8a
1aa0
26b2
2c6c
4d80
3c64
7691
e09c
1965
0955
6b64
0f24
16fc
4f6e
c845
d846
913f
319a
957a
9801
e187
8791
fee1
2f05
0265
d1b6
b241
49bf
9cf0
8675
926a
82ad
67f1
d7ef
4821
f909
17df
befc
b8c8
758c
949b
4fcd
0350
8e78
528a
01a3
9128
a907
7513
5b7d
5ca7
66c8
22de
8db8
0296
7bd8
9b59
13a3
920f
c189
e294
e618
6964
92d2
347d
c742
c616
2a23
0bb1
24f1
faeb
cf62
cfb8
e210
2f01
c09c
d1f1
4136
8f51
fda9
d7e1
2ff8
060a
c7b0
0ed3
4e5f
a30c
4d5c
a4c8
2677
a97a
f34c
ad4a
8e81
d0ba
31a3
a6f5
4a68
91f0
0f8f
024f
696b
96fe
450f
5694
a071
cb30
0063
d0b0
b895
bb1b
e466
a519
4c4f
88e0
875d
17d9
4024
c765
e9c1
5548
73a8
e869
da59
188d
e4d6
32c8
f771
a8b7
2398
6dbe
93ca
6038
7e99
2cd3
df33
c2c4
0327
ab80
6b30
9581
8cca
5270
e47c
48ea
8466
c683
68a9
0811
3001
559d
47ba
6c2d
a171
7615
8e92
0c00
69d4
e741
be27
b8b6
ad26
f5ce
a746
3aa9
dde4
61a4
5d97
7a32
9be7
9e6c
a723
6061
e8a0
f2ca
aa15
82fc
bb66
df8a
e8b4
6f9d
1d45
a35c
15fe
36de
f2a8
710a
dacd
d3ec
983d
a701
2083
cd8e
65df
6334
25ee
db22
7cb1
0aa6
bf2b
ae06
64e3
89c1
9981
5896
24c7
f7f8
7a82
a96b
539e
ad64
8e13
7286
d672
7713
4638
9daf
fea3
dc00
1591
4022
815f
7df8
da2b
11e0
e1bc
834c
5372
5092
7f95
2491
9145
0d04
04cc
1833
125c
10ea
104e
8c11
31be
5329
28bd
2acd
4061
04ed
1df1
d0d3
f7a6
f356
1bb5
da80
ac1e
7e1e
d5df
025b
8edd
2e6b
2180
6495
8b58
29a3
50cd
83cb
6a78
8fcc
6e1b
4df6
c110
e87c
9865
9645
b425
be6f
77cf
0afc
4b94
0ccf
518d
f665
7cba
8f58
7308
2575
b3e2
72bc
8cb5
643a
25aa
d3da
9c7c
22f2
f94e
0477
a0e2
52e2
68f2
b9b5
a3f4
e01f
1a1a
d816
7034
b5e4
febe
9c1e
fd32
b3b5
c264
72bf
5b4f
bf53
2d52
65c4
6d55
d117
7c39
d5fb
b391
888e
da86
d006
f3c1
4e73
6b5e
6ff7
1c3e
868c
3f83
bb13
b27a
35e8
0f25
8245
3ce7
a41e
b4c0
e840
b70b
2ef5
2e05
4509
27f4
0e34
2c62
7975
dbc6
5c6d
7aec
8a1b
7983
3015
dfe8
e0b2
0972
e813
35dd
eb17
5081
2fe7
1791
d9cb
e17a
6a0a
4d36
21ff
a10e
94f3
703f
a8e5
913b
0a34
4724
8eae
e1a6
3e2c
b517
4bb5
9b9e
2f5a
4168
abe1
97ad
3612
b3e3
4a1f
0369
7785
6aaf
cc7a
2518
8b6e
01fe
a56c
3b35
f8b9
8114
35b3
dd3e
5790
7128
9e6d
b614
8d0a
0589
b1a2
fdba
97b5
9e57
a3c2
9916
f288
b6fc
4c10
591b
cec8
2b99
06bd
57ef
dfbe
1f24
afcd
02f6
1b2d
41a3
58a0
a3a4
3368
0069
1be0
4237
85b6
bb27
e7ee
fe17
deb1
295f
c659
a4de
012f
3901
3451
ed9b
224b
570c
e05d
bd24
814a
5dec
fc0f
7b16
9f57
08f4
a7c5
f719
0051
ca37
7376
79b0
af74
9be5
f4cd
0ebd
19bf
c036
4492
209b
9c78
67ae
0dcb
33a3
1e4d
8dfc
82a6
3d32
2002
2876
995d
eb2f
8976
e318
779b
3f10
1575
26e4
02dd
a8ec
6a30
0291
b9fd
e578
b1e8
aa07
9c07
059d
d467
b6b8
981b
968a
5eb1
ea57
5f7c
cd1f
bbfa
015c
c648
4482
2f61
c302
4c61
7177
3ce3
7d28
9e30
bb6c
04e4
b001
daf9
b4a0
bd75
114b
1c86
e3a5
b8aa
31d3
ffeb
a86d
7c08
e3a2
bfd3
576d
88bb
e3a3
45f2
e6ac
064c
ec9a
f4db
e32d
89c7
ddd9
189e
f48d
28de
301a
0c52
a959
1106
532e
ce08
6917
b586
a65d
e6a2
4c82
78f4
51fc
7b67
4b3b
3819
1cdd
c583
a424
0200
c4f1
a152
f392
edcf
174c
812c
1099
cf00
b708
3c3c
bfe4
bf74
df29
e010
d776
f3cb
bdfa
ab87
16eb
64c9
2715
e602
46fc
d157
f749
82b8
9435
ea22
6f4f
9397
a9ee
1f07
ebcb
03d5
c973
bd64
dfc1
e5dc
b76f
47b4
bd0c
586a
c303
bfab
6f9a
281b
9078
748a
e919
7d49
9139
4f30
6d03
e417
8014
3b59
4b73
a02f
ae3b
aded
2b1e
1ab4
4058
05a8
fe92
d21b
01fa
6218
b1df
a79d
e5a1
9a53
4590
de08
61ff
57de
b2f9
ab28
13dc
0ea7
44ba
2cac
0e45
0f31
e2b2
62d3
63e2
072a
ab75
9096
4959
f44c
bb78
e977
4ff0
84c5
89c5
a54e
f283
7010
9fe7
9593
3fc2
17f0
8407
63a0
e3fa
1b3e
49c2
a4fc
aee3
634e
7b1e
0060
0679
2fd3
24b0
e31d
0a0d
28e1
878d
3a02
9c4e
01d7
6649
36f3
ccd9
d86c
7df5
f014
5f4c
5038
2184
156f
0c76
df40
d6e2
5358
2f1b
8342
65a9
3c8f
d46e
1964
e749
858a
9cbf
efb4
cbf1
a048
1aaa
b239
3118
0730
395d
6de8
2503
2f75
5a1e
e7d1
db2c
7361
930d
fd44
d048
bd92
52ae
4d17
d088
6e93
2f39
9a7d
5e77
e485
9f8e
0de8
b8a3
0492
ca4b
5afd
b589
421e
8ae8
9b18
e070
ec9a
3306
de89
f366
f8c0
8723
c251
8398
a018
c112
fe52
06c1
7177
506c
953c
3398
a121
1699
cfd7
e4df
2f81
76d2
3fe9
e5e7
395f
910e
f077
6c9e
e3ce
d474
60cb
49a2
3a3f
151d
fc75
93b6
24ed
8970
d7fc
7a60
3aea
b2bc
a7fc
af6a
2ac3
4009
2c00
9c66
048e
372f
97ac
b074
c7c0
9b36
6738
8a71
0637
3cdd
c410
08a1
b241
9c8d
3216
42ad
263e
928e
3dbd
6ea5
1d2d
4f22
9340
5045
f410
3116
675c
3f22
454c
43b4
aef8
7a51
860f
eacd
967f
4080
09f4
81ee
0a57
fb2f
0b7d
b41d
7a41
c695
e91b
c104
1be4
d4f3
ca79
faaf
8143
5183
386b
e917
be7d
e4bb
b29f
ff12
e219
a44e
0afd
c3dc
0731
1058
e6df
0832
ef85
b4a8
fae0
30a6
b958
af21
e1b3
d2cc
2153
f38e
b113
a7b2
b1cb
7771
a773
77e8
6c28
0b6f
3ffd
9dd5
bbf2
04a4
c00f
64c9
9895
1fc9
d29c
7e5c
8da6
7d5f
31f5
9e2c
8dc1
30d9
a029
65f8
45d9
1248
0c0d
9633
da0e
4294
5291
0b83
f4e1
5961
ba56
bef7
2c85
cc19
0e11
f2ba
a7b2
31d5
0444
3417
a2dc
f237
94d8
8259
1f25
3718
8b2c
8eab
d5cd
d1b2
115a
d26f
3672
71fb
93b4
b7b8
309a
3c0e
7458
ab45
8482
c9e9
a669
4295
f945
278a
3b9c
58cc
b832
567e
3a8c
ac81
dabf
b715
5175
f7a3
87c3
abb1
e8a1
5936
d76b
3330
1c9f
45c7
08e5
64eb
bf9f
60f8
e2c3
637c
fe8c
123a
14b9
ecdd
9d18
fa61
1548
0f3a
bbf1
1582
43b5
c8f3
5217
5ae8
4ac4
22eb
fb3e
4cac
2192
7041
e498
215d
c740
dd7a
b858
c6d7
82ec
ecbc
dc94
1150
e53d
0e9a
691d
12e6
eba6
d2cc
32f6
01d1
b35a
dbd3
6570
612e
39e9
4fb4
62ca
012b
75da
33ed
05f1
71a3
859d
d319
4365
f069
ca73
df08
950e
c24a
d7f1
4a18
9633
8e62
e95c
4166
77b6
e6f0
cfef
b71b
511e
5143
6873
d70d
5312
9931
9ac6
ab40
e95a
4487
d1a2
cbfe
fb3a
2cd2
6b17
1904
a9eb
5ff9
6676
5387
ce7e
b123
99cd
4675
9bd9
148c
0816
c154
ec7d
04a7
cedb
5ac3
ae73
ea19
11d6
6221
4f36
d008
3116
2469
de85
1ca2
dad7
bd6b
731a
961d
b33c
7248
b78d
8196
5e6b
9601
5702
ede1
f7aa
a669
d8fb
ac7d
98ce
9da4
4751
3d9a
81c1
8be6
9100
10ff
2628
82bf
7967
7e93
1d58
dec4
2533
9304
a849
5647
1ed9
1c98
4dbb
b23e
0ce8
b9de
7403
0a5d
eba7
c9a6
178e
a3c6
6836
6028
6574
be38
e682
4290
f432
426f
d804
e005
e4b2
9136
8f61
2f8a
eeb3
0f3a
fae7
88f8
4c03
8522
9a0f
a3d0
877c
bc2a
f1f8
90ae
bc19
c527
948e
4ac1
8d71
76e2
f04a
ba33
68a9
3dfa
1080
6bb5
8023
b619
0d6d
5132
3420
2224
b1df
e286
41bd
cf13
5f5e
0b30
95bb
d502
73ef
79c1
876c
5421
1793
791f
c2d0
6319
3e21
fe23
25d6
57f0
b186
91a2
03aa
5008
5e96
2451
79e1
df28
b57e
39c1
c3f4
db9d
a810
0444
07ea
0332
1e44
5004
7dd7
607c
db62
1707
2815
5df3
0e06
3976
7b96
8631
6f52
efff
a186
9972
4b24
d80e
aed5
43a6
d697
7848
8ca1
c939
14d8
8da7
6d24
a990
2ad2
2844
0433
ce94
2a8c
878f
73bd
497e
142e
5dce
364a
40d7
3965
f2fd
5f9c
528b
7969
d8f2
fa9d
a5c7
5bcd
c2e1
5334
f0fc
5810
87be
15a3
b922
167b
482c
33c2
6d27
bceb
a46f
0000
04c9
2eb4
9866
dc6d
77c8
e2ca
9f95
c51e
1651
46cf
d6d1
199f
76ac
67e6
cbd4
683a
2ba8
7380
16d7
51cc
c757
6d1b
a1f6
840a
2fb0
5c95
bae0
d7af
b5a9
da81
080a
245c
1574
534c
7f60
8c94
0a21
c493
09c3
3d41
205e
795b
435b
0f37
c5ea
57f1
516d
88a4
00e3
60cf
46a9
10a0
cf1a
9afa
559c
25f3
7754
03b2
906e
dab6
7000
8efe
0743
c327
5e47
1ece
c70a
1c61
cd77
b51a
f537
3830
356e
ddbf
d94f
61c3
48ee
457e
e5d9
b0a4
88d5
d69c
7bbf
9e26
8d4b
3d4f
c894
0026
ff27
4867
93ed
72f2
8ec5
8ae9
a92a
8e15
0132
81fc
772b
f301
93fa
58a0
66ae
2abf
0f09
51a1
e69f
98ff
cd05
521b
dc06
4eff
8098
33c4
65bc
16f4
7d61
c7d5
303f
b63f
56f5
ef4e
6231
40cf
4d21
6e54
cd2c
ef84
3838
bb71
eb5b
8554
a763
7c78
1c9e
0700
cde7
f2f5
a9c7
1e76
cd20
5ff0
2d0d
ea3b
e9f1
d28a
06af
5f56
63b4
d8b8
28b2
50e0
7145
269b
85e4
de65
44a3
30ed
f442
d837
6592
9da3
7ba3
e00e
ece2
12e5
4c65
7ad7
ba2d
569f
658c
beda
9886
aec5
c929
8313
5100
8ece
770b
4768
8992
3dac
e510
e9c1
91cb
43b1
f8d0
9aed
d1b9
0253
bcb5
e5a9
bcf9
5678
6740
0688
526e
8b59
7832
92c3
a3ed
e3ca
6ad8
76dc
fcd1
052f
6dfc
7812
7b21
e9a5
e341
1492
f6c3
172f
69ff
4743
8bb9
0f8c
0323
31fa
0d03
3313
ba13
9d75
8f49
73ed
b61f
055c
d389
45bd
a34f
2405
be19
825d
95ff
1be6
3234
1402
d0e1
41b7
6475
8879
96aa
6e82
0e1b
c009
09a3
dd11
97c7
f9ee
caa3
ba37
b0bd
e491
3e3c
9d52
93f0
fbb0
04b9
d9f7
ce15
abf3
9981
4616
f0f5
f531
30d3
46b9
b815
5160
5f37
3ceb
ecfe
eb48
5e54
8430
953b
2b91
0100
a0a5
0d44
b1af
9edc
7f3d
d0b6
82cf
2ffc
d266
e90b
f70e
d1b4
286d
40db
276e
339b
b978
6b97
c370
0d96
4ee3
dbed
dcdc
aa48
006c
3afc
a8b9
ac7c
b3fb
c08c
7512
eab1
e55f
22ba
b94c
4a52
25c1
00ec
79ee
f82e
38fc
37aa
9749
bf35
8911
2bac
a53a
60d2
4683
f574
ca8e
caa0
9a4e
adf3
2d3d
4707
a867
7867
f7cb
9ced
f4a8
50de
fa33
8cca
05b8
de93
aafe
f6f7
447d
0f5d
77e9
21ac
e850
0766
a02d
d7e4
aaa4
09fc
8c51
0ed8
d51f
d361
58c9
e237
2e7b
c0eb
5ca0
3856
ea3d
9047
7dba
407e
3565
5ee7
9275
d91c
574b
53c9
b330
25d3
a116
3cba
c3fb
72e2
c426
ddcf
fe4e
5a13
f5c1
e19a
581d
46d3
14c4
5949
bf1c
4c63
1ec3
81d2
566c
40ff
50ce
ed15
2446
0e33
fdca
9bc5
4d4f
930c
3620
4936
9b1e
214f
5f4c
c5ae
389e
065a
ba6c
63d9
ecdf
d1cf
60f4
c67e
9775
ea56
b020
fff3
efae
ab07
3448
0624
35c9
33f7
aad1
b21d
d180
c0aa
c264
8a11
9f32
d8e3
822e
f479
f53d
3a13
db15
4dcb
d7a0
19c3
ad18
cf00
3968
dca2
60d0
ac59
c510
bbca
e740
3bd7
ac0b
0719
ac1c
c741
0763
5405
b305
b3b7
f9a0
5266
cdd7
6f3c
6cd3
1ce8
461f
7c3b
e857
78e3
9213
d825
6dd6
ca65
e714
bd1a
8b28
deaf
d5ad
8540
bd61
adcf
085c
6c34
c214
b69d
39ff
10cf
87df
040e
abe3
17e1
ba70
8503
9878
5680
ce95
a80b
e89a
06ae
1414
43e1
58e0
53a9
103c
1697
00f6
902c
8842
9fd2
0e65
0753
5c14
dbe9
1a41
513d
4769
d28b
f1d5
372d
9fc4
1056
fc7b
969f
d9fb
681d
5167
0a2b
bb1f
bf93
3ce6
95dd
cc2e
bfe1
63e2
5230
0bf0
01d2
3292
51e3
8e44
4b9e
4e7a
9776
f97f
5962
b1d8
50da
d589
9ad6
9859
140a
218a
313b
d8af
15f3
356e
002c
3362
69a4
8049
e513
cdb2
9cfd
34bf
7936
6b5f
ed72
8301
5369
29da
6cc9
a579
8987
51f0
a723
e7fe
6834
be87
87a8
80c8
c8c9
8651
0719
9a5a
fe8f
64c4
9127
6a3b
c3e0
0f1b
2847
23f6
e259
608c
3a9a
ea6b
0406
a4cf
a0ea
9fdf
7412
7f42
accf
5df0
46bf
a10d
191a
8cb3
d68e
dcf6
6f7a
c00f
6327
153e
5be9
2d94
21c3
f6b8
9f3d
560d
0a9b
298a
78c2
847d
99b5
fbb6
6d98
292f
6660
82cd
8323
1b3d
6790
cf9b
845b
8993
a94c
c4ed
0450
7530
9d4b
abc0
a3c9
add0
2eaa
cded
9cdc
c58d
3248
786c
3f31
52e2
118b
8d5c
a6ff
22fa
6446
76ae
e513
ac2b
3cdf
5a47
5627
9a1e
6de2
9428
9c49
7ab7
ecba
b177
fdf3
dcd3
793e
ff1d
f515
cb91
4075
83be
e121
323c
c638
26c7
bb27
1af3
1fd1
63cc
6392
c17d
cd3e
93d4
28fa
dd31
db43
6cec
5213
dc10
1925
71fc
8d64
21b6
1761
ab81
4c19
8e28
68e7
1f86
02c0
6364
7c37
fb1a
bd2e
28cd
8820
8548
d86d
9890
85cf
c55b
e0c6
4391
486f
e7f5
2e4f
64b5
6a2e
b409
4d69
0a49
d5cf
9d06
a63e
cd6e
db09
e635
4dcb
f1da
b704
2695
ea01
0aff
e839
cd96
3fb1
93a0
81e1
486a
41fc
2bba
f4bd
93a8
e8f4
d2e8
3751
d6f0
187f
4294
d390
c4a0
ab26
78a6
08d0
0401
509e
c6c7
0ffc
c7fd
1748
f4b2
2b55
2556
7dfa
8fee
eb97
7f9d
8bb2
014d
b297
c5ea
13e6
1266
7369
7c8e
58c5
8300
909e
bc9e
7a9b
1ab0
81f2
cf55
1d34
a21c
eda4
95a1
bf46
ea29
29fc
83fa
ac0d
1f38
5a18
c01c
c567
3a8c
07fa
1ba1
c00d
b3fd
604a
3ad3
66d4
6707
c7ed
88e7
4cb6
09b5
e024
2d1d
6dea
ffba
00f0
efaa
8616
c46a
79c4
144f
6f31
c5cd
7580
2fac
66e0
2915
26f8
b55b
ef4e
50e5
05da
2d2b
ca48
cd1a
2057
fc43
f462
be0b
6cab
cb47
104e
d9ec
c3fa
01bd
0a42
e3f0
da38
2c0b
7c05
ff0e
df92
cf17
b35b
d87f
1acc
1378
c4da
20c7
666f
1a61
7a04
db8c
8bf7
8f87
0b2d
a9e0
a455
0c05
4152
dd05
9850
84ba
79ee
f576
dc5c
593c
cad2
df41
1fbd
3ffd
e4b3
4c63
6001
e54e
dd2e
1c60
40c9
eb3a
675f
fea0
5167
3025
521a
afff
b795
7dcb
7acb
532a
a85a
6db3
2d1d
95e5
5bcd
5a61
c36e
6e0f
3f91
5832
e112
b28d
c66d
7434
19b5
9fa3
5898
2448
ad85
5acd
e248
83b8
d583
d0ba
6bc0
5687
65b4
aaca
4543
7084
f5ed
e27c
0d0d
55cf
c73e
af69
2dae
cb89
c291
06ea
e6a4
7ef6
41f7
1d50
c00a
fdcf
5dc2
74c9
770a
d1c7
4cb0
59f5
5a29
8803
6dd6
6a29
d474
495a
8312
94aa
6f64
134d
dfeb
3d6d
21ab
8b8f
d01f
57da
2618
8b39
f496
7944
2d13
0326
fd66
3f60
d559
9d19
9a02
2266
32c6
18d6
ebf8
98a7
ff0a
3360
b169
ba91
1f4d
51ca
0e85
0e1c
2467
6cad
dd18
ebb7
23c9
3a87
f0f5
216f
ecba
9eae
de16
8459
4a8d
9a08
42a3
eb85
07e2
264e
9e72
794d
b1a9
ccc8
083e
9813
e7b8
ed93
d079
2f2a
8195
ac65
2ac6
12d6
b0c4
834b
49ed
c01e
9975
f3eb
d797
ace9
55a7
6dfb
23cf
cb7d
9c23
e3f7
a36c
22f2
25fc
47a1
ae30
1964
4106
9617
69b1
46f7
057e
404a
e6bc
aaf3
22f2
6ecf
ef0f
b62d
cd52
9909
95be
ece6
b749
ed63
77f2
11d1
24b2
d10f
2b2b
3406
2fdb
52bf
4dcc
1a75
4694
7a5c
8d0b
36b9
cc0f
2ae2
4b60
bd97
2bb9
79b6
8a1c
66de
14a8
32e8
6598
9e82
eea9
05f7
8e81
c84c
5b5a
a824
482d
82a3
bd90
9abb
3f40
507e
b54d
a51b
8b05
73e2
084b
b33c
609b
e262
2ed9
ef33
187b
d837
55d3
bbfa
2f84
27a6
665a
3d00
6717
f6df
91f0
a64c
288a
cd34
2d8c
169b
09bb
2cdf
7aa3
9d99
e188
e162
4bed
e7d6
3bab
b01b
4935
f209
e1df
8151
3fd1
0aa0
a24c
3753
4d7f
efaf
c6d4
1ba3
b1e5
b5ee
8cb2
ff42
170f
5412
de34
9216
4f99
c2c6
d300
8c9d
4fba
4438
aa65
eb8a
639d
c0a2
f37c
fcc3
45f9
0591
8b1b
3f6f
5911
b337
9029
66cb
a3a6
339c
9f62
5776
0d3d
8051
7c38
bac0
6811
c93e
740c
8973
2d4b
a05f
e544
7354
f986
cd6e
37e8
4897
3605
589d
34d0
e66d
cb3d
1ea5
0b56
3372
22cc
c7e2
7739
16c5
4106
275b
5d9d
672e
8195
fcd7
1e2c
d380
7c0e
2ff3
a4c5
7ade
aa5d
c6ba
0a3f
531d
98fe
5d40
91e8
5745
6fe2
f143
4716
4b58
b439
1c8a
8670
7d5e
e8cc
7dab
2cc6
44b6
abe2
9f66
f3b5
da47
fd38
6f79
008d
4fef
a466
1cbe
4616
34b2
18f1
ad11
58bd
555d
2085
e997
269f
7474
900c
0487
d8fe
2c84
0752
42be
a246
9ab2
8caa
8b6b
673b
fa24
cd06
5180
455a
5fce
387d
aa4d
c120
8678
e9cc
cd56
c2d8
69f4
6542
9d4c
358a
f9c3
1b65
6763
2e7b
139e
c2b7
2aaa
4716
f86c
fcb5
4581
b425
7ee9
4068
6541
9e31
6662
4453
5337
a156
b07f
508f
ee47
af82
41b6
59f4
9f6b
3754
491c
5759
d7a7
8846
cd85
152c
2379
87bf
85f4
6b71
0b75
8112
0c92
c6b7
ea37
d421
6a0d
0b52
48d6
99d9
1d11
0c6a
f788
dc00
dc4b
53c5
f364
3284
78d3
a6b8
a176
6080
c158
e633
399a
26ae
1be4
6686
dda5
03d6
064f
57a8
fb97
2236
1a33
3ba1
cf50
fdd3
aa69
b1d5
8d86
f650
83aa
d174
b552
d373
92bd
3f14
a3e4
8747
62f5
7c1c
d535
3199
34c6
b79d
7536
fed5
1e34
4537
651e
299b
f527
217a
89ee
d243
c7f5
ab62
ac77
bb67
7b93
6e59
11dd
425a
ced1
097c
0e46
8421
6d5b
2feb
ca28
ff63
be5a
b50a
e431
8a6f
83a5
28a7
9a18
479f
73c7
21ba
582a
ad62
9b50
1ad2
688f
538e
fb6d
31f4
48a6
fb08
79a2
09e3
f09d
2831
4a94
2f19
e768
e084
97d0
c407
d211
5d1b
d017
fc8f
c10c
b651
affb
2fab
ec34
f7e8
3a69
f356
f246
31f9
53a4
b828
2139
9324
d0e2
e00e
e961
e1c7
6baf
75aa
261c
8a40
921d
7127
7c14
f285
a031
5d72
a411
7e7b
431a
cce3
9ef0
83a2
d8ad
5b8f
5d6e
82c1
2e56
3143
5016
80ca
e3fd
5edf
e885
54f1
f669
a9f2
3489
6de6
9d96
f9f1
ccb8
96db
af27
f6f6
695b
142a
01c1
58c9
0746
c3d2
1dda
d1e4
3213
6979
bb89
ae31
0bb0
8730
3b86
773b
3440
9301
4326
797a
c1d9
141c
3ff5
a85e
6b71
28e3
274d
2c10
16b5
9adc
0e1a
d2d4
9086
783d
cf6d
a7f6
9b28
5e75
9634
8ae8
7218
1c6d
9b93
edae
7cf9
e940
99f4
353e
c177
0de8
4633
2fb0
f5a8
21e4
96fa
fb18
5cf2
3f24
0875
1879
d016
21ec
69ce
c1ce
d05c
9a00
a793
c039
8af4
6097
4ca8
16cb
aa33
7b63
a602
edf5
781b
4c5d
1fc5
f183
1469
3920
226a
05cc
4b56
2cdf
c346
1517
4e0f
5829
796e
8dd7
d3d7
906e
183a
a4e8
407d
2c01
123b
0f2e
6843
c9ec
4a5a
7335
2852
bf67
ecb0
ce35
d635
dc01
1903
ff30
9503
b55a
eb04
496e
c7cb
bc27
9796
f91e
eb90
3b37
41f2
a887
f03d
59e7
8705
5372
95af
cbd5
a468
ee92
9a2c
67f0
05c5
b630
ebaf
0759
7911
c065
052f
0cb6
7686
cb8e
6c57
33ff
b81c
8d39
5c26
6b5a
0a0d
7d47
5d92
0387
db16
322c
6e23
8db3
2eec
006a
2ffa
2895
9d1d
3bbf
dbb8
9e1c
aa62
d94e
e130
6b18
a79c
0e6d
1ae9
fe6a
cdcf
14bb
2261
e693
94d6
f2ac
80ea
8458
f729
9d1d
273c
e2bc
38ef
6711
d367
d353
4ef7
021e
d778
964f
3276
d25d
deec
eb68
1b11
017b
a337
b902
1e1b
9a08
92b9
d6db
4c0a
8805
a5bf
e074
c588
5059
9cf1
1795
7bc3
99c7
5df2
7942
99e4
0a7f
e3c7
2510
8b07
4a34
f8a0
208f
6c79
a3ce
f591
1b19
117e
e645
a9c0
c793
31ef
f1a3
6d0a
ae3a
c981
1965
300a
c9d4
57bd
ab4e
c72f
b072
104b
3937
338e
3677
051d
d28f
e022
e6ee
31bc
1c56
567e
85e5
a43f
6ec1
82f8
ef86
f71d
b857
7ebe
2ba8
3dc6
9cdd
0bb5
e72e
7a58
5bcb
40f8
88d3
59af
1ee2
963d
d0b0
cc05
3408
fc71
7ed1
6d28
f21d
1ffa
1788
6a9b
7003
afa2
7b47
d49c
0c0a
4d72
8763
b901
580a
f7fd
4d21
dcde
cd60
b088
ca8b
e601
601f
7db0
ae81
351d
2cf4
f38e
f866
a27f
1416
572d
624a
544e
a9cf
fd35
2acf
aa41
a34c
501d
5b07
e4c0
6e38
9b98
9a95
0f1d
9056
a04d
9f03
f644
f1b0
46a8
7127
fcb2
dd3d
4221
7f1c
682f
b5b6
e14e
7936
ae2b
9f2e
98d9
2a86
fd53
b345
f65a
49bc
93d1
e456
6a64
aa38
e999
9f9e
5f9b
ea89
82cd
05ff
21d4
37f8
304e
8911
9964
4a31
087e
da6b
ba14
d7ee
68b2
4efb
a9c4
bd98
ec68
7bfe
3e07
3b40
dae7
f14b
9b51
4ad4
f78a
e3c8
276e
7699
f572
303b
548d
7e35
74cb
871d
e310
9be3
ef1c
e62a
74be
3a11
b9e0
fc14
17f8
de92
420b
41cc
3ebe
7497
1e43
5451
909c
a934
582b
dae3
4f90
40d9
1b3c
dc40
f536
215c
b89d
c517
b8f6
5e7a
0710
f3f4
44d2
e5f1
a9b9
8c99
a87b
2114
a14d
10fd
7006
82e1
26d2
60e8
70ef
f290
470d
c09b
0544
4b5b
2d65
20f6
642e
bc63
0e92
4b17
bc92
a88f
5e8a
7994
5b6f
5b90
dd6d
e633
a3d1
093f
ef5e
66b6
8bf8
6db6
da0a
8458
900d
fb15
318d
a1bb
3654
f403
2418
9a15
0454
59b8
c194
220a
693e
39ab
a584
79ac
466d
3adf
00f0
8b92
f422
30b6
b031
c1f3
5d38
5f4f
6060
636e
b10e
c679
c01d
332c
0de5
efd3
6324
5ffb
fca6
d1c4
05e4
117f
8ca8
77bf
e8e3
abb2
b01f
3c1a
a952
0edf
3f6b
4e41
9c5d
533f
d981
833e
577e
06df
9947
affc
a33e
29ff
5b96
181d
4b7f
753b
da90
181c
5738
f787
4a0a
ddf2
c710
785d
86eb
be16
59d2
7a6c
ba68
2130
a911
09af
0bdf
b5fb
fe26
1351
7585
d6ad
a913
9098
8d45
8e86
d924
4c0e
abd9
8a2f
01ef
e83e
2a72
3a0f
962b
ee11
90a7
8925
46eb
9c10
bcc9
407b
4223
fc82
a912
6c16
78e3
1b4e
c504
5d25
db2b
221d
0394
41e6
61a8
0835
443c
c790
75e5
62f9
43f6
2d59
4cf4
7d87
7975
2d25
81af
f558
56a4
57cb
5cc3
ced8
9559
1319
1267
331a
3035
c522
03ce
d65d
8f77
76f6
ded5
1382
f45d
9fab
d0a3
b357
9ec7
6ea4
4e1d
479e
66f6
7b77
eb16
05d3
50b8
9779
c4f8
6a0f
c091
32c8
b041
5d7d
b141
2f04
6654
d1dd
df17
01ec
b5c5
91d2
6131
716c
b972
7426
706e
ea66
94b8
541f
2c60
9555
9609
7441
315d
f19e
2bdb
22b4
8928
e7be
c8c2
4a93
ba9c
aad3
b6a9
bde9
c3b8
7b61
3441
db2b
d5c1
6a29
24ab
9191
f768
9ea2
d3ce
f571
6a91
1bcc
e23d
d1c6
36b6
ae8a
f67d
64ac
e588
59d5
90a5
2e61
63d2
ab46
c5ae
589e
c90e
6836
38df
26e4
fa4d
98b1
09b9
3783
2c76
db54
ad64
3783
5810
9bcd
d127
983a
e046
00fa
f532
cf4e
037d
fd64
b53a
eb46
ed63
8368
1ed0
c6c1
9a4c
ec42
4d43
bc9e
fc88
0fe0
97e0
f659
dc97
8202
46f0
ec4f
c959
ba69
aea5
aded
4805
3613
e383
98e3
d052
d5c2
a85a
8dd6
238d
5983
bd84
bf29
0dd2
3eb2
60b4
a9c5
332a
a464
af82
c629
6ce1
a43c
1297
952a
ea6d
64a4
9594
01b2
9554
5f48
7659
9318
59b0
5f49
db6d
ffa3
0455
7e7c
b399
31dd
3a35
0a34
f1ac
d4f1
8854
2a5b
667e
f773
b0d5
5ac9
e59f
9f60
3070
89fe
7854
098e
e151
0ec0
f967
8898
4659
50a0
5d79
f28f
9824
bb67
23cc
00ab
e703
ce26
9f60
d6c3
58dc
49c3
a192
03f3
6070
a333
7056
ba1f
8633
9f1b
d713
0c03
a8c0
59b4
c08d
5cae
4e6e
c8f8
4a87
ddd4
5bd9
f661
61cd
c7fd
a413
9ca3
ea00
5a7f
aa46
9d38
814b
f61f
003e
a01c
e54b
f3cb
8c9b
5bb0
49b1
da0c
180b
f5bd
a232
e325
00c9
7c90
f03f
1564
c187
82af
43c9
f998
862d
cc22
2bdd
bef6
a44a
3f53
e63c
d6b4
2c1a
bf0f
9cf5
8b54
892b
b818
e096
5a1d
0b8f
488d
6fdb
23dc
3101
339a
fef4
cf1e
46d3
60aa
783c
a2ea
919f
4e19
21a2
7894
4829
43eb
541b
ee88
a6cc
b7a3
73a3
7904
da8c
91e2
da5d
37de
1c84
8441
50db
81c6
9ffe
c1ca
580c
a5b3
9312
df9e
7323
9b21
6b97
8d8b
4f2a
3e22
dc39
05ad
44c3
788b
3e55
bb9c
cb03
0c67
b328
5295
f88f
2c56
80b1
7634
82ab
59da
aea8
2178
406b
cc8c
9626
9587
c608
2a2f
0f42
3cb3
2b2d
5dcd
aa09
57db
6881
1f36
0d81
911e
9997
80cd
246e
35ef
5522
cc14
3b44
fa63
c2ae
5ae1
6c20
fac2
a206
b464
0666
0f41
2765
652f
7a9c
402e
aaf4
9b44
70cb
7706
7a4e
dff3
1ac8
5e7d
ee3e
625b
e970
44f4
7080
ec1e
65c5
89b0
960e
f88a
c5b7
4221
6809
1b0f
b9a6
059e
5a61
c1db
4f96
7599
ecb2
6445
6c8a
3d79
48b9
cf84
aed8
27a8
9a09
1894
6833
1965
91e5
56ad
7d9a
5bb4
d34c
baa8
27ad
fe80
63ac
53e5
7cd9
c0b5
d86f
6de6
be54
6ff9
0460
166b
3256
f246
89e4
65ef
9e22
4f2d
4641
3a1d
881c
87e3
bcee
867f
ed53
90db
1b61
beb0
3ef5
eac7
15a1
69fa
f842
4df4
76c5
89d5
e849
c484
3473
dccd
726f
4ce5
4bd9
7de0
eb60
11fd
3fb2
86f6
5618
ad83
56ff
fc48
66b5
30c4
16a9
6583
552f
270e
a59d
67b1
62f2
3680
e16f
1002
208f
9e57
0ae5
6e33
1ef9
57c0
af8c
61be
6978
f7a4
994a
988c
a0c3
49a5
361e
8899
b466
b2f0
5271
be0b
3a70
1cf1
cd4a
fc47
939d
c3e8
7672
58c4
4d96
047d
fd1d
cbe2
60fc
250a
8298
6363
495b
1d9b
d9d3
9e4a
2604
4e79
b3aa
9014
32ac
a08b
a719
9c96
3301
6936
c14b
e765
e625
bd04
71cc
aeeb
ddd7
7859
0138
b322
864e
cf47
59bf
4a20
1c79
9730
e2d8
189a
6494
f813
5c6a
c709
3862
c290
6fa4
0661
6844
2bb3
ecfa
e3c4
0aee
d430
45b7
8c0a
44f5
d995
0311
9fb2
6765
724b
e322
78e7
e4e4
c2fe
bb16
9d70
cbf4
04c8
bdc7
c262
d78a
4fc2
0f9f
7fc6
46ae
81e3
5360
9554
2255
857c
3526
ee45
4096
67a2
cc92
4150
8eea
1181
c8eb
7b82
42a3
f4a6
677e
abe1
c160
4239
faed
8bd4
9192
4909
4cef
f19d
82db
53da
9106
3f4f
2733
425c
0b52
9f32
1642
2453
9e3e
70f3
1f3d
60d6
53d7
dc62
4f48
a09e
bb0e
18e7
97c5
1002
58e7
fe46
4948
0e75
5e2b
5289
b3f7
1678
e701
234a
5dc7
086d
1f71
5e8c
39af
1c03
5bb8
517e
ad56
62c9
073d
add2
9c5b
65d4
bad3
ef9e
bdc1
2191
175e
2353
3ec4
caa3
f756
09f8
37c2
29bd
a471
6e54
4839
eefa
2737
bcad
1261
50ef
46a5
d912
5d05
a2d8
9168
fbbb
caae
943f
780d
f0c6
535b
a92b
98a4
c20c
fd58
197b
f0b3
0be3
c0da
5a38
a780
85f8
d3ed
f51e
c6f7
5178
bac5
d7d8
dd0c
241d
cd7c
2b5c
d202
ae5c
4535
baf5
2544
fd59
53ff
acb4
47e3
1d26
850a
30e1
594b
2e8a
02e2
422c
5253
fdf2
7730
9068
a807
3b85
6146
635b
1965
63d7
3ff5
8aa3
c8e4
3b54
3af6
ec90
5639
237c
146e
5fb1
62b3
bf04
31aa
acf2
4355
5b51
d0f7
ce30
3d8f
ffbc
a3ea
43ef
4a86
4bf9
11b4
3242
9d32
64bd
ecbf
3461
9981
5e80
e28b
658f
3960
c32d
7d60
6a7b
e2a1
6396
f9f7
1f39
f774
2859
b39d
5ba0
3440
18af
84be
b85d
e9a2
e180
3f3b
6580
fbb1
fb37
4d32
8ef1
9c7b
436c
c30b
a126
dbce
831c
6c06
6f96
b0d5
87bf
fb57
81a0
8796
480a
868b
3357
43bf
b78c
e18b
dcf8
d04c
1802
4b9b
9def
d2af
447d
4f15
d11c
9c30
7f48
e0f3
fbe0
e902
f438
d1e4
dcd4
9279
24ba
deeb
06d1
e1b3
bcef
c35e
4fe0
6420
2318
d12d
1aef
71df
294b
fcc4
bed9
ac97
544f
1f2c
060b
181b
be2c
deb7
24bc
7dbe
ad5b
c7f8
1e69
0129
d6cf
ace0
90a2
a8cb
3fb2
1d19
179a
351d
b43a
4027
d678
56fe
2d82
4d49
9898
4fca
4ac1
7a30
9f82
47db
26de
01d4
99d3
6879
9e49
d4d4
4a05
a83e
1bd5
0ef1
26fa
e0b7
36ea
5c4c
a0d8
7490
8787
6585
9a1c
6f3d
52bf
4d28
42bb
79e8
4bee
dac5
ba3d
1997
d5b0
ef01
7caa
4b51
50b5
7a9f
cdc5
b166
e503
bda8
a622
a42e
771e
e1b4
8b15
151f
e3e4
a205
cc02
2039
bc7a
daed
29f4
fd78
3bd5
c9f7
ac5e
3071
729c
da28
a113
2673
c28e
0465
b71c
d0c2
d966
84a8
4d25
1781
a41b
cc80
d5f4
cd6d
6e34
f084
499c
43b1
1050
fa6e
a0c0
8f60
a840
2dfa
1712
2361
4355
e9e6
7387
cacc
4b93
6eb4
2a28
f589
eae0
16fd
f3d8
43ac
5f51
0ab7
dec4
4833
5cc5
a4aa
2332
85d5
a961
6486
19b5
448c
c3b4
2110
7262
842c
7987
d77c
650e
5760
2b19
27f6
5b45
d1f7
fa3d
f426
601b
aa0b
f1c3
62fe
8119
0ef8
77ed
66d8
e978
629c
21e6
7303
0ae9
a2e0
0ad3
483a
0e5b
03bd
5b54
7863
4782
802e
921e
c6c3
616c
cc24
a0b1
f151
9d31
03dd
bda5
5c2c
c9b5
93f1
81e8
85ed
9949
c6be
7fb0
457a
61b9
0553
10ea
f454
5f77
6724
5405
dbd0
ee47
d044
7197
bc04
cd0a
2aac
35bc
a14f
5dc0
8a27
30fe
283f
6b04
ee93
90be
9e4b
dde7
c00e
5e69
49f8
8bb0
40e9
edf8
5f49
7e0b
2701
fd20
5637
25ca
a500
8a69
f96a
119b
a027
f878
d9ac
be9a
0ce2
f536
a462
2a71
44b5
e944
d869
61fb
abb9
eddb
2038
a26b
2738
9b2e
5f05
8561
f2ac
b934
c7ec
3ddd
56ea
8ff6
2b15
f58b
41a8
891d
7f4a
7c76
5267
88b6
1fbd
5e38
b2f8
0593
ac42
0ce7
c965
a8e8
0cfa
b965
a1e1
3213
b6d5
3628
151b
4c20
6e8e
1b76
17e0
21cd
9ec6
0c17
1bbb
b3ac
858c
1cd1
9b5c
06d7
1393
f69d
c702
0684
803c
10aa
b812
4bf6
d3d7
849e
3bd0
d430
8b4b
59b8
8741
47d2
d7c8
d741
cd59
5e11
5b82
d524
34a1
e358
52e7
10d9
a8f7
1fae
0e79
8c86
a250
2291
07cf
0e94
80d6
f602
41e2
0e20
c0e3
784b
1430
2338
ed1a
2c1e
3235
422f
9901
bc75
600b
24b9
e292
15ad
cb24
0f39
7100
6e74
413c
8db4
32da
885d
80d3
ddf1
3370
b163
613f
a60a
70c3
bdeb
089a
6acd
23dd
5ac4
01b6
1138
6894
4885
412f
5243
096f
bb42
0ef4
00dd
48a1
2a20
32db
e6e7
137b
66ee
7aea
d105
5cff
80bb
7541
3f52
f7ca
7251
1f59
5fb0
d88e
1948
87b0
cb0d
510b
aaf9
3fdf
f832
1f8f
e167
f7e2
2284
3252
911f
283c
3676
73a2
19a4
84ec
d8e9
8496
c9e4
2fc8
71bb
dec6
bab4
fc36
621b
542f
461a
5b77
6b86
233f
5a8d
d142
52b2
e82d
c90d
2ab5
a32f
9ca4
511d
e4eb
9f06
56eb
64c3
5745
e718
60bd
944d
3a2f
09c7
08de
a153
ccc1
9838
4458
7475
2552
b592
bda6
549a
ac93
5ed3
1810
332f
1dfd
21a4
b45d
d25c
d538
8458
425d
b527
9c70
2a7b
ed2f
bd78
e4cd
b0c3
c565
8558
7f85
ff9e
eebe
311d
bcc6
bf1f
a014
87fc
e925
57f9
09e2
24ee
6d9d
2134
f859
ba7b
3112
85d8
9757
3090
e2de
0eb0
2493
ff8a
aaef
bb40
cf1b
c82b
55e3
5c8c
fa3c
6be7
5d79
2bcb
9db4
0c78
a4e9
8a55
79d0
12a3
8e84
b615
4f0b
629d
62d2
d67e
da62
c45f
a11c
5f71
c002
6e31
55fb
d4ae
6608
94e8
5fe5
3ff9
abc5
37b2
eeda
8311
59a4
83a7
ce90
a4ad
d51a
8cac
ce13
a57d
73c1
f724
f05e
70e7
b43c
83e3
650d
9502
